
#ifdef __has_attribute
#define HAVE_ATTRIBUTE(x) __has_attribute(x)
#else
#define HAVE_ATTRIBUTE(x) 0
#endif
#if HAVE_ATTRIBUTE(aligned) || (defined(__GNUC__) && !defined(__clang__))
#define DATA_ALIGN_ATTRIBUTE __attribute__((aligned(4)))
#else
#define DATA_ALIGN_ATTRIBUTE
#endif

const unsigned char model_data[] DATA_ALIGN_ATTRIBUTE = {0x1c, 0x00, 0x00, 0x00, 0x54, 0x46, 0x4c, 0x33, 0x00, 0x00, 0x12, 0x00, 0x1c, 0x00, 0x04, 0x00, 0x08, 0x00, 0x0c, 0x00, 0x10, 0x00, 0x14, 0x00, 0x00, 0x00, 0x18, 0x00, 0x12, 0x00, 0x00, 0x00, 0x03, 0x00, 0x00, 0x00, 0x14, 0x00, 0x00, 0x00, 0x1c, 0x00, 0x00, 0x00, 0xa8, 0x00, 0x00, 0x00, 0x1c, 0x00, 0x00, 0x00, 0x50, 0x00, 0x00, 0x00, 0x02, 0x00, 0x00, 0x00, 0x58, 0x03, 0x00, 0x00, 0x6c, 0x01, 0x00, 0x00, 0x01, 0x00, 0x00, 0x00, 0xb0, 0x00, 0x00, 0x00, 0x0d, 0x00, 0x00, 0x00, 0xf8, 0x2a, 0x00, 0x00, 0xf4, 0x2a, 0x00, 0x00, 0x04, 0x2a, 0x00, 0x00, 0x8c, 0x25, 0x00, 0x00, 0x14, 0x25, 0x00, 0x00, 0x58, 0x24, 0x00, 0x00, 0x00, 0x10, 0x00, 0x00, 0xa8, 0x03, 0x00, 0x00, 0xd8, 0x2a, 0x00, 0x00, 0xd4, 0x2a, 0x00, 0x00, 0xd0, 0x2a, 0x00, 0x00, 0xcc, 0x2a, 0x00, 0x00, 0x38, 0x00, 0x00, 0x00, 0x01, 0x00, 0x00, 0x00, 0x0c, 0x00, 0x00, 0x00, 0x08, 0x00, 0x0c, 0x00, 0x04, 0x00, 0x08, 0x00, 0x08, 0x00, 0x00, 0x00, 0x08, 0x00, 0x00, 0x00, 0x0c, 0x00, 0x00, 0x00, 0x13, 0x00, 0x00, 0x00, 0x6d, 0x69, 0x6e, 0x5f, 0x72, 0x75, 0x6e, 0x74, 0x69, 0x6d, 0x65, 0x5f, 0x76, 0x65, 0x72, 0x73, 0x69, 0x6f, 0x6e, 0x00, 0x62, 0xd6, 0xff, 0xff, 0x04, 0x00, 0x00, 0x00, 0x10, 0x00, 0x00, 0x00, 0x31, 0x2e, 0x35, 0x2e, 0x30, 0x00, 0x00, 0x00, 0x00, 0x00, 0x00, 0x00, 0x00, 0x00, 0x00, 0x00, 0x0f, 0x00, 0x00, 0x00, 0x4d, 0x4c, 0x49, 0x52, 0x20, 0x43, 0x6f, 0x6e, 0x76, 0x65, 0x72, 0x74, 0x65, 0x64, 0x2e, 0x00, 0x00, 0x00, 0x0e, 0x00, 0x18, 0x00, 0x04, 0x00, 0x08, 0x00, 0x0c, 0x00, 0x10, 0x00, 0x14, 0x00, 0x0e, 0x00, 0x00, 0x00, 0x14, 0x00, 0x00, 0x00, 0x40, 0x00, 0x00, 0x00, 0x44, 0x00, 0x00, 0x00, 0x48, 0x00, 0x00, 0x00, 0x58, 0x00, 0x00, 0x00, 0x0b, 0x00, 0x00, 0x00, 0xe8, 0x29, 0x00, 0x00, 0x74, 0x29, 0x00, 0x00, 0xd8, 0x28, 0x00, 0x00, 0x6c, 0x24, 0x00, 0x00, 0x08, 0x24, 0x00, 0x00, 0x4c, 0x23, 0x00, 0x00, 0xf4, 0x0e, 0x00, 0x00, 0x70, 0x02, 0x00, 0x00, 0x94, 0x01, 0x00, 0x00, 0xf4, 0x00, 0x00, 0x00, 0x7c, 0x00, 0x00, 0x00, 0x01, 0x00, 0x00, 0x00, 0x00, 0x00, 0x00, 0x00, 0x01, 0x00, 0x00, 0x00, 0x0a, 0x00, 0x00, 0x00, 0x04, 0x00, 0x00, 0x00, 0xf8, 0x01, 0x00, 0x00, 0x3c, 0x01, 0x00, 0x00, 0xa0, 0x00, 0x00, 0x00, 0x1c, 0x00, 0x00, 0x00, 0x04, 0x00, 0x00, 0x00, 0x6d, 0x61, 0x69, 0x6e, 0x00, 0x00, 0x0e, 0x00, 0x18, 0x00, 0x08, 0x00, 0x0c, 0x00, 0x10, 0x00, 0x07, 0x00, 0x14, 0x00, 0x0e, 0x00, 0x00, 0x00, 0x00, 0x00, 0x00, 0x09, 0x01, 0x00, 0x00, 0x00, 0x1c, 0x00, 0x00, 0x00, 0x10, 0x00, 0x00, 0x00, 0x04, 0x00, 0x00, 0x00, 0x3e, 0xd7, 0xff, 0xff, 0x00, 0x00, 0x80, 0x3f, 0x01, 0x00, 0x00, 0x00, 0x0a, 0x00, 0x00, 0x00, 0x01, 0x00, 0x00, 0x00, 0x09, 0x00, 0x00, 0x00, 0x22, 0xfe, 0xff, 0xff, 0x00, 0x00, 0x00, 0x19, 0x01, 0x00, 0x00, 0x00, 0xd0, 0xd6, 0xff, 0xff, 0x14, 0x00, 0x00, 0x00, 0x0b, 0x00, 0x00, 0x00, 0x18, 0x00, 0x00, 0x00, 0x30, 0x00, 0x00, 0x00, 0x20, 0x00, 0x00, 0x00, 0x02, 0x00, 0x00, 0x00, 0x01, 0x00, 0x00, 0x00, 0x03, 0x00, 0x00, 0x00, 0x08, 0x00, 0x00, 0x00, 0x49, 0x64, 0x65, 0x6e, 0x74, 0x69, 0x74, 0x79, 0x00, 0x00, 0x00, 0x00, 0x02, 0x00, 0x00, 0x00, 0xff, 0xff, 0xff, 0xff, 0x03, 0x00, 0x00, 0x00, 0xb4, 0xd6, 0xff, 0xff, 0x76, 0xff, 0xff, 0xff, 0x00, 0x00, 0x00, 0x08, 0x18, 0x00, 0x00, 0x00, 0x0c, 0x00, 0x00, 0x00, 0x04, 0x00, 0x00, 0x00, 0xcc, 0xd6, 0xff, 0xff, 0x01, 0x00, 0x00, 0x00, 0x09, 0x00, 0x00, 0x00, 0x03, 0x00, 0x00, 0x00, 0x08, 0x00, 0x00, 0x00, 0x06, 0x00, 0x00, 0x00, 0x03, 0x00, 0x00, 0x00, 0x44, 0xd7, 0xff, 0xff, 0x14, 0x00, 0x00, 0x00, 0x0a, 0x00, 0x00, 0x00, 0x18, 0x00, 0x00, 0x00, 0x44, 0x00, 0x00, 0x00, 0x34, 0x00, 0x00, 0x00, 0x02, 0x00, 0x00, 0x00, 0x01, 0x00, 0x00, 0x00, 0x03, 0x00, 0x00, 0x00, 0x1e, 0x00, 0x00, 0x00, 0x53, 0x65, 0x71, 0x75, 0x65, 0x6e, 0x74, 0x69, 0x61, 0x6c, 0x2d, 0x4e, 0x4e, 0x2f, 0x64, 0x65, 0x6e, 0x73, 0x65, 0x5f, 0x33, 0x35, 0x2f, 0x42, 0x69, 0x61, 0x73, 0x41, 0x64, 0x64, 0x00, 0x00, 0x02, 0x00, 0x00, 0x00, 0xff, 0xff, 0xff, 0xff, 0x03, 0x00, 0x00, 0x00, 0x34, 0xd8, 0xff, 0xff, 0x00, 0x00, 0x0e, 0x00, 0x14, 0x00, 0x00, 0x00, 0x08, 0x00, 0x0c, 0x00, 0x07, 0x00, 0x10, 0x00, 0x0e, 0x00, 0x00, 0x00, 0x00, 0x00, 0x00, 0x08, 0x1c, 0x00, 0x00, 0x00, 0x10, 0x00, 0x00, 0x00, 0x04, 0x00, 0x00, 0x00, 0x46, 0xff, 0xff, 0xff, 0x00, 0x00, 0x00, 0x01, 0x01, 0x00, 0x00, 0x00, 0x08, 0x00, 0x00, 0x00, 0x03, 0x00, 0x00, 0x00, 0x07, 0x00, 0x00, 0x00, 0x05, 0x00, 0x00, 0x00, 0x02, 0x00, 0x00, 0x00, 0xe0, 0xd7, 0xff, 0xff, 0x14, 0x00, 0x00, 0x00, 0x09, 0x00, 0x00, 0x00, 0x18, 0x00, 0x00, 0x00, 0x60, 0x00, 0x00, 0x00, 0x50, 0x00, 0x00, 0x00, 0x02, 0x00, 0x00, 0x00, 0x01, 0x00, 0x00, 0x00, 0x00, 0x01, 0x00, 0x00, 0x3a, 0x00, 0x00, 0x00, 0x53, 0x65, 0x71, 0x75, 0x65, 0x6e, 0x74, 0x69, 0x61, 0x6c, 0x2d, 0x4e, 0x4e, 0x2f, 0x64, 0x65, 0x6e, 0x73, 0x65, 0x5f, 0x33, 0x34, 0x2f, 0x52, 0x65, 0x6c, 0x75, 0x3b, 0x53, 0x65, 0x71, 0x75, 0x65, 0x6e, 0x74, 0x69, 0x61, 0x6c, 0x2d, 0x4e, 0x4e, 0x2f, 0x64, 0x65, 0x6e, 0x73, 0x65, 0x5f, 0x33, 0x34, 0x2f, 0x42, 0x69, 0x61, 0x73, 0x41, 0x64, 0x64, 0x00, 0x00, 0x02, 0x00, 0x00, 0x00, 0xff, 0xff, 0xff, 0xff, 0x00, 0x01, 0x00, 0x00, 0xec, 0xd8, 0xff, 0xff, 0x00, 0x00, 0x0e, 0x00, 0x16, 0x00, 0x00, 0x00, 0x08, 0x00, 0x0c, 0x00, 0x07, 0x00, 0x10, 0x00, 0x0e, 0x00, 0x00, 0x00, 0x00, 0x00, 0x00, 0x08, 0x24, 0x00, 0x00, 0x00, 0x18, 0x00, 0x00, 0x00, 0x0c, 0x00, 0x00, 0x00, 0x00, 0x00, 0x06, 0x00, 0x08, 0x00, 0x07, 0x00, 0x06, 0x00, 0x00, 0x00, 0x00, 0x00, 0x00, 0x01, 0x01, 0x00, 0x00, 0x00, 0x07, 0x00, 0x00, 0x00, 0x03, 0x00, 0x00, 0x00, 0x00, 0x00, 0x00, 0x00, 0x04, 0x00, 0x00, 0x00, 0x01, 0x00, 0x00, 0x00, 0x00, 0x00, 0x0a, 0x00, 0x0c, 0x00, 0x07, 0x00, 0x00, 0x00, 0x08, 0x00, 0x0a, 0x00, 0x00, 0x00, 0x00, 0x00, 0x00, 0x09, 0x01, 0x00, 0x00, 0x00, 0xb8, 0xd8, 0xff, 0xff, 0x14, 0x00, 0x00, 0x00, 0x08, 0x00, 0x00, 0x00, 0x18, 0x00, 0x00, 0x00, 0x60, 0x00, 0x00, 0x00, 0x50, 0x00, 0x00, 0x00, 0x02, 0x00, 0x00, 0x00, 0x01, 0x00, 0x00, 0x00, 0x05, 0x00, 0x00, 0x00, 0x3a, 0x00, 0x00, 0x00, 0x53, 0x65, 0x71, 0x75, 0x65, 0x6e, 0x74, 0x69, 0x61, 0x6c, 0x2d, 0x4e, 0x4e, 0x2f, 0x64, 0x65, 0x6e, 0x73, 0x65, 0x5f, 0x33, 0x33, 0x2f, 0x52, 0x65, 0x6c, 0x75, 0x3b, 0x53, 0x65, 0x71, 0x75, 0x65, 0x6e, 0x74, 0x69, 0x61, 0x6c, 0x2d, 0x4e, 0x4e, 0x2f, 0x64, 0x65, 0x6e, 0x73, 0x65, 0x5f, 0x33, 0x33, 0x2f, 0x42, 0x69, 0x61, 0x73, 0x41, 0x64, 0x64, 0x00, 0x00, 0x02, 0x00, 0x00, 0x00, 0xff, 0xff, 0xff, 0xff, 0x05, 0x00, 0x00, 0x00, 0xcc, 0xd8, 0xff, 0xff, 0xbe, 0xd9, 0xff, 0xff, 0x04, 0x00, 0x00, 0x00, 0x00, 0x0c, 0x00, 0x00, 0x12, 0xaa, 0x8c, 0x3d, 0x00, 0x47, 0x97, 0xbd, 0x88, 0xaa, 0x08, 0xbe, 0xf0, 0x53, 0x10, 0xbc, 0xfb, 0x2e, 0x0b, 0x3e, 0x95, 0x6a, 0x2c, 0xbc, 0x8e, 0x31, 0xb8, 0xbd, 0x4e, 0x20, 0x8a, 0xbd, 0x00, 0xa7, 0xc0, 0xbc, 0x88, 0x1e, 0xf6, 0xbd, 0x1e, 0xc3, 0x02, 0xbd, 0x9e, 0xfa, 0x0d, 0x3e, 0xbc, 0x76, 0x0e, 0xbe, 0x03, 0xc9, 0x39, 0xbd, 0x7a, 0xeb, 0x48, 0xbd, 0x72, 0x6b, 0x7f, 0xbc, 0x40, 0x03, 0x29, 0xbb, 0x8e, 0x01, 0x8b, 0x3d, 0x37, 0x7f, 0x18, 0x3e, 0xe0, 0x08, 0x8d, 0xbd, 0x5e, 0x81, 0xbf, 0xbd, 0x1c, 0x30, 0xe8, 0x3d, 0xe6, 0x2e, 0x0f, 0x3e, 0xd5, 0x6a, 0x80, 0x3d, 0xa6, 0x8a, 0x19, 0x3e, 0xb1, 0x62, 0xac, 0x3e, 0xc3, 0xb4, 0x23, 0xbd, 0x23, 0xe3, 0x57, 0xbd, 0x70, 0xab, 0xd7, 0x3b, 0xb1, 0xb6, 0x3a, 0x3a, 0x40, 0x17, 0x4a, 0x3b, 0x59, 0x72, 0x89, 0xbd, 0x81, 0xfe, 0xa9, 0x3d, 0xdb, 0xed, 0x98, 0x3d, 0x39, 0x33, 0x79, 0xbd, 0x15, 0x98, 0xc8, 0x3d, 0xd9, 0x9c, 0x8c, 0xbd, 0xc4, 0x40, 0xe8, 0x3d, 0x8a, 0xbb, 0x5a, 0x3e, 0xa9, 0xd7, 0x94, 0xbd, 0x50, 0xcc, 0x4d, 0xbc, 0xd6, 0xcd, 0x20, 0x3d, 0x54, 0x8b, 0xdf, 0x3d, 0xfa, 0x9f, 0xdd, 0xbd, 0x28, 0x0b, 0x9c, 0x3d, 0x88, 0x0e, 0xf2, 0x3c, 0x20, 0x98, 0xe3, 0x3e, 0xae, 0x1f, 0x55, 0xba, 0x9e, 0x64, 0xf2, 0xbd, 0x9c, 0xe0, 0x14, 0xbe, 0x10, 0x98, 0x5c, 0xbc, 0x1b, 0x9c, 0x0c, 0xbe, 0xfd, 0x9b, 0xdc, 0xbd, 0x20, 0xc2, 0xf1, 0xbd, 0xb3, 0xeb, 0xf3, 0xbd, 0x5e, 0x25, 0x06, 0xbe, 0xe0, 0x5a, 0x03, 0xbe, 0x52, 0x26, 0x14, 0xbc, 0x00, 0x5f, 0x05, 0xbb, 0xa1, 0x20, 0x0b, 0xbc, 0x84, 0xd9, 0x09, 0xbe, 0x11, 0x91, 0xad, 0x3d, 0xa9, 0x7a, 0xf6, 0xbd, 0x9a, 0x82, 0x31, 0xbd, 0xbd, 0x14, 0x10, 0x3e, 0x2c, 0x9c, 0x09, 0x3d, 0x9a, 0xd8, 0xff, 0x3d, 0x73, 0x39, 0x88, 0x3c, 0x30, 0x43, 0xde, 0xbd, 0x79, 0x32, 0x7a, 0x3d, 0xb6, 0xf2, 0x07, 0xbe, 0x8e, 0xc7, 0x0b, 0x3e, 0xaa, 0xb2, 0x1c, 0x3c, 0x3d, 0xbc, 0x22, 0xbd, 0x06, 0xf3, 0x3d, 0xbd, 0x16, 0xb4, 0x4c, 0x3e, 0xaf, 0x77, 0xa4, 0xbd, 0xc0, 0x2e, 0xc2, 0xbb, 0x23, 0xfa, 0x05, 0xbe, 0x40, 0xb0, 0x37, 0x3b, 0x7c, 0xd2, 0x7b, 0x3d, 0x71, 0x83, 0x7a, 0xbd, 0x0e, 0xe2, 0x13, 0xbe, 0xa5, 0xf5, 0x42, 0xbd, 0x72, 0x4e, 0x7e, 0x3d, 0x85, 0x0c, 0xd2, 0x3d, 0x23, 0xcd, 0x0e, 0x3e, 0xaa, 0x6f, 0x00, 0x3e, 0x34, 0xa9, 0xe2, 0xbd, 0xd7, 0x7f, 0x0f, 0xbe, 0x0f, 0x86, 0xbf, 0x3c, 0x7c, 0xed, 0xc1, 0x3d, 0xd2, 0xfb, 0x15, 0xbe, 0x17, 0xec, 0xb0, 0xbd, 0x16, 0x14, 0x0d, 0xbe, 0x16, 0x7d, 0x19, 0xbe, 0x30, 0x1d, 0x15, 0xbe, 0x49, 0x90, 0xa5, 0xbd, 0x64, 0x41, 0x6f, 0xbd, 0xf2, 0xe0, 0xb2, 0xbb, 0xf0, 0x6f, 0xd2, 0xbd, 0x32, 0x5f, 0x10, 0x3e, 0x31, 0xa0, 0xc1, 0xbd, 0x44, 0x93, 0x19, 0x3b, 0xda, 0xab, 0x98, 0xbd, 0xc3, 0x1d, 0x8b, 0x3d, 0xa0, 0x61, 0x15, 0x3e, 0x20, 0x3c, 0xcf, 0x3b, 0xf3, 0xc7, 0xf4, 0xbb, 0x70, 0xcb, 0x39, 0x3c, 0x70, 0x49, 0x52, 0xbc, 0xdd, 0x66, 0x4e, 0x3d, 0x70, 0x03, 0x69, 0x3c, 0x7c, 0xe5, 0x04, 0xbe, 0x6d, 0x87, 0x16, 0xbe, 0x14, 0x2e, 0x8a, 0xbd, 0x78, 0x99, 0x5c, 0x3d, 0xf1, 0x42, 0x79, 0x3e, 0x90, 0x6e, 0x35, 0xbc, 0xf4, 0x20, 0xc9, 0x3d, 0x80, 0xf5, 0x21, 0x3b, 0x6d, 0x32, 0x81, 0xbd, 0x00, 0xb5, 0x62, 0xba, 0x00, 0x4b, 0xeb, 0x3d, 0x41, 0x71, 0x4d, 0x3d, 0x28, 0x7e, 0x3a, 0x3e, 0x41, 0xce, 0xa7, 0x3d, 0x5e, 0xb5, 0x83, 0x3d, 0x22, 0x12, 0x9a, 0x3d, 0xe1, 0xd5, 0x82, 0xbd, 0x0c, 0x2c, 0xe6, 0x3c, 0xd2, 0x96, 0xbb, 0x3d, 0xea, 0xcc, 0x05, 0x3f, 0xea, 0x40, 0xf5, 0x3c, 0xf0, 0x3c, 0x53, 0x3d, 0xd9, 0x6a, 0x0e, 0xbe, 0x4c, 0x94, 0xba, 0xbc, 0x34, 0x30, 0xc7, 0xbd, 0x7f, 0x88, 0xd9, 0xbd, 0xb9, 0xc6, 0xbc, 0x3d, 0xb8, 0xe3, 0x15, 0x3e, 0x59, 0x88, 0xb1, 0xbd, 0xc4, 0xf3, 0x3c, 0x3d, 0xb3, 0x48, 0xc9, 0x3d, 0xe6, 0x9b, 0x0e, 0xbe, 0x82, 0x34, 0x8b, 0x3d, 0xe4, 0x7f, 0xd7, 0xbd, 0x33, 0xe8, 0x90, 0xbc, 0x76, 0x83, 0xc7, 0xbd, 0xbe, 0xbe, 0x18, 0x3e, 0x26, 0x2a, 0x95, 0xbd, 0xbf, 0x0b, 0x18, 0xbe, 0x6b, 0x7c, 0xc7, 0x3e, 0xe4, 0x42, 0xd9, 0xbc, 0x50, 0x6f, 0x92, 0xbc, 0xac, 0xf5, 0x40, 0x3e, 0x94, 0xe4, 0xb0, 0x3d, 0x5b, 0x74, 0xc7, 0xbc, 0xb1, 0x7d, 0x0d, 0xbc, 0xc4, 0x65, 0xbb, 0x3d, 0x5b, 0x6b, 0x8b, 0x3b, 0xd4, 0x67, 0x0b, 0x3e, 0x30, 0xf0, 0x75, 0xbd, 0x5a, 0x0e, 0x9d, 0xbd, 0x68, 0x80, 0x9e, 0x3c, 0xb0, 0x63, 0x58, 0xbc, 0x3d, 0xc3, 0xcd, 0xba, 0x73, 0x96, 0x8d, 0xbd, 0x14, 0x67, 0xf1, 0xbd, 0x4e, 0x44, 0x0e, 0x3d, 0x2c, 0x04, 0x18, 0x3d, 0xde, 0xae, 0x18, 0x3e, 0x5c, 0xe4, 0x2d, 0x3d, 0x1a, 0x32, 0xf1, 0xbd, 0xce, 0xb7, 0x16, 0x3e, 0x80, 0xaf, 0xa0, 0x3d, 0x81, 0x45, 0x9a, 0xbd, 0x70, 0xc3, 0xbc, 0x3d, 0x1d, 0x41, 0x8d, 0xbd, 0x18, 0x2d, 0x74, 0x3d, 0xa1, 0x88, 0x6c, 0xbd, 0x23, 0x76, 0x25, 0xbe, 0x8f, 0x33, 0xf6, 0x3d, 0xc6, 0x7a, 0xe4, 0xbd, 0x02, 0x43, 0x9c, 0x3d, 0xf8, 0x50, 0xbb, 0xbd, 0x1f, 0xba, 0x9c, 0xbc, 0xc4, 0x6a, 0xf9, 0x3d, 0x67, 0xe6, 0xb3, 0xbd, 0x81, 0xbb, 0x99, 0x3c, 0xba, 0xa7, 0x66, 0xbd, 0xf8, 0x06, 0xf7, 0x3d, 0x6e, 0x11, 0xcf, 0xbd, 0x8c, 0x3c, 0xd9, 0x3d, 0x60, 0x6d, 0xd0, 0x3d, 0x20, 0xe3, 0xba, 0x3d, 0x52, 0x69, 0x91, 0x3d, 0x92, 0xd3, 0xea, 0xbd, 0xc3, 0x82, 0xe1, 0xbd, 0xc4, 0x0e, 0x03, 0x3e, 0x5b, 0x40, 0x8d, 0x3d, 0x87, 0x07, 0x15, 0x3d, 0x05, 0x34, 0xf9, 0xbd, 0xc1, 0x9c, 0x08, 0x3e, 0x4e, 0xa8, 0x8a, 0xbd, 0xc8, 0x22, 0x96, 0xbd, 0xf4, 0xed, 0xb3, 0x3d, 0x88, 0x14, 0x82, 0xbc, 0xf1, 0x42, 0x66, 0xbc, 0x92, 0x88, 0x37, 0x3d, 0x31, 0x1b, 0xa5, 0xbd, 0x7b, 0xae, 0x94, 0xbd, 0x5f, 0x6c, 0x7f, 0x3e, 0x4f, 0xdc, 0x00, 0xbe, 0x76, 0xe2, 0x11, 0xbe, 0x64, 0xb3, 0xa1, 0x3a, 0x3d, 0x1f, 0x04, 0xbe, 0xa2, 0x32, 0xc9, 0xbd, 0x85, 0x89, 0x3e, 0xbd, 0x9e, 0x54, 0xe2, 0x3c, 0x8d, 0xb9, 0xcd, 0xbd, 0x75, 0xb1, 0x14, 0x3e, 0x74, 0x19, 0x26, 0x3d, 0x52, 0x89, 0x06, 0x3e, 0x5f, 0x4f, 0xb0, 0x3d, 0x95, 0xff, 0xa0, 0xbd, 0x13, 0x7f, 0x7a, 0x3c, 0x67, 0x37, 0xa2, 0xbc, 0xe4, 0x27, 0x15, 0xbe, 0xa3, 0x96, 0x33, 0xbd, 0x49, 0xc5, 0x7b, 0x3d, 0x9b, 0x91, 0xcb, 0x3d, 0x64, 0xe5, 0x0e, 0xbe, 0xff, 0xc9, 0xa5, 0xbd, 0x22, 0xbb, 0xbd, 0x3d, 0x4c, 0x72, 0x1c, 0xbe, 0x98, 0x6f, 0x0d, 0xbd, 0x5c, 0x27, 0xfc, 0x3d, 0xcc, 0xb6, 0xd4, 0xbd, 0x86, 0x47, 0xd1, 0xbd, 0x7a, 0xb6, 0xce, 0xbd, 0x2f, 0x7a, 0xdd, 0x39, 0x20, 0xc4, 0x07, 0xbd, 0xef, 0x14, 0xb0, 0xbd, 0x25, 0x12, 0x0f, 0xbe, 0xfd, 0x5e, 0x66, 0xbd, 0x22, 0x75, 0x2c, 0xbd, 0xae, 0xc8, 0x22, 0xbb, 0xc0, 0x99, 0x9c, 0xbc, 0xa4, 0xcd, 0x31, 0xbd, 0x03, 0x40, 0x8e, 0x3d, 0xbc, 0x34, 0xf4, 0xbd, 0xdb, 0x8e, 0xae, 0xbc, 0x0d, 0x88, 0xde, 0xbd, 0x90, 0xd9, 0xc5, 0xbc, 0x63, 0xf9, 0x13, 0xbe, 0x69, 0x34, 0xdf, 0x3c, 0x05, 0xa1, 0x2b, 0xbc, 0x64, 0x4a, 0x16, 0xbe, 0x98, 0x68, 0x71, 0x3d, 0x3c, 0x97, 0xb4, 0xbd, 0xe2, 0x29, 0xd9, 0x3d, 0xd8, 0x06, 0x9e, 0x3d, 0x03, 0xda, 0xe6, 0x3d, 0x40, 0x5f, 0xf3, 0x3d, 0x11, 0xa3, 0xb9, 0xbd, 0x99, 0x6f, 0xeb, 0xbd, 0xa1, 0xcc, 0xac, 0x3d, 0xc0, 0x43, 0xfd, 0xbb, 0xd1, 0x1a, 0x9b, 0xbd, 0xc4, 0xf7, 0xe6, 0xbd, 0x3a, 0xd6, 0x5c, 0x3d, 0xfe, 0x52, 0x92, 0xbd, 0x08, 0x19, 0xc2, 0xbd, 0xbc, 0x7d, 0x03, 0x3e, 0xf1, 0x01, 0x30, 0x3c, 0xd0, 0x8e, 0x64, 0xbc, 0xb0, 0x50, 0x9d, 0x3c, 0x4d, 0xd1, 0x03, 0xbe, 0x3c, 0xee, 0x86, 0x3d, 0xef, 0xe7, 0x02, 0x3e, 0x52, 0xa5, 0xcf, 0xbd, 0x69, 0xd3, 0x0f, 0x3e, 0x14, 0xdf, 0x07, 0x3e, 0x48, 0x48, 0x91, 0xbd, 0x5b, 0x59, 0x63, 0x3d, 0x74, 0xb0, 0x02, 0x3e, 0x6e, 0x18, 0x18, 0xbd, 0xc5, 0x8f, 0xae, 0xbd, 0x09, 0xa9, 0x0c, 0xbe, 0x33, 0x66, 0x09, 0x3e, 0xd8, 0xf3, 0xb5, 0xbd, 0xb8, 0x31, 0x98, 0x3d, 0xde, 0x68, 0xc7, 0x3d, 0xc6, 0x9f, 0xc1, 0xbd, 0xc8, 0xf9, 0x5a, 0x3c, 0x26, 0x18, 0x19, 0x3e, 0x1d, 0x91, 0x4e, 0x3d, 0x08, 0x37, 0xaf, 0xbc, 0x6c, 0xd3, 0x96, 0x3d, 0x38, 0x64, 0x54, 0xbc, 0x24, 0x45, 0x09, 0xbd, 0xa6, 0xbb, 0xbd, 0xbe, 0x36, 0x86, 0x92, 0xbd, 0x7e, 0x2d, 0xb8, 0x3d, 0x5c, 0x0f, 0x5e, 0xbd, 0x60, 0x75, 0x94, 0x3c, 0x60, 0x30, 0xaa, 0x3b, 0x98, 0x54, 0xcf, 0x3d, 0x8f, 0x1e, 0xa5, 0x3d, 0x96, 0x95, 0x51, 0xbd, 0x0a, 0xa1, 0x62, 0x3c, 0xb6, 0xd4, 0x77, 0x3a, 0x23, 0x41, 0xf0, 0xbd, 0xfa, 0x52, 0x1b, 0x3e, 0x37, 0x2c, 0xa4, 0xbb, 0xea, 0x91, 0xf2, 0xbd, 0x05, 0xe9, 0xcf, 0xbd, 0x44, 0x35, 0x0e, 0xbe, 0xf8, 0x09, 0xad, 0x3d, 0x64, 0xfb, 0x72, 0x3d, 0x9e, 0xe5, 0x7e, 0xbd, 0xc9, 0x8c, 0x8f, 0xbc, 0x67, 0x4b, 0x7b, 0xbe, 0x47, 0xad, 0x0f, 0x3e, 0x45, 0xc4, 0x8a, 0x3d, 0x22, 0x18, 0x7e, 0xbd, 0x8e, 0x94, 0x35, 0xbd, 0xfb, 0xc4, 0xe5, 0x3d, 0x28, 0x1b, 0x89, 0x3d, 0x80, 0xf9, 0xe0, 0x3d, 0xab, 0xd3, 0x09, 0xbe, 0xd5, 0x0a, 0xb2, 0x3d, 0x62, 0x2a, 0x50, 0xbd, 0x04, 0xbb, 0x96, 0xbd, 0x88, 0xcf, 0x07, 0x3e, 0x40, 0xfe, 0x19, 0xbd, 0x02, 0xc8, 0x3e, 0xbc, 0xd2, 0x6b, 0x88, 0x3c, 0xce, 0xa6, 0x03, 0xbe, 0xec, 0x97, 0xcd, 0x3d, 0x85, 0x69, 0x01, 0xbe, 0xfb, 0x42, 0x20, 0x3d, 0x48, 0xe1, 0x93, 0x3c, 0xba, 0x42, 0x24, 0xbd, 0x86, 0x94, 0x88, 0xbd, 0x7b, 0x5f, 0x0d, 0x3e, 0x08, 0x4c, 0xb0, 0x3c, 0x3c, 0x0a, 0x2a, 0x3d, 0xaa, 0x7d, 0xef, 0xbd, 0xdc, 0xe6, 0xb6, 0xbb, 0x96, 0x0a, 0x3e, 0x3d, 0x51, 0x88, 0x09, 0xbe, 0xd8, 0xe2, 0xc2, 0x3c, 0xda, 0x6b, 0x91, 0xbd, 0xf4, 0xf4, 0xb4, 0xbd, 0xff, 0xfe, 0x85, 0x3a, 0xa0, 0xea, 0x3d, 0x3c, 0x95, 0x2b, 0x0e, 0xbc, 0x23, 0xb3, 0x95, 0x3d, 0x9c, 0xb7, 0x0d, 0xbe, 0x5d, 0xe2, 0x93, 0xbd, 0x1b, 0x69, 0x94, 0xbd, 0xc6, 0x61, 0x3d, 0xbd, 0xfc, 0xf1, 0x2b, 0xbc, 0x96, 0x40, 0x11, 0x3e, 0x40, 0xd4, 0x10, 0x3c, 0x92, 0xd8, 0x10, 0xbd, 0x40, 0xbd, 0x12, 0xbb, 0x38, 0xb5, 0x1e, 0xbc, 0x3c, 0xa4, 0xf7, 0x3d, 0xcf, 0x94, 0xe5, 0xbb, 0x80, 0x03, 0xb2, 0x3d, 0x7d, 0x1a, 0x93, 0x3d, 0x44, 0xe5, 0xdd, 0x3d, 0xd0, 0x95, 0x8c, 0xbc, 0xe1, 0x49, 0xfa, 0xbd, 0xe9, 0xa0, 0x01, 0x3d, 0x38, 0xd5, 0xd8, 0x3c, 0x35, 0x29, 0x10, 0xbe, 0x39, 0xa1, 0xc4, 0xbd, 0xcd, 0xc8, 0x88, 0xbe, 0x29, 0xfe, 0x37, 0xbd, 0x00, 0xc8, 0x9b, 0xb8, 0x92, 0x70, 0x82, 0x3b, 0xce, 0x5a, 0xfd, 0x3d, 0x97, 0xae, 0x06, 0x3d, 0xb4, 0x22, 0xc3, 0xbc, 0xa4, 0x4a, 0x03, 0xbe, 0xbc, 0xb8, 0x3e, 0xbd, 0x00, 0x20, 0xb2, 0x37, 0x87, 0x1f, 0x48, 0xbd, 0x39, 0x4d, 0xb2, 0x3d, 0xa0, 0x8f, 0xe0, 0x3d, 0x92, 0x58, 0xbd, 0x3d, 0x2f, 0xad, 0x40, 0x3d, 0xaa, 0x8e, 0xbf, 0x3d, 0x78, 0x0d, 0x1b, 0x3e, 0x6c, 0x3b, 0xab, 0xbd, 0x8d, 0xb6, 0xde, 0x3d, 0x17, 0x4c, 0xe6, 0xbd, 0x00, 0xbf, 0x84, 0x3a, 0x4c, 0x56, 0x5d, 0xbd, 0x68, 0xd2, 0xa3, 0x3d, 0x84, 0x7f, 0x93, 0x3d, 0xbc, 0x77, 0x08, 0x3d, 0x78, 0x20, 0xfb, 0x3d, 0x20, 0xd7, 0x62, 0x3c, 0x9e, 0xc8, 0xb3, 0xbd, 0x6c, 0x3a, 0xfe, 0xbd, 0xdb, 0x15, 0xc3, 0xbc, 0x53, 0xf4, 0xa6, 0xbd, 0xb8, 0x24, 0xbf, 0xbc, 0xe6, 0xe2, 0x99, 0x3b, 0x85, 0x8b, 0xb7, 0x3d, 0x64, 0xa3, 0xad, 0x3d, 0x1f, 0x3c, 0xce, 0xbc, 0x2f, 0xc1, 0x02, 0xbe, 0xcb, 0xcc, 0xd5, 0x3d, 0xd3, 0x30, 0x00, 0xbe, 0x2c, 0xa9, 0x76, 0xbd, 0xb5, 0x92, 0x43, 0xbd, 0xb5, 0x95, 0xa3, 0x3d, 0x9d, 0xc8, 0xbc, 0xbd, 0x48, 0xf7, 0xde, 0xbc, 0x58, 0x68, 0x0c, 0xbe, 0x4c, 0x65, 0xca, 0x3d, 0x01, 0x56, 0x2e, 0x3d, 0xe0, 0xe5, 0xdd, 0x3b, 0x28, 0x25, 0x3c, 0xbd, 0xbb, 0x71, 0xe5, 0x3d, 0x96, 0xad, 0xaa, 0x3d, 0x08, 0x32, 0x8a, 0x3c, 0x63, 0x61, 0xa2, 0xbd, 0xa8, 0x84, 0x8e, 0x3c, 0x56, 0x59, 0x14, 0x3e, 0xd6, 0x4f, 0xb9, 0xbd, 0x9e, 0xc7, 0xdb, 0x3d, 0xdc, 0xd1, 0x1e, 0xbd, 0xd0, 0x2e, 0x9c, 0xbc, 0x84, 0x02, 0x6d, 0x3d, 0x08, 0x1f, 0x9a, 0xbd, 0x3e, 0x1d, 0x94, 0x3d, 0x5e, 0x1d, 0xb6, 0x3d, 0xdc, 0xa4, 0xd4, 0xbd, 0x75, 0xba, 0xe0, 0xbd, 0x90, 0x69, 0xc6, 0x3c, 0xc2, 0x4e, 0x05, 0xbe, 0xc2, 0x16, 0xe0, 0xbd, 0x00, 0x1d, 0x0f, 0x3d, 0x6e, 0xfb, 0x13, 0x3e, 0x83, 0xa7, 0x54, 0x3d, 0xcf, 0x6c, 0x17, 0xbe, 0x21, 0xac, 0xab, 0xbd, 0x5b, 0x72, 0x55, 0xbc, 0xac, 0xf9, 0x2d, 0xbd, 0x67, 0x82, 0x4b, 0xbc, 0x95, 0x5e, 0xae, 0xbd, 0x03, 0xd6, 0xad, 0xbd, 0x94, 0xc3, 0xd6, 0xbd, 0xc4, 0x0a, 0x05, 0x3e, 0xd9, 0xb5, 0xb7, 0xbd, 0xd0, 0x0c, 0x98, 0x3d, 0xe0, 0x23, 0xd2, 0xbb, 0x05, 0x68, 0xd9, 0x3c, 0x54, 0x36, 0x87, 0xbd, 0x88, 0xa8, 0x0e, 0x3d, 0xe4, 0x45, 0xcc, 0x3d, 0x4d, 0xcc, 0xe2, 0xbd, 0xc7, 0x45, 0xc7, 0xbd, 0xe6, 0xb6, 0xa9, 0x3d, 0xbc, 0x87, 0x30, 0xbd, 0x67, 0x68, 0x63, 0x3e, 0x78, 0xd3, 0x11, 0xbd, 0xeb, 0x87, 0xc3, 0x3d, 0x34, 0x68, 0x90, 0xbc, 0xc0, 0x48, 0x45, 0x3d, 0x10, 0xcb, 0x81, 0xbc, 0xe0, 0x8e, 0x5b, 0xbb, 0xdb, 0x9c, 0xea, 0xbd, 0x89, 0xa2, 0xaf, 0x3d, 0x84, 0x40, 0x6b, 0xbd, 0x4a, 0xc2, 0x81, 0x3d, 0x76, 0x1d, 0xd7, 0xbd, 0xc2, 0xb3, 0x0f, 0xbe, 0x33, 0x41, 0xfb, 0x3d, 0x41, 0xb4, 0xf1, 0xbd, 0xe3, 0xb1, 0x6c, 0xbe, 0x17, 0x64, 0x98, 0x3d, 0xbc, 0x71, 0xf9, 0x3d, 0x8d, 0xfa, 0x16, 0xbe, 0x1f, 0x70, 0x90, 0x3d, 0xf0, 0xd4, 0x3c, 0x3d, 0xca, 0x4c, 0xb5, 0x3d, 0x8c, 0x30, 0xf8, 0xbc, 0x0a, 0x4b, 0x61, 0xbd, 0xdc, 0xe0, 0x86, 0x3d, 0xfe, 0xc8, 0xae, 0x3d, 0x9b, 0xf5, 0xb6, 0x3d, 0x40, 0x6a, 0x70, 0xbc, 0x3a, 0x83, 0x2f, 0xbd, 0xc2, 0xdc, 0xaa, 0x3d, 0x80, 0xf2, 0xf1, 0x3d, 0xe9, 0x3e, 0x37, 0x3d, 0x0e, 0x47, 0xc7, 0x3d, 0x0c, 0xd6, 0xe3, 0xbd, 0x8e, 0xa5, 0xdc, 0xbd, 0x81, 0x8a, 0x55, 0x3d, 0xe4, 0x25, 0x1b, 0xbe, 0x55, 0x2c, 0x16, 0xbe, 0xca, 0x2f, 0x2a, 0xbd, 0x80, 0x95, 0xe3, 0x3b, 0x09, 0x7d, 0x06, 0xbe, 0x98, 0x06, 0x06, 0xba, 0x0b, 0x61, 0x79, 0xbd, 0x02, 0x09, 0x05, 0xbe, 0xe9, 0x9a, 0x6f, 0x3d, 0x2d, 0xd5, 0x08, 0x3e, 0xeb, 0x32, 0x12, 0x3d, 0xe0, 0x0b, 0x08, 0xbe, 0x48, 0xfc, 0xb3, 0x3d, 0xe5, 0xb2, 0x8d, 0xbd, 0x1a, 0x7b, 0x10, 0xbd, 0xe5, 0x92, 0x08, 0x3e, 0x58, 0x0b, 0x41, 0x3d, 0x06, 0x2c, 0x9a, 0xbd, 0x50, 0xaa, 0x2e, 0x3d, 0xd3, 0x79, 0x5f, 0xbd, 0x60, 0x56, 0x84, 0x3d, 0xf3, 0x1e, 0xa1, 0xbd, 0x17, 0x87, 0x13, 0x3d, 0xbb, 0xc3, 0x03, 0xbe, 0x22, 0x40, 0xaf, 0xbd, 0x04, 0x6f, 0x64, 0xbd, 0x66, 0x96, 0x12, 0x3e, 0x13, 0x42, 0xd3, 0x3d, 0x7d, 0x17, 0xa3, 0xbd, 0x10, 0xb4, 0x77, 0xbe, 0x05, 0x4e, 0x17, 0x3e, 0x3e, 0x99, 0xf0, 0x3c, 0xe5, 0x3f, 0xa7, 0x3a, 0xeb, 0x94, 0x04, 0xbd, 0xc6, 0x81, 0xb5, 0xbd, 0x57, 0x1a, 0xe1, 0x3d, 0xa3, 0x8a, 0x4d, 0x3d, 0x62, 0x2d, 0xd5, 0x3c, 0x9e, 0x8f, 0xa3, 0xbc, 0x74, 0xda, 0x81, 0xbd, 0xe8, 0x18, 0x04, 0x3e, 0x60, 0x5a, 0x0d, 0x3e, 0xb5, 0x2d, 0x10, 0x3e, 0x24, 0xec, 0x34, 0xbd, 0x10, 0x38, 0xb6, 0xbc, 0xb1, 0x92, 0xbc, 0x3d, 0xcc, 0xb9, 0xf6, 0x3d, 0x20, 0x45, 0xa7, 0xbc, 0x9d, 0x50, 0x38, 0x3b, 0x83, 0x86, 0xec, 0xbd, 0x3e, 0x75, 0x1b, 0x3d, 0x71, 0x51, 0x8d, 0xbd, 0x15, 0x0d, 0x98, 0x3c, 0xb4, 0xaa, 0xac, 0xbc, 0xa0, 0xd6, 0x09, 0xbc, 0x81, 0xd9, 0x92, 0xbd, 0xc5, 0x02, 0x0a, 0x3e, 0x53, 0x4a, 0x36, 0x3d, 0x54, 0x3f, 0x6d, 0x3d, 0x5b, 0x08, 0xf8, 0xbd, 0xd4, 0xd7, 0xa3, 0x3d, 0x68, 0xed, 0x12, 0xbe, 0xd6, 0xc7, 0x0f, 0x3e, 0x60, 0xaf, 0x16, 0xbe, 0xfe, 0xef, 0x8f, 0xbd, 0xd5, 0xa1, 0xab, 0xbd, 0x45, 0x50, 0x10, 0xbe, 0x8d, 0x42, 0x18, 0xbe, 0xcc, 0x9a, 0x14, 0x3e, 0xa2, 0x15, 0xa5, 0x3d, 0xe1, 0x1f, 0x7e, 0xbc, 0x0f, 0x21, 0xf7, 0x3d, 0xc4, 0x60, 0xee, 0x3d, 0x93, 0xac, 0xef, 0x3d, 0xb3, 0x6e, 0x10, 0xbe, 0x2a, 0xa8, 0x89, 0x3d, 0x7a, 0x0a, 0xb0, 0x3d, 0xa8, 0xf1, 0x35, 0xbd, 0x45, 0xbe, 0x13, 0xbe, 0xb9, 0x2d, 0xa5, 0xbf, 0x4f, 0xfd, 0xd5, 0xbc, 0x80, 0x34, 0x86, 0x3a, 0x98, 0x67, 0x0a, 0x3e, 0x25, 0x41, 0x05, 0xbe, 0x1b, 0x54, 0xfe, 0xbd, 0xae, 0xa6, 0x69, 0x3d, 0x39, 0x39, 0x37, 0x3b, 0x23, 0x41, 0xf1, 0x3d, 0x05, 0xcf, 0xcc, 0xbc, 0xc1, 0x90, 0x76, 0xbd, 0xfc, 0x38, 0xe0, 0x3d, 0x34, 0xd7, 0xe9, 0x3d, 0x25, 0x16, 0x21, 0x3d, 0x63, 0x7d, 0x3f, 0x3b, 0xc7, 0xcd, 0x13, 0x3e, 0x5a, 0xb0, 0xd9, 0xbd, 0x0f, 0x0a, 0x00, 0x3e, 0xc8, 0x4e, 0x87, 0xbc, 0x53, 0xb3, 0x88, 0xbd, 0x90, 0xc5, 0xad, 0xbc, 0xbe, 0xa8, 0x09, 0x3e, 0x23, 0x8e, 0xd0, 0xbc, 0xe8, 0x40, 0xc5, 0xbc, 0x55, 0x1b, 0x98, 0xbd, 0x66, 0xb7, 0xab, 0x3d, 0x78, 0x74, 0x9f, 0x3c, 0x4e, 0xad, 0xa7, 0x3c, 0x7d, 0xff, 0x8e, 0x3b, 0x09, 0xdd, 0x13, 0x3e, 0x68, 0x2c, 0xd2, 0x3d, 0x8c, 0x0b, 0x02, 0xbe, 0x40, 0xb9, 0x77, 0x3b, 0x52, 0x7e, 0x1b, 0xb9, 0x28, 0x67, 0x19, 0xbd, 0xe0, 0xb2, 0x0e, 0xbe, 0xbf, 0xb2, 0x0c, 0x3e, 0xf4, 0x1b, 0x27, 0x3d, 0x2c, 0x75, 0xe2, 0xbd, 0x80, 0xf7, 0x4e, 0x3b, 0xd8, 0xc0, 0xdc, 0x3d, 0x30, 0xa9, 0x08, 0xbe, 0x10, 0x84, 0x94, 0xbf, 0xf0, 0x84, 0x52, 0x3c, 0x40, 0x49, 0x2d, 0xbb, 0xc4, 0x79, 0x84, 0xbd, 0xc7, 0xa5, 0xb0, 0xbd, 0xf8, 0xa0, 0xa1, 0xbd, 0x17, 0x5a, 0x82, 0x3d, 0x6a, 0x30, 0x41, 0xbd, 0x50, 0x42, 0x03, 0xbe, 0x24, 0xd3, 0xb2, 0x3d, 0xd8, 0xd8, 0xf1, 0x3d, 0x5c, 0x3d, 0xf6, 0xbd, 0x67, 0x61, 0xfe, 0x3d, 0x58, 0x44, 0xf8, 0x3d, 0x3d, 0x92, 0x97, 0x3d, 0x97, 0xeb, 0x54, 0xbf, 0x02, 0xe2, 0xaf, 0x3d, 0xee, 0x7c, 0xf0, 0xbd, 0x1e, 0x12, 0x37, 0xbc, 0x3f, 0xc9, 0x42, 0x3d, 0xb3, 0x37, 0x10, 0x3e, 0x79, 0xac, 0x46, 0xbd, 0x02, 0x89, 0xc9, 0xbd, 0xf0, 0x10, 0x08, 0xbc, 0xff, 0xb5, 0x0d, 0xbe, 0xd0, 0xc0, 0xbf, 0x3c, 0x35, 0x6e, 0xa4, 0x3d, 0x6d, 0x1f, 0xb4, 0xbd, 0x08, 0x2e, 0xcf, 0x3c, 0x60, 0x31, 0x70, 0x3d, 0xb7, 0xf5, 0xe9, 0xba, 0xc5, 0xc4, 0x66, 0xbc, 0x78, 0x73, 0x1a, 0x3e, 0x34, 0x08, 0x87, 0xbd, 0xb0, 0x3d, 0x8d, 0xbd, 0x99, 0x8d, 0xaf, 0xbe, 0x99, 0x49, 0xb4, 0xbd, 0x64, 0x13, 0x3e, 0xbd, 0xe9, 0x24, 0x5c, 0x3e, 0x00, 0xc0, 0x86, 0x3d, 0x19, 0x7b, 0xba, 0x3c, 0x86, 0x24, 0x9c, 0x3d, 0x83, 0xf7, 0x5e, 0x3d, 0x90, 0x33, 0xc8, 0x3d, 0xdf, 0x19, 0xd0, 0xbd, 0x88, 0xb5, 0xd2, 0x3c, 0x31, 0xa9, 0x20, 0x3d, 0x94, 0xb9, 0x04, 0xbe, 0x17, 0xd6, 0x0a, 0xbe, 0xcc, 0xb7, 0xb7, 0x3b, 0x64, 0xe4, 0x9b, 0xbd, 0xe4, 0x66, 0x01, 0xbe, 0x28, 0xa4, 0x13, 0xbe, 0xfe, 0x4a, 0x3a, 0xbd, 0x0e, 0x2d, 0x35, 0x3c, 0x7c, 0xf2, 0x32, 0x3d, 0x28, 0xfc, 0xf0, 0xbd, 0xb5, 0x9c, 0x0e, 0x3d, 0x3e, 0x8d, 0x6a, 0xbd, 0xd8, 0x53, 0xf1, 0xbd, 0x41, 0x6d, 0xe5, 0xbd, 0x28, 0x0a, 0xfc, 0xbd, 0x1e, 0xd8, 0xa9, 0x3d, 0xa0, 0x27, 0x49, 0x3d, 0x7b, 0x4a, 0x31, 0x3e, 0xcd, 0x35, 0x7e, 0x3d, 0x46, 0xa2, 0xcc, 0xbd, 0xe4, 0x43, 0x0a, 0xbd, 0xc9, 0xb7, 0x66, 0x3d, 0x16, 0x23, 0xdc, 0x3d, 0xeb, 0x87, 0xb5, 0xbd, 0x3d, 0x27, 0x8d, 0xbd, 0xe6, 0xc9, 0x5c, 0xbc, 0x1c, 0x44, 0xf0, 0x3d, 0xf0, 0x97, 0x05, 0x3c, 0x0d, 0xab, 0xd4, 0xba, 0x1c, 0xd5, 0x5f, 0xbd, 0x8c, 0x10, 0x75, 0x3d, 0x04, 0xc7, 0x18, 0x3e, 0x40, 0x20, 0x95, 0x3c, 0x62, 0xfe, 0xba, 0x3d, 0xc0, 0x90, 0xba, 0xbc, 0x98, 0x0d, 0x88, 0xbd, 0x5a, 0xf6, 0xda, 0xbd, 0xaa, 0x8b, 0x1b, 0xbd, 0x1a, 0x71, 0x90, 0x3a, 0x34, 0xe2, 0xa6, 0xbc, 0x68, 0x64, 0xdf, 0xbd, 0x89, 0xca, 0xe0, 0x3d, 0x22, 0x38, 0xe1, 0xbc, 0x80, 0x81, 0x73, 0xbd, 0x12, 0xf8, 0x7a, 0x3d, 0x0d, 0x65, 0xa7, 0x3d, 0xf0, 0x2f, 0xb9, 0x3d, 0x2c, 0x33, 0x06, 0x3e, 0x64, 0x02, 0xd9, 0xbd, 0x10, 0x8c, 0xc9, 0xbc, 0x81, 0x58, 0x04, 0xbd, 0x2b, 0x08, 0x6e, 0xbd, 0x42, 0x41, 0x01, 0xc0, 0xd6, 0xdf, 0xbb, 0xbd, 0x9f, 0x2c, 0x06, 0xbe, 0xbd, 0xbb, 0x12, 0xbe, 0xa6, 0x9b, 0x92, 0x3d, 0x43, 0x87, 0xb0, 0xbd, 0x88, 0x6c, 0x14, 0xbe, 0xd7, 0xe4, 0xe2, 0x3d, 0x73, 0x56, 0xef, 0x3d, 0x0a, 0xb7, 0xe8, 0xbd, 0xa0, 0x06, 0xf1, 0xbc, 0xa9, 0x63, 0xed, 0xbd, 0x4b, 0xa5, 0xe9, 0x3d, 0x95, 0x6f, 0x3c, 0x3d, 0x26, 0x4b, 0x5e, 0xbd, 0xdc, 0x56, 0x02, 0x3e, 0xd8, 0xd0, 0x80, 0x3d, 0x40, 0xf7, 0xcf, 0x3d, 0xc0, 0xc2, 0xde, 0x3c, 0x59, 0x03, 0x0c, 0xbd, 0x20, 0x24, 0x89, 0x3c, 0x30, 0xe8, 0x3c, 0x3c, 0x81, 0x85, 0xc7, 0x3d, 0xc0, 0x12, 0x1f, 0xbc, 0x20, 0x3c, 0x4a, 0x3c, 0xaa, 0x48, 0x00, 0x3e, 0x70, 0x0f, 0x10, 0xbe, 0xe0, 0xe3, 0x9b, 0xbb, 0x65, 0x26, 0x03, 0xbe, 0x19, 0x13, 0x5a, 0x3d, 0x84, 0x59, 0xe6, 0x3d, 0xe7, 0x7f, 0x77, 0x3d, 0xc2, 0x50, 0xf6, 0xbd, 0x2e, 0xa3, 0x3a, 0x3d, 0xb1, 0x9d, 0x22, 0xbe, 0x60, 0xad, 0x4c, 0x3d, 0xdf, 0xf4, 0xa4, 0xbd, 0xb4, 0xd5, 0x62, 0xbd, 0x8e, 0xc4, 0xa8, 0x3d, 0xf6, 0xca, 0x86, 0xbd, 0xa2, 0xe5, 0xff, 0xff, 0x10, 0x00, 0x00, 0x00, 0x07, 0x00, 0x00, 0x00, 0x14, 0x00, 0x00, 0x00, 0x34, 0x00, 0x00, 0x00, 0x02, 0x00, 0x00, 0x00, 0x03, 0x00, 0x00, 0x00, 0x00, 0x01, 0x00, 0x00, 0x1d, 0x00, 0x00, 0x00, 0x53, 0x65, 0x71, 0x75, 0x65, 0x6e, 0x74, 0x69, 0x61, 0x6c, 0x2d, 0x4e, 0x4e, 0x2f, 0x64, 0x65, 0x6e, 0x73, 0x65, 0x5f, 0x33, 0x35, 0x2f, 0x4d, 0x61, 0x74, 0x4d, 0x75, 0x6c, 0x00, 0x00, 0x00, 0x20, 0xe5, 0xff, 0xff, 0x12, 0xe6, 0xff, 0xff, 0x04, 0x00, 0x00, 0x00, 0x00, 0x14, 0x00, 0x00, 0x37, 0xce, 0x51, 0x3d, 0x7a, 0x13, 0x5e, 0xbd, 0xf6, 0x7e, 0x45, 0xbd, 0xbf, 0x98, 0xe3, 0xbd, 0x08, 0xfd, 0x02, 0x3e, 0xa1, 0x21, 0xa4, 0x3a, 0x7e, 0xcc, 0xb7, 0x3d, 0x37, 0xb3, 0x09, 0x3e, 0xe1, 0x9d, 0x0d, 0xbb, 0x92, 0x85, 0xca, 0xbd, 0xd1, 0x7c, 0x02, 0x3e, 0x5e, 0xf0, 0x86, 0xbd, 0xc8, 0x59, 0x80, 0x3c, 0x63, 0xf1, 0xe1, 0xbd, 0x94, 0x2b, 0x2a, 0x3d, 0x78, 0xe6, 0x99, 0xbd, 0xf4, 0x90, 0x09, 0xbd, 0x18, 0x69, 0xc4, 0xbc, 0x60, 0xef, 0x89, 0x3c, 0xdc, 0x73, 0x1f, 0x3d, 0x12, 0x79, 0x8c, 0x3d, 0x70, 0xe3, 0x18, 0xbe, 0x0c, 0x78, 0x2d, 0xbe, 0x41, 0xd2, 0x05, 0x3e, 0xf0, 0xce, 0xe8, 0x3d, 0xfd, 0x3a, 0xea, 0x3d, 0xe4, 0x80, 0x3d, 0x3d, 0xdf, 0x08, 0x97, 0xbd, 0xd6, 0xcf, 0x9f, 0xbc, 0x70, 0x53, 0x95, 0x3d, 0x7b, 0x46, 0x05, 0x3e, 0x30, 0x71, 0x09, 0x3e, 0x9a, 0xbc, 0x9b, 0xbc, 0x7c, 0xa9, 0xa0, 0xbd, 0x78, 0xd8, 0xd8, 0x3d, 0x2c, 0xac, 0x92, 0x3d, 0xb0, 0x20, 0xd8, 0x3d, 0x22, 0x3f, 0x79, 0x3c, 0x1d, 0x1e, 0x52, 0x3d, 0x6c, 0xa5, 0x5b, 0x3d, 0xe4, 0x3b, 0x3b, 0xbd, 0x80, 0x0f, 0xdc, 0xbd, 0xa1, 0x15, 0x08, 0xbe, 0xb8, 0xae, 0xf6, 0x3c, 0x38, 0x5f, 0xfb, 0x3d, 0xaa, 0x46, 0xc2, 0x3a, 0x00, 0x93, 0x33, 0x3a, 0x8c, 0x85, 0xfb, 0x3d, 0xbd, 0x25, 0xc1, 0x3d, 0x28, 0xab, 0xc1, 0xbc, 0x52, 0x0d, 0x94, 0xbd, 0x00, 0x24, 0x7f, 0x39, 0xad, 0xae, 0xc6, 0xbd, 0x18, 0x08, 0xe1, 0x3c, 0x30, 0xca, 0x16, 0xbc, 0xb6, 0xf5, 0x57, 0x3d, 0xc4, 0x83, 0x4f, 0x3d, 0x97, 0xde, 0x24, 0xbe, 0xa8, 0xae, 0x65, 0x3c, 0xe8, 0x20, 0x01, 0xbe, 0xac, 0x39, 0xec, 0xbd, 0xd4, 0x8f, 0xb7, 0x3d, 0x63, 0xe2, 0xee, 0xbd, 0xb0, 0xae, 0x9c, 0x3d, 0x9d, 0x2c, 0x13, 0xbe, 0xdf, 0xe4, 0xf4, 0x3b, 0xef, 0x9a, 0xbb, 0xbd, 0xdf, 0x28, 0x03, 0x3c, 0x9c, 0xce, 0x2a, 0xbd, 0x11, 0xa1, 0x9b, 0xbd, 0xc3, 0xb0, 0x83, 0x3d, 0x82, 0x41, 0x5f, 0xbd, 0x8e, 0xcf, 0xd6, 0xbd, 0xcb, 0x27, 0x2b, 0x3d, 0x50, 0x1f, 0x10, 0x3d, 0xfd, 0x70, 0xdb, 0x3d, 0x0a, 0x9e, 0x77, 0xbd, 0x40, 0xc3, 0xc9, 0x3d, 0x31, 0xb0, 0x6c, 0xbd, 0xbc, 0xcf, 0x7f, 0xbd, 0x74, 0x22, 0x47, 0xbd, 0x48, 0x55, 0x0a, 0x3e, 0x25, 0x94, 0xd4, 0xbd, 0xe0, 0x82, 0x1e, 0xbc, 0x8a, 0x77, 0x36, 0xbd, 0x94, 0x98, 0xca, 0xbd, 0x14, 0xec, 0xd7, 0x3d, 0x90, 0x24, 0x07, 0xbd, 0xe0, 0x96, 0xa7, 0xbb, 0x90, 0x6a, 0xef, 0xbd, 0x1a, 0x7c, 0xb6, 0xbc, 0x16, 0x36, 0xaf, 0x3d, 0xb8, 0xf0, 0x4a, 0xbd, 0xd8, 0x0b, 0xff, 0x3d, 0xbc, 0x38, 0xf1, 0xbd, 0x40, 0x48, 0xed, 0x3d, 0xf8, 0xb5, 0xed, 0xbc, 0x60, 0x91, 0x08, 0x3e, 0x80, 0x82, 0x0a, 0xbe, 0x44, 0x2c, 0xc4, 0xbd, 0x50, 0xca, 0xe0, 0xbd, 0x50, 0x43, 0xfb, 0x3d, 0x00, 0x57, 0x60, 0xba, 0x8c, 0x62, 0xe0, 0x3d, 0x4e, 0x6f, 0xd8, 0xbd, 0xa2, 0xa3, 0xea, 0xbd, 0x60, 0x95, 0x81, 0xbc, 0xa0, 0x6c, 0xdc, 0x3b, 0x50, 0x75, 0x13, 0xbc, 0xc0, 0x0e, 0x8f, 0x3d, 0x43, 0xce, 0x2b, 0x3d, 0x20, 0xee, 0x74, 0xbc, 0x73, 0xd2, 0x02, 0x3e, 0xb6, 0xd4, 0x20, 0xbe, 0x5a, 0xd5, 0x91, 0x3d, 0x55, 0x3f, 0xfd, 0x3d, 0x00, 0x3d, 0x55, 0x3c, 0xab, 0x18, 0x65, 0x3d, 0x25, 0x2a, 0x03, 0x3e, 0xf3, 0x55, 0xa0, 0xbd, 0xa7, 0xb6, 0xf9, 0x3d, 0x0c, 0xf7, 0xe5, 0x3d, 0x2c, 0x23, 0x15, 0xbe, 0x77, 0xbc, 0x07, 0xbe, 0x88, 0x5d, 0xb9, 0xbc, 0xf0, 0x60, 0x32, 0x3d, 0x4a, 0x94, 0xc0, 0x3d, 0xad, 0x37, 0xe9, 0x3d, 0x27, 0x70, 0x87, 0xbe, 0x46, 0xf7, 0x09, 0x3e, 0x3b, 0x83, 0xf2, 0x3c, 0xb2, 0x48, 0x07, 0xbe, 0xc6, 0x51, 0x70, 0xbc, 0x31, 0x06, 0x03, 0x3e, 0x64, 0x0b, 0xc1, 0x3d, 0xea, 0x9c, 0xbd, 0x3d, 0xe2, 0xfe, 0xc2, 0xbd, 0x5d, 0xb2, 0xe3, 0xbd, 0xbe, 0xbf, 0xb1, 0x3d, 0xa8, 0x39, 0x47, 0x3d, 0x1b, 0xfb, 0xc5, 0x3d, 0x85, 0xfc, 0x17, 0xbe, 0x98, 0x45, 0x91, 0x3d, 0x18, 0xc5, 0xa7, 0xbd, 0xd4, 0x42, 0xdf, 0xbc, 0x25, 0x95, 0xe3, 0x3d, 0x28, 0x9a, 0x10, 0xbd, 0xc7, 0x41, 0x0d, 0x3e, 0x12, 0xb4, 0xcd, 0xbd, 0x0e, 0x59, 0x70, 0xbd, 0x62, 0xfb, 0x16, 0xbe, 0xe4, 0x17, 0x39, 0x3d, 0x10, 0x38, 0xd4, 0x3d, 0xb7, 0xff, 0x91, 0xbd, 0x68, 0x4b, 0x0c, 0x3e, 0xf2, 0x56, 0x19, 0xba, 0xa6, 0xff, 0xe2, 0xbd, 0xce, 0xbd, 0x85, 0x3d, 0xb7, 0xcb, 0xc9, 0x3b, 0xc8, 0x6d, 0x34, 0xbd, 0xf0, 0xd7, 0x96, 0x3c, 0xbd, 0xe1, 0xff, 0xbd, 0xe1, 0x4b, 0xbf, 0xbc, 0xbf, 0x5d, 0x84, 0xbd, 0x4e, 0xa5, 0x30, 0xbd, 0xb9, 0x0a, 0x63, 0x3d, 0x36, 0xa3, 0xab, 0x3d, 0xa1, 0xb0, 0x8a, 0x3d, 0x4b, 0xa7, 0xda, 0xbd, 0x6e, 0xb4, 0x9a, 0x3d, 0x2a, 0x6a, 0x98, 0x3d, 0xe2, 0x24, 0x6e, 0xbd, 0x4f, 0x69, 0x77, 0x3d, 0xb1, 0x5e, 0x3f, 0x3d, 0x72, 0x88, 0x06, 0x3e, 0x9a, 0x4d, 0xf6, 0x3d, 0x34, 0x20, 0xf6, 0xbd, 0xd6, 0xb9, 0x33, 0xbe, 0x01, 0x2e, 0x12, 0xbe, 0xa8, 0x7c, 0x95, 0x3d, 0xbf, 0x57, 0xe2, 0xbc, 0x00, 0x7d, 0xa0, 0x3b, 0x0a, 0x83, 0xd1, 0xbd, 0x44, 0x95, 0x63, 0x3d, 0xa9, 0xae, 0x07, 0xbe, 0xca, 0x05, 0xd6, 0x3d, 0xde, 0x14, 0x49, 0xbd, 0x47, 0x44, 0xb4, 0x3d, 0x0b, 0xa4, 0xca, 0x3d, 0x4b, 0x12, 0xae, 0xbd, 0x6a, 0x89, 0xa7, 0x3c, 0x94, 0x4b, 0x13, 0x3d, 0x9c, 0xc6, 0xd2, 0x3c, 0xb7, 0x8b, 0x99, 0xbd, 0xb8, 0x8c, 0xae, 0xbc, 0xf2, 0x87, 0xce, 0xbc, 0x30, 0x2b, 0xd6, 0xbd, 0x5f, 0xe6, 0x16, 0x3d, 0x7b, 0x9a, 0x18, 0xbe, 0x2b, 0xde, 0x91, 0xbd, 0xec, 0x7f, 0xf5, 0xbc, 0x0b, 0xaf, 0x90, 0xbd, 0xd2, 0xf8, 0x08, 0xbe, 0xa8, 0xe0, 0xf5, 0x3c, 0xb0, 0x43, 0x36, 0x3d, 0x6c, 0x44, 0x2c, 0x3d, 0x58, 0x92, 0x6e, 0x3d, 0xbd, 0x32, 0xbc, 0xbd, 0xff, 0x85, 0xe6, 0x3c, 0x16, 0xc2, 0x2d, 0xbd, 0x6d, 0xfd, 0xd0, 0xbd, 0xc6, 0xe9, 0x50, 0xbd, 0xb6, 0x7e, 0x02, 0xbe, 0xe0, 0x46, 0xa6, 0xbb, 0xf1, 0x40, 0x9d, 0xbd, 0xf2, 0x5c, 0xc5, 0xbd, 0xa6, 0xce, 0x02, 0x3e, 0xb0, 0xf4, 0x68, 0xbc, 0x6c, 0x50, 0x69, 0xbd, 0x08, 0x42, 0xf4, 0xbd, 0xd3, 0xc9, 0x09, 0x3e, 0x59, 0x8a, 0x8c, 0xbd, 0xcf, 0x18, 0x44, 0xbe, 0xcd, 0x33, 0x68, 0xbd, 0x54, 0x9d, 0xe5, 0xbc, 0x8e, 0x31, 0x08, 0xbe, 0x51, 0x7d, 0xf4, 0xbd, 0xf5, 0x59, 0x17, 0xbe, 0x50, 0x50, 0x6f, 0x3c, 0xd0, 0xac, 0x74, 0x3c, 0x2b, 0x99, 0x8f, 0x3c, 0x48, 0x5c, 0x17, 0x3d, 0x54, 0xf5, 0xa0, 0xbe, 0xb1, 0x7f, 0xf0, 0xbc, 0xa0, 0x59, 0xc3, 0xbb, 0x7a, 0x2a, 0x0c, 0x3e, 0x1c, 0x9a, 0x04, 0x3d, 0x11, 0x2f, 0x76, 0xbc, 0x34, 0x33, 0x07, 0xbe, 0xff, 0xf5, 0x08, 0xbe, 0x01, 0x56, 0x2a, 0xbc, 0x5c, 0xc5, 0x0b, 0xbd, 0x83, 0xfc, 0xe1, 0x3d, 0x3b, 0x74, 0xf6, 0x3d, 0x9c, 0x93, 0x30, 0xbd, 0xb3, 0x7d, 0xd8, 0x3d, 0x94, 0xf2, 0x36, 0xbd, 0x36, 0x84, 0xf2, 0x3d, 0x61, 0xac, 0x01, 0x3e, 0x80, 0xbb, 0x3a, 0x3d, 0xc1, 0x70, 0xb8, 0xbd, 0xea, 0x06, 0x39, 0xbd, 0x2c, 0x77, 0xc3, 0xbd, 0xb6, 0x15, 0x01, 0xbe, 0x90, 0x6f, 0x8a, 0xbc, 0x0e, 0x6b, 0xef, 0xbd, 0x4c, 0x2c, 0xd2, 0x3d, 0xa4, 0x49, 0x65, 0x3d, 0x34, 0x4e, 0x4c, 0x3d, 0xe6, 0x3b, 0x38, 0xbd, 0xfa, 0xcb, 0x90, 0xbd, 0x66, 0xb3, 0x88, 0xbd, 0x8a, 0x9a, 0xe5, 0x3d, 0x37, 0x63, 0x23, 0x3b, 0xd6, 0x5c, 0x13, 0x3e, 0x6c, 0xc3, 0x6e, 0x3d, 0x9a, 0x7a, 0x9c, 0x3d, 0xe3, 0x28, 0xb4, 0xbd, 0xb1, 0xdf, 0x12, 0xbe, 0x2f, 0x62, 0xc4, 0xbd, 0x04, 0x0e, 0xc6, 0xbd, 0xd0, 0x9e, 0xe9, 0xbc, 0x6a, 0x69, 0x4f, 0xbd, 0x36, 0xba, 0x00, 0xbe, 0x18, 0x57, 0xb1, 0xbc, 0x0b, 0x27, 0xba, 0x3d, 0xdc, 0xe4, 0xb6, 0x3d, 0xb7, 0xf0, 0x1c, 0x3d, 0xc2, 0xb3, 0x83, 0x3d, 0xe0, 0x1d, 0x78, 0xbc, 0x60, 0x7f, 0x3c, 0x3d, 0xc8, 0xf0, 0x3d, 0x3d, 0xdd, 0xfa, 0xee, 0x3d, 0x32, 0x84, 0x54, 0x3d, 0xdb, 0x0d, 0x9c, 0xbd, 0x5e, 0x1c, 0xf8, 0x3d, 0x98, 0xa2, 0x9a, 0xbd, 0xb8, 0xb0, 0xa7, 0xbd, 0xeb, 0x31, 0x36, 0x3d, 0xd8, 0x63, 0xac, 0x3c, 0xbd, 0xfb, 0xa1, 0xbd, 0xd2, 0x1d, 0x99, 0xbd, 0x60, 0x79, 0x02, 0xbc, 0x68, 0xa8, 0xbd, 0xbc, 0xf0, 0xa3, 0x14, 0xbd, 0xbc, 0x95, 0xc4, 0x3d, 0xe0, 0x4d, 0x0e, 0x3d, 0x29, 0x9e, 0x8c, 0xbd, 0xdc, 0x18, 0xbe, 0x3d, 0xae, 0x86, 0xaa, 0x3d, 0x25, 0x76, 0x0c, 0xbe, 0x68, 0x5d, 0x8e, 0xbc, 0x9c, 0xa9, 0x17, 0x3d, 0x94, 0x0b, 0xff, 0xbc, 0x00, 0x52, 0x9e, 0x3b, 0x3d, 0xd6, 0xb2, 0x3d, 0xc8, 0xac, 0x64, 0x3d, 0x19, 0x07, 0x14, 0xbe, 0xdf, 0x51, 0x6a, 0xbc, 0x4a, 0x88, 0x07, 0x3e, 0xa4, 0xf5, 0x75, 0x3d, 0x88, 0x83, 0x94, 0x3c, 0x61, 0xf4, 0x9c, 0xbd, 0xbf, 0xbc, 0xf5, 0x3d, 0xda, 0xb3, 0x2f, 0xbd, 0x6d, 0x88, 0xdd, 0xbd, 0xc0, 0xfe, 0x04, 0x3d, 0x7e, 0xbd, 0x8d, 0x3d, 0xe0, 0xa8, 0xab, 0x3b, 0x4e, 0xf7, 0x09, 0xbe, 0x52, 0x9c, 0xd9, 0x3d, 0x56, 0x29, 0x11, 0x3e, 0xbd, 0xc2, 0xcd, 0x3d, 0x3b, 0xef, 0x4e, 0x3d, 0xd8, 0x16, 0x07, 0xbd, 0x95, 0xd7, 0x10, 0x3e, 0x80, 0x62, 0x59, 0xbb, 0xfc, 0xfc, 0xb8, 0xbd, 0xfa, 0x06, 0x11, 0x3e, 0x26, 0x45, 0xba, 0x3d, 0x35, 0x8b, 0x47, 0x3d, 0x15, 0xf4, 0x80, 0xbd, 0x79, 0xb4, 0xa5, 0x3b, 0xdc, 0xc1, 0x55, 0x3c, 0xc0, 0x0b, 0xaf, 0xbb, 0x73, 0x53, 0xe1, 0x3c, 0xab, 0x6c, 0xd2, 0xbd, 0x83, 0xd4, 0x4c, 0xbd, 0x4d, 0x80, 0xbe, 0xbd, 0x10, 0x10, 0x14, 0x3e, 0x02, 0x1c, 0x0d, 0x3d, 0x68, 0xb2, 0xed, 0xbd, 0x9a, 0x4b, 0x92, 0x3d, 0xab, 0x2b, 0x89, 0xbd, 0x75, 0x0e, 0x14, 0xbe, 0xc2, 0x2a, 0xd4, 0x3d, 0xd0, 0x68, 0x1d, 0xbd, 0xd8, 0x95, 0xca, 0xbd, 0x6b, 0xc1, 0x08, 0xbe, 0x28, 0x74, 0xb1, 0xbd, 0x8c, 0x80, 0xd2, 0xbd, 0x44, 0x90, 0xe2, 0xbd, 0x44, 0x78, 0xab, 0xbd, 0x48, 0xc1, 0x09, 0x3d, 0xb0, 0x4b, 0xbe, 0x3c, 0xe0, 0x92, 0xf1, 0xbd, 0x70, 0x64, 0xf9, 0x3c, 0x3c, 0xff, 0xf2, 0xbd, 0x0f, 0x0d, 0x9e, 0xbd, 0x98, 0x4b, 0x05, 0x3e, 0x12, 0xbd, 0x07, 0x3d, 0x9a, 0x80, 0xcc, 0xbd, 0xa6, 0xb3, 0xa7, 0x3d, 0xe3, 0xa8, 0xe7, 0xbd, 0x74, 0xf1, 0xc9, 0x3d, 0x24, 0xc5, 0xd5, 0x3c, 0x44, 0xf2, 0x08, 0xbe, 0x07, 0x3f, 0xe4, 0xbd, 0x92, 0x09, 0x25, 0x3d, 0x14, 0x9c, 0xaa, 0xbd, 0xe2, 0x72, 0x61, 0x3c, 0x4c, 0xc0, 0x15, 0x3e, 0xb7, 0x4e, 0x1d, 0xbe, 0x28, 0x8d, 0x15, 0xbe, 0x44, 0x19, 0x3e, 0x3d, 0x0e, 0x30, 0xa6, 0x3c, 0xca, 0x46, 0x02, 0xbe, 0xbb, 0x53, 0x8b, 0x3d, 0x85, 0x9b, 0x1c, 0xbe, 0x74, 0x0e, 0xa3, 0xbd, 0x0b, 0xd1, 0xbb, 0x3d, 0x44, 0xe0, 0x02, 0x3e, 0x03, 0x46, 0xb3, 0xbd, 0xb3, 0x69, 0x97, 0xbd, 0x10, 0x77, 0x8b, 0x3d, 0x3e, 0xc5, 0xb6, 0xbd, 0xfc, 0x32, 0x4f, 0xbd, 0xba, 0x02, 0xea, 0xbd, 0x1f, 0x6d, 0xf7, 0xbd, 0x33, 0x32, 0x80, 0xbd, 0xd1, 0x42, 0xc0, 0xbd, 0x7c, 0x24, 0x39, 0x3d, 0x96, 0x9e, 0xf5, 0xbd, 0xf8, 0xd0, 0x10, 0x3e, 0x70, 0x58, 0xd7, 0xbd, 0x2c, 0x8b, 0xdb, 0xbd, 0xa6, 0x5d, 0x55, 0xbd, 0x98, 0x30, 0xbc, 0x3c, 0xfa, 0x0f, 0xcd, 0xbd, 0x10, 0x0d, 0x90, 0xbc, 0x76, 0xdc, 0xd9, 0xbd, 0x52, 0xb8, 0x16, 0x3e, 0x50, 0xf3, 0x78, 0xbc, 0xac, 0x15, 0x1b, 0x3d, 0x40, 0x65, 0x9d, 0xbb, 0xae, 0x56, 0xd8, 0x3d, 0x88, 0x6b, 0x71, 0xbd, 0xaa, 0xf8, 0x40, 0x3d, 0xfb, 0x2a, 0x9b, 0xbd, 0x98, 0x17, 0xc5, 0x3d, 0x54, 0x02, 0xf8, 0x3d, 0xc0, 0x08, 0x46, 0xbd, 0xc1, 0x3a, 0x28, 0x3e, 0x93, 0xfa, 0xbc, 0xbd, 0xb6, 0x6e, 0xc4, 0x3d, 0x1a, 0x7f, 0xc7, 0x3b, 0xc6, 0xeb, 0x16, 0x3e, 0x4f, 0x86, 0xdf, 0xbd, 0x23, 0x1e, 0x23, 0x3d, 0x00, 0x91, 0x9d, 0xba, 0x44, 0xfe, 0xd5, 0x3d, 0xde, 0x3c, 0x4a, 0xbd, 0x73, 0x8c, 0x02, 0x3e, 0xef, 0xce, 0x07, 0x3e, 0xe6, 0x19, 0xa3, 0x3d, 0x20, 0x80, 0x72, 0x3d, 0x00, 0xe4, 0xcf, 0x3c, 0x8f, 0x45, 0x80, 0xbd, 0x67, 0x91, 0x6e, 0x3d, 0x14, 0x23, 0x0a, 0xbe, 0xe1, 0x00, 0x42, 0x3c, 0xfc, 0x91, 0x58, 0x3d, 0x81, 0x9a, 0x89, 0xbd, 0xfe, 0x4a, 0x1a, 0x3d, 0x88, 0x03, 0xa9, 0x3c, 0x96, 0x27, 0x39, 0xbd, 0x44, 0xe2, 0xce, 0xbd, 0x40, 0xcb, 0x92, 0x3b, 0x0e, 0x85, 0x93, 0x3d, 0xf0, 0xbe, 0x08, 0x3e, 0x22, 0x89, 0x35, 0x3d, 0x9e, 0xcc, 0x5b, 0xbd, 0x33, 0x1e, 0xed, 0xbd, 0xca, 0x08, 0xc8, 0xbd, 0xa8, 0xf0, 0xfa, 0x3d, 0x22, 0x6a, 0xce, 0x3d, 0xee, 0xe8, 0xd7, 0xbd, 0x94, 0x9b, 0x8f, 0xbc, 0x3a, 0x40, 0xaa, 0xbd, 0x90, 0x83, 0x90, 0xbc, 0xad, 0x27, 0x6f, 0xbc, 0xe0, 0xca, 0x50, 0x3d, 0x20, 0x5b, 0x15, 0x3e, 0xf4, 0x22, 0x6e, 0x3d, 0xa0, 0xc6, 0x34, 0x3d, 0xd8, 0xa6, 0x7c, 0xbd, 0xa8, 0x3d, 0x04, 0xbe, 0x6b, 0xd5, 0x8e, 0xbd, 0xf0, 0xee, 0x9c, 0x3c, 0xd4, 0x38, 0x38, 0xbd, 0x14, 0xeb, 0xd6, 0x3d, 0x72, 0xcc, 0xdd, 0xbd, 0x65, 0x69, 0x54, 0xbd, 0xec, 0x0a, 0x3d, 0x3d, 0x6e, 0x32, 0xc5, 0x3d, 0x31, 0xdb, 0xb6, 0xbd, 0x34, 0x50, 0x8a, 0xbd, 0xa5, 0xf7, 0x01, 0xbe, 0x9a, 0xef, 0x8f, 0xbd, 0x9c, 0x5d, 0x00, 0xbe, 0x93, 0x7f, 0x3d, 0xbd, 0xce, 0x33, 0x19, 0xbe, 0xb8, 0xb9, 0x39, 0xbc, 0xf1, 0xd3, 0xe2, 0x3d, 0x56, 0x64, 0x04, 0x3e, 0x27, 0xb0, 0xe9, 0x3c, 0xc4, 0x4a, 0x1a, 0x3e, 0x02, 0xd7, 0xfa, 0x3d, 0x05, 0x43, 0xb5, 0xbd, 0x70, 0x46, 0xd1, 0x3d, 0xa6, 0xf2, 0xec, 0x3d, 0xc4, 0xa7, 0x76, 0xbd, 0xba, 0x2d, 0x83, 0x3d, 0x75, 0xe9, 0xd1, 0xbd, 0xa4, 0xf2, 0x02, 0x3d, 0xc7, 0x83, 0x72, 0x3d, 0x3a, 0x61, 0xcf, 0xbd, 0xc3, 0x75, 0xc8, 0x3d, 0xf4, 0x43, 0x10, 0xbe, 0x20, 0x95, 0xaa, 0xbb, 0xcb, 0xbd, 0xf8, 0xbd, 0xd0, 0x28, 0xd5, 0xbc, 0x8f, 0x17, 0xf2, 0xbd, 0x80, 0xcc, 0xe0, 0x3c, 0x70, 0x18, 0x40, 0xbc, 0xda, 0x33, 0x02, 0x3e, 0x1a, 0xa1, 0x53, 0xbd, 0xe6, 0xc2, 0x00, 0xbd, 0x42, 0x2e, 0xcf, 0x3b, 0x38, 0x80, 0x00, 0x3e, 0x50, 0x2a, 0x7a, 0xbb, 0xc0, 0x77, 0x81, 0x3c, 0xc5, 0xf3, 0xed, 0x3a, 0xaa, 0x46, 0xfb, 0x3d, 0xd0, 0x95, 0x04, 0xbe, 0xba, 0x95, 0x4b, 0xbd, 0x62, 0x8d, 0xec, 0xbd, 0x12, 0x22, 0x46, 0xbd, 0xb0, 0xfe, 0x03, 0xbc, 0x5a, 0xaa, 0x1d, 0xbd, 0x8e, 0xd3, 0x91, 0xbc, 0xba, 0x29, 0x04, 0xbe, 0x48, 0x47, 0x38, 0x3e, 0x55, 0x39, 0x77, 0x3d, 0x4a, 0x99, 0x05, 0xbd, 0x47, 0x5f, 0xa3, 0x3d, 0x1d, 0xd6, 0x1a, 0xbe, 0x24, 0xf6, 0x02, 0xbe, 0xb0, 0xf0, 0x3b, 0x3d, 0xd8, 0xf6, 0x4b, 0x3d, 0xae, 0xe7, 0x14, 0x3d, 0xfe, 0x4d, 0x91, 0x3d, 0x0b, 0xf8, 0x83, 0x3d, 0xe6, 0x6f, 0x5f, 0xbd, 0xae, 0xf1, 0xbf, 0x3d, 0x0e, 0xae, 0x65, 0x3c, 0x74, 0x73, 0xf6, 0x3d, 0x35, 0x21, 0xc2, 0x3d, 0xbe, 0xdf, 0xc5, 0x3c, 0xa7, 0x07, 0xd6, 0xbd, 0x9f, 0x83, 0x02, 0x3e, 0x68, 0xdc, 0xd6, 0x3c, 0x68, 0x15, 0xbe, 0x3d, 0x8f, 0xb4, 0xf8, 0xbb, 0xcc, 0xd5, 0x3c, 0x3d, 0xaa, 0xf8, 0xba, 0xbd, 0xf8, 0xe2, 0xac, 0xbc, 0x2e, 0x23, 0xb6, 0x3d, 0x5c, 0xc2, 0xa6, 0xbd, 0x6e, 0xb5, 0x0a, 0x3e, 0x06, 0xb0, 0x88, 0x3d, 0xac, 0x4e, 0x83, 0x3d, 0x03, 0x9c, 0x77, 0xbd, 0xd3, 0xed, 0xa0, 0x3c, 0x5a, 0x60, 0xbd, 0x3d, 0xf0, 0xe3, 0x7b, 0xbd, 0x64, 0x80, 0x97, 0x3d, 0xb4, 0x37, 0x0f, 0x3d, 0xf0, 0x94, 0xe5, 0xbd, 0xd8, 0x7f, 0xc0, 0x3d, 0x96, 0xe6, 0xe5, 0xbd, 0x27, 0x4f, 0xbe, 0xbd, 0xe8, 0x21, 0x68, 0xbd, 0xa8, 0x1a, 0x60, 0x3d, 0xf8, 0x5f, 0xe9, 0xbc, 0x4d, 0xc7, 0xdb, 0x3c, 0x38, 0xe2, 0x96, 0x3c, 0x7f, 0x98, 0xed, 0x3b, 0x36, 0xc9, 0x01, 0x3d, 0x14, 0x71, 0xd5, 0x3d, 0x61, 0xd1, 0x04, 0xbe, 0x58, 0x74, 0x21, 0xbd, 0x58, 0xb2, 0x52, 0x3d, 0x70, 0x07, 0x96, 0xbc, 0x46, 0x18, 0x3d, 0xbd, 0x94, 0xa2, 0xad, 0x3d, 0xc7, 0x4f, 0xe1, 0xbd, 0x83, 0x84, 0xbb, 0x3d, 0x4f, 0x8c, 0xd5, 0xbd, 0x3a, 0x17, 0x1f, 0xbd, 0x3a, 0x44, 0x1c, 0xbd, 0x2e, 0xc9, 0x0b, 0x3e, 0x64, 0x10, 0x88, 0xbd, 0x88, 0x71, 0xdf, 0xbd, 0xac, 0x57, 0xd6, 0x3d, 0x11, 0x69, 0xb8, 0x3d, 0x10, 0x6f, 0x43, 0x3d, 0x51, 0x13, 0x24, 0x3d, 0x19, 0xba, 0x94, 0x3a, 0xf0, 0x00, 0xeb, 0x3d, 0x8e, 0x2b, 0x04, 0xbe, 0x84, 0x25, 0x8d, 0x3d, 0x5c, 0x24, 0x8d, 0x3d, 0x22, 0x1a, 0xb5, 0xbd, 0x10, 0x4b, 0x11, 0x3d, 0x95, 0x09, 0xcc, 0x3b, 0xc8, 0x15, 0x70, 0x3d, 0xed, 0x53, 0xce, 0x3d, 0x7b, 0x56, 0xd1, 0xbd, 0x28, 0xdc, 0x12, 0x3e, 0x5c, 0x33, 0xfe, 0xbc, 0x48, 0x6b, 0x8f, 0xbc, 0x40, 0xdb, 0x31, 0x3b, 0xdc, 0x96, 0x3f, 0x3d, 0x2c, 0x39, 0xc4, 0xbd, 0x20, 0xa5, 0x9d, 0xbc, 0x08, 0x61, 0xda, 0x3d, 0xc0, 0x23, 0x6f, 0x3c, 0xc0, 0x39, 0xb9, 0xbc, 0x22, 0x75, 0x63, 0xbd, 0xea, 0xc1, 0xa1, 0xbd, 0x5c, 0x15, 0x07, 0x3d, 0xd4, 0x2e, 0xe9, 0x3d, 0x55, 0xd5, 0x89, 0xbd, 0x40, 0xfa, 0x24, 0xbc, 0x0f, 0xfe, 0x7f, 0x3d, 0x42, 0x41, 0x2a, 0xbd, 0x25, 0xdb, 0xe9, 0xbd, 0xc4, 0x50, 0xe3, 0xbd, 0x5e, 0xa0, 0xc0, 0xbd, 0x6a, 0x5f, 0x9d, 0xbc, 0x34, 0x32, 0xbd, 0x3d, 0xea, 0xc3, 0x6c, 0xbd, 0x82, 0xb0, 0x18, 0x3d, 0xc6, 0xa9, 0xc7, 0x3d, 0xd0, 0x4f, 0x4e, 0x3c, 0x5a, 0x60, 0x17, 0x3e, 0xe5, 0x40, 0x4e, 0xbc, 0xf3, 0x45, 0xbb, 0x3d, 0x4c, 0x94, 0x6b, 0xbd, 0xab, 0x8d, 0x07, 0x3e, 0x2c, 0xd9, 0x26, 0x3d, 0x4c, 0xa3, 0x97, 0xbd, 0xec, 0x86, 0x75, 0x3d, 0x2a, 0x27, 0x93, 0xbd, 0x41, 0x9f, 0x59, 0x3d, 0x6c, 0x4e, 0xe6, 0x3d, 0xa4, 0xf9, 0x3a, 0xbd, 0xcf, 0x44, 0x41, 0xbe, 0x14, 0x91, 0xd1, 0x3d, 0x1f, 0xf7, 0x09, 0x3e, 0xce, 0x7a, 0x56, 0xbd, 0x87, 0x12, 0x7c, 0x3c, 0xa5, 0x87, 0xa2, 0xbd, 0xca, 0xe0, 0xab, 0xbd, 0x78, 0xc9, 0xf4, 0xbd, 0xe2, 0xb6, 0x0a, 0x3e, 0xe4, 0x25, 0x0f, 0xbd, 0x2c, 0x40, 0x16, 0x3e, 0x30, 0x8d, 0xe2, 0x3d, 0x88, 0x17, 0xa1, 0x3d, 0x00, 0xc2, 0x09, 0x3d, 0xd8, 0xc5, 0x77, 0xbc, 0x49, 0x55, 0xa4, 0x3d, 0xb0, 0xba, 0x5b, 0xbd, 0x41, 0xa3, 0x01, 0x3e, 0x90, 0xce, 0x94, 0x3d, 0xc9, 0x08, 0x4f, 0x3d, 0x57, 0x81, 0x10, 0x3c, 0xc0, 0x9d, 0x78, 0x3d, 0x13, 0xaa, 0xfc, 0x3d, 0x3e, 0xa9, 0x3f, 0xbd, 0x85, 0xe5, 0xeb, 0xbc, 0x01, 0x72, 0x6c, 0xbc, 0xea, 0x81, 0x04, 0x3e, 0x6a, 0x51, 0x90, 0x3d, 0xc0, 0xf9, 0x5a, 0x3d, 0x71, 0xfe, 0x8c, 0xbd, 0x42, 0xf5, 0x11, 0x3e, 0x74, 0xc1, 0x3e, 0x3d, 0xa8, 0x11, 0x7e, 0xbd, 0xc0, 0x31, 0x6c, 0xbd, 0x15, 0xa9, 0x88, 0x3e, 0x13, 0x42, 0x1c, 0x3e, 0xe4, 0x6c, 0x17, 0x3d, 0x0b, 0x1f, 0xf4, 0x3d, 0xf0, 0x82, 0x5c, 0x3d, 0xe0, 0xa3, 0x13, 0xbe, 0x48, 0xa2, 0x08, 0xbe, 0x64, 0xc7, 0x0e, 0x3d, 0x1c, 0xa8, 0x43, 0xbd, 0xb0, 0x30, 0x13, 0xbc, 0xc0, 0xbd, 0x19, 0xbc, 0xb8, 0xfe, 0xea, 0xbd, 0xc2, 0xe3, 0x16, 0x3e, 0xa9, 0x79, 0xe1, 0x3c, 0xe6, 0x34, 0x1b, 0x3e, 0x67, 0xbc, 0xb4, 0xbb, 0x73, 0xd6, 0x95, 0xbd, 0x6b, 0x51, 0xbd, 0xbd, 0xcd, 0xe3, 0x11, 0x3e, 0xd2, 0x99, 0x05, 0x3e, 0x6f, 0xc7, 0xec, 0x3c, 0x01, 0xbc, 0xd7, 0xbd, 0x3d, 0x8a, 0xc5, 0xbd, 0x10, 0xb3, 0x1d, 0x3d, 0x14, 0xb7, 0xb3, 0x3d, 0x80, 0x94, 0x6f, 0xbd, 0x0f, 0xae, 0x5d, 0x3d, 0x75, 0xf1, 0x89, 0xbd, 0x6e, 0x5b, 0xf4, 0x3d, 0x44, 0xaa, 0x37, 0x3d, 0x17, 0x0e, 0x1f, 0x3e, 0x93, 0x90, 0x11, 0xbe, 0x88, 0x6d, 0x8b, 0xbc, 0xdb, 0x8f, 0x4b, 0x3d, 0x81, 0x94, 0xf3, 0xbd, 0xa9, 0xd6, 0xd0, 0x3d, 0x02, 0x30, 0xa1, 0xbc, 0x48, 0x3f, 0x39, 0x3d, 0x36, 0x60, 0x44, 0xbd, 0x10, 0x27, 0x78, 0xbd, 0xb0, 0x9d, 0x95, 0xbc, 0xc0, 0xb0, 0x9c, 0x3d, 0x6d, 0xdf, 0xda, 0xbd, 0xf1, 0x61, 0x21, 0xbd, 0xae, 0x5a, 0x8a, 0x3d, 0x76, 0x79, 0x00, 0xbe, 0x36, 0x62, 0x94, 0x3d, 0x20, 0xc1, 0x1f, 0x3c, 0x56, 0xb5, 0x10, 0xbd, 0x7c, 0x9d, 0x27, 0xbd, 0xe0, 0x4a, 0x5c, 0xbd, 0xd4, 0xe1, 0x78, 0x3d, 0xb8, 0x79, 0x95, 0xbd, 0xbe, 0xb8, 0xf8, 0x3d, 0xa8, 0x8f, 0xd3, 0xbc, 0x9e, 0x00, 0x8b, 0xbd, 0x12, 0xd5, 0x16, 0xbe, 0xea, 0xbb, 0x45, 0xbd, 0x66, 0x3a, 0xb5, 0x3a, 0x68, 0x46, 0xd7, 0x3d, 0xc1, 0xa5, 0x06, 0x3e, 0x72, 0xab, 0x02, 0xbb, 0x36, 0xd1, 0xe0, 0xbd, 0x05, 0x3e, 0xb8, 0xbd, 0xac, 0x35, 0x04, 0x3d, 0x87, 0xd9, 0x1a, 0xbe, 0x4c, 0x61, 0x04, 0x3d, 0x18, 0x51, 0xbb, 0xbd, 0xfe, 0xcb, 0x8e, 0xbd, 0xc1, 0xbd, 0xf6, 0xbd, 0x08, 0xde, 0xeb, 0x3d, 0xec, 0xfb, 0xb0, 0x3d, 0x18, 0x64, 0xad, 0x3c, 0x1c, 0xf1, 0x4c, 0x3d, 0x64, 0xfc, 0xe5, 0xbc, 0xf5, 0x87, 0xed, 0xbd, 0xe3, 0x2f, 0x9b, 0x3d, 0xd0, 0x8d, 0x81, 0x3c, 0xf3, 0xca, 0xc2, 0x3d, 0xdc, 0xd7, 0x04, 0xbd, 0x8a, 0x85, 0x53, 0x3b, 0xd3, 0xb0, 0x8c, 0x3c, 0x94, 0x24, 0xc5, 0xbd, 0xd8, 0x1b, 0xcb, 0xbd, 0x00, 0xad, 0x7e, 0xbb, 0x40, 0xbc, 0x28, 0x3c, 0x95, 0xe2, 0x0c, 0xbe, 0xaa, 0x92, 0x9b, 0xbd, 0x64, 0x2c, 0x11, 0xbd, 0x14, 0x52, 0xb1, 0x3d, 0x38, 0xc6, 0x45, 0x3d, 0x40, 0x6e, 0x83, 0xbb, 0x40, 0xa4, 0x10, 0xbc, 0xb8, 0x5a, 0x2d, 0xbd, 0x90, 0xb5, 0x1b, 0xbc, 0x9c, 0x73, 0xf6, 0xbd, 0xfc, 0xc2, 0xaa, 0xbd, 0xae, 0x83, 0x18, 0x3e, 0xef, 0x4b, 0xb2, 0x3c, 0x00, 0x9a, 0xe6, 0x3b, 0x8a, 0x41, 0x24, 0x3e, 0xc6, 0x01, 0x40, 0xbe, 0x88, 0x6f, 0x96, 0xbc, 0x3f, 0x53, 0xf8, 0x3d, 0xe4, 0x36, 0x43, 0x3d, 0xf6, 0xdf, 0xd5, 0x3d, 0x73, 0x63, 0x0c, 0xbe, 0x64, 0x7b, 0x1d, 0xbd, 0x13, 0xc7, 0xe0, 0x3d, 0xee, 0xc5, 0x13, 0x3e, 0x74, 0xbe, 0xd4, 0xbc, 0xac, 0x07, 0x02, 0x3e, 0x02, 0x9d, 0x19, 0x3e, 0x5d, 0x4e, 0x2e, 0x3d, 0x70, 0xae, 0xb9, 0xbd, 0xc3, 0x78, 0x03, 0x3e, 0xac, 0xf7, 0x22, 0xbe, 0xa2, 0xe2, 0xb5, 0x3d, 0x9c, 0x96, 0x82, 0xbd, 0xf2, 0x77, 0x0d, 0xbe, 0x3c, 0xe3, 0xa7, 0xbd, 0xa8, 0x21, 0xe9, 0x3c, 0xd3, 0xdb, 0x03, 0xbe, 0x8a, 0xb5, 0xc9, 0x3c, 0x74, 0xe8, 0xb2, 0x3d, 0x67, 0xc9, 0x5f, 0x3d, 0x7c, 0x66, 0x1c, 0x3d, 0xac, 0xd3, 0xd2, 0xbd, 0x0d, 0x1f, 0xf8, 0x3d, 0x04, 0x6a, 0xc1, 0x3d, 0xc1, 0x11, 0x1f, 0xbd, 0xb7, 0x74, 0xa3, 0x3d, 0x3c, 0xd2, 0x02, 0xbe, 0xaf, 0x75, 0xde, 0x3b, 0x68, 0xee, 0x8f, 0x3d, 0x0c, 0x73, 0xcb, 0x3c, 0x81, 0x90, 0xf8, 0xbc, 0x1f, 0x73, 0xd9, 0xbd, 0x15, 0x9d, 0x12, 0x3c, 0x86, 0x7d, 0xae, 0x3d, 0x48, 0xab, 0x2b, 0x3d, 0xea, 0x7a, 0xe0, 0xbc, 0x3a, 0x85, 0xf5, 0xbd, 0xc0, 0x43, 0x77, 0xbd, 0xb8, 0xd0, 0xd3, 0x3c, 0x9d, 0x40, 0x08, 0xbe, 0x3a, 0xa0, 0x81, 0xbd, 0x6f, 0xa1, 0x15, 0xbe, 0x6c, 0x16, 0xcb, 0x3d, 0xf6, 0xc4, 0x7a, 0xbd, 0x6f, 0xdb, 0x20, 0x3b, 0xcb, 0x1c, 0x13, 0xbe, 0x88, 0x44, 0xda, 0xbc, 0x56, 0xb0, 0xb5, 0x3d, 0x19, 0x21, 0x8f, 0xbd, 0x38, 0x66, 0x7b, 0xbd, 0x32, 0x60, 0x46, 0x3b, 0x50, 0x51, 0x18, 0x3e, 0x80, 0xe6, 0xcd, 0xbd, 0x60, 0xa1, 0x15, 0x3d, 0xa8, 0x81, 0x06, 0xbe, 0x88, 0x9e, 0xd6, 0xbd, 0x5e, 0x2a, 0xed, 0xbd, 0x4a, 0x56, 0xfb, 0xbb, 0xde, 0x2e, 0x10, 0xbe, 0xdc, 0x56, 0xaa, 0x3d, 0xc3, 0x96, 0xab, 0x3d, 0x53, 0x3b, 0xf6, 0xbd, 0xe6, 0x65, 0x51, 0x3b, 0xc8, 0xe3, 0xd7, 0x3c, 0x1c, 0x10, 0x10, 0x3e, 0xa0, 0xe1, 0x65, 0x3d, 0x28, 0x4a, 0x0c, 0x3e, 0xa7, 0x1a, 0x9b, 0x3d, 0x98, 0xc0, 0xcb, 0x3d, 0x14, 0x60, 0xe2, 0xbd, 0x38, 0x33, 0x50, 0xbd, 0x44, 0xc0, 0x06, 0xbd, 0xeb, 0x9b, 0x90, 0xbd, 0xd6, 0xad, 0x81, 0x3d, 0xd0, 0xb3, 0xf1, 0x3d, 0x90, 0x26, 0x11, 0x3d, 0xf8, 0x72, 0xe8, 0x3d, 0x96, 0x88, 0x92, 0x3d, 0xa0, 0xfb, 0xa9, 0xbd, 0xb8, 0xda, 0xb5, 0x3d, 0x9d, 0xda, 0xd8, 0xbd, 0x0e, 0xb0, 0xbc, 0xbd, 0x7c, 0x56, 0x65, 0xbd, 0xcc, 0x14, 0x3a, 0xbd, 0xe0, 0x0b, 0x83, 0xbc, 0x24, 0x48, 0x93, 0xbd, 0x1a, 0x9d, 0x7c, 0xbd, 0x2d, 0xcb, 0xec, 0x3c, 0xdb, 0xc2, 0x8b, 0xbd, 0x18, 0xe6, 0x10, 0xbe, 0xaf, 0x63, 0xc2, 0x3d, 0xdc, 0xbb, 0x5e, 0x3d, 0xae, 0x07, 0xb4, 0xbd, 0x38, 0x9f, 0xdd, 0x3d, 0x8c, 0x92, 0x20, 0x3d, 0x20, 0x45, 0xef, 0x3b, 0x6a, 0xa7, 0x06, 0x3e, 0x69, 0x59, 0xf5, 0x3d, 0xc9, 0xbf, 0xdd, 0xbd, 0x47, 0xeb, 0xed, 0x3d, 0xf4, 0x5a, 0x6a, 0xbd, 0x80, 0xb4, 0x01, 0x3e, 0x97, 0x21, 0x06, 0x3e, 0xe8, 0x59, 0x79, 0xbd, 0xfc, 0xb7, 0x92, 0x3d, 0xd2, 0x5a, 0x0b, 0xbe, 0x34, 0x04, 0x8c, 0x3d, 0x89, 0x5b, 0x8f, 0xbd, 0x60, 0x83, 0x88, 0xbb, 0x64, 0xc0, 0x1f, 0x3d, 0x44, 0x92, 0x0e, 0x3e, 0xe4, 0xb3, 0xcb, 0x3d, 0x3f, 0xcd, 0xca, 0xbd, 0xf3, 0x69, 0x11, 0xbe, 0x04, 0x34, 0x02, 0xbd, 0x30, 0xef, 0x0d, 0x3d, 0x38, 0x50, 0x25, 0xbd, 0x55, 0x40, 0xdf, 0x3d, 0x30, 0x10, 0xaf, 0xbc, 0x77, 0x3d, 0xa4, 0xbd, 0x5e, 0x73, 0xfa, 0x3d, 0xd8, 0x6b, 0x02, 0x3e, 0x26, 0x3f, 0xc7, 0xbd, 0x83, 0x28, 0x1b, 0xbe, 0x2a, 0xab, 0x11, 0x3e, 0xd0, 0x52, 0x27, 0x3d, 0x2c, 0x4b, 0x10, 0x3e, 0x42, 0xba, 0x03, 0x3e, 0xed, 0x4c, 0xe2, 0xbd, 0x86, 0xdc, 0x90, 0xbc, 0xd6, 0x03, 0xc8, 0x3d, 0x30, 0xd5, 0x4a, 0x3c, 0x96, 0x16, 0x88, 0x3d, 0x26, 0xc7, 0x37, 0xbd, 0xc2, 0xf9, 0xf7, 0xbd, 0x96, 0x29, 0x38, 0x3d, 0xc0, 0xbd, 0x4e, 0x3d, 0xf0, 0xe9, 0x04, 0x3d, 0x30, 0xe1, 0xcf, 0xbc, 0x8c, 0xda, 0x4c, 0x3d, 0x33, 0x61, 0xbe, 0xbd, 0x80, 0xb5, 0x96, 0xba, 0x7d, 0x54, 0xd2, 0x3b, 0xac, 0x13, 0xcd, 0xbd, 0x8c, 0xa6, 0x69, 0x3d, 0xa4, 0xfa, 0x4a, 0x3d, 0xae, 0x20, 0x17, 0x3e, 0x6c, 0xb0, 0x05, 0xbe, 0x48, 0x9a, 0xed, 0x3d, 0x40, 0xc7, 0x8e, 0x3c, 0x10, 0x78, 0x15, 0xbc, 0x4c, 0xe6, 0x87, 0x3d, 0xe2, 0x4d, 0x14, 0xbe, 0x71, 0x76, 0x18, 0xbe, 0x18, 0x39, 0xa9, 0x3d, 0xe4, 0xc4, 0xd4, 0xbd, 0xdc, 0x37, 0x3e, 0x3d, 0x51, 0x3c, 0xac, 0x3b, 0xce, 0x64, 0x90, 0xbd, 0x25, 0xf0, 0x93, 0xbd, 0x40, 0xda, 0xbe, 0xbc, 0x34, 0xc0, 0x7c, 0x3d, 0xab, 0x6c, 0xf1, 0xbc, 0xc0, 0x5d, 0x53, 0x3d, 0x2d, 0xef, 0x45, 0x3d, 0x50, 0x23, 0xfe, 0xbd, 0x8a, 0xa3, 0x45, 0xbd, 0xb9, 0x5e, 0x0f, 0xbe, 0x00, 0x04, 0xc8, 0xbc, 0x80, 0xd1, 0x72, 0x3d, 0x9a, 0x13, 0x04, 0xbe, 0x98, 0xbd, 0xce, 0x3d, 0x13, 0x00, 0x9e, 0xbd, 0x80, 0xf0, 0x0f, 0x3b, 0xe0, 0x9b, 0x84, 0xbb, 0x0e, 0xed, 0x5e, 0xbd, 0x90, 0xed, 0xe0, 0x3c, 0x5b, 0x87, 0x23, 0x3d, 0x4a, 0xd3, 0x04, 0x3e, 0x24, 0x72, 0x16, 0x3d, 0x28, 0xe2, 0xc2, 0x3d, 0x00, 0x6a, 0xfc, 0x3c, 0x30, 0xc6, 0xec, 0xbd, 0x2e, 0x14, 0xa7, 0x3d, 0x78, 0x0d, 0xc0, 0xbc, 0x18, 0xfe, 0x14, 0x3e, 0x5a, 0xdc, 0xc8, 0xbd, 0x76, 0x4e, 0x20, 0xbd, 0xb2, 0xb3, 0x3a, 0xbd, 0xa8, 0x28, 0x39, 0x3d, 0xba, 0x44, 0x05, 0xbe, 0x8c, 0x0d, 0x0e, 0xbe, 0x3e, 0xf1, 0x9b, 0x3d, 0x54, 0xc6, 0xed, 0xbd, 0xdd, 0x6c, 0x5c, 0x3d, 0x53, 0x5b, 0xab, 0x3c, 0x18, 0x8a, 0x13, 0x3e, 0xc8, 0x44, 0xbd, 0xbc, 0xcc, 0xd8, 0x18, 0xbe, 0x5f, 0xa3, 0xf6, 0xbd, 0xf8, 0x49, 0x0b, 0xbe, 0x49, 0xba, 0x03, 0xbe, 0x18, 0xd8, 0xf5, 0xbc, 0x9e, 0x4c, 0xa5, 0x3d, 0xe5, 0x06, 0x0d, 0xbe, 0xd0, 0x5d, 0x19, 0xbe, 0x61, 0x49, 0x0e, 0xbe, 0x4f, 0xf2, 0x12, 0x3d, 0xcd, 0x81, 0x8c, 0xbd, 0xfa, 0xff, 0x91, 0x3d, 0xc8, 0x2e, 0x94, 0x3d, 0x14, 0xdf, 0xf1, 0x3d, 0x8a, 0x2c, 0xf8, 0xbd, 0x60, 0xb7, 0x71, 0xbd, 0x68, 0x31, 0x70, 0x3d, 0x10, 0xb8, 0x88, 0x3d, 0x90, 0xb6, 0x0c, 0xbc, 0xa7, 0x82, 0xab, 0xbd, 0xd6, 0x8a, 0x14, 0x3e, 0x8c, 0x57, 0xcc, 0x3d, 0xce, 0x3e, 0x06, 0x3e, 0xb6, 0x84, 0x1d, 0xbd, 0xee, 0x64, 0x8f, 0xbd, 0xa8, 0x9b, 0xe4, 0x3d, 0x96, 0x9f, 0xe9, 0x3d, 0x11, 0x7a, 0xa5, 0xbd, 0xd3, 0x4d, 0x8f, 0xbd, 0x32, 0x51, 0x09, 0xbe, 0xbd, 0xfc, 0x93, 0xbd, 0x50, 0xef, 0x99, 0xbc, 0x48, 0x7a, 0x7e, 0x3d, 0xa8, 0x24, 0x37, 0x3d, 0x7f, 0x6e, 0xaf, 0x3d, 0x64, 0x2d, 0xc7, 0xbd, 0x1e, 0x39, 0x7a, 0x3d, 0xc5, 0x25, 0x82, 0xbc, 0x78, 0x5a, 0x69, 0xbd, 0x8c, 0x37, 0x0f, 0x3e, 0xf0, 0xa3, 0x37, 0xbc, 0x5f, 0x67, 0xf5, 0xbd, 0x46, 0x57, 0x27, 0x3d, 0xc2, 0xa4, 0x0c, 0xbe, 0xb9, 0x89, 0xa4, 0x3d, 0xec, 0xc4, 0xf0, 0x3d, 0x12, 0x24, 0x7c, 0xbd, 0x2f, 0x76, 0x45, 0xbd, 0x28, 0x9d, 0xae, 0x3d, 0xcc, 0x74, 0xbe, 0x3c, 0x88, 0x5f, 0x16, 0x3e, 0x71, 0x5d, 0xde, 0x3d, 0x2d, 0xea, 0xb3, 0x3d, 0xe8, 0xee, 0x03, 0x3d, 0xba, 0xa8, 0xa1, 0xbd, 0xa2, 0x75, 0xbd, 0x3d, 0xc0, 0x21, 0x9c, 0x3c, 0x38, 0x8f, 0x88, 0xbd, 0x66, 0x25, 0x95, 0x3d, 0xff, 0xa0, 0xd0, 0x3c, 0xfc, 0x03, 0x5b, 0xbd, 0xc6, 0x25, 0x44, 0x3d, 0x63, 0xe5, 0xef, 0x3c, 0xd0, 0xde, 0x09, 0xbd, 0x18, 0x44, 0xa2, 0x3d, 0x2c, 0xf3, 0x16, 0x3d, 0xd1, 0x08, 0x6f, 0xbd, 0xc7, 0xf8, 0xc1, 0x3d, 0x06, 0x6d, 0x63, 0xbd, 0x63, 0x08, 0x9d, 0xbd, 0xdc, 0x5b, 0x17, 0xbe, 0x7c, 0xc1, 0x12, 0xbd, 0x0c, 0x91, 0xdc, 0x3d, 0x08, 0x0d, 0x8b, 0x3c, 0xfd, 0xcb, 0xda, 0xbb, 0x54, 0xf4, 0x1f, 0xbd, 0x14, 0x20, 0xae, 0x39, 0xdd, 0xb6, 0x97, 0x3d, 0xf4, 0x3b, 0x78, 0xbd, 0x71, 0x5b, 0x14, 0x3e, 0x7a, 0x8d, 0xe8, 0xbd, 0xc5, 0x14, 0xf2, 0x3d, 0x4f, 0x8e, 0x04, 0xbe, 0x6e, 0x19, 0x04, 0x3e, 0x9a, 0x98, 0xbb, 0xbd, 0x18, 0xd1, 0xa4, 0x3c, 0x84, 0x1e, 0xed, 0x3d, 0x18, 0x42, 0xcb, 0x3c, 0x36, 0x02, 0x1d, 0xbd, 0xa0, 0x27, 0x92, 0x3d, 0xc4, 0x11, 0x93, 0xbd, 0xb8, 0x63, 0x0e, 0x3e, 0xc6, 0x7c, 0xd2, 0xbd, 0xa0, 0x7b, 0x52, 0xbc, 0xaf, 0xe9, 0x32, 0xbd, 0x08, 0xcb, 0x97, 0x3c, 0x88, 0xc8, 0x8d, 0x3d, 0xfc, 0x68, 0x2b, 0x3e, 0x5f, 0x9a, 0xac, 0xbd, 0x6d, 0xea, 0xd5, 0xbd, 0x20, 0xf8, 0xbc, 0x3c, 0x1e, 0x45, 0x49, 0xbd, 0xd4, 0xb4, 0x32, 0xbd, 0x1c, 0xbd, 0x5b, 0xbd, 0xeb, 0xf4, 0x17, 0x3c, 0x24, 0xf6, 0x51, 0x3d, 0x84, 0xae, 0x1a, 0x3e, 0x0c, 0xaa, 0xcf, 0x3d, 0x9c, 0x42, 0x0a, 0x3e, 0xc8, 0x39, 0x71, 0xbc, 0x69, 0x6c, 0xa8, 0xbd, 0x7d, 0xf4, 0xc9, 0x3c, 0x80, 0x5f, 0x5f, 0x3d, 0x9c, 0x6c, 0xa5, 0xbd, 0xd0, 0x47, 0xd8, 0xbc, 0x40, 0xa1, 0x10, 0x3e, 0x98, 0xde, 0x22, 0x3e, 0xe7, 0x0f, 0x01, 0xbd, 0xb4, 0x69, 0x8f, 0xbd, 0x3e, 0x6a, 0xbb, 0xbd, 0x36, 0x5b, 0x29, 0xbd, 0xb6, 0x11, 0x0d, 0xbd, 0x34, 0xcf, 0xfb, 0xbc, 0xa0, 0x46, 0x6b, 0xbd, 0x6d, 0x3c, 0xa9, 0x3d, 0xba, 0x17, 0x94, 0x3d, 0x3c, 0x76, 0xf0, 0xbd, 0xb6, 0xcc, 0xf5, 0x3c, 0x89, 0x41, 0x94, 0xbd, 0x71, 0xac, 0xe3, 0x3d, 0xcc, 0x92, 0x93, 0x3d, 0x82, 0xdc, 0xfc, 0x3b, 0xf5, 0xc4, 0x6d, 0xbc, 0x7c, 0x60, 0x19, 0xbe, 0x80, 0x6c, 0x8f, 0xbc, 0xed, 0xf2, 0xab, 0xbd, 0x70, 0x49, 0x18, 0xbe, 0x7b, 0xa5, 0x13, 0xbe, 0x40, 0xf7, 0x9f, 0x3b, 0x58, 0xf5, 0xf7, 0x3d, 0x38, 0x00, 0xab, 0x3d, 0xe0, 0x97, 0x19, 0x3d, 0xcf, 0x1c, 0xc4, 0xbd, 0xfc, 0xf4, 0x25, 0x3d, 0xc6, 0xcc, 0xd0, 0x3d, 0x70, 0x07, 0xcc, 0x3d, 0x93, 0x1c, 0x56, 0x3d, 0x15, 0x66, 0xc1, 0x3d, 0xa0, 0x7a, 0x58, 0xbc, 0xa1, 0x33, 0x7e, 0x3d, 0xd8, 0xb5, 0x35, 0x3d, 0x05, 0x02, 0x1f, 0x3d, 0xe3, 0xb3, 0x5c, 0xbd, 0x0e, 0x91, 0x84, 0xbd, 0x18, 0x71, 0x01, 0x3e, 0x20, 0xe7, 0x72, 0x3c, 0x00, 0xa5, 0x19, 0x3d, 0x49, 0x4c, 0x0b, 0x3d, 0xa4, 0xb9, 0xff, 0x3d, 0x27, 0x1e, 0x03, 0x3e, 0x86, 0x43, 0x12, 0xbd, 0x20, 0xd6, 0x00, 0x3e, 0x2b, 0xa8, 0x8d, 0xbd, 0xd0, 0xb2, 0xd6, 0x3d, 0x7d, 0x71, 0x44, 0xbd, 0x8e, 0x9e, 0x0a, 0x3e, 0xbf, 0xd8, 0x97, 0x3d, 0xc0, 0xa4, 0xd8, 0xbd, 0xf2, 0xff, 0x8c, 0x3d, 0x7c, 0x9e, 0x88, 0x3d, 0x92, 0xab, 0xa7, 0x3d, 0x8f, 0xcf, 0xd0, 0xbd, 0x5c, 0x3f, 0x90, 0xba, 0x9a, 0x8d, 0x15, 0x3e, 0xf5, 0xe9, 0x2f, 0x3d, 0x80, 0xad, 0x42, 0xbc, 0xe0, 0xa1, 0x36, 0xbb, 0xc6, 0xf8, 0xb9, 0xbd, 0x9c, 0x28, 0xb3, 0x3d, 0x15, 0x04, 0xd0, 0x3b, 0x0a, 0xe2, 0xa5, 0xbd, 0x25, 0x34, 0xa0, 0xbd, 0xdb, 0x24, 0x78, 0x3d, 0x58, 0xc3, 0xe0, 0xbc, 0x65, 0xec, 0xba, 0x3d, 0x3c, 0xc0, 0xd3, 0x3d, 0xd5, 0xed, 0x5c, 0x3d, 0xdb, 0xb3, 0x43, 0x3d, 0xa0, 0x62, 0xa8, 0x3b, 0x57, 0x42, 0xea, 0xbc, 0x01, 0x81, 0xad, 0xbd, 0x5d, 0x2f, 0x2e, 0x3d, 0xe6, 0xd4, 0xcb, 0x3d, 0xfc, 0x17, 0xfd, 0x3d, 0x96, 0xb6, 0x75, 0x3d, 0x6c, 0x41, 0xec, 0xbd, 0x76, 0x13, 0x97, 0x3c, 0xd2, 0xaa, 0x89, 0xbd, 0x10, 0xa9, 0xfe, 0xbd, 0x64, 0x73, 0xe3, 0xbd, 0x16, 0x5d, 0x17, 0x3e, 0x80, 0xe4, 0x35, 0x3d, 0x71, 0x9f, 0x04, 0xbe, 0x38, 0x9c, 0xe1, 0x3c, 0x7a, 0x5f, 0x82, 0xbd, 0xac, 0x6c, 0x04, 0x3d, 0x2c, 0xd2, 0x32, 0xbd, 0xa7, 0x59, 0x95, 0xbd, 0xc8, 0x5c, 0xde, 0x3d, 0xca, 0x8d, 0x63, 0x3d, 0x30, 0x37, 0x7c, 0x3c, 0x42, 0x30, 0xdf, 0x3d, 0x50, 0xe8, 0xf6, 0xbd, 0x68, 0x22, 0xf6, 0x3d, 0xb2, 0xad, 0xb7, 0xbd, 0x60, 0x7b, 0x0d, 0xbe, 0xf4, 0x9c, 0xe3, 0x3d, 0x79, 0xb0, 0x97, 0xbd, 0x16, 0x88, 0xc8, 0xbd, 0xf1, 0x7e, 0xe6, 0xbd, 0x90, 0xb0, 0x43, 0xbd, 0x5c, 0x53, 0x91, 0x3d, 0xd0, 0x21, 0x38, 0x3d, 0x19, 0x14, 0xe9, 0xbd, 0x4b, 0xb3, 0x4d, 0x3c, 0xfa, 0xe1, 0xe9, 0xbd, 0x69, 0xe2, 0x16, 0xbe, 0x27, 0x14, 0x18, 0xbe, 0x87, 0x57, 0x08, 0xbe, 0x22, 0x73, 0xb5, 0xbd, 0x64, 0xd7, 0x31, 0x3d, 0x4c, 0x89, 0xf6, 0x3d, 0x62, 0xf4, 0xad, 0x3d, 0x74, 0x61, 0x11, 0x3d, 0xe1, 0x35, 0x16, 0xbe, 0xa0, 0x4f, 0xbf, 0x3c, 0x0c, 0x6a, 0x99, 0x3d, 0xda, 0x13, 0x0f, 0xbd, 0x9d, 0x50, 0xbe, 0xbd, 0xd5, 0xd8, 0x57, 0xbd, 0x0c, 0x82, 0xbd, 0x3d, 0x88, 0xf7, 0xb0, 0x3d, 0xab, 0xef, 0x9a, 0x3d, 0x35, 0xa4, 0x87, 0xbd, 0xc2, 0xc1, 0x8e, 0xbb, 0x18, 0x49, 0x09, 0x3e, 0x28, 0xbf, 0x80, 0x3c, 0x8a, 0xf9, 0xf5, 0x3d, 0x22, 0x53, 0x19, 0x3e, 0xcc, 0x4b, 0xf9, 0xbc, 0xf8, 0x50, 0x73, 0x3d, 0xca, 0xa7, 0x03, 0xbd, 0xc4, 0xb7, 0xc7, 0xbd, 0x90, 0x71, 0x41, 0x3c, 0x91, 0xa5, 0xd2, 0x3d, 0x00, 0x3d, 0xe7, 0x3d, 0x1f, 0x04, 0xf8, 0xbd, 0x1d, 0x90, 0x7f, 0xbd, 0x20, 0xa4, 0x06, 0x3e, 0xcd, 0x78, 0xcf, 0x3d, 0xf2, 0x0f, 0x11, 0xbe, 0xd0, 0xad, 0x93, 0x3c, 0xa8, 0xf0, 0x7f, 0x3d, 0xdc, 0xb5, 0xde, 0x3d, 0xcd, 0xaf, 0x1a, 0xbe, 0x12, 0xc8, 0x19, 0xbd, 0x80, 0x9d, 0x69, 0x3b, 0xd4, 0x06, 0xdb, 0x3d, 0xde, 0xa0, 0x6e, 0xbd, 0xd9, 0x3c, 0x86, 0x3d, 0x70, 0x05, 0xee, 0xbd, 0xc6, 0x8c, 0xbb, 0xbd, 0xd8, 0xd6, 0x15, 0xbe, 0xa0, 0xe3, 0xef, 0x3c, 0xaf, 0x05, 0xad, 0x3d, 0x8a, 0xb7, 0x7e, 0xbd, 0x29, 0xfa, 0x05, 0xbe, 0x5b, 0xbb, 0x0d, 0xbe, 0xa0, 0x07, 0x9b, 0x3d, 0xfb, 0x9a, 0xb9, 0x3d, 0x36, 0x64, 0x05, 0x3e, 0x1c, 0xef, 0xe4, 0xbd, 0xe4, 0x27, 0xed, 0x3c, 0x98, 0x0a, 0xa0, 0x3d, 0x86, 0x3a, 0x1e, 0xbd, 0x7d, 0xa5, 0x8e, 0xbd, 0x42, 0xda, 0xf5, 0x3c, 0xca, 0x4e, 0x24, 0x3e, 0xee, 0x07, 0xe5, 0xbd, 0x5d, 0xd4, 0x85, 0x3d, 0x50, 0xbf, 0xf6, 0x3d, 0x9e, 0x6e, 0x98, 0xbd, 0x18, 0x5c, 0x9f, 0x3d, 0x67, 0x2f, 0xd1, 0xbd, 0xe3, 0x78, 0x96, 0x3d, 0x36, 0x72, 0x0d, 0xbd, 0xcf, 0xde, 0xc4, 0xbd, 0x8e, 0x93, 0x45, 0x3c, 0x82, 0x96, 0xba, 0xbd, 0x91, 0x91, 0x9f, 0xbd, 0x94, 0x33, 0x16, 0xbe, 0x06, 0xa3, 0x79, 0xbd, 0x62, 0xf7, 0xb3, 0x3d, 0x80, 0x31, 0xaa, 0xbc, 0x08, 0x36, 0x0e, 0xbe, 0x44, 0xfb, 0x1f, 0x3d, 0x72, 0x95, 0xb8, 0x3d, 0x6c, 0x85, 0x37, 0xbd, 0x90, 0x3c, 0x33, 0x3d, 0x12, 0xe5, 0xc8, 0xbd, 0xc0, 0x8d, 0x5d, 0xbd, 0x9c, 0xd4, 0x53, 0x3d, 0x50, 0x85, 0xe8, 0x3d, 0xeb, 0x74, 0xf0, 0xbd, 0xf6, 0xf9, 0xff, 0xff, 0x10, 0x00, 0x00, 0x00, 0x06, 0x00, 0x00, 0x00, 0x14, 0x00, 0x00, 0x00, 0x34, 0x00, 0x00, 0x00, 0x02, 0x00, 0x00, 0x00, 0x00, 0x01, 0x00, 0x00, 0x05, 0x00, 0x00, 0x00, 0x1d, 0x00, 0x00, 0x00, 0x53, 0x65, 0x71, 0x75, 0x65, 0x6e, 0x74, 0x69, 0x61, 0x6c, 0x2d, 0x4e, 0x4e, 0x2f, 0x64, 0x65, 0x6e, 0x73, 0x65, 0x5f, 0x33, 0x34, 0x2f, 0x4d, 0x61, 0x74, 0x4d, 0x75, 0x6c, 0x00, 0x00, 0x00, 0x74, 0xf9, 0xff, 0xff, 0x66, 0xfa, 0xff, 0xff, 0x04, 0x00, 0x00, 0x00, 0x64, 0x00, 0x00, 0x00, 0xb0, 0xcf, 0x46, 0x3e, 0xbf, 0x0c, 0x9e, 0x3d, 0x9b, 0x80, 0x09, 0xbf, 0x8e, 0x51, 0xcb, 0x3e, 0x71, 0x43, 0x22, 0xbe, 0xb0, 0x2b, 0xbb, 0xbd, 0x40, 0x75, 0xbe, 0x3e, 0x98, 0x5a, 0xb0, 0x3e, 0x24, 0x8b, 0x42, 0xbf, 0xe8, 0x6b, 0x91, 0x3d, 0x38, 0x13, 0x89, 0xbe, 0xa3, 0xd6, 0x1d, 0x3f, 0x60, 0x6c, 0x0a, 0xbf, 0xf6, 0x19, 0x9a, 0x3c, 0x11, 0x59, 0x58, 0xbf, 0xfc, 0xf3, 0x81, 0xbe, 0xb4, 0xb9, 0xf7, 0xbe, 0xef, 0x36, 0x5a, 0x3d, 0xce, 0xe5, 0x3a, 0x3e, 0x4e, 0xae, 0x4d, 0x3f, 0x7f, 0xf2, 0x38, 0xbf, 0x81, 0x8e, 0xdb, 0xbe, 0x08, 0xb7, 0xec, 0x3d, 0x28, 0x7d, 0xee, 0xbe, 0x18, 0x42, 0x7e, 0x3e, 0xae, 0xfa, 0xff, 0xff, 0x10, 0x00, 0x00, 0x00, 0x05, 0x00, 0x00, 0x00, 0x14, 0x00, 0x00, 0x00, 0x34, 0x00, 0x00, 0x00, 0x02, 0x00, 0x00, 0x00, 0x05, 0x00, 0x00, 0x00, 0x05, 0x00, 0x00, 0x00, 0x1d, 0x00, 0x00, 0x00, 0x53, 0x65, 0x71, 0x75, 0x65, 0x6e, 0x74, 0x69, 0x61, 0x6c, 0x2d, 0x4e, 0x4e, 0x2f, 0x64, 0x65, 0x6e, 0x73, 0x65, 0x5f, 0x33, 0x33, 0x2f, 0x4d, 0x61, 0x74, 0x4d, 0x75, 0x6c, 0x00, 0x00, 0x00, 0x2c, 0xfa, 0xff, 0xff, 0x1e, 0xfb, 0xff, 0xff, 0x04, 0x00, 0x00, 0x00, 0x0c, 0x00, 0x00, 0x00, 0x1d, 0x37, 0xb7, 0x3e, 0xa7, 0x9c, 0xe8, 0x3d, 0x27, 0xee, 0xd0, 0xbe, 0x0e, 0xfb, 0xff, 0xff, 0x10, 0x00, 0x00, 0x00, 0x04, 0x00, 0x00, 0x00, 0x10, 0x00, 0x00, 0x00, 0x48, 0x00, 0x00, 0x00, 0x01, 0x00, 0x00, 0x00, 0x03, 0x00, 0x00, 0x00, 0x36, 0x00, 0x00, 0x00, 0x53, 0x65, 0x71, 0x75, 0x65, 0x6e, 0x74, 0x69, 0x61, 0x6c, 0x2d, 0x4e, 0x4e, 0x2f, 0x64, 0x65, 0x6e, 0x73, 0x65, 0x5f, 0x33, 0x35, 0x2f, 0x42, 0x69, 0x61, 0x73, 0x41, 0x64, 0x64, 0x2f, 0x52, 0x65, 0x61, 0x64, 0x56, 0x61, 0x72, 0x69, 0x61, 0x62, 0x6c, 0x65, 0x4f, 0x70, 0x2f, 0x72, 0x65, 0x73, 0x6f, 0x75, 0x72, 0x63, 0x65, 0x00, 0x00, 0xa0, 0xfa, 0xff, 0xff, 0x92, 0xfb, 0xff, 0xff, 0x04, 0x00, 0x00, 0x00, 0x00, 0x04, 0x00, 0x00, 0x0b, 0x89, 0xe5, 0x3e, 0x28, 0xbc, 0xa4, 0xbe, 0x25, 0xeb, 0xba, 0xbe, 0x00, 0x00, 0x00, 0x00, 0xea, 0xfb, 0x6c, 0x3b, 0xc8, 0x29, 0xe2, 0xbe, 0xdf, 0xba, 0x64, 0xbe, 0x86, 0x1c, 0x44, 0x3e, 0x00, 0x00, 0x00, 0x00, 0x6e, 0xe4, 0x01, 0xbf, 0x00, 0x00, 0x00, 0x00, 0xb2, 0x8b, 0xcc, 0xbd, 0x00, 0x00, 0x00, 0x00, 0xb3, 0x34, 0x0c, 0x3e, 0x37, 0x37, 0x99, 0xbe, 0x07, 0xe2, 0x65, 0x3e, 0x00, 0x00, 0x00, 0x00, 0x00, 0x00, 0x00, 0x00, 0x69, 0x56, 0xc2, 0x3e, 0x7d, 0x31, 0x80, 0x3e, 0x4f, 0x24, 0x21, 0x11, 0x00, 0x00, 0x00, 0x00, 0x56, 0xd9, 0xf1, 0x3c, 0x8c, 0xf7, 0xdd, 0xbe, 0xdb, 0x0e, 0xda, 0x3e, 0x40, 0xf2, 0xbf, 0x3e, 0xf7, 0xb5, 0xbe, 0xbe, 0x2e, 0x3f, 0x6b, 0xbd, 0xa8, 0xb5, 0xb4, 0xbd, 0x91, 0x52, 0x6f, 0x3e, 0x00, 0x00, 0x00, 0x00, 0xa3, 0x94, 0xc7, 0xbe, 0x49, 0x83, 0x02, 0xbd, 0xad, 0xc5, 0x02, 0xbd, 0xfa, 0x00, 0x37, 0x3d, 0xf3, 0xc8, 0x91, 0x3e, 0x07, 0x91, 0x87, 0xb3, 0xbe, 0x27, 0x9c, 0xbe, 0x52, 0x24, 0xd6, 0x3c, 0x30, 0x4e, 0x48, 0xbb, 0x36, 0x2e, 0xe7, 0x92, 0xaf, 0x02, 0xed, 0xbe, 0x00, 0x00, 0x00, 0x00, 0x00, 0x00, 0x00, 0x00, 0x89, 0xd5, 0x83, 0x3e, 0x00, 0x00, 0x00, 0x00, 0x19, 0xb1, 0x53, 0x3c, 0x3a, 0x73, 0xa6, 0x3e, 0xbe, 0xfe, 0x22, 0xbe, 0x66, 0xee, 0xf0, 0xbe, 0x00, 0x00, 0x00, 0x00, 0x00, 0x00, 0x00, 0x00, 0x2a, 0x97, 0xc2, 0xbc, 0xd8, 0xba, 0x57, 0xbe, 0x00, 0x00, 0x00, 0x00, 0x4d, 0xb8, 0xbb, 0x3d, 0x9d, 0x24, 0xfd, 0xbe, 0x5a, 0x0d, 0xde, 0x3e, 0x00, 0x00, 0x00, 0x00, 0xd2, 0xcd, 0xca, 0x3e, 0x00, 0x00, 0x00, 0x00, 0xe9, 0x14, 0x9c, 0x3e, 0x0c, 0x90, 0xb1, 0x3e, 0x00, 0x00, 0x00, 0x00, 0x2f, 0x3b, 0x05, 0xbe, 0xb8, 0x99, 0x5e, 0xbe, 0x39, 0xcd, 0xac, 0x3e, 0xb0, 0x25, 0x26, 0xbe, 0x75, 0xe7, 0x96, 0xbe, 0x96, 0x37, 0xdc, 0xbe, 0x00, 0x00, 0x00, 0x00, 0x00, 0x00, 0x00, 0x00, 0x39, 0xd5, 0xe4, 0x3d, 0x1f, 0x88, 0xf1, 0x3d, 0x85, 0x87, 0x83, 0xbd, 0xb9, 0x9e, 0xa5, 0x3e, 0xe6, 0xfa, 0x67, 0x3b, 0x00, 0x00, 0x00, 0x00, 0xd0, 0x84, 0xbc, 0x2b, 0x00, 0x00, 0x00, 0x00, 0x00, 0x00, 0x00, 0x00, 0x0f, 0x46, 0xfe, 0xbe, 0x64, 0x39, 0xa1, 0xbe, 0x1d, 0x31, 0xa2, 0xbe, 0xd3, 0xd0, 0xa5, 0x3e, 0x4a, 0x52, 0x49, 0x3e, 0x92, 0x44, 0x64, 0xbb, 0xa0, 0x7d, 0x9d, 0xab, 0xe9, 0x96, 0xfe, 0xbe, 0x95, 0xf1, 0x00, 0xbf, 0x04, 0x34, 0x9d, 0xbe, 0x00, 0x00, 0x00, 0x00, 0xaa, 0x2a, 0xf5, 0xbe, 0x00, 0x00, 0x00, 0x00, 0x1d, 0xe8, 0x4b, 0xbc, 0x24, 0x99, 0xde, 0xbd, 0x02, 0xad, 0xd4, 0xbe, 0x56, 0xc0, 0x72, 0xbd, 0x00, 0x00, 0x00, 0x00, 0x38, 0x55, 0x84, 0x3e, 0xdd, 0x11, 0xda, 0xbe, 0x00, 0x00, 0x00, 0x00, 0x71, 0x6a, 0xe0, 0xbe, 0x56, 0xbe, 0xcb, 0x3d, 0xbf, 0xf5, 0xae, 0xbe, 0x76, 0x53, 0x2d, 0xbe, 0x9f, 0x72, 0xe0, 0x3e, 0x00, 0x00, 0x00, 0x00, 0x6b, 0x40, 0xac, 0xbe, 0x00, 0x00, 0x00, 0x00, 0x00, 0x00, 0x00, 0x00, 0x79, 0x30, 0x89, 0xbe, 0x00, 0x00, 0x00, 0x00, 0xa3, 0x93, 0x94, 0x3d, 0x00, 0x00, 0x00, 0x00, 0xa6, 0xae, 0xf7, 0xbe, 0x00, 0x00, 0x00, 0x00, 0xd0, 0xe5, 0x9d, 0x3e, 0x07, 0x29, 0x0b, 0xac, 0x00, 0x00, 0x00, 0x00, 0x00, 0x00, 0x00, 0x00, 0xb8, 0xbe, 0x34, 0x3e, 0x05, 0xcb, 0x6d, 0x31, 0x01, 0xa9, 0x64, 0xbd, 0x0c, 0xa5, 0x2f, 0x3e, 0x01, 0xff, 0x35, 0x3e, 0xc1, 0x30, 0xfc, 0xbd, 0x14, 0x13, 0x5e, 0x97, 0x09, 0xb5, 0xf5, 0x3e, 0x2f, 0xdf, 0xb7, 0xbe, 0x5e, 0x69, 0xd7, 0xbe, 0x0f, 0x83, 0x97, 0xbd, 0x0a, 0x3e, 0x5e, 0x3e, 0xf9, 0x91, 0x74, 0xbe, 0x00, 0x00, 0x00, 0x00, 0xdd, 0xdf, 0xe4, 0xbe, 0xcd, 0x0b, 0x20, 0xbe, 0x4a, 0xf4, 0xd2, 0xbe, 0xf0, 0xa3, 0x9b, 0x3c, 0x3f, 0x00, 0xea, 0x3e, 0x3a, 0xb7, 0xc6, 0xac, 0x69, 0x1f, 0x93, 0xaf, 0x35, 0x68, 0x21, 0x2e, 0x3c, 0x22, 0x9c, 0x3e, 0xdd, 0xad, 0xdf, 0xbe, 0x00, 0x00, 0x00, 0x00, 0x90, 0xea, 0x47, 0xbb, 0xd9, 0xce, 0x6d, 0x3d, 0x17, 0xba, 0xa3, 0xbd, 0x00, 0x00, 0x00, 0x00, 0x00, 0x00, 0x00, 0x00, 0x00, 0x00, 0x00, 0x00, 0x41, 0xb8, 0xbd, 0x3e, 0x58, 0xb6, 0x1a, 0x3e, 0xb9, 0x49, 0xd9, 0x3e, 0x33, 0x7e, 0xe0, 0x3c, 0x00, 0x00, 0x00, 0x00, 0x86, 0x71, 0x01, 0xbf, 0x17, 0xe0, 0x93, 0xbe, 0xd4, 0x12, 0xa7, 0x3e, 0x30, 0xe2, 0xac, 0xbc, 0x00, 0x00, 0x00, 0x00, 0xb1, 0xad, 0xaf, 0xbd, 0xab, 0x10, 0xaa, 0xbe, 0x00, 0x00, 0x00, 0x00, 0x3d, 0x4a, 0xea, 0x3e, 0x26, 0x5d, 0xae, 0x3d, 0x08, 0xc5, 0xcb, 0xbc, 0x00, 0x00, 0x00, 0x00, 0xa1, 0xe4, 0xb9, 0x3e, 0x00, 0x00, 0x00, 0x00, 0xf9, 0xc8, 0xe3, 0x3e, 0x00, 0x00, 0x00, 0x00, 0x72, 0x58, 0xf0, 0x3d, 0xc2, 0xe0, 0xf0, 0x3e, 0x08, 0x5c, 0xb4, 0x30, 0x00, 0x00, 0x00, 0x00, 0xaf, 0xa0, 0xd8, 0x3e, 0x00, 0x00, 0x00, 0x00, 0x4a, 0xd4, 0x8b, 0x3c, 0x24, 0x5d, 0xb4, 0xbe, 0x81, 0x31, 0xde, 0xbe, 0xe4, 0xcc, 0x50, 0x3b, 0x00, 0x00, 0x00, 0x00, 0x00, 0x00, 0x00, 0x00, 0x0b, 0x49, 0x3e, 0xbc, 0x45, 0x1e, 0xa0, 0xbc, 0x00, 0x00, 0x00, 0x00, 0x00, 0x00, 0x00, 0x00, 0xac, 0xec, 0x1a, 0xbd, 0x43, 0x89, 0xb2, 0x98, 0x00, 0x00, 0x00, 0x00, 0xbc, 0x3b, 0xc7, 0xbe, 0x00, 0x00, 0x00, 0x00, 0x00, 0x00, 0x00, 0x00, 0x89, 0x6e, 0x98, 0xbe, 0x00, 0x00, 0x00, 0x00, 0x4a, 0x14, 0x49, 0x2c, 0x9c, 0xa6, 0xc9, 0xbb, 0x00, 0x00, 0x00, 0x00, 0x03, 0x7e, 0xfb, 0x3e, 0x7b, 0xb8, 0x0f, 0x3e, 0x24, 0xce, 0xf3, 0xbe, 0x07, 0x41, 0x1f, 0x3e, 0x00, 0x00, 0x00, 0x00, 0x89, 0x82, 0xc5, 0xbe, 0x23, 0xc1, 0xd9, 0x3e, 0x02, 0x0b, 0x17, 0x29, 0x60, 0x93, 0xe4, 0xbe, 0xdf, 0x94, 0x3b, 0xbe, 0x00, 0x00, 0x00, 0x00, 0x92, 0x33, 0xda, 0xbe, 0x73, 0x0a, 0x82, 0x3e, 0x00, 0x00, 0x00, 0x00, 0xb7, 0xa4, 0xa2, 0xbd, 0x66, 0xdb, 0xa8, 0x3e, 0x17, 0x34, 0x8e, 0x3d, 0x00, 0x00, 0x00, 0x00, 0x47, 0xa7, 0x65, 0x3e, 0x0d, 0x69, 0xec, 0x3e, 0x00, 0x00, 0x00, 0x00, 0x95, 0x02, 0xf1, 0x3e, 0xb2, 0x82, 0xe9, 0x3e, 0x0f, 0x3a, 0xb2, 0xbd, 0xd8, 0xab, 0xd1, 0xbe, 0x26, 0xfe, 0x9c, 0x3e, 0x5b, 0x3a, 0x44, 0xbb, 0xd2, 0xd4, 0xc9, 0x3e, 0x8b, 0x7d, 0xcd, 0xbe, 0x37, 0x6f, 0x82, 0xbd, 0x12, 0x23, 0x23, 0x3e, 0x15, 0xae, 0x21, 0xbe, 0x30, 0x7b, 0xa6, 0xbe, 0x00, 0x00, 0x00, 0x00, 0x00, 0x00, 0x00, 0x00, 0x74, 0x72, 0xac, 0xbd, 0x00, 0x00, 0x00, 0x00, 0x00, 0x00, 0x00, 0x00, 0x20, 0xcc, 0x95, 0xbc, 0x6a, 0xea, 0x1c, 0x12, 0x00, 0x00, 0x00, 0x00, 0x2c, 0xa5, 0x31, 0xbd, 0xcb, 0x4b, 0x7d, 0x3e, 0x00, 0x00, 0x00, 0x00, 0x9b, 0x49, 0xa2, 0x3d, 0x46, 0x00, 0x7a, 0xbe, 0x00, 0x00, 0x00, 0x00, 0xbc, 0x81, 0xe5, 0xbe, 0xaf, 0xd6, 0x83, 0x3e, 0x1b, 0x61, 0x95, 0xbe, 0x96, 0xd1, 0xae, 0x3e, 0x3d, 0xdc, 0xb2, 0xbe, 0x80, 0xbd, 0x61, 0x3d, 0x96, 0xef, 0x12, 0x15, 0x00, 0x00, 0x00, 0x00, 0x90, 0x4b, 0x24, 0x15, 0x76, 0xff, 0xff, 0xff, 0x10, 0x00, 0x00, 0x00, 0x03, 0x00, 0x00, 0x00, 0x10, 0x00, 0x00, 0x00, 0x4c, 0x00, 0x00, 0x00, 0x01, 0x00, 0x00, 0x00, 0x00, 0x01, 0x00, 0x00, 0x36, 0x00, 0x00, 0x00, 0x53, 0x65, 0x71, 0x75, 0x65, 0x6e, 0x74, 0x69, 0x61, 0x6c, 0x2d, 0x4e, 0x4e, 0x2f, 0x64, 0x65, 0x6e, 0x73, 0x65, 0x5f, 0x33, 0x34, 0x2f, 0x42, 0x69, 0x61, 0x73, 0x41, 0x64, 0x64, 0x2f, 0x52, 0x65, 0x61, 0x64, 0x56, 0x61, 0x72, 0x69, 0x61, 0x62, 0x6c, 0x65, 0x4f, 0x70, 0x2f, 0x72, 0x65, 0x73, 0x6f, 0x75, 0x72, 0x63, 0x65, 0x00, 0x00, 0x04, 0x00, 0x06, 0x00, 0x04, 0x00, 0x00, 0x00, 0x00, 0x00, 0x06, 0x00, 0x08, 0x00, 0x04, 0x00, 0x06, 0x00, 0x00, 0x00, 0x04, 0x00, 0x00, 0x00, 0x14, 0x00, 0x00, 0x00, 0x8c, 0x3e, 0xcd, 0xbe, 0x00, 0x00, 0x00, 0x00, 0x07, 0x83, 0x16, 0x3d, 0x0d, 0x61, 0x05, 0x3e, 0x00, 0x00, 0x00, 0x00, 0x00, 0x00, 0x0e, 0x00, 0x14, 0x00, 0x04, 0x00, 0x00, 0x00, 0x08, 0x00, 0x0c, 0x00, 0x10, 0x00, 0x0e, 0x00, 0x00, 0x00, 0x10, 0x00, 0x00, 0x00, 0x02, 0x00, 0x00, 0x00, 0x10, 0x00, 0x00, 0x00, 0x48, 0x00, 0x00, 0x00, 0x01, 0x00, 0x00, 0x00, 0x05, 0x00, 0x00, 0x00, 0x36, 0x00, 0x00, 0x00, 0x53, 0x65, 0x71, 0x75, 0x65, 0x6e, 0x74, 0x69, 0x61, 0x6c, 0x2d, 0x4e, 0x4e, 0x2f, 0x64, 0x65, 0x6e, 0x73, 0x65, 0x5f, 0x33, 0x33, 0x2f, 0x42, 0x69, 0x61, 0x73, 0x41, 0x64, 0x64, 0x2f, 0x52, 0x65, 0x61, 0x64, 0x56, 0x61, 0x72, 0x69, 0x61, 0x62, 0x6c, 0x65, 0x4f, 0x70, 0x2f, 0x72, 0x65, 0x73, 0x6f, 0x75, 0x72, 0x63, 0x65, 0x00, 0x00, 0xa0, 0xff, 0xff, 0xff, 0x14, 0x00, 0x18, 0x00, 0x04, 0x00, 0x00, 0x00, 0x08, 0x00, 0x0c, 0x00, 0x10, 0x00, 0x00, 0x00, 0x00, 0x00, 0x14, 0x00, 0x14, 0x00, 0x00, 0x00, 0x14, 0x00, 0x00, 0x00, 0x01, 0x00, 0x00, 0x00, 0x18, 0x00, 0x00, 0x00, 0x34, 0x00, 0x00, 0x00, 0x24, 0x00, 0x00, 0x00, 0x02, 0x00, 0x00, 0x00, 0x01, 0x00, 0x00, 0x00, 0x05, 0x00, 0x00, 0x00, 0x0e, 0x00, 0x00, 0x00, 0x64, 0x65, 0x6e, 0x73, 0x65, 0x5f, 0x33, 0x33, 0x5f, 0x69, 0x6e, 0x70, 0x75, 0x74, 0x00, 0x00, 0x02, 0x00, 0x00, 0x00, 0xff, 0xff, 0xff, 0xff, 0x05, 0x00, 0x00, 0x00, 0xfc, 0xff, 0xff, 0xff, 0x04, 0x00, 0x04, 0x00, 0x04, 0x00, 0x00, 0x00};
const int model_data_len = 11084;