
#ifdef __has_attribute
#define HAVE_ATTRIBUTE(x) __has_attribute(x)
#else
#define HAVE_ATTRIBUTE(x) 0
#endif
#if HAVE_ATTRIBUTE(aligned) || (defined(__GNUC__) && !defined(__clang__))
#define DATA_ALIGN_ATTRIBUTE __attribute__((aligned(4)))
#else
#define DATA_ALIGN_ATTRIBUTE
#endif

const unsigned char model_data[] DATA_ALIGN_ATTRIBUTE = {0x1c, 0x00, 0x00, 0x00, 0x54, 0x46, 0x4c, 0x33, 0x00, 0x00, 0x12, 0x00, 0x1c, 0x00, 0x04, 0x00, 0x08, 0x00, 0x0c, 0x00, 0x10, 0x00, 0x14, 0x00, 0x00, 0x00, 0x18, 0x00, 0x12, 0x00, 0x00, 0x00, 0x03, 0x00, 0x00, 0x00, 0x14, 0x00, 0x00, 0x00, 0x1c, 0x00, 0x00, 0x00, 0xa8, 0x00, 0x00, 0x00, 0x1c, 0x00, 0x00, 0x00, 0x50, 0x00, 0x00, 0x00, 0x02, 0x00, 0x00, 0x00, 0x4c, 0x03, 0x00, 0x00, 0x6c, 0x01, 0x00, 0x00, 0x01, 0x00, 0x00, 0x00, 0xb0, 0x00, 0x00, 0x00, 0x0d, 0x00, 0x00, 0x00, 0xb8, 0x22, 0x00, 0x00, 0xb4, 0x22, 0x00, 0x00, 0xcc, 0x21, 0x00, 0x00, 0x58, 0x1d, 0x00, 0x00, 0xec, 0x1c, 0x00, 0x00, 0x38, 0x1c, 0x00, 0x00, 0xe4, 0x07, 0x00, 0x00, 0x90, 0x03, 0x00, 0x00, 0x98, 0x22, 0x00, 0x00, 0x94, 0x22, 0x00, 0x00, 0x90, 0x22, 0x00, 0x00, 0x8c, 0x22, 0x00, 0x00, 0x38, 0x00, 0x00, 0x00, 0x01, 0x00, 0x00, 0x00, 0x0c, 0x00, 0x00, 0x00, 0x08, 0x00, 0x0c, 0x00, 0x04, 0x00, 0x08, 0x00, 0x08, 0x00, 0x00, 0x00, 0x08, 0x00, 0x00, 0x00, 0x0c, 0x00, 0x00, 0x00, 0x13, 0x00, 0x00, 0x00, 0x6d, 0x69, 0x6e, 0x5f, 0x72, 0x75, 0x6e, 0x74, 0x69, 0x6d, 0x65, 0x5f, 0x76, 0x65, 0x72, 0x73, 0x69, 0x6f, 0x6e, 0x00, 0x9a, 0xde, 0xff, 0xff, 0x04, 0x00, 0x00, 0x00, 0x10, 0x00, 0x00, 0x00, 0x31, 0x2e, 0x35, 0x2e, 0x30, 0x00, 0x00, 0x00, 0x00, 0x00, 0x00, 0x00, 0x00, 0x00, 0x00, 0x00, 0x0f, 0x00, 0x00, 0x00, 0x4d, 0x4c, 0x49, 0x52, 0x20, 0x43, 0x6f, 0x6e, 0x76, 0x65, 0x72, 0x74, 0x65, 0x64, 0x2e, 0x00, 0x00, 0x00, 0x0e, 0x00, 0x18, 0x00, 0x04, 0x00, 0x08, 0x00, 0x0c, 0x00, 0x10, 0x00, 0x14, 0x00, 0x0e, 0x00, 0x00, 0x00, 0x14, 0x00, 0x00, 0x00, 0x40, 0x00, 0x00, 0x00, 0x44, 0x00, 0x00, 0x00, 0x48, 0x00, 0x00, 0x00, 0x58, 0x00, 0x00, 0x00, 0x0b, 0x00, 0x00, 0x00, 0xac, 0x21, 0x00, 0x00, 0x3c, 0x21, 0x00, 0x00, 0xa4, 0x20, 0x00, 0x00, 0x3c, 0x1c, 0x00, 0x00, 0xe8, 0x1b, 0x00, 0x00, 0x30, 0x1b, 0x00, 0x00, 0xdc, 0x06, 0x00, 0x00, 0x64, 0x02, 0x00, 0x00, 0x90, 0x01, 0x00, 0x00, 0xf4, 0x00, 0x00, 0x00, 0x7c, 0x00, 0x00, 0x00, 0x01, 0x00, 0x00, 0x00, 0x00, 0x00, 0x00, 0x00, 0x01, 0x00, 0x00, 0x00, 0x0a, 0x00, 0x00, 0x00, 0x04, 0x00, 0x00, 0x00, 0xec, 0x01, 0x00, 0x00, 0x38, 0x01, 0x00, 0x00, 0xa0, 0x00, 0x00, 0x00, 0x1c, 0x00, 0x00, 0x00, 0x04, 0x00, 0x00, 0x00, 0x6d, 0x61, 0x69, 0x6e, 0x00, 0x00, 0x0e, 0x00, 0x18, 0x00, 0x08, 0x00, 0x0c, 0x00, 0x10, 0x00, 0x07, 0x00, 0x14, 0x00, 0x0e, 0x00, 0x00, 0x00, 0x00, 0x00, 0x00, 0x09, 0x01, 0x00, 0x00, 0x00, 0x1c, 0x00, 0x00, 0x00, 0x10, 0x00, 0x00, 0x00, 0x04, 0x00, 0x00, 0x00, 0x76, 0xdf, 0xff, 0xff, 0x00, 0x00, 0x80, 0x3f, 0x01, 0x00, 0x00, 0x00, 0x0a, 0x00, 0x00, 0x00, 0x01, 0x00, 0x00, 0x00, 0x09, 0x00, 0x00, 0x00, 0x2e, 0xfe, 0xff, 0xff, 0x00, 0x00, 0x00, 0x19, 0x01, 0x00, 0x00, 0x00, 0x0c, 0xdf, 0xff, 0xff, 0x14, 0x00, 0x00, 0x00, 0x0b, 0x00, 0x00, 0x00, 0x24, 0x00, 0x00, 0x00, 0x30, 0x00, 0x00, 0x00, 0x10, 0x00, 0x00, 0x00, 0x02, 0x00, 0x00, 0x00, 0x01, 0x00, 0x00, 0x00, 0x01, 0x00, 0x00, 0x00, 0x02, 0x00, 0x00, 0x00, 0xff, 0xff, 0xff, 0xff, 0x01, 0x00, 0x00, 0x00, 0x08, 0x00, 0x00, 0x00, 0x49, 0x64, 0x65, 0x6e, 0x74, 0x69, 0x74, 0x79, 0x00, 0x00, 0x00, 0x00, 0xf4, 0xde, 0xff, 0xff, 0x7a, 0xff, 0xff, 0xff, 0x00, 0x00, 0x00, 0x08, 0x18, 0x00, 0x00, 0x00, 0x0c, 0x00, 0x00, 0x00, 0x04, 0x00, 0x00, 0x00, 0x0c, 0xdf, 0xff, 0xff, 0x01, 0x00, 0x00, 0x00, 0x09, 0x00, 0x00, 0x00, 0x03, 0x00, 0x00, 0x00, 0x08, 0x00, 0x00, 0x00, 0x06, 0x00, 0x00, 0x00, 0x03, 0x00, 0x00, 0x00, 0x80, 0xdf, 0xff, 0xff, 0x14, 0x00, 0x00, 0x00, 0x0a, 0x00, 0x00, 0x00, 0x24, 0x00, 0x00, 0x00, 0x40, 0x00, 0x00, 0x00, 0x10, 0x00, 0x00, 0x00, 0x02, 0x00, 0x00, 0x00, 0x01, 0x00, 0x00, 0x00, 0x01, 0x00, 0x00, 0x00, 0x02, 0x00, 0x00, 0x00, 0xff, 0xff, 0xff, 0xff, 0x01, 0x00, 0x00, 0x00, 0x1a, 0x00, 0x00, 0x00, 0x73, 0x65, 0x71, 0x75, 0x65, 0x6e, 0x74, 0x69, 0x61, 0x6c, 0x2f, 0x64, 0x65, 0x6e, 0x73, 0x65, 0x5f, 0x32, 0x2f, 0x42, 0x69, 0x61, 0x73, 0x41, 0x64, 0x64, 0x00, 0x00, 0x68, 0xe0, 0xff, 0xff, 0x00, 0x00, 0x0e, 0x00, 0x14, 0x00, 0x00, 0x00, 0x08, 0x00, 0x0c, 0x00, 0x07, 0x00, 0x10, 0x00, 0x0e, 0x00, 0x00, 0x00, 0x00, 0x00, 0x00, 0x08, 0x1c, 0x00, 0x00, 0x00, 0x10, 0x00, 0x00, 0x00, 0x04, 0x00, 0x00, 0x00, 0x4e, 0xff, 0xff, 0xff, 0x00, 0x00, 0x00, 0x01, 0x01, 0x00, 0x00, 0x00, 0x08, 0x00, 0x00, 0x00, 0x03, 0x00, 0x00, 0x00, 0x07, 0x00, 0x00, 0x00, 0x05, 0x00, 0x00, 0x00, 0x02, 0x00, 0x00, 0x00, 0x18, 0xe0, 0xff, 0xff, 0x14, 0x00, 0x00, 0x00, 0x09, 0x00, 0x00, 0x00, 0x24, 0x00, 0x00, 0x00, 0x58, 0x00, 0x00, 0x00, 0x10, 0x00, 0x00, 0x00, 0x02, 0x00, 0x00, 0x00, 0x01, 0x00, 0x00, 0x00, 0x00, 0x01, 0x00, 0x00, 0x02, 0x00, 0x00, 0x00, 0xff, 0xff, 0xff, 0xff, 0x00, 0x01, 0x00, 0x00, 0x32, 0x00, 0x00, 0x00, 0x73, 0x65, 0x71, 0x75, 0x65, 0x6e, 0x74, 0x69, 0x61, 0x6c, 0x2f, 0x64, 0x65, 0x6e, 0x73, 0x65, 0x5f, 0x31, 0x2f, 0x52, 0x65, 0x6c, 0x75, 0x3b, 0x73, 0x65, 0x71, 0x75, 0x65, 0x6e, 0x74, 0x69, 0x61, 0x6c, 0x2f, 0x64, 0x65, 0x6e, 0x73, 0x65, 0x5f, 0x31, 0x2f, 0x42, 0x69, 0x61, 0x73, 0x41, 0x64, 0x64, 0x00, 0x00, 0x18, 0xe1, 0xff, 0xff, 0x00, 0x00, 0x0e, 0x00, 0x16, 0x00, 0x00, 0x00, 0x08, 0x00, 0x0c, 0x00, 0x07, 0x00, 0x10, 0x00, 0x0e, 0x00, 0x00, 0x00, 0x00, 0x00, 0x00, 0x08, 0x24, 0x00, 0x00, 0x00, 0x18, 0x00, 0x00, 0x00, 0x0c, 0x00, 0x00, 0x00, 0x00, 0x00, 0x06, 0x00, 0x08, 0x00, 0x07, 0x00, 0x06, 0x00, 0x00, 0x00, 0x00, 0x00, 0x00, 0x01, 0x01, 0x00, 0x00, 0x00, 0x07, 0x00, 0x00, 0x00, 0x03, 0x00, 0x00, 0x00, 0x00, 0x00, 0x00, 0x00, 0x04, 0x00, 0x00, 0x00, 0x01, 0x00, 0x00, 0x00, 0x00, 0x00, 0x0a, 0x00, 0x0c, 0x00, 0x07, 0x00, 0x00, 0x00, 0x08, 0x00, 0x0a, 0x00, 0x00, 0x00, 0x00, 0x00, 0x00, 0x09, 0x01, 0x00, 0x00, 0x00, 0xe8, 0xe0, 0xff, 0xff, 0x14, 0x00, 0x00, 0x00, 0x08, 0x00, 0x00, 0x00, 0x24, 0x00, 0x00, 0x00, 0x54, 0x00, 0x00, 0x00, 0x10, 0x00, 0x00, 0x00, 0x02, 0x00, 0x00, 0x00, 0x01, 0x00, 0x00, 0x00, 0x05, 0x00, 0x00, 0x00, 0x02, 0x00, 0x00, 0x00, 0xff, 0xff, 0xff, 0xff, 0x05, 0x00, 0x00, 0x00, 0x2e, 0x00, 0x00, 0x00, 0x73, 0x65, 0x71, 0x75, 0x65, 0x6e, 0x74, 0x69, 0x61, 0x6c, 0x2f, 0x64, 0x65, 0x6e, 0x73, 0x65, 0x2f, 0x52, 0x65, 0x6c, 0x75, 0x3b, 0x73, 0x65, 0x71, 0x75, 0x65, 0x6e, 0x74, 0x69, 0x61, 0x6c, 0x2f, 0x64, 0x65, 0x6e, 0x73, 0x65, 0x2f, 0x42, 0x69, 0x61, 0x73, 0x41, 0x64, 0x64, 0x00, 0x00, 0xf4, 0xe0, 0xff, 0xff, 0xde, 0xe1, 0xff, 0xff, 0x04, 0x00, 0x00, 0x00, 0x00, 0x04, 0x00, 0x00, 0x42, 0x0f, 0x97, 0x3d, 0xa0, 0xe6, 0x20, 0x3d, 0xa0, 0x05, 0x17, 0xbe, 0xc0, 0x55, 0x44, 0xbd, 0xc0, 0x0a, 0x55, 0x3b, 0xc8, 0x03, 0x19, 0xbd, 0x0f, 0x8d, 0x05, 0xbe, 0x57, 0xc6, 0x15, 0xbe, 0xe1, 0x31, 0x85, 0xbd, 0x70, 0xe3, 0x10, 0xbc, 0x9c, 0x58, 0x72, 0x3d, 0x45, 0x8d, 0x05, 0xbe, 0xeb, 0x57, 0x07, 0x3e, 0x6d, 0x7a, 0xb6, 0xbd, 0xf8, 0xa9, 0x7b, 0x3d, 0x30, 0x76, 0x4f, 0xbc, 0x46, 0x12, 0xe1, 0x3d, 0x15, 0x5a, 0x06, 0x3e, 0x72, 0xed, 0xb9, 0xbd, 0x26, 0x23, 0xa8, 0x3d, 0x90, 0xbd, 0xfa, 0x3c, 0x45, 0xb2, 0x8f, 0xbd, 0xe2, 0xf3, 0xee, 0x3d, 0x6e, 0xac, 0x0b, 0xbe, 0x88, 0x66, 0xc1, 0xbc, 0x36, 0x51, 0xf4, 0x3d, 0x38, 0xaf, 0xb4, 0x3d, 0x90, 0x4d, 0xf9, 0xbd, 0x4a, 0x74, 0xbf, 0xbd, 0x41, 0x55, 0x8a, 0xbd, 0x1e, 0x45, 0x03, 0xbd, 0xaa, 0x59, 0xec, 0xbd, 0xbe, 0x0a, 0x11, 0xbd, 0xbd, 0x6a, 0x0b, 0x3e, 0x66, 0xb3, 0xac, 0x3d, 0x21, 0x12, 0x0b, 0x3e, 0x5e, 0x04, 0x0f, 0xbe, 0xa0, 0x3f, 0xfe, 0xbb, 0x44, 0xcb, 0x41, 0x3d, 0x80, 0x80, 0xa4, 0x3c, 0xac, 0x30, 0xe2, 0xbd, 0x70, 0xc1, 0x79, 0xbd, 0xa8, 0x53, 0x53, 0xbd, 0x52, 0x25, 0xe8, 0xbd, 0x34, 0xb3, 0x33, 0x3d, 0x00, 0x9c, 0x62, 0xbc, 0x10, 0x58, 0x6c, 0x3d, 0x66, 0xca, 0x77, 0xbd, 0x40, 0xab, 0x29, 0xbb, 0x77, 0xe4, 0x92, 0xbd, 0xf2, 0xd9, 0x84, 0x3d, 0xc0, 0x8b, 0x8b, 0x3d, 0x00, 0xda, 0xc2, 0xbd, 0x22, 0xbf, 0xa1, 0xbd, 0x38, 0xa0, 0xbc, 0x3d, 0xcd, 0x9e, 0x13, 0x3e, 0x0c, 0xfb, 0x7f, 0x3d, 0xe9, 0xb6, 0x83, 0xbd, 0x30, 0xeb, 0x75, 0x3c, 0xea, 0x9e, 0x0c, 0xbe, 0xc2, 0x3f, 0xc0, 0xbd, 0x10, 0x72, 0x65, 0xbc, 0x5d, 0xee, 0xaf, 0xbd, 0xf2, 0x16, 0xe9, 0x3d, 0x18, 0xed, 0x9d, 0x3c, 0x1e, 0x52, 0x65, 0xbd, 0xf4, 0x88, 0x67, 0x3d, 0xae, 0x87, 0x06, 0xbd, 0x9a, 0xd2, 0x83, 0x3d, 0x38, 0x1a, 0x7f, 0x3d, 0x84, 0x60, 0x87, 0x3d, 0x6e, 0x43, 0xd3, 0x3d, 0x17, 0xa3, 0x19, 0x3e, 0xcd, 0xc3, 0x09, 0x3e, 0x5a, 0x58, 0xb1, 0xbd, 0xe0, 0x28, 0x86, 0x3d, 0x50, 0x71, 0x45, 0x3c, 0x20, 0x54, 0xe5, 0x3b, 0x32, 0xd6, 0x41, 0xbd, 0x49, 0xe5, 0x12, 0x3e, 0xfb, 0x07, 0x19, 0x3e, 0x48, 0x06, 0x6d, 0xbd, 0x4d, 0x80, 0x0c, 0x3e, 0x78, 0xf1, 0xe2, 0x3c, 0x30, 0xe4, 0x48, 0x3c, 0x7a, 0xcd, 0x93, 0xbd, 0x00, 0x48, 0xf4, 0xba, 0x00, 0x7f, 0x90, 0x3b, 0xb4, 0x60, 0x73, 0x3d, 0x1e, 0xb6, 0x21, 0xbd, 0x40, 0xe0, 0x4a, 0x3b, 0x61, 0x32, 0x03, 0x3e, 0x39, 0x36, 0xb6, 0xbd, 0x98, 0x99, 0xf4, 0xbc, 0x0a, 0x84, 0x95, 0xbd, 0xd1, 0xd8, 0x01, 0x3e, 0xda, 0x4f, 0xea, 0x3d, 0x88, 0xf5, 0xcf, 0xbd, 0xa4, 0xce, 0x47, 0x3d, 0xdc, 0x74, 0xbc, 0x3d, 0xc3, 0x0d, 0x12, 0xbe, 0x18, 0x28, 0xaa, 0x3c, 0xdc, 0x71, 0x80, 0xbd, 0x61, 0x61, 0x0d, 0x3e, 0x60, 0x5c, 0xc0, 0xbc, 0x9e, 0x2c, 0xce, 0x3d, 0x2d, 0x53, 0xb1, 0xbd, 0x66, 0x9d, 0x8b, 0xbd, 0xa4, 0x28, 0x8d, 0xbd, 0x08, 0xc9, 0x98, 0x3d, 0x3d, 0x9c, 0x04, 0x3e, 0x42, 0xe5, 0xe9, 0x3d, 0xc2, 0x9c, 0xc6, 0x3d, 0x93, 0x97, 0x0d, 0x3e, 0x01, 0x18, 0x08, 0x3e, 0xf2, 0x9a, 0x41, 0xbd, 0x4e, 0x44, 0xcc, 0x3d, 0x07, 0xaf, 0x97, 0xbd, 0xa0, 0xee, 0x6d, 0x3c, 0x02, 0xa0, 0x35, 0xbd, 0xf0, 0x98, 0x4e, 0xbc, 0x5b, 0xb0, 0x19, 0x3e, 0x38, 0xed, 0xb6, 0xbc, 0xa4, 0xf6, 0x13, 0x3d, 0xdc, 0xd6, 0x51, 0x3d, 0xb2, 0x22, 0xbf, 0x3d, 0x92, 0x69, 0xe0, 0x3d, 0x38, 0xe5, 0xaf, 0xbc, 0x16, 0xaf, 0xf7, 0x3d, 0x50, 0x7c, 0xde, 0xbd, 0x60, 0x69, 0x97, 0x3d, 0x68, 0xeb, 0xa7, 0xbc, 0x28, 0x27, 0x9c, 0x3d, 0x80, 0x13, 0x3a, 0xbc, 0x00, 0xa8, 0x3d, 0x3a, 0x30, 0xff, 0xf2, 0x3c, 0x9c, 0xcd, 0x09, 0xbd, 0xa9, 0x71, 0xed, 0xbd, 0x88, 0xdf, 0x14, 0x3d, 0xa5, 0x04, 0xaf, 0xbd, 0xf0, 0x24, 0xa3, 0x3d, 0xc0, 0x02, 0x5c, 0x3b, 0x85, 0xad, 0x90, 0xbd, 0x09, 0xea, 0x96, 0xbd, 0x96, 0x19, 0x03, 0xbe, 0xce, 0x78, 0xbd, 0x3d, 0x48, 0x28, 0xa4, 0x3c, 0xbc, 0xa4, 0x16, 0xbe, 0x32, 0xe3, 0x5b, 0xbd, 0xb0, 0x6f, 0xb5, 0xbc, 0x60, 0x73, 0x5d, 0xbc, 0xf8, 0x08, 0x95, 0x3c, 0xb0, 0x5f, 0x0a, 0xbc, 0xe5, 0x27, 0x0d, 0xbe, 0x80, 0xd9, 0xaa, 0x3b, 0x80, 0x6b, 0x93, 0xbd, 0xdc, 0x33, 0xe9, 0xbd, 0x8e, 0x39, 0xda, 0x3d, 0xdb, 0x31, 0x0c, 0x3e, 0xc0, 0x79, 0xff, 0xbd, 0xe6, 0x0c, 0xec, 0x3d, 0xa0, 0x53, 0x5a, 0x3c, 0x33, 0xde, 0xf4, 0xbd, 0xf2, 0x65, 0x52, 0xbd, 0x30, 0x2b, 0x6e, 0x3d, 0x97, 0xad, 0x08, 0xbe, 0x08, 0x84, 0x8a, 0x3c, 0xc2, 0xca, 0xfe, 0xbd, 0x0d, 0x70, 0x03, 0xbe, 0x00, 0x32, 0x5c, 0x3a, 0x28, 0x0c, 0xa2, 0x3d, 0x50, 0x54, 0x21, 0xbc, 0x7a, 0xd3, 0xee, 0xbd, 0xd2, 0xfa, 0x14, 0xbe, 0x80, 0xe3, 0x05, 0xbb, 0x67, 0xed, 0x1b, 0x3e, 0xc7, 0x56, 0x10, 0x3e, 0x00, 0xec, 0x41, 0xbc, 0x00, 0x1c, 0x1d, 0xbb, 0x77, 0xc1, 0x18, 0xbe, 0x91, 0x62, 0x0a, 0xbe, 0x12, 0x83, 0xf3, 0xbd, 0x17, 0x7f, 0x90, 0xbd, 0x74, 0x34, 0xad, 0x3d, 0xca, 0xce, 0xce, 0xbd, 0x3f, 0xb8, 0xae, 0xbd, 0x46, 0xb9, 0xfa, 0xbd, 0xdc, 0x14, 0x0f, 0xbe, 0xb9, 0x59, 0x10, 0xbe, 0x14, 0x33, 0x32, 0xbd, 0x00, 0xb6, 0xad, 0x3d, 0xec, 0xd9, 0x18, 0xbe, 0x09, 0x62, 0x12, 0x3e, 0xd8, 0x7f, 0x6f, 0x3d, 0xaf, 0x5f, 0x14, 0x3e, 0xb8, 0x28, 0x02, 0x3d, 0xc8, 0xe9, 0x7e, 0xbd, 0x86, 0x3a, 0xa6, 0x3d, 0xcd, 0x71, 0x03, 0x3e, 0xf0, 0xcd, 0x9e, 0xbc, 0x08, 0xd0, 0x85, 0xbc, 0xd4, 0x75, 0x39, 0xbd, 0x8e, 0x50, 0x09, 0xbe, 0xa0, 0x26, 0xa7, 0x3c, 0x3c, 0x4d, 0xd7, 0xbd, 0xbf, 0xd9, 0x1b, 0x3e, 0x2e, 0xbc, 0xd0, 0x3d, 0xdc, 0xe9, 0x82, 0x3d, 0xb0, 0xa5, 0x90, 0x3d, 0x82, 0xf4, 0xe6, 0x3d, 0xde, 0x79, 0x08, 0xbe, 0xc0, 0x14, 0x7f, 0xbd, 0x4b, 0xfe, 0x10, 0xbe, 0x85, 0x52, 0x0c, 0x3e, 0x12, 0x49, 0x36, 0xbd, 0x06, 0x31, 0x8a, 0x3d, 0xa2, 0x84, 0xc0, 0x3d, 0xeb, 0x51, 0x1b, 0x3e, 0x84, 0xd2, 0x07, 0x3d, 0x20, 0xff, 0x57, 0xbd, 0x2a, 0x4c, 0x9e, 0x3d, 0x0c, 0x3f, 0x42, 0xbd, 0x20, 0xf7, 0xbd, 0xbd, 0xb1, 0xe6, 0x17, 0x3e, 0x7c, 0x85, 0xda, 0xbd, 0xb2, 0xab, 0x22, 0xbd, 0x00, 0x33, 0x79, 0xbb, 0xcc, 0xc1, 0x1a, 0xbe, 0xab, 0xe4, 0xa9, 0xbd, 0x9c, 0x88, 0xc1, 0x3d, 0xf2, 0xc5, 0x06, 0xbd, 0xc0, 0xef, 0xc2, 0xbb, 0x56, 0xf9, 0x50, 0xbd, 0x00, 0xba, 0x86, 0x3a, 0x56, 0x7f, 0x06, 0xbe, 0xde, 0x50, 0x97, 0xbd, 0x31, 0xf1, 0x0a, 0x3e, 0x00, 0x67, 0x38, 0x3b, 0x8d, 0x56, 0x08, 0x3e, 0x9f, 0xc5, 0x05, 0xbe, 0xd8, 0xcc, 0x7c, 0x3d, 0x5a, 0x97, 0x1a, 0xbd, 0xf4, 0x50, 0xff, 0xbd, 0x76, 0x00, 0x70, 0xbd, 0xe0, 0xbb, 0x26, 0xbc, 0xa0, 0x33, 0x5a, 0x3d, 0x42, 0x65, 0x11, 0xbe, 0xd8, 0xea, 0xa2, 0x3c, 0x40, 0xb7, 0x50, 0xbb, 0x04, 0x77, 0x8e, 0xbd, 0x98, 0x16, 0x0d, 0xbe, 0xe3, 0xcd, 0x12, 0x3e, 0x08, 0xf7, 0x7a, 0x3d, 0x56, 0x1e, 0xd1, 0x3d, 0xb8, 0xc2, 0xdb, 0xbc, 0x76, 0x83, 0xd1, 0x3d, 0xc2, 0xe5, 0xff, 0xff, 0x10, 0x00, 0x00, 0x00, 0x07, 0x00, 0x00, 0x00, 0x14, 0x00, 0x00, 0x00, 0x30, 0x00, 0x00, 0x00, 0x02, 0x00, 0x00, 0x00, 0x01, 0x00, 0x00, 0x00, 0x00, 0x01, 0x00, 0x00, 0x19, 0x00, 0x00, 0x00, 0x73, 0x65, 0x71, 0x75, 0x65, 0x6e, 0x74, 0x69, 0x61, 0x6c, 0x2f, 0x64, 0x65, 0x6e, 0x73, 0x65, 0x5f, 0x32, 0x2f, 0x4d, 0x61, 0x74, 0x4d, 0x75, 0x6c, 0x00, 0x00, 0x00, 0x44, 0xe5, 0xff, 0xff, 0x2e, 0xe6, 0xff, 0xff, 0x04, 0x00, 0x00, 0x00, 0x00, 0x14, 0x00, 0x00, 0xa8, 0x5f, 0x69, 0x3d, 0x7a, 0x13, 0x5e, 0xbd, 0x2e, 0x71, 0x00, 0xbd, 0x35, 0x39, 0xeb, 0xbd, 0x08, 0xfd, 0x02, 0x3e, 0x00, 0x3a, 0x9a, 0xbb, 0x7e, 0xcc, 0xb7, 0x3d, 0x5c, 0xe3, 0xd4, 0x3d, 0x80, 0x8c, 0xd6, 0xbb, 0x92, 0x85, 0xca, 0xbd, 0xc2, 0xd4, 0x05, 0x3e, 0x5e, 0xf0, 0x86, 0xbd, 0xb0, 0x80, 0x6d, 0x3c, 0x30, 0xdf, 0xc9, 0xbd, 0x94, 0x2b, 0x2a, 0x3d, 0x78, 0xe6, 0x99, 0xbd, 0xf4, 0x90, 0x09, 0xbd, 0x18, 0x69, 0xc4, 0xbc, 0x60, 0xef, 0x89, 0x3c, 0xdc, 0x73, 0x1f, 0x3d, 0xf0, 0x8d, 0x8f, 0x3d, 0x70, 0xe3, 0x18, 0xbe, 0xc1, 0xc5, 0x0b, 0xbe, 0xb0, 0x2c, 0x08, 0x3e, 0xf0, 0xce, 0xe8, 0x3d, 0x58, 0xcc, 0xf3, 0x3d, 0xe4, 0x80, 0x3d, 0x3d, 0x2a, 0xff, 0xdd, 0xbd, 0x20, 0x31, 0xc1, 0xbb, 0x70, 0x53, 0x95, 0x3d, 0x10, 0xb9, 0x0a, 0x3e, 0x30, 0x71, 0x09, 0x3e, 0xdc, 0x92, 0x64, 0xbd, 0x3b, 0xd9, 0x8c, 0xbd, 0x78, 0xd8, 0xd8, 0x3d, 0x4e, 0xd8, 0x9a, 0x3d, 0xb0, 0x20, 0xd8, 0x3d, 0x20, 0x92, 0x01, 0x3c, 0x44, 0x0b, 0x4b, 0x3d, 0x6c, 0xa5, 0x5b, 0x3d, 0xe4, 0x3b, 0x3b, 0xbd, 0x80, 0x0f, 0xdc, 0xbd, 0xa1, 0x15, 0x08, 0xbe, 0xb8, 0xae, 0xf6, 0x3c, 0x38, 0x5f, 0xfb, 0x3d, 0x70, 0x6a, 0x6a, 0x3c, 0x00, 0x93, 0x33, 0x3a, 0x38, 0x9c, 0xde, 0x3d, 0x24, 0x56, 0xf0, 0x3d, 0x28, 0xab, 0xc1, 0xbc, 0x52, 0x0d, 0x94, 0xbd, 0x00, 0x24, 0x7f, 0x39, 0xad, 0xae, 0xc6, 0xbd, 0x18, 0x08, 0xe1, 0x3c, 0x30, 0xca, 0x16, 0xbc, 0x1c, 0x1d, 0x75, 0x3d, 0xc4, 0x83, 0x4f, 0x3d, 0x07, 0x4b, 0x09, 0xbe, 0x98, 0xd6, 0xc9, 0x3c, 0xe8, 0x20, 0x01, 0xbe, 0xac, 0x39, 0xec, 0xbd, 0xd4, 0x8f, 0xb7, 0x3d, 0x63, 0xe2, 0xee, 0xbd, 0xb0, 0xae, 0x9c, 0x3d, 0x9d, 0x2c, 0x13, 0xbe, 0x90, 0x1c, 0x2d, 0x3c, 0xef, 0x9a, 0xbb, 0xbd, 0x90, 0x1b, 0x6f, 0x3d, 0x08, 0x2f, 0xce, 0xbc, 0x11, 0xa1, 0x9b, 0xbd, 0x4c, 0x75, 0x85, 0x3d, 0x82, 0x41, 0x5f, 0xbd, 0xc7, 0xc4, 0xd2, 0xbd, 0x5c, 0x66, 0x4d, 0x3d, 0x50, 0x1f, 0x10, 0x3d, 0x14, 0xe6, 0xe8, 0x3d, 0x0a, 0x9e, 0x77, 0xbd, 0x86, 0xde, 0xc5, 0x3d, 0x4a, 0x97, 0x6b, 0xbd, 0xbc, 0xcf, 0x7f, 0xbd, 0x74, 0x22, 0x47, 0xbd, 0x48, 0x55, 0x0a, 0x3e, 0x25, 0x94, 0xd4, 0xbd, 0xe0, 0x82, 0x1e, 0xbc, 0x8a, 0x77, 0x36, 0xbd, 0x94, 0x98, 0xca, 0xbd, 0x14, 0xec, 0xd7, 0x3d, 0x90, 0x24, 0x07, 0xbd, 0xe0, 0x96, 0xa7, 0xbb, 0x90, 0x6a, 0xef, 0xbd, 0x80, 0x72, 0x90, 0xbc, 0x16, 0x36, 0xaf, 0x3d, 0x70, 0x20, 0x27, 0xbd, 0x5c, 0x23, 0xf4, 0x3d, 0xbc, 0x38, 0xf1, 0xbd, 0x38, 0xed, 0xf8, 0x3d, 0xf8, 0xb5, 0xed, 0xbc, 0x52, 0x38, 0x08, 0x3e, 0x7a, 0x8f, 0x0b, 0xbe, 0x44, 0x2c, 0xc4, 0xbd, 0x50, 0xca, 0xe0, 0xbd, 0x50, 0x43, 0xfb, 0x3d, 0x00, 0x57, 0x60, 0xba, 0x8c, 0x62, 0xe0, 0x3d, 0x4e, 0x6f, 0xd8, 0xbd, 0xa2, 0xa3, 0xea, 0xbd, 0x60, 0x95, 0x81, 0xbc, 0xa0, 0x6c, 0xdc, 0x3b, 0x50, 0x75, 0x13, 0xbc, 0xc0, 0x0e, 0x8f, 0x3d, 0x00, 0x6d, 0xbb, 0x3c, 0x20, 0xee, 0x74, 0xbc, 0x88, 0x84, 0x06, 0x3e, 0x60, 0x86, 0x03, 0xbe, 0x5a, 0xd5, 0x91, 0x3d, 0x36, 0x29, 0x09, 0x3e, 0x00, 0x3d, 0x55, 0x3c, 0x90, 0xd2, 0x5e, 0x3d, 0x8c, 0x3d, 0x17, 0x3e, 0xf3, 0x55, 0xa0, 0xbd, 0x26, 0x00, 0x02, 0x3e, 0x0c, 0xf7, 0xe5, 0x3d, 0x02, 0x1e, 0x07, 0xbe, 0xbf, 0x00, 0x0c, 0xbe, 0x88, 0x5d, 0xb9, 0xbc, 0xf8, 0x2b, 0xf1, 0x3c, 0x4a, 0x94, 0xc0, 0x3d, 0xdc, 0x42, 0x14, 0x3e, 0x58, 0xf7, 0x02, 0xbe, 0x46, 0xf7, 0x09, 0x3e, 0x20, 0xce, 0x09, 0x3d, 0xb2, 0x48, 0x07, 0xbe, 0x54, 0xff, 0x62, 0xbd, 0xa6, 0x0f, 0x0f, 0x3e, 0x64, 0x0b, 0xc1, 0x3d, 0x40, 0x44, 0xc7, 0x3d, 0xe2, 0xfe, 0xc2, 0xbd, 0x65, 0xdc, 0x0e, 0xbe, 0x2c, 0xd4, 0xbb, 0x3d, 0xa8, 0x39, 0x47, 0x3d, 0xdc, 0x9d, 0xce, 0x3d, 0x85, 0xfc, 0x17, 0xbe, 0xd2, 0xff, 0xc3, 0x3d, 0x65, 0x69, 0x98, 0xbd, 0xd4, 0x42, 0xdf, 0xbc, 0x00, 0x30, 0xf3, 0x3d, 0x28, 0x9a, 0x10, 0xbd, 0x64, 0x4a, 0x0d, 0x3e, 0xd7, 0x4d, 0xcb, 0xbd, 0x0e, 0x59, 0x70, 0xbd, 0x62, 0xfb, 0x16, 0xbe, 0xe4, 0x17, 0x39, 0x3d, 0x10, 0x38, 0xd4, 0x3d, 0xb7, 0xff, 0x91, 0xbd, 0x68, 0x4b, 0x0c, 0x3e, 0x00, 0x0d, 0x19, 0xba, 0xa6, 0xff, 0xe2, 0xbd, 0x10, 0xeb, 0x77, 0x3d, 0x40, 0x2b, 0x77, 0x3c, 0xc8, 0x6d, 0x34, 0xbd, 0xb8, 0x66, 0xba, 0x3c, 0xbd, 0xe1, 0xff, 0xbd, 0xf0, 0x6d, 0x20, 0x3c, 0xba, 0x62, 0x61, 0xbd, 0x4e, 0xa5, 0x30, 0xbd, 0x50, 0x8d, 0x66, 0x3d, 0x36, 0xa3, 0xab, 0x3d, 0xda, 0xf1, 0xc1, 0x3d, 0x1b, 0x0e, 0xd5, 0xbd, 0x6e, 0xb4, 0x9a, 0x3d, 0xc0, 0x4c, 0xa1, 0x3d, 0xe2, 0x24, 0x6e, 0xbd, 0xb4, 0x84, 0x24, 0x3d, 0x58, 0xd6, 0x46, 0x3d, 0x72, 0x88, 0x06, 0x3e, 0xd4, 0xf7, 0xfd, 0x3d, 0x34, 0x20, 0xf6, 0xbd, 0x04, 0x03, 0x01, 0xbe, 0x41, 0x37, 0x15, 0xbe, 0xa8, 0x7c, 0x95, 0x3d, 0x08, 0x0d, 0xe2, 0xbc, 0x00, 0x7d, 0xa0, 0x3b, 0x0a, 0x83, 0xd1, 0xbd, 0x34, 0xa7, 0x63, 0x3d, 0xa9, 0xae, 0x07, 0xbe, 0x30, 0xd4, 0xe9, 0x3d, 0xde, 0x14, 0x49, 0xbd, 0x5e, 0x98, 0xc6, 0x3d, 0x80, 0x0d, 0xee, 0x3d, 0x4b, 0x12, 0xae, 0xbd, 0x60, 0x44, 0x41, 0x3c, 0x94, 0x4b, 0x13, 0x3d, 0x34, 0xd2, 0x2d, 0x3d, 0x62, 0x11, 0x32, 0xbd, 0xb8, 0x8c, 0xae, 0xbc, 0x10, 0x85, 0xb4, 0xbc, 0x30, 0x2b, 0xd6, 0xbd, 0x9c, 0xe6, 0x23, 0x3d, 0x7b, 0x9a, 0x18, 0xbe, 0x2b, 0xde, 0x91, 0xbd, 0xec, 0x7f, 0xf5, 0xbc, 0x0b, 0xaf, 0x90, 0xbd, 0xd2, 0xf8, 0x08, 0xbe, 0xa8, 0xe0, 0xf5, 0x3c, 0xb0, 0x43, 0x36, 0x3d, 0xd4, 0x78, 0x4e, 0x3d, 0x58, 0x92, 0x6e, 0x3d, 0xb8, 0x47, 0xcb, 0xbd, 0xf8, 0xfa, 0x3c, 0x3d, 0x16, 0xc2, 0x2d, 0xbd, 0x6d, 0xfd, 0xd0, 0xbd, 0xc6, 0xe9, 0x50, 0xbd, 0xb6, 0x7e, 0x02, 0xbe, 0xe0, 0x46, 0xa6, 0xbb, 0xf1, 0x40, 0x9d, 0xbd, 0xf2, 0x5c, 0xc5, 0xbd, 0xa6, 0xce, 0x02, 0x3e, 0xb0, 0xf4, 0x68, 0xbc, 0x6c, 0x50, 0x69, 0xbd, 0x08, 0x42, 0xf4, 0xbd, 0x56, 0x11, 0x12, 0x3e, 0x59, 0x8a, 0x8c, 0xbd, 0xd4, 0x76, 0x0d, 0xbe, 0xd2, 0xf3, 0x60, 0xbd, 0x54, 0x9d, 0xe5, 0xbc, 0x8e, 0x31, 0x08, 0xbe, 0x51, 0x7d, 0xf4, 0xbd, 0xf5, 0x59, 0x17, 0xbe, 0x50, 0x50, 0x6f, 0x3c, 0xd0, 0xac, 0x74, 0x3c, 0x40, 0xc6, 0x16, 0x3c, 0x48, 0x5c, 0x17, 0x3d, 0x2c, 0x53, 0x4c, 0xbd, 0xa0, 0x5c, 0x0f, 0xbd, 0xa0, 0x59, 0xc3, 0xbb, 0xba, 0x38, 0x17, 0x3e, 0x1c, 0x9a, 0x04, 0x3d, 0x10, 0x91, 0x34, 0x3d, 0x60, 0x7b, 0x04, 0xbe, 0xff, 0xf5, 0x08, 0xbe, 0x00, 0x73, 0xfb, 0xbb, 0x5c, 0xc5, 0x0b, 0xbd, 0xee, 0xfd, 0x8f, 0x3d, 0x00, 0xf9, 0x02, 0x3e, 0x9c, 0x93, 0x30, 0xbd, 0xd0, 0x79, 0xe2, 0x3d, 0x94, 0xf2, 0x36, 0xbd, 0x16, 0xd8, 0xb4, 0x3d, 0x22, 0x77, 0x10, 0x3e, 0x80, 0xbb, 0x3a, 0x3d, 0xc1, 0x70, 0xb8, 0xbd, 0xea, 0x06, 0x39, 0xbd, 0x2c, 0x77, 0xc3, 0xbd, 0xb6, 0x15, 0x01, 0xbe, 0x90, 0x6f, 0x8a, 0xbc, 0x0e, 0x6b, 0xef, 0xbd, 0x4c, 0x2c, 0xd2, 0x3d, 0xa4, 0x49, 0x65, 0x3d, 0x34, 0x4e, 0x4c, 0x3d, 0xe6, 0x3b, 0x38, 0xbd, 0xa8, 0x10, 0x39, 0xbd, 0x66, 0xb3, 0x88, 0xbd, 0x78, 0x23, 0x0d, 0x3e, 0xa0, 0x33, 0xb2, 0x3b, 0xd6, 0x5c, 0x13, 0x3e, 0xdc, 0x64, 0x62, 0x3d, 0x9a, 0x7a, 0x9c, 0x3d, 0x84, 0x04, 0x0c, 0xbe, 0x5a, 0x95, 0x15, 0xbe, 0x2f, 0x62, 0xc4, 0xbd, 0x04, 0x0e, 0xc6, 0xbd, 0xd0, 0x9e, 0xe9, 0xbc, 0x6a, 0x69, 0x4f, 0xbd, 0x36, 0xba, 0x00, 0xbe, 0x18, 0x57, 0xb1, 0xbc, 0x80, 0x76, 0xc4, 0x3d, 0xdc, 0xe4, 0xb6, 0x3d, 0x08, 0x38, 0xbb, 0x3c, 0xaa, 0x89, 0x86, 0x3d, 0xe0, 0x1d, 0x78, 0xbc, 0x78, 0x67, 0x42, 0x3d, 0xc8, 0xf0, 0x3d, 0x3d, 0x56, 0xfb, 0xb6, 0x3d, 0xce, 0xef, 0x81, 0x3d, 0xdb, 0x0d, 0x9c, 0xbd, 0xe0, 0x39, 0x04, 0x3e, 0x98, 0xa2, 0x9a, 0xbd, 0xb4, 0x39, 0x0a, 0xbd, 0xf0, 0x1d, 0x2f, 0x3d, 0xd8, 0x63, 0xac, 0x3c, 0xbd, 0xfb, 0xa1, 0xbd, 0xd2, 0x1d, 0x99, 0xbd, 0x60, 0x79, 0x02, 0xbc, 0x68, 0xa8, 0xbd, 0xbc, 0xf0, 0xa3, 0x14, 0xbd, 0x94, 0x09, 0xd1, 0x3d, 0xe0, 0x4d, 0x0e, 0x3d, 0x52, 0x8e, 0x69, 0xbd, 0xc0, 0x84, 0xb8, 0x3d, 0xae, 0x86, 0xaa, 0x3d, 0x25, 0x76, 0x0c, 0xbe, 0x68, 0x5d, 0x8e, 0xbc, 0x9c, 0xa9, 0x17, 0x3d, 0x94, 0x0b, 0xff, 0xbc, 0x00, 0x52, 0x9e, 0x3b, 0x30, 0xc1, 0xba, 0x3d, 0xc8, 0xac, 0x64, 0x3d, 0xf6, 0x60, 0xc1, 0xbd, 0x28, 0x45, 0x8f, 0xbc, 0x4a, 0x88, 0x07, 0x3e, 0x4c, 0xe5, 0xcc, 0x3d, 0x88, 0x83, 0x94, 0x3c, 0xa0, 0x05, 0x7e, 0x3c, 0xf4, 0xcf, 0x19, 0x3e, 0xda, 0xb3, 0x2f, 0xbd, 0x6d, 0x88, 0xdd, 0xbd, 0xc0, 0xfe, 0x04, 0x3d, 0x7e, 0xbd, 0x8d, 0x3d, 0xe0, 0xa8, 0xab, 0x3b, 0x4e, 0xf7, 0x09, 0xbe, 0xd0, 0x9e, 0xe0, 0x3d, 0x56, 0x29, 0x11, 0x3e, 0x34, 0x6e, 0xf5, 0x3d, 0x3c, 0xdc, 0x6e, 0x3d, 0xd8, 0x16, 0x07, 0xbd, 0xa6, 0x2a, 0x12, 0x3e, 0x80, 0x62, 0x59, 0xbb, 0x11, 0x1b, 0xa6, 0xbd, 0xbc, 0xad, 0x18, 0x3e, 0x26, 0x45, 0xba, 0x3d, 0x9c, 0x09, 0x5d, 0x3d, 0x15, 0xf4, 0x80, 0xbd, 0xf8, 0xc6, 0x6a, 0x3d, 0x60, 0x2e, 0x2c, 0x3c, 0xc0, 0x0b, 0xaf, 0xbb, 0x18, 0x4b, 0x9f, 0x3c, 0xab, 0x6c, 0xd2, 0xbd, 0x46, 0x34, 0x1c, 0xbd, 0x42, 0xe2, 0xa8, 0xbd, 0x10, 0x10, 0x14, 0x3e, 0xd4, 0xb7, 0x1b, 0x3d, 0x68, 0xb2, 0xed, 0xbd, 0x28, 0xfb, 0xfa, 0x3c, 0xc4, 0x44, 0x6b, 0xbd, 0x75, 0x0e, 0x14, 0xbe, 0xa4, 0xdf, 0xe2, 0x3d, 0xd0, 0x68, 0x1d, 0xbd, 0x1d, 0x8d, 0xd2, 0xbd, 0x9e, 0xc7, 0xef, 0xbd, 0x28, 0x74, 0xb1, 0xbd, 0x8c, 0x80, 0xd2, 0xbd, 0x44, 0x90, 0xe2, 0xbd, 0x44, 0x78, 0xab, 0xbd, 0x48, 0xc1, 0x09, 0x3d, 0xb0, 0x4b, 0xbe, 0x3c, 0xe0, 0x92, 0xf1, 0xbd, 0x70, 0x64, 0xf9, 0x3c, 0x3c, 0xff, 0xf2, 0xbd, 0x0f, 0x0d, 0x9e, 0xbd, 0x98, 0x4b, 0x05, 0x3e, 0x9c, 0xaa, 0x10, 0x3d, 0x9a, 0x80, 0xcc, 0xbd, 0x24, 0xc5, 0x09, 0x3d, 0xac, 0xeb, 0xea, 0xbd, 0x74, 0xf1, 0xc9, 0x3d, 0xa4, 0x9f, 0x00, 0x3d, 0x44, 0xf2, 0x08, 0xbe, 0x17, 0xb6, 0x03, 0xbe, 0xf0, 0x86, 0x2b, 0x3d, 0x14, 0x9c, 0xaa, 0xbd, 0x04, 0xf3, 0x21, 0x3d, 0x4c, 0xc0, 0x15, 0x3e, 0x7e, 0xd3, 0xfc, 0xbd, 0x1d, 0xa4, 0x0b, 0xbe, 0x44, 0x19, 0x3e, 0x3d, 0x00, 0xa8, 0xd3, 0x3b, 0xca, 0x46, 0x02, 0xbe, 0x80, 0x8a, 0xdc, 0x3d, 0x9c, 0xfa, 0x2a, 0xbd, 0x74, 0x0e, 0xa3, 0xbd, 0x6c, 0xe6, 0xc5, 0x3d, 0x44, 0xe0, 0x02, 0x3e, 0xea, 0x45, 0xe2, 0xbd, 0x11, 0x71, 0x90, 0xbd, 0x10, 0x77, 0x8b, 0x3d, 0x3e, 0xc5, 0xb6, 0xbd, 0xfc, 0x32, 0x4f, 0xbd, 0xba, 0x02, 0xea, 0xbd, 0x1f, 0x6d, 0xf7, 0xbd, 0x33, 0x32, 0x80, 0xbd, 0xd1, 0x42, 0xc0, 0xbd, 0x7c, 0x24, 0x39, 0x3d, 0x96, 0x9e, 0xf5, 0xbd, 0xf8, 0xd0, 0x10, 0x3e, 0x70, 0x58, 0xd7, 0xbd, 0x2c, 0x8b, 0xdb, 0xbd, 0xa6, 0x5d, 0x55, 0xbd, 0x98, 0x30, 0xbc, 0x3c, 0xfa, 0x0f, 0xcd, 0xbd, 0x10, 0x0d, 0x90, 0xbc, 0x76, 0xdc, 0xd9, 0xbd, 0x52, 0xb8, 0x16, 0x3e, 0x50, 0xf3, 0x78, 0xbc, 0xac, 0x15, 0x1b, 0x3d, 0x40, 0x65, 0x9d, 0xbb, 0x10, 0x40, 0xdf, 0x3d, 0x88, 0x6b, 0x71, 0xbd, 0x50, 0xec, 0xfb, 0x3c, 0xa6, 0x5a, 0x7f, 0xbd, 0x98, 0x17, 0xc5, 0x3d, 0x10, 0x67, 0x01, 0x3e, 0xc0, 0x08, 0x46, 0xbd, 0x5c, 0xf8, 0xff, 0x3d, 0xaf, 0xed, 0xa4, 0xbd, 0xb6, 0x6e, 0xc4, 0x3d, 0x80, 0xac, 0xb2, 0x3a, 0xc6, 0xeb, 0x16, 0x3e, 0x6b, 0x8b, 0xf8, 0xbd, 0xc0, 0x52, 0x37, 0x3d, 0x00, 0x91, 0x9d, 0xba, 0xac, 0x17, 0xe3, 0x3d, 0xde, 0x3c, 0x4a, 0xbd, 0x1a, 0x8d, 0x08, 0x3e, 0x68, 0x57, 0x06, 0x3e, 0xe6, 0x19, 0xa3, 0x3d, 0x14, 0x8f, 0x7c, 0x3d, 0x00, 0xe4, 0xcf, 0x3c, 0x88, 0x7b, 0x99, 0xbc, 0xf4, 0x3f, 0x67, 0x3d, 0x14, 0x23, 0x0a, 0xbe, 0x50, 0xc4, 0x2a, 0x3c, 0xfc, 0x91, 0x58, 0x3d, 0xe6, 0x19, 0x73, 0xbd, 0xe4, 0x38, 0x33, 0x3d, 0x88, 0x03, 0xa9, 0x3c, 0x96, 0x27, 0x39, 0xbd, 0x44, 0xe2, 0xce, 0xbd, 0x40, 0xcb, 0x92, 0x3b, 0x0e, 0x85, 0x93, 0x3d, 0xf0, 0xbe, 0x08, 0x3e, 0xcc, 0x5c, 0x25, 0x3d, 0x9e, 0xcc, 0x5b, 0xbd, 0xa5, 0x66, 0x18, 0xbe, 0x98, 0x37, 0xbe, 0xbd, 0xa8, 0xf0, 0xfa, 0x3d, 0xf8, 0x24, 0xd4, 0x3d, 0xee, 0xe8, 0xd7, 0xbd, 0xe0, 0xfc, 0x1d, 0xbd, 0x47, 0xd5, 0x8f, 0xbd, 0x90, 0x83, 0x90, 0xbc, 0x98, 0x73, 0xa2, 0xbc, 0xe0, 0xca, 0x50, 0x3d, 0xce, 0x53, 0xc5, 0x3d, 0xe6, 0x4c, 0x8b, 0x3d, 0xa0, 0xc6, 0x34, 0x3d, 0xd8, 0xa6, 0x7c, 0xbd, 0xa8, 0x3d, 0x04, 0xbe, 0x6b, 0xd5, 0x8e, 0xbd, 0xf0, 0xee, 0x9c, 0x3c, 0xd4, 0x38, 0x38, 0xbd, 0x4c, 0xc8, 0xd8, 0x3d, 0x72, 0xcc, 0xdd, 0xbd, 0xd0, 0xee, 0xab, 0xbd, 0x5c, 0x2b, 0x69, 0x3d, 0x6e, 0x32, 0xc5, 0x3d, 0x31, 0xdb, 0xb6, 0xbd, 0x34, 0x50, 0x8a, 0xbd, 0xa5, 0xf7, 0x01, 0xbe, 0x9a, 0xef, 0x8f, 0xbd, 0x9c, 0x5d, 0x00, 0xbe, 0x9e, 0x58, 0x08, 0xbd, 0xce, 0x33, 0x19, 0xbe, 0xf0, 0x2b, 0x3a, 0xbc, 0x60, 0x09, 0xff, 0x3d, 0x56, 0x64, 0x04, 0x3e, 0x88, 0xdb, 0xe1, 0x3c, 0xc4, 0x4a, 0x1a, 0x3e, 0x76, 0x6e, 0xc0, 0x3d, 0xcd, 0xd1, 0xb9, 0xbd, 0x70, 0x46, 0xd1, 0x3d, 0xf0, 0x3a, 0xeb, 0x3d, 0xc4, 0xa7, 0x76, 0xbd, 0x1c, 0x0f, 0x61, 0x3d, 0x86, 0x0f, 0xc1, 0xbd, 0xa4, 0xf2, 0x02, 0x3d, 0x2e, 0x75, 0x88, 0x3d, 0x3a, 0x61, 0xcf, 0xbd, 0x64, 0x7a, 0x9a, 0x3d, 0x33, 0x5a, 0x09, 0xbe, 0x20, 0x95, 0xaa, 0xbb, 0xcb, 0xbd, 0xf8, 0xbd, 0xd0, 0x28, 0xd5, 0xbc, 0x8f, 0x17, 0xf2, 0xbd, 0x80, 0xcc, 0xe0, 0x3c, 0x70, 0x18, 0x40, 0xbc, 0x8c, 0x22, 0x0b, 0x3e, 0x1a, 0xa1, 0x53, 0xbd, 0x30, 0x32, 0xbb, 0x3c, 0x00, 0x0d, 0x0f, 0x3c, 0x38, 0x80, 0x00, 0x3e, 0x68, 0x77, 0x85, 0xbc, 0xc0, 0x77, 0x81, 0x3c, 0x0a, 0xb4, 0x2b, 0xbd, 0xb2, 0xec, 0x06, 0x3e, 0xd0, 0x95, 0x04, 0xbe, 0xba, 0x95, 0x4b, 0xbd, 0x62, 0x8d, 0xec, 0xbd, 0x12, 0x22, 0x46, 0xbd, 0xb0, 0xfe, 0x03, 0xbc, 0x5a, 0xaa, 0x1d, 0xbd, 0x00, 0xfb, 0x83, 0xbc, 0xba, 0x29, 0x04, 0xbe, 0x32, 0xc6, 0x16, 0x3e, 0xf4, 0xf3, 0x96, 0x3d, 0x4a, 0x99, 0x05, 0xbd, 0x76, 0xf8, 0xb3, 0x3d, 0x1d, 0xd6, 0x1a, 0xbe, 0x54, 0xd8, 0x0f, 0xbe, 0x54, 0x92, 0x4d, 0x3d, 0xd8, 0xf6, 0x4b, 0x3d, 0x84, 0xe5, 0x11, 0x3d, 0xfe, 0x4d, 0x91, 0x3d, 0x30, 0x20, 0x7e, 0x3d, 0xda, 0x1a, 0x41, 0xbd, 0xae, 0xf1, 0xbf, 0x3d, 0x90, 0xc5, 0x6f, 0x3c, 0x74, 0x73, 0xf6, 0x3d, 0x04, 0xca, 0xdd, 0x3d, 0xd0, 0xa0, 0xf5, 0x3c, 0xa7, 0x07, 0xd6, 0xbd, 0xac, 0x64, 0x07, 0x3e, 0x68, 0xdc, 0xd6, 0x3c, 0xd0, 0x7e, 0x0c, 0x3e, 0x00, 0x38, 0x4b, 0xbc, 0xcc, 0xd5, 0x3c, 0x3d, 0xaa, 0xf8, 0xba, 0xbd, 0xf8, 0xe2, 0xac, 0xbc, 0x2e, 0x23, 0xb6, 0x3d, 0x5c, 0xc2, 0xa6, 0xbd, 0x6e, 0xb5, 0x0a, 0x3e, 0x54, 0xd1, 0xdc, 0x3d, 0xac, 0x4e, 0x83, 0x3d, 0xcc, 0x0c, 0xf1, 0xbc, 0x64, 0x45, 0x8d, 0x3d, 0x5a, 0x60, 0xbd, 0x3d, 0xf0, 0xe3, 0x7b, 0xbd, 0x64, 0x80, 0x97, 0x3d, 0xb4, 0x37, 0x0f, 0x3d, 0xf0, 0x94, 0xe5, 0xbd, 0xd8, 0x7f, 0xc0, 0x3d, 0x96, 0xe6, 0xe5, 0xbd, 0x27, 0x4f, 0xbe, 0xbd, 0xe8, 0x21, 0x68, 0xbd, 0xa8, 0x1a, 0x60, 0x3d, 0xf8, 0x5f, 0xe9, 0xbc, 0xd0, 0x5e, 0xe0, 0x3c, 0x38, 0xe2, 0x96, 0x3c, 0xc0, 0xab, 0x3f, 0x3c, 0xd0, 0xdb, 0x20, 0x3d, 0x14, 0x71, 0xd5, 0x3d, 0x61, 0xd1, 0x04, 0xbe, 0x58, 0x74, 0x21, 0xbd, 0x58, 0xb2, 0x52, 0x3d, 0x70, 0x07, 0x96, 0xbc, 0x46, 0x18, 0x3d, 0xbd, 0xb0, 0xb0, 0xb9, 0x3d, 0xc7, 0x4f, 0xe1, 0xbd, 0x06, 0x0a, 0x9c, 0x3d, 0xe0, 0x57, 0xd0, 0xbd, 0x3a, 0x17, 0x1f, 0xbd, 0x3a, 0x44, 0x1c, 0xbd, 0x2e, 0xc9, 0x0b, 0x3e, 0x64, 0x10, 0x88, 0xbd, 0x88, 0x71, 0xdf, 0xbd, 0xac, 0x57, 0xd6, 0x3d, 0x50, 0x95, 0xba, 0x3d, 0x10, 0x6f, 0x43, 0x3d, 0x38, 0xd8, 0xc5, 0x3c, 0xc0, 0x7a, 0x46, 0x3c, 0xf0, 0x00, 0xeb, 0x3d, 0x8e, 0x2b, 0x04, 0xbe, 0x84, 0x25, 0x8d, 0x3d, 0x5c, 0x24, 0x8d, 0x3d, 0x22, 0x1a, 0xb5, 0xbd, 0x10, 0x4b, 0x11, 0x3d, 0x50, 0x46, 0x1d, 0xbc, 0xc8, 0x15, 0x70, 0x3d, 0xf4, 0xdf, 0xe8, 0x3d, 0xe0, 0xd9, 0x35, 0xbc, 0x28, 0xdc, 0x12, 0x3e, 0x5c, 0x33, 0xfe, 0xbc, 0x48, 0x6b, 0x8f, 0xbc, 0x40, 0xdb, 0x31, 0x3b, 0xdc, 0x96, 0x3f, 0x3d, 0x2c, 0x39, 0xc4, 0xbd, 0x20, 0xa5, 0x9d, 0xbc, 0x08, 0x61, 0xda, 0x3d, 0xc0, 0x23, 0x6f, 0x3c, 0xc0, 0x39, 0xb9, 0xbc, 0x22, 0x75, 0x63, 0xbd, 0xea, 0xc1, 0xa1, 0xbd, 0x5c, 0x15, 0x07, 0x3d, 0xd4, 0x2e, 0xe9, 0x3d, 0x55, 0xd5, 0x89, 0xbd, 0x40, 0xfa, 0x24, 0xbc, 0x08, 0xb3, 0x8b, 0x3d, 0x42, 0x41, 0x2a, 0xbd, 0x3d, 0x2e, 0xf9, 0xbd, 0xec, 0x87, 0xe2, 0xbd, 0x5e, 0xa0, 0xc0, 0xbd, 0x68, 0x62, 0x9d, 0xbc, 0x34, 0x32, 0xbd, 0x3d, 0xea, 0xc3, 0x6c, 0xbd, 0xf4, 0xaf, 0x18, 0x3d, 0xc6, 0xa9, 0xc7, 0x3d, 0x10, 0xaf, 0x54, 0x3c, 0x5a, 0x60, 0x17, 0x3e, 0xd0, 0xf6, 0x2a, 0x3c, 0x0a, 0xa9, 0xc1, 0x3d, 0x4c, 0x94, 0x6b, 0xbd, 0x6e, 0xc7, 0x0b, 0x3e, 0x2c, 0xd9, 0x26, 0x3d, 0x74, 0x16, 0xf4, 0xbc, 0xe0, 0x38, 0x77, 0x3d, 0x2a, 0x27, 0x93, 0xbd, 0xc0, 0x9c, 0x61, 0x3b, 0x6c, 0x4e, 0xe6, 0x3d, 0x00, 0x16, 0xc6, 0xbc, 0x93, 0xc4, 0x18, 0xbe, 0x14, 0x91, 0xd1, 0x3d, 0xa8, 0x99, 0x0b, 0x3e, 0xce, 0x7a, 0x56, 0xbd, 0x70, 0x35, 0x0b, 0x3d, 0xe6, 0x92, 0x96, 0xbd, 0xca, 0xe0, 0xab, 0xbd, 0x78, 0xc9, 0xf4, 0xbd, 0xe2, 0xb6, 0x0a, 0x3e, 0xe4, 0x25, 0x0f, 0xbd, 0x2c, 0x40, 0x16, 0x3e, 0x30, 0x8d, 0xe2, 0x3d, 0xe8, 0x18, 0xae, 0x3d, 0x00, 0xc2, 0x09, 0x3d, 0x20, 0xeb, 0xf2, 0x3b, 0x9a, 0xf0, 0x9c, 0x3d, 0xb0, 0xba, 0x5b, 0xbd, 0x62, 0xef, 0x05, 0x3e, 0x90, 0xce, 0x94, 0x3d, 0xb0, 0x82, 0x23, 0x3c, 0xa0, 0x94, 0xa8, 0x3c, 0xc0, 0x9d, 0x78, 0x3d, 0x6c, 0x46, 0x01, 0x3e, 0x3e, 0xa9, 0x3f, 0xbd, 0xe6, 0xdf, 0x10, 0xbd, 0x40, 0xbe, 0x1e, 0xbb, 0xea, 0x81, 0x04, 0x3e, 0x80, 0xd0, 0x95, 0x3d, 0xc0, 0xf9, 0x5a, 0x3d, 0x2e, 0x88, 0x3a, 0xbd, 0xd4, 0xec, 0x17, 0x3e, 0x74, 0xc1, 0x3e, 0x3d, 0x58, 0xb2, 0x4f, 0xbd, 0xc0, 0x31, 0x6c, 0xbd, 0xd6, 0x6d, 0x0c, 0x3e, 0x3c, 0xc5, 0xef, 0x3d, 0xe4, 0x6c, 0x17, 0x3d, 0x9c, 0x39, 0xf7, 0x3d, 0xf0, 0x82, 0x5c, 0x3d, 0x98, 0xb0, 0x0b, 0xbe, 0x66, 0x54, 0x00, 0xbe, 0x64, 0xc7, 0x0e, 0x3d, 0x1c, 0xa8, 0x43, 0xbd, 0xb0, 0x30, 0x13, 0xbc, 0xc0, 0xbd, 0x19, 0xbc, 0xb8, 0xfe, 0xea, 0xbd, 0xc2, 0xe3, 0x16, 0x3e, 0xd0, 0xee, 0xbc, 0x3c, 0xe6, 0x34, 0x1b, 0x3e, 0x3e, 0x4e, 0x44, 0xbd, 0xea, 0xdf, 0x99, 0xbd, 0x6b, 0x51, 0xbd, 0xbd, 0xe4, 0xab, 0x19, 0x3e, 0xd2, 0x99, 0x05, 0x3e, 0x40, 0x44, 0x06, 0xbb, 0xf8, 0x33, 0xc3, 0xbd, 0x3d, 0x8a, 0xc5, 0xbd, 0xa4, 0xa7, 0x27, 0x3d, 0x14, 0xb7, 0xb3, 0x3d, 0xdc, 0x03, 0xd0, 0xbd, 0x14, 0xe0, 0x85, 0x3d, 0x75, 0xf1, 0x89, 0xbd, 0x64, 0x5b, 0xfd, 0x3d, 0x44, 0xaa, 0x37, 0x3d, 0xf0, 0xce, 0x08, 0x3e, 0x76, 0x17, 0x0f, 0xbe, 0x88, 0x6d, 0x8b, 0xbc, 0x40, 0xfd, 0x63, 0x3d, 0x81, 0x94, 0xf3, 0xbd, 0xa8, 0x87, 0xf6, 0x3d, 0x00, 0xc8, 0xbe, 0xbc, 0x48, 0x3f, 0x39, 0x3d, 0x36, 0x60, 0x44, 0xbd, 0x10, 0x27, 0x78, 0xbd, 0xb0, 0x9d, 0x95, 0xbc, 0xc0, 0xb0, 0x9c, 0x3d, 0x6d, 0xdf, 0xda, 0xbd, 0xe2, 0x61, 0x21, 0xbd, 0xae, 0x5a, 0x8a, 0x3d, 0x76, 0x79, 0x00, 0xbe, 0x36, 0x62, 0x94, 0x3d, 0x20, 0xc1, 0x1f, 0x3c, 0x56, 0xb5, 0x10, 0xbd, 0x7c, 0x9d, 0x27, 0xbd, 0xe0, 0x4a, 0x5c, 0xbd, 0xd4, 0xe1, 0x78, 0x3d, 0xb8, 0x79, 0x95, 0xbd, 0x42, 0x63, 0x0f, 0x3e, 0xa8, 0x8f, 0xd3, 0xbc, 0x60, 0x20, 0x5b, 0xbd, 0x20, 0x67, 0x0b, 0xbe, 0xea, 0xbb, 0x45, 0xbd, 0xe0, 0x5a, 0x0b, 0x3c, 0x68, 0x46, 0xd7, 0x3d, 0x06, 0x2e, 0x09, 0x3e, 0x50, 0xa3, 0x71, 0x3c, 0x36, 0xd1, 0xe0, 0xbd, 0x05, 0x3e, 0xb8, 0xbd, 0xac, 0x35, 0x04, 0x3d, 0x87, 0xd9, 0x1a, 0xbe, 0x4c, 0x61, 0x04, 0x3d, 0x18, 0x51, 0xbb, 0xbd, 0x55, 0x4b, 0x88, 0xbd, 0xc1, 0xbd, 0xf6, 0xbd, 0x18, 0x5e, 0xf2, 0x3d, 0xec, 0xfb, 0xb0, 0x3d, 0x18, 0x64, 0xad, 0x3c, 0x20, 0x3f, 0x67, 0x3d, 0x64, 0xfc, 0xe5, 0xbc, 0xdc, 0x35, 0x0c, 0xbe, 0xba, 0x50, 0xa3, 0x3d, 0xd0, 0x8d, 0x81, 0x3c, 0xe0, 0x43, 0xcd, 0x3d, 0xdc, 0xd7, 0x04, 0xbd, 0x00, 0x31, 0xd5, 0xbc, 0x00, 0x7a, 0xbc, 0x3c, 0x94, 0x24, 0xc5, 0xbd, 0xd8, 0x1b, 0xcb, 0xbd, 0x00, 0xad, 0x7e, 0xbb, 0x40, 0xbc, 0x28, 0x3c, 0x95, 0xe2, 0x0c, 0xbe, 0xaa, 0x92, 0x9b, 0xbd, 0x64, 0x2c, 0x11, 0xbd, 0x14, 0x52, 0xb1, 0x3d, 0x38, 0xc6, 0x45, 0x3d, 0x40, 0x6e, 0x83, 0xbb, 0x40, 0xa4, 0x10, 0xbc, 0xb8, 0x5a, 0x2d, 0xbd, 0x90, 0xb5, 0x1b, 0xbc, 0x9c, 0x73, 0xf6, 0xbd, 0xfc, 0xc2, 0xaa, 0xbd, 0xae, 0x83, 0x18, 0x3e, 0xa0, 0x41, 0xaa, 0xbc, 0x00, 0x9a, 0xe6, 0x3b, 0x74, 0x42, 0x05, 0x3e, 0x65, 0xb6, 0x11, 0xbe, 0x88, 0x6f, 0x96, 0xbc, 0xe4, 0x74, 0x02, 0x3e, 0xe4, 0x36, 0x43, 0x3d, 0x44, 0xba, 0x19, 0x3e, 0x9a, 0xbe, 0x09, 0xbe, 0x64, 0x7b, 0x1d, 0xbd, 0xf0, 0x29, 0x08, 0x3e, 0xee, 0xc5, 0x13, 0x3e, 0x40, 0xa6, 0x4a, 0x3b, 0x6e, 0x4f, 0x10, 0x3e, 0x02, 0x9d, 0x19, 0x3e, 0xf0, 0xad, 0x30, 0x3c, 0x70, 0xae, 0xb9, 0xbd, 0xdc, 0x65, 0xfb, 0x3d, 0x56, 0x1b, 0x12, 0xbe, 0xa2, 0xe2, 0xb5, 0x3d, 0x9c, 0x96, 0x82, 0xbd, 0xf2, 0x77, 0x0d, 0xbe, 0x3c, 0xe3, 0xa7, 0xbd, 0xa8, 0x21, 0xe9, 0x3c, 0xd3, 0xdb, 0x03, 0xbe, 0x1c, 0x17, 0x23, 0x3d, 0x74, 0xe8, 0xb2, 0x3d, 0x48, 0xef, 0x23, 0x3d, 0x78, 0x5c, 0x81, 0x3d, 0xac, 0xd3, 0xd2, 0xbd, 0xc4, 0xa0, 0x04, 0x3e, 0x04, 0x6a, 0xc1, 0x3d, 0xc0, 0x8e, 0x98, 0xbd, 0x56, 0x78, 0xc0, 0x3d, 0x3c, 0xd2, 0x02, 0xbe, 0xa0, 0x95, 0x93, 0x3c, 0x68, 0xee, 0x8f, 0x3d, 0xa8, 0x6c, 0x0e, 0x3d, 0xfc, 0x78, 0xe1, 0xbc, 0x1f, 0x73, 0xd9, 0xbd, 0x50, 0x40, 0x4c, 0xbc, 0x86, 0x7d, 0xae, 0x3d, 0xf0, 0x3e, 0xbc, 0x3c, 0x6e, 0xd3, 0x04, 0xbd, 0x3a, 0x85, 0xf5, 0xbd, 0xc0, 0x43, 0x77, 0xbd, 0xb8, 0xd0, 0xd3, 0x3c, 0x9d, 0x40, 0x08, 0xbe, 0x3a, 0xa0, 0x81, 0xbd, 0x6f, 0xa1, 0x15, 0xbe, 0x80, 0xe8, 0xd5, 0x3d, 0xf6, 0xc4, 0x7a, 0xbd, 0xa8, 0x6d, 0xd7, 0xbc, 0x07, 0x09, 0x0d, 0xbe, 0x88, 0x44, 0xda, 0xbc, 0x84, 0xf0, 0xb6, 0x3d, 0x19, 0x21, 0x8f, 0xbd, 0x38, 0xea, 0x7e, 0xbd, 0xd0, 0x55, 0x3e, 0x3c, 0x50, 0x51, 0x18, 0x3e, 0x80, 0xe6, 0xcd, 0xbd, 0x60, 0xa1, 0x15, 0x3d, 0xa8, 0x81, 0x06, 0xbe, 0x88, 0x9e, 0xd6, 0xbd, 0x5e, 0x2a, 0xed, 0xbd, 0x00, 0x4a, 0x9a, 0x39, 0xde, 0x2e, 0x10, 0xbe, 0x90, 0xe6, 0xd3, 0x3d, 0xd2, 0x44, 0xa8, 0x3d, 0x53, 0x3b, 0xf6, 0xbd, 0x90, 0x7a, 0x2b, 0x3c, 0xc8, 0xe3, 0xd7, 0x3c, 0x24, 0x4f, 0x02, 0x3e, 0x60, 0x8c, 0x74, 0x3d, 0x28, 0x4a, 0x0c, 0x3e, 0x40, 0xc5, 0xc4, 0x3d, 0x98, 0xc0, 0xcb, 0x3d, 0x41, 0x55, 0x87, 0xbd, 0x68, 0x7f, 0xef, 0xbc, 0x44, 0xc0, 0x06, 0xbd, 0xeb, 0x9b, 0x90, 0xbd, 0xd6, 0xad, 0x81, 0x3d, 0xd0, 0xb3, 0xf1, 0x3d, 0x90, 0x26, 0x11, 0x3d, 0xf8, 0x72, 0xe8, 0x3d, 0xaa, 0x33, 0x9c, 0x3d, 0xa0, 0xfb, 0xa9, 0xbd, 0xec, 0xa5, 0x0f, 0x3e, 0x98, 0x4a, 0xe0, 0xbd, 0x0e, 0xb0, 0xbc, 0xbd, 0x7c, 0x56, 0x65, 0xbd, 0xcc, 0x14, 0x3a, 0xbd, 0xe0, 0x0b, 0x83, 0xbc, 0x24, 0x48, 0x93, 0xbd, 0x1a, 0x9d, 0x7c, 0xbd, 0x3c, 0x10, 0x19, 0x3d, 0xdb, 0xc2, 0x8b, 0xbd, 0x3c, 0x33, 0xb6, 0xbd, 0x32, 0xba, 0xbe, 0x3d, 0xdc, 0xbb, 0x5e, 0x3d, 0xae, 0x07, 0xb4, 0xbd, 0x38, 0x9f, 0xdd, 0x3d, 0x8c, 0x92, 0x20, 0x3d, 0x20, 0x45, 0xef, 0x3b, 0x6a, 0xa7, 0x06, 0x3e, 0x2c, 0xed, 0x02, 0x3e, 0xc9, 0xbf, 0xdd, 0xbd, 0x9c, 0xf4, 0xd9, 0x3d, 0xd2, 0x16, 0x5b, 0xbd, 0x80, 0xb4, 0x01, 0x3e, 0x22, 0xe9, 0x0e, 0x3e, 0xe8, 0x59, 0x79, 0xbd, 0x96, 0xf9, 0xc1, 0x3d, 0x58, 0xa2, 0x0c, 0xbe, 0x34, 0x04, 0x8c, 0x3d, 0xf7, 0x5b, 0x8f, 0xbd, 0x60, 0x83, 0x88, 0xbb, 0x64, 0xc0, 0x1f, 0x3d, 0x36, 0x92, 0x0e, 0x3e, 0xe4, 0xb3, 0xcb, 0x3d, 0x3f, 0xcd, 0xca, 0xbd, 0xf3, 0x69, 0x11, 0xbe, 0x04, 0x34, 0x02, 0xbd, 0x30, 0xef, 0x0d, 0x3d, 0x38, 0x50, 0x25, 0xbd, 0x88, 0x6b, 0xea, 0x3d, 0x30, 0x10, 0xaf, 0xbc, 0x8a, 0x38, 0x07, 0xbd, 0x3c, 0x7f, 0xf2, 0x3d, 0xd8, 0x6b, 0x02, 0x3e, 0x26, 0x3f, 0xc7, 0xbd, 0x83, 0x28, 0x1b, 0xbe, 0x2a, 0xab, 0x11, 0x3e, 0xd0, 0x52, 0x27, 0x3d, 0x2c, 0x4b, 0x10, 0x3e, 0xaa, 0xf1, 0x0b, 0x3e, 0xed, 0x4c, 0xe2, 0xbd, 0x36, 0x5a, 0x18, 0xbd, 0xec, 0x97, 0xd4, 0x3d, 0x30, 0xd5, 0x4a, 0x3c, 0x16, 0x64, 0x8a, 0x3d, 0x26, 0xc7, 0x37, 0xbd, 0x58, 0xcd, 0xfb, 0xbd, 0xd8, 0x56, 0x5e, 0x3d, 0xc0, 0xbd, 0x4e, 0x3d, 0xa0, 0x80, 0xf0, 0x3c, 0x30, 0xe1, 0xcf, 0xbc, 0xf0, 0x8d, 0x3e, 0x3c, 0xf2, 0xd3, 0xb9, 0xbd, 0x80, 0xb5, 0x96, 0xba, 0x60, 0x5c, 0x0b, 0x3c, 0xac, 0x13, 0xcd, 0xbd, 0x1c, 0xd4, 0xb1, 0x3d, 0x94, 0x2f, 0x58, 0x3d, 0xae, 0x20, 0x17, 0x3e, 0x6c, 0xb0, 0x05, 0xbe, 0x48, 0x9a, 0xed, 0x3d, 0x40, 0xc7, 0x8e, 0x3c, 0x10, 0x78, 0x15, 0xbc, 0x4c, 0xe6, 0x87, 0x3d, 0xe2, 0x4d, 0x14, 0xbe, 0x71, 0x76, 0x18, 0xbe, 0x18, 0x39, 0xa9, 0x3d, 0xe4, 0xc4, 0xd4, 0xbd, 0xdc, 0x37, 0x3e, 0x3d, 0x70, 0x58, 0x00, 0x3c, 0xce, 0x64, 0x90, 0xbd, 0xbc, 0xd8, 0x8c, 0xbd, 0x68, 0xf5, 0xb4, 0xbc, 0x34, 0xc0, 0x7c, 0x3d, 0xa0, 0x11, 0x10, 0xbc, 0xc0, 0x5d, 0x53, 0x3d, 0x9c, 0x04, 0x8f, 0x3d, 0x99, 0x40, 0xe5, 0xbd, 0x8a, 0xa3, 0x45, 0xbd, 0xb9, 0x5e, 0x0f, 0xbe, 0x00, 0x04, 0xc8, 0xbc, 0x80, 0xd1, 0x72, 0x3d, 0x9a, 0x13, 0x04, 0xbe, 0x98, 0xbd, 0xce, 0x3d, 0x13, 0x00, 0x9e, 0xbd, 0x80, 0xf0, 0x0f, 0x3b, 0xe0, 0x9b, 0x84, 0xbb, 0x0e, 0xed, 0x5e, 0xbd, 0x90, 0xed, 0xe0, 0x3c, 0x04, 0x3a, 0x2e, 0x3d, 0x4a, 0xd3, 0x04, 0x3e, 0x64, 0xff, 0x81, 0x3d, 0xe0, 0xb9, 0xcc, 0x3d, 0x00, 0x6a, 0xfc, 0x3c, 0x30, 0xc6, 0xec, 0xbd, 0x2e, 0x14, 0xa7, 0x3d, 0x78, 0x0d, 0xc0, 0xbc, 0x18, 0xfe, 0x14, 0x3e, 0x5a, 0xdc, 0xc8, 0xbd, 0x76, 0x4e, 0x20, 0xbd, 0xb2, 0xb3, 0x3a, 0xbd, 0xa8, 0x28, 0x39, 0x3d, 0xba, 0x44, 0x05, 0xbe, 0x8c, 0x0d, 0x0e, 0xbe, 0x26, 0x04, 0xa0, 0x3d, 0x54, 0xc6, 0xed, 0xbd, 0xb4, 0x99, 0x4a, 0x3d, 0x00, 0xad, 0x01, 0x3d, 0x18, 0x8a, 0x13, 0x3e, 0xc8, 0x44, 0xbd, 0xbc, 0xcc, 0xd8, 0x18, 0xbe, 0x5f, 0xa3, 0xf6, 0xbd, 0xf8, 0x49, 0x0b, 0xbe, 0x49, 0xba, 0x03, 0xbe, 0x18, 0xd8, 0xf5, 0xbc, 0x9e, 0x4c, 0xa5, 0x3d, 0xe5, 0x06, 0x0d, 0xbe, 0xd0, 0x5d, 0x19, 0xbe, 0x61, 0x49, 0x0e, 0xbe, 0x94, 0xe9, 0x1d, 0x3d, 0xcd, 0x81, 0x8c, 0xbd, 0xac, 0xd4, 0x99, 0x3d, 0x86, 0xfc, 0xa8, 0x3d, 0x14, 0xdf, 0xf1, 0x3d, 0x8a, 0x2c, 0xf8, 0xbd, 0x60, 0xb7, 0x71, 0xbd, 0x68, 0x31, 0x70, 0x3d, 0x10, 0xb8, 0x88, 0x3d, 0x90, 0xb6, 0x0c, 0xbc, 0xa7, 0x82, 0xab, 0xbd, 0xd6, 0x8a, 0x14, 0x3e, 0x8c, 0x57, 0xcc, 0x3d, 0xce, 0x3e, 0x06, 0x3e, 0xb6, 0x84, 0x1d, 0xbd, 0x83, 0x63, 0x82, 0xbd, 0xa8, 0x9b, 0xe4, 0x3d, 0x10, 0xa0, 0xf6, 0x3d, 0x11, 0x7a, 0xa5, 0xbd, 0xd3, 0x4d, 0x8f, 0xbd, 0x32, 0x51, 0x09, 0xbe, 0xbd, 0xfc, 0x93, 0xbd, 0x50, 0xef, 0x99, 0xbc, 0x48, 0x7a, 0x7e, 0x3d, 0xa8, 0x24, 0x37, 0x3d, 0x1a, 0xde, 0xbd, 0x3d, 0x64, 0x2d, 0xc7, 0xbd, 0xae, 0x4d, 0xb5, 0x3d, 0x28, 0xf1, 0x9b, 0xbc, 0x78, 0x5a, 0x69, 0xbd, 0xbc, 0x2e, 0x14, 0x3e, 0xf0, 0xa3, 0x37, 0xbc, 0x97, 0x57, 0x9d, 0xbd, 0x08, 0x56, 0x2f, 0x3d, 0xc2, 0xa4, 0x0c, 0xbe, 0xf4, 0xb4, 0xa9, 0x3d, 0xec, 0xc4, 0xf0, 0x3d, 0x89, 0x47, 0x99, 0xbd, 0x0a, 0x0f, 0x13, 0xbd, 0x28, 0x9d, 0xae, 0x3d, 0xe8, 0x37, 0xcf, 0x3c, 0x88, 0x5f, 0x16, 0x3e, 0x9a, 0x42, 0x19, 0x3e, 0x86, 0xc6, 0xb1, 0x3d, 0xe8, 0xee, 0x03, 0x3d, 0xba, 0xa8, 0xa1, 0xbd, 0xa2, 0x75, 0xbd, 0x3d, 0xc0, 0x21, 0x9c, 0x3c, 0x38, 0x8f, 0x88, 0xbd, 0x66, 0x25, 0x95, 0x3d, 0x60, 0x9b, 0xcf, 0x3c, 0xfc, 0x03, 0x5b, 0xbd, 0xdc, 0x6c, 0x2c, 0x3d, 0x70, 0x10, 0x1b, 0x3d, 0xd0, 0xde, 0x09, 0xbd, 0x1a, 0x7d, 0xb1, 0x3d, 0x2c, 0xf3, 0x16, 0x3d, 0xb6, 0x10, 0x2f, 0xbd, 0xca, 0x5a, 0xbe, 0x3d, 0x06, 0x6d, 0x63, 0xbd, 0x63, 0x08, 0x9d, 0xbd, 0xdc, 0x5b, 0x17, 0xbe, 0x7c, 0xc1, 0x12, 0xbd, 0x0c, 0x91, 0xdc, 0x3d, 0x08, 0x0d, 0x8b, 0x3c, 0x40, 0x1c, 0x22, 0xbc, 0x54, 0xf4, 0x1f, 0xbd, 0xaa, 0xdb, 0x0d, 0xbd, 0x76, 0xc9, 0xb7, 0x3d, 0xf4, 0x3b, 0x78, 0xbd, 0x9a, 0x95, 0x15, 0x3e, 0x7a, 0x8d, 0xe8, 0xbd, 0x2c, 0x34, 0x06, 0x3e, 0x8b, 0x59, 0xfb, 0xbd, 0x6e, 0x19, 0x04, 0x3e, 0x9a, 0x98, 0xbb, 0xbd, 0x18, 0xd1, 0xa4, 0x3c, 0x84, 0x1e, 0xed, 0x3d, 0x18, 0x42, 0xcb, 0x3c, 0x36, 0x02, 0x1d, 0xbd, 0xd6, 0xf6, 0x98, 0x3d, 0xc4, 0x11, 0x93, 0xbd, 0x04, 0x13, 0xd0, 0x3d, 0xec, 0xd3, 0xb9, 0xbd, 0xa0, 0x7b, 0x52, 0xbc, 0x5c, 0xce, 0x34, 0xbd, 0x08, 0xcb, 0x97, 0x3c, 0x68, 0x58, 0xe1, 0x3d, 0x14, 0x46, 0x15, 0x3e, 0x5f, 0x9a, 0xac, 0xbd, 0x6d, 0xea, 0xd5, 0xbd, 0x20, 0xf8, 0xbc, 0x3c, 0x1e, 0x45, 0x49, 0xbd, 0xd4, 0xb4, 0x32, 0xbd, 0x1c, 0xbd, 0x5b, 0xbd, 0x30, 0x60, 0x5b, 0x3c, 0x24, 0xf6, 0x51, 0x3d, 0x28, 0x39, 0xf7, 0x3d, 0xd8, 0xbb, 0xd9, 0x3d, 0x9c, 0x42, 0x0a, 0x3e, 0x00, 0x92, 0x7a, 0xba, 0x69, 0x6c, 0xa8, 0xbd, 0x14, 0xf6, 0xaa, 0x3d, 0x8c, 0x50, 0x76, 0x3d, 0x9c, 0x6c, 0xa5, 0xbd, 0xc0, 0x22, 0xf0, 0xbb, 0x40, 0xa1, 0x10, 0x3e, 0x5a, 0x22, 0x9f, 0x3d, 0xc0, 0x11, 0x6d, 0xbb, 0xb4, 0x69, 0x8f, 0xbd, 0x3e, 0x6a, 0xbb, 0xbd, 0x36, 0x5b, 0x29, 0xbd, 0xb6, 0x11, 0x0d, 0xbd, 0x34, 0xcf, 0xfb, 0xbc, 0xa0, 0x46, 0x6b, 0xbd, 0xa8, 0xfd, 0xb1, 0x3d, 0xba, 0x17, 0x94, 0x3d, 0x64, 0x59, 0xf9, 0xbd, 0xf0, 0x43, 0xe5, 0x3c, 0x89, 0x41, 0x94, 0xbd, 0xcc, 0xe5, 0xf0, 0x3d, 0xcc, 0x92, 0x93, 0x3d, 0xf0, 0x25, 0xde, 0x3c, 0xc0, 0x3e, 0x91, 0xbc, 0x7c, 0x60, 0x19, 0xbe, 0x80, 0x6c, 0x8f, 0xbc, 0xed, 0xf2, 0xab, 0xbd, 0x70, 0x49, 0x18, 0xbe, 0x7b, 0xa5, 0x13, 0xbe, 0x40, 0xf7, 0x9f, 0x3b, 0x64, 0x15, 0x02, 0x3e, 0x38, 0x00, 0xab, 0x3d, 0x40, 0x42, 0x9d, 0x3d, 0x83, 0xaf, 0xcc, 0xbd, 0xfc, 0xf4, 0x25, 0x3d, 0x68, 0x3f, 0xdd, 0x3d, 0x70, 0x07, 0xcc, 0x3d, 0x14, 0x62, 0x90, 0x3d, 0x54, 0x37, 0xba, 0x3d, 0xa0, 0x7a, 0x58, 0xbc, 0x64, 0x03, 0x7f, 0x3d, 0xd8, 0xb5, 0x35, 0x3d, 0x88, 0x04, 0x74, 0x3d, 0xf6, 0xec, 0x4d, 0xbd, 0x0e, 0x91, 0x84, 0xbd, 0x0c, 0xd8, 0x0e, 0x3e, 0x20, 0xe7, 0x72, 0x3c, 0x14, 0x30, 0x26, 0x3d, 0x74, 0x18, 0x66, 0x3d, 0xa4, 0xb9, 0xff, 0x3d, 0x0e, 0x72, 0x0e, 0x3e, 0x86, 0x43, 0x12, 0xbd, 0xe4, 0xb3, 0x09, 0x3e, 0xb8, 0x62, 0x86, 0xbd, 0xd0, 0xb2, 0xd6, 0x3d, 0xfe, 0x70, 0x37, 0xbd, 0x8e, 0x9e, 0x0a, 0x3e, 0x26, 0x58, 0x9e, 0x3d, 0xc0, 0xa4, 0xd8, 0xbd, 0xf2, 0xff, 0x8c, 0x3d, 0x78, 0x14, 0x9c, 0x3d, 0x92, 0xab, 0xa7, 0x3d, 0x28, 0x58, 0x42, 0xbd, 0x00, 0xb8, 0x44, 0xba, 0x9a, 0x8d, 0x15, 0x3e, 0x00, 0xe4, 0x2c, 0x3d, 0x80, 0xad, 0x42, 0xbc, 0x40, 0x29, 0x2a, 0xbc, 0x7f, 0x31, 0xa9, 0xbd, 0x9c, 0x28, 0xb3, 0x3d, 0x80, 0xe4, 0xbf, 0x3b, 0x0a, 0xe2, 0xa5, 0xbd, 0xc7, 0x7f, 0xee, 0xbd, 0xa4, 0x15, 0x88, 0x3d, 0x58, 0xc3, 0xe0, 0xbc, 0x90, 0x3e, 0xc1, 0x3d, 0x3c, 0xc0, 0xd3, 0x3d, 0xbe, 0x7c, 0xc5, 0x3d, 0xa4, 0xb2, 0x42, 0x3d, 0xa0, 0x62, 0xa8, 0x3b, 0x38, 0x05, 0x84, 0xbc, 0x01, 0x81, 0xad, 0xbd, 0x94, 0xb0, 0x68, 0x3d, 0x42, 0xb8, 0xbf, 0x3d, 0xfc, 0x17, 0xfd, 0x3d, 0x84, 0xf4, 0x82, 0x3d, 0x6c, 0x41, 0xec, 0xbd, 0x40, 0x3c, 0xb9, 0xbc, 0x14, 0x7e, 0x67, 0xbd, 0x10, 0xa9, 0xfe, 0xbd, 0x64, 0x73, 0xe3, 0xbd, 0x16, 0x5d, 0x17, 0x3e, 0x80, 0xe4, 0x35, 0x3d, 0x71, 0x9f, 0x04, 0xbe, 0x38, 0x9c, 0xe1, 0x3c, 0x7a, 0x5f, 0x82, 0xbd, 0xac, 0x6c, 0x04, 0x3d, 0x2c, 0xd2, 0x32, 0xbd, 0xa7, 0x59, 0x95, 0xbd, 0xc8, 0x5c, 0xde, 0x3d, 0x98, 0xb7, 0x74, 0x3d, 0x30, 0x37, 0x7c, 0x3c, 0x3e, 0x67, 0xa3, 0x3d, 0x58, 0x42, 0xed, 0xbd, 0x68, 0x22, 0xf6, 0x3d, 0xb2, 0xad, 0xb7, 0xbd, 0x60, 0x7b, 0x0d, 0xbe, 0xf4, 0x9c, 0xe3, 0x3d, 0x79, 0xb0, 0x97, 0xbd, 0x16, 0x88, 0xc8, 0xbd, 0xf1, 0x7e, 0xe6, 0xbd, 0x90, 0xb0, 0x43, 0xbd, 0x5c, 0x53, 0x91, 0x3d, 0xd0, 0x21, 0x38, 0x3d, 0x19, 0x14, 0xe9, 0xbd, 0x60, 0x5c, 0xf7, 0x3c, 0xfa, 0xe1, 0xe9, 0xbd, 0x63, 0x99, 0x02, 0xbe, 0x15, 0x05, 0x08, 0xbe, 0x87, 0x57, 0x08, 0xbe, 0x22, 0x73, 0xb5, 0xbd, 0x64, 0xd7, 0x31, 0x3d, 0x4c, 0x89, 0xf6, 0x3d, 0x62, 0xf4, 0xad, 0x3d, 0x74, 0x61, 0x11, 0x3d, 0xe1, 0x35, 0x16, 0xbe, 0xa0, 0x4f, 0xbf, 0x3c, 0x0c, 0x6a, 0x99, 0x3d, 0xda, 0x13, 0x0f, 0xbd, 0x9d, 0x50, 0xbe, 0xbd, 0x2c, 0x5b, 0x0a, 0xbd, 0x0c, 0x82, 0xbd, 0x3d, 0xf6, 0x0a, 0x11, 0x3e, 0x36, 0xda, 0x9f, 0x3d, 0x35, 0xa4, 0x87, 0xbd, 0x00, 0xcc, 0x3d, 0xb9, 0x18, 0x49, 0x09, 0x3e, 0x60, 0x7d, 0x61, 0x3c, 0x94, 0x0f, 0xf1, 0x3d, 0x22, 0x53, 0x19, 0x3e, 0xcc, 0x4b, 0xf9, 0xbc, 0xf8, 0x50, 0x73, 0x3d, 0xca, 0xa7, 0x03, 0xbd, 0xc4, 0xb7, 0xc7, 0xbd, 0x90, 0x71, 0x41, 0x3c, 0x20, 0x66, 0xe0, 0x3d, 0x00, 0x3d, 0xe7, 0x3d, 0xa2, 0x4d, 0x0b, 0xbe, 0x38, 0xec, 0x71, 0xbd, 0x20, 0xa4, 0x06, 0x3e, 0xc0, 0x0f, 0xdc, 0x3d, 0xf2, 0x0f, 0x11, 0xbe, 0x78, 0x33, 0x9a, 0xbc, 0x34, 0xa0, 0x96, 0x3d, 0xdc, 0xb5, 0xde, 0x3d, 0xcd, 0xaf, 0x1a, 0xbe, 0x12, 0xc8, 0x19, 0xbd, 0x80, 0x9d, 0x69, 0x3b, 0xd4, 0x06, 0xdb, 0x3d, 0xde, 0xa0, 0x6e, 0xbd, 0xee, 0xeb, 0xa3, 0x3d, 0x70, 0x05, 0xee, 0xbd, 0x7a, 0xcc, 0xec, 0xbd, 0x0b, 0xa1, 0xfe, 0xbd, 0xa0, 0xe3, 0xef, 0x3c, 0xe0, 0x1d, 0xb6, 0x3d, 0x8a, 0xb7, 0x7e, 0xbd, 0xe2, 0x3f, 0x07, 0xbe, 0xa8, 0x29, 0x10, 0xbe, 0xa0, 0x07, 0x9b, 0x3d, 0x2e, 0x5b, 0xbb, 0x3d, 0x36, 0x64, 0x05, 0x3e, 0xa1, 0xad, 0xdf, 0xbd, 0x54, 0x62, 0x18, 0x3d, 0x98, 0x0a, 0xa0, 0x3d, 0xe8, 0x80, 0xbf, 0xbc, 0x7d, 0xa5, 0x8e, 0xbd, 0xbc, 0xfc, 0xa6, 0x3d, 0xea, 0x45, 0x1a, 0x3e, 0xee, 0x07, 0xe5, 0xbd, 0x20, 0x3c, 0x8f, 0x3d, 0x50, 0xbf, 0xf6, 0x3d, 0x5a, 0x48, 0xeb, 0xbd, 0x66, 0xdd, 0xb7, 0x3d, 0x67, 0x2f, 0xd1, 0xbd, 0x74, 0xc5, 0x9d, 0x3d, 0x36, 0x72, 0x0d, 0xbd, 0x00, 0xdd, 0x77, 0xbd, 0x30, 0x71, 0x79, 0x3c, 0x82, 0x96, 0xba, 0xbd, 0x91, 0x91, 0x9f, 0xbd, 0x94, 0x33, 0x16, 0xbe, 0x06, 0xa3, 0x79, 0xbd, 0x62, 0xf7, 0xb3, 0x3d, 0x80, 0x31, 0xaa, 0xbc, 0x08, 0x36, 0x0e, 0xbe, 0x44, 0xfb, 0x1f, 0x3d, 0x72, 0x95, 0xb8, 0x3d, 0x6c, 0x85, 0x37, 0xbd, 0x90, 0x3c, 0x33, 0x3d, 0x12, 0xe5, 0xc8, 0xbd, 0xc0, 0x8d, 0x5d, 0xbd, 0x9c, 0xd4, 0x53, 0x3d, 0x50, 0x85, 0xe8, 0x3d, 0xeb, 0x74, 0xf0, 0xbd, 0x12, 0xfa, 0xff, 0xff, 0x10, 0x00, 0x00, 0x00, 0x06, 0x00, 0x00, 0x00, 0x14, 0x00, 0x00, 0x00, 0x30, 0x00, 0x00, 0x00, 0x02, 0x00, 0x00, 0x00, 0x00, 0x01, 0x00, 0x00, 0x05, 0x00, 0x00, 0x00, 0x19, 0x00, 0x00, 0x00, 0x73, 0x65, 0x71, 0x75, 0x65, 0x6e, 0x74, 0x69, 0x61, 0x6c, 0x2f, 0x64, 0x65, 0x6e, 0x73, 0x65, 0x5f, 0x31, 0x2f, 0x4d, 0x61, 0x74, 0x4d, 0x75, 0x6c, 0x00, 0x00, 0x00, 0x94, 0xf9, 0xff, 0xff, 0x7e, 0xfa, 0xff, 0xff, 0x04, 0x00, 0x00, 0x00, 0x64, 0x00, 0x00, 0x00, 0x4c, 0x87, 0x82, 0x3e, 0xd0, 0x7a, 0x92, 0x3e, 0xd0, 0x65, 0x96, 0xbe, 0x0a, 0x83, 0x1e, 0x3f, 0x94, 0xf9, 0xb5, 0x3e, 0xb0, 0x2b, 0xbb, 0xbd, 0x40, 0x75, 0xbe, 0x3e, 0x98, 0x5a, 0xb0, 0x3e, 0x24, 0x8b, 0x42, 0xbf, 0xe8, 0x6b, 0x91, 0x3d, 0x24, 0x62, 0x69, 0xbe, 0x86, 0xb5, 0x13, 0x3f, 0xc0, 0x79, 0x11, 0xbf, 0x20, 0xb8, 0x06, 0x3d, 0x10, 0xa3, 0x1b, 0xbf, 0x40, 0x60, 0x61, 0xbd, 0x0b, 0x13, 0xd9, 0xbe, 0x98, 0x7e, 0x98, 0x3d, 0x18, 0x70, 0x55, 0x3e, 0x34, 0x29, 0x8c, 0x3e, 0x7f, 0xf2, 0x38, 0xbf, 0x81, 0x8e, 0xdb, 0xbe, 0x08, 0xb7, 0xec, 0x3d, 0x28, 0x7d, 0xee, 0xbe, 0x18, 0x42, 0x7e, 0x3e, 0xc6, 0xfa, 0xff, 0xff, 0x10, 0x00, 0x00, 0x00, 0x05, 0x00, 0x00, 0x00, 0x14, 0x00, 0x00, 0x00, 0x2c, 0x00, 0x00, 0x00, 0x02, 0x00, 0x00, 0x00, 0x05, 0x00, 0x00, 0x00, 0x05, 0x00, 0x00, 0x00, 0x17, 0x00, 0x00, 0x00, 0x73, 0x65, 0x71, 0x75, 0x65, 0x6e, 0x74, 0x69, 0x61, 0x6c, 0x2f, 0x64, 0x65, 0x6e, 0x73, 0x65, 0x2f, 0x4d, 0x61, 0x74, 0x4d, 0x75, 0x6c, 0x00, 0x44, 0xfa, 0xff, 0xff, 0x2e, 0xfb, 0xff, 0xff, 0x04, 0x00, 0x00, 0x00, 0x04, 0x00, 0x00, 0x00, 0x00, 0x00, 0x00, 0x00, 0x16, 0xfb, 0xff, 0xff, 0x10, 0x00, 0x00, 0x00, 0x04, 0x00, 0x00, 0x00, 0x10, 0x00, 0x00, 0x00, 0x44, 0x00, 0x00, 0x00, 0x01, 0x00, 0x00, 0x00, 0x01, 0x00, 0x00, 0x00, 0x32, 0x00, 0x00, 0x00, 0x73, 0x65, 0x71, 0x75, 0x65, 0x6e, 0x74, 0x69, 0x61, 0x6c, 0x2f, 0x64, 0x65, 0x6e, 0x73, 0x65, 0x5f, 0x32, 0x2f, 0x42, 0x69, 0x61, 0x73, 0x41, 0x64, 0x64, 0x2f, 0x52, 0x65, 0x61, 0x64, 0x56, 0x61, 0x72, 0x69, 0x61, 0x62, 0x6c, 0x65, 0x4f, 0x70, 0x2f, 0x72, 0x65, 0x73, 0x6f, 0x75, 0x72, 0x63, 0x65, 0x00, 0x00, 0xac, 0xfa, 0xff, 0xff, 0x96, 0xfb, 0xff, 0xff, 0x04, 0x00, 0x00, 0x00, 0x00, 0x04, 0x00, 0x00, 0x00, 0x00, 0x00, 0x00, 0x00, 0x00, 0x00, 0x00, 0x00, 0x00, 0x00, 0x00, 0x00, 0x00, 0x00, 0x00, 0x00, 0x00, 0x00, 0x00, 0x00, 0x00, 0x00, 0x00, 0x00, 0x00, 0x00, 0x00, 0x00, 0x00, 0x00, 0x00, 0x00, 0x00, 0x00, 0x00, 0x00, 0x00, 0x00, 0x00, 0x00, 0x00, 0x00, 0x00, 0x00, 0x00, 0x00, 0x00, 0x00, 0x00, 0x00, 0x00, 0x00, 0x00, 0x00, 0x00, 0x00, 0x00, 0x00, 0x00, 0x00, 0x00, 0x00, 0x00, 0x00, 0x00, 0x00, 0x00, 0x00, 0x00, 0x00, 0x00, 0x00, 0x00, 0x00, 0x00, 0x00, 0x00, 0x00, 0x00, 0x00, 0x00, 0x00, 0x00, 0x00, 0x00, 0x00, 0x00, 0x00, 0x00, 0x00, 0x00, 0x00, 0x00, 0x00, 0x00, 0x00, 0x00, 0x00, 0x00, 0x00, 0x00, 0x00, 0x00, 0x00, 0x00, 0x00, 0x00, 0x00, 0x00, 0x00, 0x00, 0x00, 0x00, 0x00, 0x00, 0x00, 0x00, 0x00, 0x00, 0x00, 0x00, 0x00, 0x00, 0x00, 0x00, 0x00, 0x00, 0x00, 0x00, 0x00, 0x00, 0x00, 0x00, 0x00, 0x00, 0x00, 0x00, 0x00, 0x00, 0x00, 0x00, 0x00, 0x00, 0x00, 0x00, 0x00, 0x00, 0x00, 0x00, 0x00, 0x00, 0x00, 0x00, 0x00, 0x00, 0x00, 0x00, 0x00, 0x00, 0x00, 0x00, 0x00, 0x00, 0x00, 0x00, 0x00, 0x00, 0x00, 0x00, 0x00, 0x00, 0x00, 0x00, 0x00, 0x00, 0x00, 0x00, 0x00, 0x00, 0x00, 0x00, 0x00, 0x00, 0x00, 0x00, 0x00, 0x00, 0x00, 0x00, 0x00, 0x00, 0x00, 0x00, 0x00, 0x00, 0x00, 0x00, 0x00, 0x00, 0x00, 0x00, 0x00, 0x00, 0x00, 0x00, 0x00, 0x00, 0x00, 0x00, 0x00, 0x00, 0x00, 0x00, 0x00, 0x00, 0x00, 0x00, 0x00, 0x00, 0x00, 0x00, 0x00, 0x00, 0x00, 0x00, 0x00, 0x00, 0x00, 0x00, 0x00, 0x00, 0x00, 0x00, 0x00, 0x00, 0x00, 0x00, 0x00, 0x00, 0x00, 0x00, 0x00, 0x00, 0x00, 0x00, 0x00, 0x00, 0x00, 0x00, 0x00, 0x00, 0x00, 0x00, 0x00, 0x00, 0x00, 0x00, 0x00, 0x00, 0x00, 0x00, 0x00, 0x00, 0x00, 0x00, 0x00, 0x00, 0x00, 0x00, 0x00, 0x00, 0x00, 0x00, 0x00, 0x00, 0x00, 0x00, 0x00, 0x00, 0x00, 0x00, 0x00, 0x00, 0x00, 0x00, 0x00, 0x00, 0x00, 0x00, 0x00, 0x00, 0x00, 0x00, 0x00, 0x00, 0x00, 0x00, 0x00, 0x00, 0x00, 0x00, 0x00, 0x00, 0x00, 0x00, 0x00, 0x00, 0x00, 0x00, 0x00, 0x00, 0x00, 0x00, 0x00, 0x00, 0x00, 0x00, 0x00, 0x00, 0x00, 0x00, 0x00, 0x00, 0x00, 0x00, 0x00, 0x00, 0x00, 0x00, 0x00, 0x00, 0x00, 0x00, 0x00, 0x00, 0x00, 0x00, 0x00, 0x00, 0x00, 0x00, 0x00, 0x00, 0x00, 0x00, 0x00, 0x00, 0x00, 0x00, 0x00, 0x00, 0x00, 0x00, 0x00, 0x00, 0x00, 0x00, 0x00, 0x00, 0x00, 0x00, 0x00, 0x00, 0x00, 0x00, 0x00, 0x00, 0x00, 0x00, 0x00, 0x00, 0x00, 0x00, 0x00, 0x00, 0x00, 0x00, 0x00, 0x00, 0x00, 0x00, 0x00, 0x00, 0x00, 0x00, 0x00, 0x00, 0x00, 0x00, 0x00, 0x00, 0x00, 0x00, 0x00, 0x00, 0x00, 0x00, 0x00, 0x00, 0x00, 0x00, 0x00, 0x00, 0x00, 0x00, 0x00, 0x00, 0x00, 0x00, 0x00, 0x00, 0x00, 0x00, 0x00, 0x00, 0x00, 0x00, 0x00, 0x00, 0x00, 0x00, 0x00, 0x00, 0x00, 0x00, 0x00, 0x00, 0x00, 0x00, 0x00, 0x00, 0x00, 0x00, 0x00, 0x00, 0x00, 0x00, 0x00, 0x00, 0x00, 0x00, 0x00, 0x00, 0x00, 0x00, 0x00, 0x00, 0x00, 0x00, 0x00, 0x00, 0x00, 0x00, 0x00, 0x00, 0x00, 0x00, 0x00, 0x00, 0x00, 0x00, 0x00, 0x00, 0x00, 0x00, 0x00, 0x00, 0x00, 0x00, 0x00, 0x00, 0x00, 0x00, 0x00, 0x00, 0x00, 0x00, 0x00, 0x00, 0x00, 0x00, 0x00, 0x00, 0x00, 0x00, 0x00, 0x00, 0x00, 0x00, 0x00, 0x00, 0x00, 0x00, 0x00, 0x00, 0x00, 0x00, 0x00, 0x00, 0x00, 0x00, 0x00, 0x00, 0x00, 0x00, 0x00, 0x00, 0x00, 0x00, 0x00, 0x00, 0x00, 0x00, 0x00, 0x00, 0x00, 0x00, 0x00, 0x00, 0x00, 0x00, 0x00, 0x00, 0x00, 0x00, 0x00, 0x00, 0x00, 0x00, 0x00, 0x00, 0x00, 0x00, 0x00, 0x00, 0x00, 0x00, 0x00, 0x00, 0x00, 0x00, 0x00, 0x00, 0x00, 0x00, 0x00, 0x00, 0x00, 0x00, 0x00, 0x00, 0x00, 0x00, 0x00, 0x00, 0x00, 0x00, 0x00, 0x00, 0x00, 0x00, 0x00, 0x00, 0x00, 0x00, 0x00, 0x00, 0x00, 0x00, 0x00, 0x00, 0x00, 0x00, 0x00, 0x00, 0x00, 0x00, 0x00, 0x00, 0x00, 0x00, 0x00, 0x00, 0x00, 0x00, 0x00, 0x00, 0x00, 0x00, 0x00, 0x00, 0x00, 0x00, 0x00, 0x00, 0x00, 0x00, 0x00, 0x00, 0x00, 0x00, 0x00, 0x00, 0x00, 0x00, 0x00, 0x00, 0x00, 0x00, 0x00, 0x00, 0x00, 0x00, 0x00, 0x00, 0x00, 0x00, 0x00, 0x00, 0x00, 0x00, 0x00, 0x00, 0x00, 0x00, 0x00, 0x00, 0x00, 0x00, 0x00, 0x00, 0x00, 0x00, 0x00, 0x00, 0x00, 0x00, 0x00, 0x00, 0x00, 0x00, 0x00, 0x00, 0x00, 0x00, 0x00, 0x00, 0x00, 0x00, 0x00, 0x00, 0x00, 0x00, 0x00, 0x00, 0x00, 0x00, 0x00, 0x00, 0x00, 0x00, 0x00, 0x00, 0x00, 0x00, 0x00, 0x00, 0x00, 0x00, 0x00, 0x00, 0x00, 0x00, 0x00, 0x00, 0x00, 0x00, 0x00, 0x00, 0x00, 0x00, 0x00, 0x00, 0x00, 0x00, 0x00, 0x00, 0x00, 0x00, 0x00, 0x00, 0x00, 0x00, 0x00, 0x00, 0x00, 0x00, 0x00, 0x00, 0x00, 0x00, 0x00, 0x00, 0x00, 0x00, 0x00, 0x00, 0x00, 0x00, 0x00, 0x00, 0x00, 0x00, 0x00, 0x00, 0x00, 0x00, 0x00, 0x00, 0x00, 0x00, 0x00, 0x00, 0x00, 0x00, 0x00, 0x00, 0x00, 0x00, 0x00, 0x00, 0x00, 0x00, 0x00, 0x00, 0x00, 0x00, 0x00, 0x00, 0x00, 0x00, 0x00, 0x00, 0x00, 0x00, 0x00, 0x00, 0x00, 0x00, 0x00, 0x00, 0x00, 0x00, 0x00, 0x00, 0x00, 0x00, 0x00, 0x00, 0x00, 0x00, 0x00, 0x00, 0x00, 0x00, 0x00, 0x00, 0x00, 0x00, 0x00, 0x00, 0x00, 0x00, 0x00, 0x00, 0x00, 0x00, 0x00, 0x00, 0x00, 0x00, 0x00, 0x00, 0x00, 0x00, 0x00, 0x00, 0x00, 0x00, 0x00, 0x00, 0x00, 0x00, 0x00, 0x00, 0x00, 0x00, 0x00, 0x00, 0x00, 0x00, 0x00, 0x00, 0x00, 0x00, 0x00, 0x00, 0x00, 0x00, 0x00, 0x00, 0x00, 0x00, 0x00, 0x00, 0x00, 0x00, 0x00, 0x00, 0x00, 0x00, 0x00, 0x00, 0x00, 0x00, 0x00, 0x00, 0x00, 0x00, 0x00, 0x00, 0x00, 0x00, 0x00, 0x00, 0x00, 0x00, 0x00, 0x00, 0x00, 0x00, 0x00, 0x00, 0x00, 0x00, 0x00, 0x00, 0x00, 0x00, 0x00, 0x00, 0x00, 0x00, 0x00, 0x00, 0x00, 0x00, 0x00, 0x00, 0x00, 0x00, 0x00, 0x00, 0x00, 0x00, 0x00, 0x00, 0x00, 0x00, 0x00, 0x00, 0x00, 0x00, 0x00, 0x00, 0x00, 0x00, 0x00, 0x00, 0x00, 0x00, 0x00, 0x00, 0x00, 0x00, 0x00, 0x00, 0x00, 0x00, 0x00, 0x00, 0x00, 0x00, 0x00, 0x00, 0x00, 0x00, 0x00, 0x00, 0x00, 0x00, 0x00, 0x00, 0x00, 0x00, 0x00, 0x00, 0x00, 0x00, 0x00, 0x00, 0x00, 0x00, 0x00, 0x00, 0x00, 0x00, 0x00, 0x00, 0x00, 0x00, 0x00, 0x00, 0x00, 0x00, 0x00, 0x00, 0x00, 0x00, 0x00, 0x00, 0x00, 0x00, 0x00, 0x00, 0x00, 0x00, 0x00, 0x00, 0x00, 0x00, 0x00, 0x00, 0x00, 0x00, 0x00, 0x00, 0x00, 0x00, 0x00, 0x00, 0x00, 0x00, 0x00, 0x00, 0x00, 0x00, 0x00, 0x00, 0x00, 0x00, 0x00, 0x00, 0x00, 0x00, 0x00, 0x00, 0x00, 0x00, 0x00, 0x00, 0x00, 0x00, 0x00, 0x00, 0x00, 0x00, 0x00, 0x00, 0x00, 0x00, 0x00, 0x00, 0x00, 0x00, 0x00, 0x00, 0x00, 0x00, 0x00, 0x00, 0x00, 0x00, 0x00, 0x00, 0x00, 0x00, 0x00, 0x00, 0x00, 0x00, 0x00, 0x00, 0x00, 0x00, 0x00, 0x00, 0x00, 0x00, 0x00, 0x00, 0x00, 0x00, 0x00, 0x00, 0x00, 0x00, 0x00, 0x00, 0x00, 0x00, 0x00, 0x00, 0x7a, 0xff, 0xff, 0xff, 0x10, 0x00, 0x00, 0x00, 0x03, 0x00, 0x00, 0x00, 0x10, 0x00, 0x00, 0x00, 0x48, 0x00, 0x00, 0x00, 0x01, 0x00, 0x00, 0x00, 0x00, 0x01, 0x00, 0x00, 0x32, 0x00, 0x00, 0x00, 0x73, 0x65, 0x71, 0x75, 0x65, 0x6e, 0x74, 0x69, 0x61, 0x6c, 0x2f, 0x64, 0x65, 0x6e, 0x73, 0x65, 0x5f, 0x31, 0x2f, 0x42, 0x69, 0x61, 0x73, 0x41, 0x64, 0x64, 0x2f, 0x52, 0x65, 0x61, 0x64, 0x56, 0x61, 0x72, 0x69, 0x61, 0x62, 0x6c, 0x65, 0x4f, 0x70, 0x2f, 0x72, 0x65, 0x73, 0x6f, 0x75, 0x72, 0x63, 0x65, 0x00, 0x00, 0x04, 0x00, 0x06, 0x00, 0x04, 0x00, 0x00, 0x00, 0x00, 0x00, 0x06, 0x00, 0x08, 0x00, 0x04, 0x00, 0x06, 0x00, 0x00, 0x00, 0x04, 0x00, 0x00, 0x00, 0x14, 0x00, 0x00, 0x00, 0x00, 0x00, 0x00, 0x00, 0x00, 0x00, 0x00, 0x00, 0x00, 0x00, 0x00, 0x00, 0x00, 0x00, 0x00, 0x00, 0x00, 0x00, 0x00, 0x00, 0x00, 0x00, 0x0e, 0x00, 0x14, 0x00, 0x04, 0x00, 0x00, 0x00, 0x08, 0x00, 0x0c, 0x00, 0x10, 0x00, 0x0e, 0x00, 0x00, 0x00, 0x10, 0x00, 0x00, 0x00, 0x02, 0x00, 0x00, 0x00, 0x10, 0x00, 0x00, 0x00, 0x44, 0x00, 0x00, 0x00, 0x01, 0x00, 0x00, 0x00, 0x05, 0x00, 0x00, 0x00, 0x30, 0x00, 0x00, 0x00, 0x73, 0x65, 0x71, 0x75, 0x65, 0x6e, 0x74, 0x69, 0x61, 0x6c, 0x2f, 0x64, 0x65, 0x6e, 0x73, 0x65, 0x2f, 0x42, 0x69, 0x61, 0x73, 0x41, 0x64, 0x64, 0x2f, 0x52, 0x65, 0x61, 0x64, 0x56, 0x61, 0x72, 0x69, 0x61, 0x62, 0x6c, 0x65, 0x4f, 0x70, 0x2f, 0x72, 0x65, 0x73, 0x6f, 0x75, 0x72, 0x63, 0x65, 0x00, 0x00, 0x00, 0x00, 0xa4, 0xff, 0xff, 0xff, 0x14, 0x00, 0x18, 0x00, 0x04, 0x00, 0x00, 0x00, 0x08, 0x00, 0x0c, 0x00, 0x10, 0x00, 0x00, 0x00, 0x00, 0x00, 0x14, 0x00, 0x14, 0x00, 0x00, 0x00, 0x14, 0x00, 0x00, 0x00, 0x01, 0x00, 0x00, 0x00, 0x24, 0x00, 0x00, 0x00, 0x30, 0x00, 0x00, 0x00, 0x10, 0x00, 0x00, 0x00, 0x02, 0x00, 0x00, 0x00, 0x01, 0x00, 0x00, 0x00, 0x05, 0x00, 0x00, 0x00, 0x02, 0x00, 0x00, 0x00, 0xff, 0xff, 0xff, 0xff, 0x05, 0x00, 0x00, 0x00, 0x0b, 0x00, 0x00, 0x00, 0x64, 0x65, 0x6e, 0x73, 0x65, 0x5f, 0x69, 0x6e, 0x70, 0x75, 0x74, 0x00, 0xfc, 0xff, 0xff, 0xff, 0x04, 0x00, 0x04, 0x00, 0x04, 0x00, 0x00, 0x00};
const int model_data_len = 8972;