
#ifdef __has_attribute
#define HAVE_ATTRIBUTE(x) __has_attribute(x)
#else
#define HAVE_ATTRIBUTE(x) 0
#endif
#if HAVE_ATTRIBUTE(aligned) || (defined(__GNUC__) && !defined(__clang__))
#define DATA_ALIGN_ATTRIBUTE __attribute__((aligned(4)))
#else
#define DATA_ALIGN_ATTRIBUTE
#endif

const unsigned char model_data[] DATA_ALIGN_ATTRIBUTE = {0x1c, 0x00, 0x00, 0x00, 0x54, 0x46, 0x4c, 0x33, 0x00, 0x00, 0x12, 0x00, 0x1c, 0x00, 0x04, 0x00, 0x08, 0x00, 0x0c, 0x00, 0x10, 0x00, 0x14, 0x00, 0x00, 0x00, 0x18, 0x00, 0x12, 0x00, 0x00, 0x00, 0x03, 0x00, 0x00, 0x00, 0x14, 0x00, 0x00, 0x00, 0x1c, 0x00, 0x00, 0x00, 0xa8, 0x00, 0x00, 0x00, 0x1c, 0x00, 0x00, 0x00, 0x50, 0x00, 0x00, 0x00, 0x02, 0x00, 0x00, 0x00, 0x58, 0x03, 0x00, 0x00, 0x6c, 0x01, 0x00, 0x00, 0x01, 0x00, 0x00, 0x00, 0xb0, 0x00, 0x00, 0x00, 0x0d, 0x00, 0x00, 0x00, 0xe8, 0x2a, 0x00, 0x00, 0xe4, 0x2a, 0x00, 0x00, 0xfc, 0x29, 0x00, 0x00, 0x84, 0x25, 0x00, 0x00, 0x0c, 0x25, 0x00, 0x00, 0x54, 0x24, 0x00, 0x00, 0xfc, 0x0f, 0x00, 0x00, 0xa4, 0x03, 0x00, 0x00, 0xc8, 0x2a, 0x00, 0x00, 0xc4, 0x2a, 0x00, 0x00, 0xc0, 0x2a, 0x00, 0x00, 0xbc, 0x2a, 0x00, 0x00, 0x38, 0x00, 0x00, 0x00, 0x01, 0x00, 0x00, 0x00, 0x0c, 0x00, 0x00, 0x00, 0x08, 0x00, 0x0c, 0x00, 0x04, 0x00, 0x08, 0x00, 0x08, 0x00, 0x00, 0x00, 0x08, 0x00, 0x00, 0x00, 0x0c, 0x00, 0x00, 0x00, 0x13, 0x00, 0x00, 0x00, 0x6d, 0x69, 0x6e, 0x5f, 0x72, 0x75, 0x6e, 0x74, 0x69, 0x6d, 0x65, 0x5f, 0x76, 0x65, 0x72, 0x73, 0x69, 0x6f, 0x6e, 0x00, 0x6a, 0xd6, 0xff, 0xff, 0x04, 0x00, 0x00, 0x00, 0x10, 0x00, 0x00, 0x00, 0x31, 0x2e, 0x35, 0x2e, 0x30, 0x00, 0x00, 0x00, 0x00, 0x00, 0x00, 0x00, 0x00, 0x00, 0x00, 0x00, 0x0f, 0x00, 0x00, 0x00, 0x4d, 0x4c, 0x49, 0x52, 0x20, 0x43, 0x6f, 0x6e, 0x76, 0x65, 0x72, 0x74, 0x65, 0x64, 0x2e, 0x00, 0x00, 0x00, 0x0e, 0x00, 0x18, 0x00, 0x04, 0x00, 0x08, 0x00, 0x0c, 0x00, 0x10, 0x00, 0x14, 0x00, 0x0e, 0x00, 0x00, 0x00, 0x14, 0x00, 0x00, 0x00, 0x40, 0x00, 0x00, 0x00, 0x44, 0x00, 0x00, 0x00, 0x48, 0x00, 0x00, 0x00, 0x58, 0x00, 0x00, 0x00, 0x0b, 0x00, 0x00, 0x00, 0xdc, 0x29, 0x00, 0x00, 0x6c, 0x29, 0x00, 0x00, 0xd0, 0x28, 0x00, 0x00, 0x64, 0x24, 0x00, 0x00, 0x04, 0x24, 0x00, 0x00, 0x48, 0x23, 0x00, 0x00, 0xf0, 0x0e, 0x00, 0x00, 0x70, 0x02, 0x00, 0x00, 0x94, 0x01, 0x00, 0x00, 0xf4, 0x00, 0x00, 0x00, 0x7c, 0x00, 0x00, 0x00, 0x01, 0x00, 0x00, 0x00, 0x00, 0x00, 0x00, 0x00, 0x01, 0x00, 0x00, 0x00, 0x0a, 0x00, 0x00, 0x00, 0x04, 0x00, 0x00, 0x00, 0xf8, 0x01, 0x00, 0x00, 0x3c, 0x01, 0x00, 0x00, 0xa0, 0x00, 0x00, 0x00, 0x1c, 0x00, 0x00, 0x00, 0x04, 0x00, 0x00, 0x00, 0x6d, 0x61, 0x69, 0x6e, 0x00, 0x00, 0x0e, 0x00, 0x18, 0x00, 0x08, 0x00, 0x0c, 0x00, 0x10, 0x00, 0x07, 0x00, 0x14, 0x00, 0x0e, 0x00, 0x00, 0x00, 0x00, 0x00, 0x00, 0x09, 0x01, 0x00, 0x00, 0x00, 0x1c, 0x00, 0x00, 0x00, 0x10, 0x00, 0x00, 0x00, 0x04, 0x00, 0x00, 0x00, 0x46, 0xd7, 0xff, 0xff, 0x00, 0x00, 0x80, 0x3f, 0x01, 0x00, 0x00, 0x00, 0x0a, 0x00, 0x00, 0x00, 0x01, 0x00, 0x00, 0x00, 0x09, 0x00, 0x00, 0x00, 0x22, 0xfe, 0xff, 0xff, 0x00, 0x00, 0x00, 0x19, 0x01, 0x00, 0x00, 0x00, 0xdc, 0xd6, 0xff, 0xff, 0x14, 0x00, 0x00, 0x00, 0x0b, 0x00, 0x00, 0x00, 0x18, 0x00, 0x00, 0x00, 0x30, 0x00, 0x00, 0x00, 0x20, 0x00, 0x00, 0x00, 0x02, 0x00, 0x00, 0x00, 0x01, 0x00, 0x00, 0x00, 0x03, 0x00, 0x00, 0x00, 0x08, 0x00, 0x00, 0x00, 0x49, 0x64, 0x65, 0x6e, 0x74, 0x69, 0x74, 0x79, 0x00, 0x00, 0x00, 0x00, 0x02, 0x00, 0x00, 0x00, 0xff, 0xff, 0xff, 0xff, 0x03, 0x00, 0x00, 0x00, 0xc4, 0xd6, 0xff, 0xff, 0x76, 0xff, 0xff, 0xff, 0x00, 0x00, 0x00, 0x08, 0x18, 0x00, 0x00, 0x00, 0x0c, 0x00, 0x00, 0x00, 0x04, 0x00, 0x00, 0x00, 0xdc, 0xd6, 0xff, 0xff, 0x01, 0x00, 0x00, 0x00, 0x09, 0x00, 0x00, 0x00, 0x03, 0x00, 0x00, 0x00, 0x08, 0x00, 0x00, 0x00, 0x06, 0x00, 0x00, 0x00, 0x03, 0x00, 0x00, 0x00, 0x50, 0xd7, 0xff, 0xff, 0x14, 0x00, 0x00, 0x00, 0x0a, 0x00, 0x00, 0x00, 0x18, 0x00, 0x00, 0x00, 0x44, 0x00, 0x00, 0x00, 0x34, 0x00, 0x00, 0x00, 0x02, 0x00, 0x00, 0x00, 0x01, 0x00, 0x00, 0x00, 0x03, 0x00, 0x00, 0x00, 0x1d, 0x00, 0x00, 0x00, 0x53, 0x65, 0x71, 0x75, 0x65, 0x6e, 0x74, 0x69, 0x61, 0x6c, 0x2d, 0x4e, 0x4e, 0x2f, 0x64, 0x65, 0x6e, 0x73, 0x65, 0x5f, 0x32, 0x2f, 0x42, 0x69, 0x61, 0x73, 0x41, 0x64, 0x64, 0x00, 0x00, 0x00, 0x02, 0x00, 0x00, 0x00, 0xff, 0xff, 0xff, 0xff, 0x03, 0x00, 0x00, 0x00, 0x3c, 0xd8, 0xff, 0xff, 0x00, 0x00, 0x0e, 0x00, 0x14, 0x00, 0x00, 0x00, 0x08, 0x00, 0x0c, 0x00, 0x07, 0x00, 0x10, 0x00, 0x0e, 0x00, 0x00, 0x00, 0x00, 0x00, 0x00, 0x08, 0x1c, 0x00, 0x00, 0x00, 0x10, 0x00, 0x00, 0x00, 0x04, 0x00, 0x00, 0x00, 0x46, 0xff, 0xff, 0xff, 0x00, 0x00, 0x00, 0x01, 0x01, 0x00, 0x00, 0x00, 0x08, 0x00, 0x00, 0x00, 0x03, 0x00, 0x00, 0x00, 0x07, 0x00, 0x00, 0x00, 0x05, 0x00, 0x00, 0x00, 0x02, 0x00, 0x00, 0x00, 0xec, 0xd7, 0xff, 0xff, 0x14, 0x00, 0x00, 0x00, 0x09, 0x00, 0x00, 0x00, 0x18, 0x00, 0x00, 0x00, 0x60, 0x00, 0x00, 0x00, 0x50, 0x00, 0x00, 0x00, 0x02, 0x00, 0x00, 0x00, 0x01, 0x00, 0x00, 0x00, 0x00, 0x01, 0x00, 0x00, 0x38, 0x00, 0x00, 0x00, 0x53, 0x65, 0x71, 0x75, 0x65, 0x6e, 0x74, 0x69, 0x61, 0x6c, 0x2d, 0x4e, 0x4e, 0x2f, 0x64, 0x65, 0x6e, 0x73, 0x65, 0x5f, 0x31, 0x2f, 0x52, 0x65, 0x6c, 0x75, 0x3b, 0x53, 0x65, 0x71, 0x75, 0x65, 0x6e, 0x74, 0x69, 0x61, 0x6c, 0x2d, 0x4e, 0x4e, 0x2f, 0x64, 0x65, 0x6e, 0x73, 0x65, 0x5f, 0x31, 0x2f, 0x42, 0x69, 0x61, 0x73, 0x41, 0x64, 0x64, 0x00, 0x00, 0x00, 0x00, 0x02, 0x00, 0x00, 0x00, 0xff, 0xff, 0xff, 0xff, 0x00, 0x01, 0x00, 0x00, 0xf4, 0xd8, 0xff, 0xff, 0x00, 0x00, 0x0e, 0x00, 0x16, 0x00, 0x00, 0x00, 0x08, 0x00, 0x0c, 0x00, 0x07, 0x00, 0x10, 0x00, 0x0e, 0x00, 0x00, 0x00, 0x00, 0x00, 0x00, 0x08, 0x24, 0x00, 0x00, 0x00, 0x18, 0x00, 0x00, 0x00, 0x0c, 0x00, 0x00, 0x00, 0x00, 0x00, 0x06, 0x00, 0x08, 0x00, 0x07, 0x00, 0x06, 0x00, 0x00, 0x00, 0x00, 0x00, 0x00, 0x01, 0x01, 0x00, 0x00, 0x00, 0x07, 0x00, 0x00, 0x00, 0x03, 0x00, 0x00, 0x00, 0x00, 0x00, 0x00, 0x00, 0x04, 0x00, 0x00, 0x00, 0x01, 0x00, 0x00, 0x00, 0x00, 0x00, 0x0a, 0x00, 0x0c, 0x00, 0x07, 0x00, 0x00, 0x00, 0x08, 0x00, 0x0a, 0x00, 0x00, 0x00, 0x00, 0x00, 0x00, 0x09, 0x01, 0x00, 0x00, 0x00, 0xc4, 0xd8, 0xff, 0xff, 0x14, 0x00, 0x00, 0x00, 0x08, 0x00, 0x00, 0x00, 0x18, 0x00, 0x00, 0x00, 0x5c, 0x00, 0x00, 0x00, 0x4c, 0x00, 0x00, 0x00, 0x02, 0x00, 0x00, 0x00, 0x01, 0x00, 0x00, 0x00, 0x05, 0x00, 0x00, 0x00, 0x34, 0x00, 0x00, 0x00, 0x53, 0x65, 0x71, 0x75, 0x65, 0x6e, 0x74, 0x69, 0x61, 0x6c, 0x2d, 0x4e, 0x4e, 0x2f, 0x64, 0x65, 0x6e, 0x73, 0x65, 0x2f, 0x52, 0x65, 0x6c, 0x75, 0x3b, 0x53, 0x65, 0x71, 0x75, 0x65, 0x6e, 0x74, 0x69, 0x61, 0x6c, 0x2d, 0x4e, 0x4e, 0x2f, 0x64, 0x65, 0x6e, 0x73, 0x65, 0x2f, 0x42, 0x69, 0x61, 0x73, 0x41, 0x64, 0x64, 0x00, 0x00, 0x00, 0x00, 0x02, 0x00, 0x00, 0x00, 0xff, 0xff, 0xff, 0xff, 0x05, 0x00, 0x00, 0x00, 0xd8, 0xd8, 0xff, 0xff, 0xc2, 0xd9, 0xff, 0xff, 0x04, 0x00, 0x00, 0x00, 0x00, 0x0c, 0x00, 0x00, 0xc9, 0x41, 0x68, 0xbd, 0x14, 0xb1, 0x5d, 0x3d, 0xeb, 0xe6, 0x4c, 0xbe, 0x11, 0x6d, 0x2f, 0x3b, 0x84, 0x3e, 0x90, 0x3c, 0x4d, 0x0d, 0x1e, 0xbe, 0x0c, 0x61, 0xa5, 0xbd, 0xbe, 0xee, 0xc6, 0xbc, 0xae, 0xf8, 0x46, 0x3b, 0x27, 0x8e, 0x37, 0xbf, 0xcb, 0xa0, 0xae, 0xbd, 0x76, 0x3c, 0xe3, 0x3d, 0x18, 0xb0, 0xd2, 0xbd, 0xfd, 0x4e, 0xc4, 0x3d, 0xeb, 0x5f, 0xdc, 0xbd, 0x80, 0x9e, 0x2a, 0xbc, 0x40, 0x03, 0x29, 0xbb, 0x8e, 0x01, 0x8b, 0x3d, 0xb9, 0x9b, 0x1a, 0x3e, 0xe5, 0x6b, 0x71, 0xbd, 0x7c, 0xf2, 0xd4, 0xbd, 0x8f, 0xe1, 0x07, 0x3f, 0x76, 0xca, 0x47, 0xbf, 0x2c, 0xe2, 0xaf, 0xbd, 0xec, 0x8a, 0x0a, 0x3d, 0x24, 0x31, 0xfd, 0x3e, 0x65, 0x2d, 0x05, 0xbe, 0xdf, 0x2d, 0x7b, 0x3c, 0x6a, 0x61, 0x98, 0xbc, 0x83, 0x41, 0xad, 0x3b, 0x34, 0x7e, 0x02, 0xbe, 0xc2, 0xc6, 0x44, 0xbf, 0x29, 0x18, 0x83, 0xbe, 0x35, 0x28, 0x89, 0xbd, 0xcd, 0x24, 0xc3, 0x3c, 0xaf, 0xd6, 0x38, 0xbd, 0xe9, 0x45, 0x8c, 0xbc, 0x5b, 0x4f, 0x06, 0x3e, 0x25, 0xff, 0xf0, 0xbe, 0x2e, 0x76, 0x3a, 0xbd, 0x62, 0x7e, 0xaa, 0x3b, 0x11, 0x0c, 0x1a, 0xbf, 0x54, 0x8b, 0xdf, 0x3d, 0xfa, 0x9f, 0xdd, 0xbd, 0xf7, 0x5d, 0xcf, 0x3b, 0xee, 0x37, 0x0f, 0x3f, 0x04, 0x09, 0x8d, 0x3e, 0xa6, 0x1d, 0x83, 0xbd, 0xb6, 0xbd, 0x84, 0xbb, 0xf1, 0x61, 0x2b, 0xbe, 0x10, 0x98, 0x5c, 0xbc, 0xc3, 0xc7, 0x96, 0xbd, 0x7b, 0x7c, 0x34, 0xbe, 0xb3, 0x13, 0xef, 0xbd, 0xb3, 0xeb, 0xf3, 0xbd, 0x5a, 0xad, 0x92, 0xbd, 0x0e, 0xd4, 0xed, 0xbe, 0xa2, 0x0b, 0x31, 0xbd, 0x00, 0x5f, 0x05, 0xbb, 0x2f, 0xcf, 0x06, 0xbc, 0x0c, 0x9f, 0xc8, 0xbd, 0x60, 0xa2, 0x12, 0x3b, 0xb7, 0x0c, 0x16, 0xbe, 0x9a, 0xcf, 0x80, 0xbe, 0x64, 0x9a, 0x06, 0x3e, 0x65, 0x28, 0xd4, 0xbb, 0xe2, 0x43, 0x94, 0x3c, 0xdc, 0x70, 0x93, 0xbf, 0x37, 0x86, 0x1e, 0xbc, 0x39, 0xfb, 0xdd, 0xbd, 0xa0, 0x69, 0xd6, 0xbd, 0x8e, 0xc7, 0x0b, 0x3e, 0xf6, 0x96, 0x15, 0x3e, 0xd7, 0xef, 0xdd, 0xbc, 0x3c, 0x7f, 0x29, 0x3e, 0xf5, 0x29, 0xb7, 0x3e, 0x3c, 0xab, 0x91, 0xbd, 0xc0, 0x2e, 0xc2, 0xbb, 0xfb, 0x38, 0xb7, 0xbc, 0xff, 0x20, 0x03, 0x3d, 0x86, 0x72, 0x14, 0x3f, 0xb0, 0x38, 0xf4, 0xbd, 0x23, 0x32, 0x01, 0xbf, 0x79, 0xa4, 0x15, 0xbf, 0x13, 0x03, 0x2b, 0x3d, 0x41, 0xc8, 0x8f, 0xbc, 0x42, 0xc7, 0xb9, 0x3d, 0x84, 0x25, 0x93, 0x3d, 0x91, 0x27, 0xd7, 0xbe, 0xa7, 0xad, 0x9d, 0xbe, 0x48, 0x90, 0xc7, 0x3d, 0xf9, 0xf2, 0xcf, 0x3d, 0xe3, 0xf3, 0xdc, 0xbe, 0x17, 0xec, 0xb0, 0xbd, 0xb8, 0x7d, 0xae, 0xbc, 0xdb, 0x02, 0x98, 0xbe, 0x33, 0x4f, 0x40, 0xbf, 0xa6, 0x6d, 0xcd, 0xbd, 0x08, 0x93, 0x68, 0x3e, 0x10, 0x9d, 0x8d, 0xbd, 0xd0, 0x12, 0xe2, 0xbe, 0x32, 0x5f, 0x10, 0x3e, 0xf3, 0x79, 0x0c, 0xbf, 0x37, 0x75, 0xa5, 0x3c, 0xa0, 0x3f, 0x70, 0xbe, 0x7a, 0x17, 0xa6, 0x3c, 0xd6, 0x9b, 0x1d, 0x3e, 0x42, 0x0d, 0xdb, 0xbd, 0xb4, 0xdd, 0x70, 0xbc, 0x7e, 0x33, 0x2c, 0x3d, 0xe6, 0x1c, 0xba, 0x3c, 0x76, 0x7e, 0x51, 0xbd, 0xd8, 0x4e, 0xc0, 0x3e, 0xf9, 0xd5, 0x0a, 0xbe, 0x6d, 0x87, 0x16, 0xbe, 0xee, 0xc9, 0x1a, 0xbe, 0xc2, 0xa1, 0xac, 0x3e, 0x0d, 0x6e, 0x67, 0x3e, 0x08, 0x92, 0x37, 0x3f, 0x40, 0x6e, 0xd1, 0x3c, 0xfb, 0xaa, 0xe2, 0x3e, 0xc6, 0x7c, 0x75, 0xbd, 0x23, 0x01, 0x1b, 0x3c, 0xc7, 0x50, 0xfd, 0xbb, 0x47, 0xe2, 0x21, 0xbd, 0xf2, 0xed, 0xb3, 0x3e, 0xde, 0x46, 0x40, 0x3b, 0x8f, 0xfb, 0x23, 0xbb, 0x70, 0x8e, 0x4e, 0x3d, 0x76, 0xfd, 0xc4, 0xbd, 0xd0, 0xe6, 0x66, 0xbd, 0xa8, 0x76, 0x01, 0x3d, 0xa6, 0x44, 0x77, 0x3d, 0x4b, 0xa6, 0xc4, 0xbd, 0xf0, 0x3c, 0x53, 0x3d, 0xc6, 0x3c, 0x3f, 0xbf, 0x34, 0xeb, 0x21, 0xbd, 0xc6, 0x6c, 0xa8, 0xbe, 0xe8, 0x59, 0x48, 0xbd, 0xce, 0xc7, 0x95, 0x3d, 0x87, 0xa2, 0x91, 0x3d, 0x64, 0xdd, 0xea, 0xbc, 0x85, 0x57, 0xf6, 0xbc, 0x14, 0xfb, 0xc6, 0x3d, 0x13, 0xad, 0xd4, 0xbd, 0xca, 0xfa, 0xc2, 0x3d, 0x65, 0xed, 0x4a, 0xbe, 0x00, 0x00, 0xa6, 0x3c, 0x43, 0x8c, 0x51, 0xbd, 0xf3, 0x05, 0xf2, 0x3e, 0x7f, 0x19, 0xfb, 0xbc, 0xbf, 0x0b, 0x18, 0xbe, 0x03, 0xc4, 0x0d, 0x3f, 0x99, 0xf9, 0x03, 0xbe, 0x96, 0x8e, 0xf5, 0xbc, 0xdf, 0x48, 0x0e, 0xbf, 0x27, 0xb2, 0x27, 0x3f, 0x81, 0x7e, 0x40, 0xbf, 0x16, 0x8d, 0xcf, 0xba, 0xd9, 0x97, 0xf3, 0xbd, 0x86, 0x00, 0x9c, 0x3c, 0xd4, 0x67, 0x0b, 0x3e, 0x1f, 0xbf, 0x7a, 0xbd, 0x04, 0xbb, 0x0c, 0xbe, 0x68, 0x80, 0x9e, 0x3c, 0x76, 0x53, 0x7d, 0xbd, 0x52, 0xb7, 0x1c, 0x3d, 0x69, 0x0f, 0xab, 0xbd, 0x14, 0xc5, 0x4c, 0x3d, 0x7b, 0x72, 0xf0, 0xbd, 0x2c, 0x04, 0x18, 0x3d, 0x59, 0xc8, 0xda, 0x3d, 0x3e, 0x2a, 0xb2, 0x3e, 0xcb, 0x82, 0xc8, 0xbd, 0xd5, 0xf7, 0xa8, 0x3d, 0x99, 0x49, 0x33, 0x3e, 0x6d, 0x49, 0x39, 0xbd, 0xda, 0x88, 0x3c, 0x3c, 0xe2, 0x8e, 0x0f, 0xbe, 0xf8, 0xb6, 0xac, 0x3d, 0xd9, 0x69, 0x3c, 0xbe, 0x20, 0x90, 0x36, 0xbe, 0x44, 0xb1, 0x3e, 0x3d, 0x4a, 0xbd, 0xa8, 0xbd, 0xc6, 0x2f, 0xd4, 0x3e, 0x83, 0x76, 0xb4, 0xbf, 0xdf, 0xea, 0x3b, 0xbe, 0xe7, 0x53, 0xdd, 0x3e, 0x67, 0xe6, 0xb3, 0xbd, 0xee, 0x4e, 0x57, 0xbd, 0x2f, 0xd2, 0x9b, 0x3d, 0x0c, 0x2a, 0x00, 0x3f, 0xfe, 0x9e, 0x53, 0xbe, 0x8c, 0x3c, 0xd9, 0x3d, 0x60, 0x6d, 0xd0, 0x3d, 0xd9, 0x58, 0x62, 0x3d, 0x02, 0xcf, 0x4e, 0xbc, 0x43, 0x33, 0x83, 0xba, 0x12, 0xba, 0x99, 0xbe, 0xde, 0x33, 0x1f, 0x3f, 0xb2, 0xe9, 0x95, 0xbb, 0xbc, 0xfd, 0x19, 0xbd, 0x12, 0xe4, 0x2d, 0xbe, 0xaf, 0x98, 0x72, 0xbb, 0xcd, 0xc0, 0x1d, 0xbd, 0x0a, 0xf3, 0xde, 0xbe, 0x34, 0x92, 0x99, 0x3d, 0xc8, 0x6d, 0x07, 0x3e, 0x44, 0xe2, 0x0e, 0xbf, 0x41, 0xa4, 0x9c, 0x3b, 0x3c, 0x9d, 0x8b, 0xbe, 0x1c, 0x8b, 0xe8, 0xbd, 0x41, 0xf6, 0x3e, 0x3e, 0x4f, 0xdc, 0x00, 0xbe, 0xed, 0x34, 0x47, 0xbd, 0x4f, 0xee, 0x14, 0xbd, 0xd6, 0x2b, 0x57, 0x3d, 0xa2, 0x32, 0xc9, 0xbd, 0xb1, 0x2e, 0x83, 0xbd, 0x3a, 0x84, 0xd4, 0xbd, 0x8d, 0xb9, 0xcd, 0xbd, 0x14, 0x36, 0x06, 0xbd, 0xeb, 0xee, 0x1e, 0x3c, 0xb5, 0x7f, 0x71, 0x3d, 0x13, 0x6f, 0x08, 0x3d, 0xd8, 0x4a, 0xf3, 0x3d, 0xff, 0xfb, 0xd6, 0xbd, 0xe7, 0xc5, 0x70, 0xbd, 0x90, 0x1c, 0x42, 0xbe, 0xda, 0x34, 0xc0, 0x3c, 0x72, 0x4a, 0x36, 0xbd, 0x5f, 0x3d, 0xc6, 0xbc, 0xe4, 0x81, 0xde, 0xbd, 0xf2, 0xf4, 0x0b, 0xbd, 0x22, 0xbb, 0xbd, 0x3d, 0xd3, 0x1d, 0x3a, 0xbe, 0x55, 0xb9, 0x74, 0x3e, 0xfa, 0xde, 0x05, 0x3f, 0xef, 0x0f, 0xcd, 0xbd, 0xae, 0xb2, 0x0f, 0x3c, 0x8e, 0x14, 0x9c, 0xbe, 0x61, 0x5b, 0x3c, 0xbd, 0x48, 0x9f, 0x8f, 0xbb, 0xef, 0x14, 0xb0, 0xbd, 0xfa, 0x53, 0x0a, 0xbe, 0x66, 0x9c, 0xb0, 0xbc, 0xb3, 0x19, 0x4d, 0x3d, 0x7a, 0x34, 0x57, 0xbc, 0x6a, 0x31, 0x8e, 0xbe, 0x8c, 0x8b, 0xe2, 0xbd, 0xd4, 0xae, 0x60, 0x3d, 0xe7, 0x7f, 0x90, 0xbd, 0xea, 0x4b, 0xbb, 0xbd, 0xca, 0xa3, 0xad, 0xbd, 0xf3, 0xe8, 0xa8, 0xb9, 0xf4, 0xf5, 0x99, 0xbd, 0x9c, 0xa9, 0x67, 0xbd, 0x13, 0x37, 0x0c, 0xbd, 0x1a, 0x1d, 0xad, 0xbd, 0xb3, 0x5c, 0x42, 0x3d, 0x1e, 0xef, 0x3a, 0x3d, 0x4f, 0xf8, 0x05, 0x3e, 0xef, 0xc8, 0x5e, 0x3d, 0x42, 0xb5, 0xc6, 0xbc, 0x2d, 0xf9, 0xbc, 0x3d, 0xbb, 0x4b, 0xa2, 0xbe, 0x84, 0x2e, 0x85, 0xbd, 0xb9, 0xc7, 0xf4, 0x3d, 0x93, 0xd6, 0x34, 0xbd, 0xb9, 0xa2, 0x53, 0xbe, 0x5b, 0x1d, 0x0e, 0xbd, 0x95, 0x53, 0x82, 0xbc, 0xfe, 0x52, 0x92, 0xbd, 0x08, 0x19, 0xc2, 0xbd, 0x26, 0x81, 0x4b, 0x3e, 0x7a, 0xff, 0x24, 0x3d, 0xba, 0xe7, 0x5f, 0xbd, 0x02, 0x74, 0xdd, 0xbe, 0xac, 0x2e, 0x5b, 0xbc, 0xe5, 0x44, 0xc5, 0x3d, 0x02, 0x53, 0x51, 0x3d, 0xa9, 0x63, 0xab, 0xbe, 0xe2, 0xab, 0xb8, 0x3c, 0x8b, 0x6e, 0x59, 0x3d, 0x47, 0x9b, 0xae, 0xbc, 0xf3, 0x7c, 0xbb, 0xbb, 0x1a, 0xb3, 0x86, 0x3e, 0xf8, 0x64, 0x6a, 0xbe, 0x0c, 0x80, 0xc4, 0xbd, 0x0e, 0xbc, 0x89, 0xbd, 0x09, 0xb5, 0xf2, 0x3c, 0x31, 0x15, 0x38, 0xbd, 0x40, 0x6f, 0xba, 0x3c, 0x3f, 0xa8, 0xfb, 0x3d, 0x7a, 0x33, 0x93, 0xbd, 0xcf, 0x80, 0x5b, 0xbc, 0x7a, 0x0e, 0x07, 0x3e, 0xed, 0xe7, 0x36, 0xbe, 0x08, 0x37, 0xaf, 0xbc, 0x6c, 0xd3, 0x96, 0x3d, 0x54, 0x75, 0xd2, 0x3b, 0x73, 0x00, 0x1a, 0xbf, 0x9c, 0x11, 0xc2, 0xbd, 0xc4, 0xe5, 0x82, 0xbd, 0x24, 0xfb, 0xdd, 0x3c, 0x5c, 0xda, 0xa0, 0xbd, 0x60, 0x75, 0x94, 0x3c, 0xcb, 0xa8, 0x6f, 0xbd, 0x61, 0x76, 0xa3, 0x3d, 0x54, 0x7f, 0x8a, 0x3d, 0x96, 0x95, 0x51, 0xbd, 0x88, 0x8a, 0x93, 0xbd, 0x55, 0x1e, 0xd0, 0x3c, 0xc4, 0x8b, 0x27, 0xbe, 0xfa, 0x52, 0x1b, 0x3e, 0x0c, 0xc6, 0xd6, 0xbc, 0x59, 0xb7, 0x1b, 0xbe, 0x28, 0xd1, 0xfa, 0xbd, 0x9c, 0xc8, 0x01, 0xbe, 0x63, 0x63, 0x97, 0x3e, 0x51, 0xa6, 0xcf, 0x3d, 0x15, 0x80, 0x44, 0x3c, 0xe1, 0xa3, 0x88, 0xbc, 0x10, 0x38, 0xb2, 0xbe, 0x4f, 0x63, 0xcb, 0x3d, 0x36, 0xf6, 0xec, 0x3d, 0xe2, 0x87, 0xb8, 0xbd, 0x8e, 0x94, 0x35, 0xbd, 0xf7, 0x01, 0x9f, 0x3d, 0xec, 0x8e, 0x33, 0x3c, 0x94, 0xef, 0x7a, 0xbd, 0x07, 0x9d, 0xbc, 0xbe, 0x3b, 0x0e, 0xfc, 0x3c, 0x62, 0x2a, 0x50, 0xbd, 0x91, 0x3b, 0x68, 0xbd, 0xe4, 0xe1, 0xd3, 0x3d, 0x0c, 0xdb, 0x17, 0xbf, 0xa8, 0xdb, 0x2a, 0x3d, 0xc6, 0x18, 0x2f, 0xbd, 0x15, 0xdf, 0x2e, 0xbe, 0xcd, 0xc1, 0x2b, 0x3d, 0x89, 0x97, 0x9e, 0xbd, 0x10, 0x7f, 0xb9, 0x3d, 0x26, 0xb1, 0xa0, 0x3d, 0xd3, 0xaa, 0x12, 0x3d, 0x84, 0x56, 0x95, 0xbb, 0xe3, 0xbc, 0xde, 0x3d, 0x04, 0x8f, 0x70, 0x3c, 0xb0, 0xa5, 0x04, 0x3e, 0xaa, 0x7d, 0xef, 0xbd, 0xcd, 0x52, 0x51, 0xbe, 0xf9, 0x9d, 0xc9, 0xbd, 0x30, 0xfd, 0x45, 0xbd, 0x6d, 0x5e, 0x89, 0xbb, 0xea, 0xd0, 0xc4, 0xbe, 0xfd, 0x98, 0x8d, 0xbd, 0x3d, 0xc3, 0x07, 0xbe, 0xa0, 0xea, 0x3d, 0x3c, 0x2d, 0xb7, 0x3e, 0xbe, 0x28, 0x4a, 0x0e, 0x3d, 0x33, 0x4a, 0x05, 0xbd, 0x05, 0xb6, 0xc7, 0x3c, 0x4c, 0xea, 0xb5, 0xbc, 0xf8, 0x71, 0x95, 0x3d, 0x62, 0x3a, 0xa9, 0xbb, 0x28, 0x1d, 0xe3, 0x3d, 0x66, 0x46, 0xdb, 0xbc, 0x8f, 0x40, 0x87, 0x3d, 0x7f, 0x99, 0xc3, 0xbe, 0x1b, 0x9f, 0x91, 0xbd, 0x3c, 0xa4, 0xf7, 0x3d, 0x1a, 0x80, 0x3b, 0x3d, 0xe2, 0xb7, 0x1a, 0xbe, 0xe5, 0x40, 0xbb, 0xbd, 0xec, 0xa5, 0x2a, 0xbf, 0x88, 0x36, 0xd6, 0x3c, 0xa7, 0xbc, 0xeb, 0xbe, 0xd4, 0xb7, 0x74, 0xbd, 0xf1, 0xb5, 0x84, 0x3c, 0x93, 0xae, 0x93, 0x3c, 0x49, 0x2d, 0x0c, 0xbd, 0xe2, 0x70, 0xd5, 0xbe, 0xd3, 0x97, 0x32, 0x3d, 0x3a, 0xcc, 0x3f, 0x3d, 0x74, 0x8a, 0xf8, 0xbb, 0xd5, 0x44, 0x01, 0x3e, 0x19, 0xce, 0xc7, 0x3d, 0xd7, 0xc4, 0x4c, 0x3d, 0xfa, 0x0d, 0x50, 0xbd, 0x8e, 0x7b, 0x31, 0x3d, 0x00, 0x20, 0xb2, 0x37, 0xce, 0xc5, 0x26, 0xbe, 0x4f, 0x44, 0xa9, 0x3d, 0xdb, 0x6c, 0x35, 0x3d, 0xf1, 0x28, 0xa2, 0x3c, 0x3e, 0x30, 0xeb, 0xbd, 0x62, 0xba, 0x55, 0x3d, 0xa9, 0x25, 0xbf, 0x3d, 0xf8, 0x45, 0xba, 0x3c, 0x1a, 0x08, 0xc7, 0x3d, 0x95, 0x96, 0xea, 0xbd, 0x95, 0xe5, 0x32, 0xbd, 0x88, 0x62, 0x27, 0x3d, 0x67, 0x0d, 0xd8, 0x3c, 0xd7, 0x76, 0xa0, 0x3c, 0xc6, 0xbc, 0xb2, 0xbe, 0xd2, 0x73, 0xa4, 0x3d, 0x20, 0xd7, 0x62, 0x3c, 0x75, 0x49, 0xd1, 0xbe, 0x5a, 0x6e, 0x9e, 0xbd, 0x13, 0x78, 0xf5, 0xbc, 0x13, 0xc5, 0x59, 0xbd, 0x1c, 0x7b, 0x21, 0xbf, 0x33, 0x70, 0x89, 0xbe, 0xfa, 0xaa, 0x81, 0x3d, 0x9e, 0x94, 0xec, 0xbe, 0xa1, 0xc1, 0x4f, 0xbd, 0x2f, 0xc1, 0x02, 0xbe, 0x4e, 0x95, 0x90, 0x3d, 0x57, 0x0b, 0xa8, 0xbc, 0x2c, 0xa9, 0x76, 0xbd, 0xc2, 0xd2, 0xf3, 0xbc, 0xdb, 0xc5, 0xfc, 0x3c, 0x50, 0x87, 0xa0, 0xbd, 0x0a, 0x1d, 0x70, 0xbe, 0x1b, 0x6a, 0xf0, 0xbd, 0x4c, 0x65, 0xca, 0x3d, 0x57, 0x29, 0x77, 0x3c, 0x68, 0xf3, 0x9a, 0xbe, 0x90, 0x41, 0xbe, 0xbd, 0x98, 0x3a, 0xb0, 0x3d, 0x80, 0xd0, 0x03, 0x3e, 0x96, 0xa2, 0x58, 0xbc, 0xac, 0x33, 0x04, 0xbd, 0xc7, 0xd6, 0xd0, 0x3d, 0xd6, 0x16, 0xde, 0x3d, 0x06, 0xe8, 0xfa, 0xbc, 0x25, 0x9c, 0xef, 0xbc, 0xe0, 0xb9, 0x4f, 0x3d, 0x64, 0x56, 0x45, 0xbd, 0xe9, 0x02, 0xa9, 0xbe, 0x1f, 0x36, 0xd5, 0xbd, 0x13, 0x71, 0x76, 0x3e, 0xa0, 0xb2, 0x68, 0xbe, 0xdc, 0xa4, 0xd4, 0xbd, 0xfa, 0xd9, 0xea, 0xbc, 0x48, 0xe4, 0xd2, 0xbd, 0x24, 0x8d, 0x0b, 0xbf, 0xd4, 0xe3, 0x86, 0xbd, 0x00, 0x1d, 0x0f, 0x3d, 0x6e, 0xfb, 0x13, 0x3e, 0x73, 0x38, 0xd9, 0x3d, 0x9e, 0x4f, 0x88, 0xbd, 0xe3, 0x3e, 0x7b, 0xbe, 0x71, 0xe3, 0x36, 0x3e, 0xd4, 0xfa, 0x12, 0xbf, 0xb5, 0xd8, 0x18, 0xbd, 0xbb, 0xcb, 0x17, 0xbd, 0x72, 0x99, 0xa6, 0xbc, 0x0d, 0x23, 0x55, 0x3c, 0xa7, 0x67, 0xce, 0x3d, 0xac, 0xa6, 0x9b, 0xbd, 0x99, 0x78, 0xcd, 0x3d, 0x9d, 0x35, 0x79, 0xbe, 0x6a, 0x81, 0x37, 0xbe, 0xc5, 0x50, 0x82, 0x3c, 0xec, 0xfa, 0x69, 0x3e, 0x5d, 0xaa, 0xf4, 0x3d, 0xc6, 0xc7, 0xc9, 0x3d, 0xc7, 0x45, 0xc7, 0xbd, 0xdf, 0x99, 0xe4, 0xbc, 0x26, 0x71, 0x1c, 0xbd, 0x8a, 0xcd, 0x36, 0xbd, 0x78, 0xd3, 0x11, 0xbd, 0xd8, 0x2a, 0x83, 0xbd, 0x3d, 0x44, 0x53, 0x3c, 0xc0, 0x48, 0x45, 0x3d, 0x4c, 0x94, 0x0c, 0xbf, 0xda, 0x85, 0x29, 0xbe, 0x04, 0x6c, 0xd3, 0x3c, 0xce, 0x28, 0xde, 0x3d, 0xa2, 0xfe, 0x8a, 0xbe, 0xef, 0xe0, 0x06, 0xbc, 0xe7, 0x1d, 0x3a, 0xbe, 0xb7, 0x74, 0x1a, 0xbd, 0x30, 0xd5, 0x64, 0x3d, 0x7e, 0x27, 0x36, 0xbd, 0x1c, 0xee, 0x9f, 0xba, 0xed, 0x0e, 0x85, 0x3d, 0xe3, 0xb9, 0x99, 0x3d, 0x8d, 0xfa, 0x16, 0xbe, 0x9c, 0x3b, 0x3e, 0x3c, 0xf9, 0x59, 0x89, 0xbe, 0x5b, 0x77, 0xa8, 0xbe, 0x99, 0x5c, 0xa7, 0xbc, 0x26, 0x21, 0x2f, 0xbe, 0x6c, 0x0e, 0x8a, 0x3e, 0xa2, 0xc3, 0x19, 0x3e, 0x30, 0x5b, 0xa9, 0xbb, 0x40, 0x6a, 0x70, 0xbc, 0xb8, 0x84, 0xac, 0xbd, 0xa1, 0x03, 0x4b, 0x3d, 0xa6, 0xf4, 0xfc, 0x3c, 0x8b, 0xc5, 0x7f, 0x3d, 0xc8, 0x3d, 0x79, 0x3e, 0x31, 0xd5, 0x60, 0xbc, 0xc3, 0x20, 0xaf, 0x3b, 0x84, 0x11, 0x6f, 0x3b, 0x6a, 0x31, 0xbb, 0xbd, 0x02, 0x86, 0x89, 0xbd, 0x8d, 0xe0, 0xec, 0xbd, 0x24, 0x85, 0x7f, 0xbd, 0x59, 0x2b, 0x90, 0x3c, 0x29, 0x3f, 0x20, 0xbd, 0x76, 0xb1, 0xbf, 0xbd, 0x02, 0x09, 0x05, 0xbe, 0x9f, 0xab, 0x8e, 0xbb, 0x04, 0xd0, 0x1c, 0x3e, 0x28, 0xab, 0x66, 0x3d, 0x3a, 0xd3, 0x95, 0xbc, 0xea, 0xfa, 0xb3, 0x3d, 0x91, 0xf8, 0xe0, 0x3e, 0xeb, 0x80, 0x56, 0xbd, 0x6b, 0x35, 0xf2, 0x3d, 0xdb, 0x81, 0x3c, 0x3d, 0x62, 0x18, 0x54, 0xbf, 0xf1, 0x3e, 0xeb, 0x39, 0x81, 0x93, 0xeb, 0x3a, 0x60, 0x56, 0x84, 0x3d, 0xf3, 0x1e, 0xa1, 0xbd, 0xc2, 0x10, 0xfa, 0xbe, 0x31, 0x38, 0x20, 0xbe, 0x87, 0xcf, 0x8c, 0xbe, 0x98, 0x86, 0xc7, 0xbf, 0x33, 0x4b, 0x34, 0x3e, 0x6b, 0xdf, 0x0d, 0x3e, 0x7c, 0x92, 0x38, 0x3d, 0xe3, 0x5c, 0xd6, 0xbe, 0x11, 0x20, 0xa0, 0x3e, 0x3b, 0x2a, 0x86, 0x3d, 0x8c, 0xfb, 0x26, 0xbd, 0x9e, 0x51, 0x09, 0x3c, 0xb9, 0x5f, 0x1e, 0xbf, 0x36, 0x8d, 0x23, 0x3f, 0xf3, 0xac, 0xac, 0xbe, 0xcd, 0x12, 0x04, 0x3d, 0x5a, 0x15, 0x18, 0x3d, 0x2a, 0xe5, 0xfe, 0xba, 0x0c, 0xc2, 0xdd, 0x3d, 0x2f, 0xdc, 0xe0, 0x3d, 0xb3, 0xf5, 0xcc, 0x3e, 0xd4, 0xd2, 0x8c, 0xbd, 0xf1, 0xce, 0xbc, 0xbc, 0x93, 0xd9, 0x13, 0x3f, 0xcc, 0xb9, 0xf6, 0x3d, 0x20, 0x45, 0xa7, 0xbc, 0x94, 0xed, 0xa7, 0x3c, 0x3f, 0xc2, 0x10, 0xc0, 0x00, 0x2c, 0x29, 0x3d, 0xc8, 0x40, 0x46, 0xbd, 0x54, 0x1e, 0x2a, 0xbc, 0x9d, 0x72, 0x93, 0x3c, 0xa0, 0xd6, 0x09, 0xbc, 0x79, 0xe3, 0xf6, 0xbd, 0x16, 0x9c, 0xd7, 0xbe, 0xa7, 0x77, 0x82, 0x3d, 0x54, 0x3f, 0x6d, 0x3d, 0xb9, 0x61, 0x89, 0xbd, 0x13, 0x21, 0x31, 0x3e, 0x85, 0x53, 0x80, 0xbe, 0xd6, 0xc7, 0x0f, 0x3e, 0x3b, 0x9c, 0xda, 0xbe, 0x6a, 0x4b, 0xe1, 0xbd, 0x42, 0xed, 0x7e, 0xbe, 0x0a, 0x8a, 0x05, 0xbe, 0x11, 0xf5, 0x07, 0xbf, 0x07, 0x3b, 0xd3, 0x3d, 0x96, 0x85, 0xf3, 0x3c, 0x2e, 0x1f, 0xbb, 0xbd, 0x48, 0x48, 0x7a, 0x3e, 0x9f, 0x21, 0xed, 0x3d, 0x9a, 0x50, 0xed, 0x3d, 0xf4, 0x6e, 0x10, 0xbe, 0x2a, 0xa8, 0x89, 0x3d, 0x08, 0x66, 0x8c, 0x3d, 0x18, 0x85, 0xc1, 0x39, 0xc7, 0xce, 0xab, 0xbf, 0xf0, 0x30, 0x05, 0xbf, 0x38, 0x9d, 0xe8, 0x3c, 0x80, 0x34, 0x86, 0x3a, 0xfa, 0xec, 0x5d, 0xbc, 0x99, 0xe1, 0x22, 0xbe, 0x2c, 0xbf, 0x35, 0xc0, 0x10, 0x30, 0xe7, 0x3c, 0x04, 0xd7, 0x04, 0x3e, 0x0d, 0x81, 0xea, 0x3e, 0x32, 0xfd, 0x4c, 0xba, 0x09, 0xe2, 0x14, 0xbe, 0xfb, 0x8d, 0xc4, 0x3d, 0x2f, 0x99, 0xe0, 0x3c, 0x16, 0x58, 0x85, 0x3d, 0xab, 0xc9, 0x12, 0xbb, 0xa8, 0x57, 0xff, 0x3d, 0x5a, 0x84, 0x15, 0xbe, 0x4f, 0x72, 0xff, 0x3d, 0xc8, 0x4e, 0x87, 0xbc, 0x82, 0xda, 0x03, 0xbe, 0x78, 0x18, 0x2b, 0xbe, 0x25, 0x2b, 0x51, 0x3e, 0x4b, 0x74, 0xdb, 0xba, 0x58, 0x26, 0x42, 0xc0, 0xec, 0xaa, 0x61, 0xbd, 0xc4, 0x50, 0xda, 0x3e, 0x78, 0x74, 0x9f, 0x3c, 0x20, 0x8b, 0xda, 0x3e, 0x84, 0xa3, 0x0d, 0x3d, 0x3b, 0xbd, 0xc5, 0x3d, 0xae, 0x21, 0xbe, 0x3c, 0x24, 0x6f, 0x3c, 0xbe, 0xde, 0x6f, 0x1a, 0xbf, 0xf1, 0x62, 0x94, 0x3a, 0x15, 0x9d, 0x71, 0xbd, 0x1a, 0xe0, 0x29, 0xbe, 0x7f, 0xa6, 0xca, 0x3d, 0xcb, 0x66, 0x13, 0xbf, 0x6d, 0xc5, 0x8c, 0xbd, 0x80, 0xf7, 0x4e, 0x3b, 0x7d, 0x76, 0xc4, 0x3d, 0x77, 0x0e, 0xab, 0xbf, 0x74, 0x7f, 0xbc, 0xbe, 0xae, 0x6d, 0x5a, 0xc0, 0x96, 0xb4, 0xfe, 0xbc, 0x14, 0xdb, 0xe8, 0xbe, 0x1c, 0x9b, 0xf1, 0xbb, 0x8e, 0x6c, 0x1c, 0xbe, 0xf5, 0x03, 0xf8, 0xbc, 0x99, 0x5a, 0x0b, 0xbd, 0x2e, 0x40, 0xe7, 0xbe, 0x1c, 0xd0, 0x23, 0x3d, 0x34, 0xf0, 0x3b, 0xbc, 0x85, 0x24, 0xe0, 0xbe, 0xe7, 0xd8, 0x07, 0x3e, 0xde, 0xa7, 0xc0, 0x3d, 0x59, 0xd9, 0x25, 0x3d, 0x05, 0xb9, 0x53, 0xbe, 0x5f, 0xe2, 0x34, 0x3d, 0xee, 0x7c, 0xf0, 0xbd, 0x15, 0x6d, 0xa0, 0x3e, 0x2b, 0x43, 0x70, 0x3d, 0x7d, 0x8f, 0x93, 0x3e, 0x05, 0x51, 0x93, 0x3c, 0x3d, 0xd3, 0x1f, 0xbe, 0xdf, 0x75, 0xa1, 0xbe, 0xac, 0x45, 0x29, 0xbe, 0x36, 0xdb, 0xaa, 0xbd, 0xb3, 0x23, 0xcb, 0x3d, 0x89, 0xd0, 0xef, 0xbd, 0x13, 0xfb, 0x0f, 0xbf, 0xed, 0x5a, 0xb3, 0xbe, 0x15, 0x98, 0xf0, 0x3c, 0x5f, 0x03, 0x77, 0x3c, 0xe9, 0xa2, 0x81, 0xbf, 0xa8, 0x0e, 0xd2, 0xbd, 0xb0, 0x3d, 0x8d, 0xbd, 0xbf, 0xd0, 0x0c, 0xbf, 0x8f, 0x7d, 0xc3, 0xbd, 0xcb, 0x6a, 0xff, 0xbc, 0xa4, 0xcf, 0x96, 0x3e, 0xc0, 0x02, 0x2f, 0xc0, 0x72, 0xec, 0x16, 0x3f, 0x97, 0x5c, 0xbb, 0x3d, 0x8d, 0x7a, 0xf2, 0x3e, 0x83, 0xd0, 0xb2, 0x3d, 0xdf, 0x19, 0xd0, 0xbd, 0x7f, 0xe7, 0x88, 0x3d, 0xa6, 0x14, 0x26, 0xbd, 0x94, 0xb9, 0x04, 0xbe, 0xa4, 0xf8, 0x4b, 0xbe, 0xaf, 0x96, 0xbc, 0x3c, 0xf3, 0x1d, 0xa0, 0xbd, 0x2d, 0x02, 0x26, 0xc0, 0xfa, 0x54, 0x50, 0xbe, 0xfe, 0x4a, 0x3a, 0xbd, 0x5e, 0xf0, 0xe0, 0xbd, 0xad, 0x37, 0x0a, 0xbf, 0x01, 0x89, 0xc2, 0xbd, 0x4c, 0xdc, 0x97, 0x3d, 0xcb, 0x0f, 0x7f, 0xbe, 0x17, 0x55, 0xf1, 0xbd, 0x1d, 0xb6, 0xf3, 0xbe, 0x49, 0x3a, 0x7a, 0xbf, 0x50, 0x59, 0xda, 0x3d, 0x3f, 0x9c, 0x4c, 0x3d, 0xdd, 0x08, 0x72, 0xbd, 0xdb, 0x4d, 0xb6, 0x3c, 0xcd, 0xcb, 0x03, 0xbe, 0xae, 0xd1, 0xb2, 0xbf, 0x06, 0xe6, 0x97, 0x3e, 0xd5, 0xf7, 0xd7, 0xbe, 0x78, 0x27, 0xa6, 0xbf, 0x3d, 0x27, 0x8d, 0xbd, 0x11, 0x1d, 0x36, 0xbd, 0x7f, 0x24, 0x4d, 0x3d, 0x43, 0xbe, 0x8a, 0xbf, 0x5a, 0xf7, 0x46, 0xbc, 0x1c, 0xd5, 0x5f, 0xbd, 0x8c, 0x10, 0x75, 0x3d, 0xa9, 0x47, 0xfa, 0x3d, 0x20, 0xdc, 0x44, 0xbe, 0xc2, 0x58, 0x3f, 0xbf, 0xd3, 0xf7, 0xb6, 0xbe, 0xd6, 0xaa, 0x59, 0xc0, 0x7e, 0xdd, 0xc5, 0xbe, 0x7b, 0x1b, 0x0d, 0xbd, 0x20, 0xe6, 0x16, 0xbd, 0xa3, 0x0f, 0x26, 0xbd, 0x23, 0x3f, 0x0d, 0xbe, 0xee, 0x7c, 0x8b, 0x3e, 0x93, 0xd1, 0xce, 0xbe, 0x52, 0xf3, 0x3a, 0xbf, 0x51, 0xc5, 0x08, 0x3f, 0x7e, 0x46, 0xc1, 0x3c, 0xc2, 0x5a, 0x30, 0xbe, 0x6c, 0x5c, 0x01, 0x3e, 0xf8, 0xb8, 0xa6, 0xbe, 0x10, 0x8c, 0xc9, 0xbc, 0xc8, 0x98, 0xc9, 0x3b, 0xae, 0xb3, 0xb7, 0xbc, 0x55, 0x25, 0xd1, 0xbd, 0xd6, 0xdf, 0xbb, 0xbd, 0x22, 0xb9, 0xc9, 0x3c, 0x57, 0xec, 0x05, 0xbf, 0xa6, 0x9b, 0x92, 0x3d, 0x50, 0x63, 0x35, 0x3f, 0xf2, 0x4f, 0xb9, 0xbe, 0x69, 0x8f, 0x01, 0x3c, 0x00, 0x35, 0x00, 0x3e, 0x6e, 0xe8, 0xc4, 0xbf, 0x94, 0xa2, 0xbf, 0xbc, 0x18, 0xdc, 0xab, 0xbe, 0x3e, 0x72, 0xa4, 0xbe, 0x45, 0xf3, 0x89, 0x3d, 0xad, 0x1c, 0xf0, 0xbd, 0xbe, 0xfd, 0x54, 0xbd, 0x21, 0xea, 0x55, 0x3d, 0x4f, 0xbc, 0x62, 0x3d, 0xc0, 0xc2, 0xde, 0x3c, 0x55, 0x4d, 0x8e, 0x3c, 0x72, 0x7b, 0x37, 0xc0, 0x33, 0x53, 0x5b, 0xbf, 0x30, 0x90, 0x8b, 0x3d, 0x8f, 0xe1, 0x4b, 0xbf, 0x4a, 0xa8, 0x6a, 0xbe, 0x09, 0x02, 0x0e, 0xbf, 0xf3, 0xc4, 0x53, 0xbd, 0xe0, 0xe3, 0x9b, 0xbb, 0xad, 0x40, 0xb0, 0xbd, 0x18, 0xc5, 0x8c, 0x3d, 0xdc, 0x3e, 0xf1, 0xbb, 0x74, 0xae, 0x4f, 0x3d, 0x4c, 0x86, 0x65, 0xbe, 0x42, 0x9e, 0x6c, 0xbc, 0x8b, 0x6e, 0x97, 0xbe, 0xff, 0xc3, 0x98, 0x3d, 0xa8, 0x36, 0xc5, 0xbd, 0x98, 0x24, 0xe2, 0xbd, 0x6f, 0x7f, 0x11, 0xc0, 0x10, 0x00, 0x32, 0xbf, 0xa6, 0xe5, 0xff, 0xff, 0x10, 0x00, 0x00, 0x00, 0x07, 0x00, 0x00, 0x00, 0x14, 0x00, 0x00, 0x00, 0x34, 0x00, 0x00, 0x00, 0x02, 0x00, 0x00, 0x00, 0x03, 0x00, 0x00, 0x00, 0x00, 0x01, 0x00, 0x00, 0x1c, 0x00, 0x00, 0x00, 0x53, 0x65, 0x71, 0x75, 0x65, 0x6e, 0x74, 0x69, 0x61, 0x6c, 0x2d, 0x4e, 0x4e, 0x2f, 0x64, 0x65, 0x6e, 0x73, 0x65, 0x5f, 0x32, 0x2f, 0x4d, 0x61, 0x74, 0x4d, 0x75, 0x6c, 0x00, 0x00, 0x00, 0x00, 0x2c, 0xe5, 0xff, 0xff, 0x16, 0xe6, 0xff, 0xff, 0x04, 0x00, 0x00, 0x00, 0x00, 0x14, 0x00, 0x00, 0x0f, 0xdc, 0xb2, 0xbd, 0x7a, 0x13, 0x5e, 0xbd, 0x2c, 0x32, 0x07, 0xbd, 0xcb, 0x68, 0x11, 0xbe, 0x08, 0xfd, 0x02, 0x3e, 0x25, 0xa4, 0x99, 0xbc, 0x7e, 0xcc, 0xb7, 0x3d, 0x22, 0xfe, 0x1d, 0x3e, 0xa3, 0x22, 0x93, 0xbd, 0x92, 0x85, 0xca, 0xbd, 0x8c, 0x83, 0xad, 0x3b, 0x5e, 0xf0, 0x86, 0xbd, 0x14, 0x21, 0xa4, 0xbb, 0xff, 0xfe, 0x36, 0xbe, 0x94, 0x2b, 0x2a, 0x3d, 0x33, 0xf7, 0xd4, 0xbd, 0xf4, 0x90, 0x09, 0xbd, 0x18, 0x69, 0xc4, 0xbc, 0x55, 0x93, 0x69, 0xbc, 0xdc, 0x73, 0x1f, 0x3d, 0x0d, 0x4f, 0x9e, 0xbd, 0x70, 0xe3, 0x18, 0xbe, 0x25, 0x51, 0x1f, 0xbe, 0x11, 0x8e, 0x8d, 0x3c, 0xf0, 0xce, 0xe8, 0x3d, 0x29, 0xd2, 0x25, 0x3c, 0xe4, 0x80, 0x3d, 0x3d, 0x5a, 0x47, 0xdf, 0xbd, 0x73, 0x1a, 0x03, 0xbe, 0x70, 0x53, 0x95, 0x3d, 0x41, 0x1a, 0xd8, 0x3b, 0x30, 0x71, 0x09, 0x3e, 0xe4, 0x4b, 0x6a, 0xbd, 0xa0, 0x30, 0x26, 0xbe, 0x78, 0xd8, 0xd8, 0x3d, 0x92, 0x0c, 0x4b, 0xbd, 0xb0, 0x20, 0xd8, 0x3d, 0x2e, 0xbe, 0xb2, 0xba, 0x5e, 0xdf, 0x19, 0xbd, 0x6c, 0xa5, 0x5b, 0x3d, 0x78, 0xb1, 0xad, 0xbd, 0x80, 0x0f, 0xdc, 0xbd, 0xa1, 0x15, 0x08, 0xbe, 0x4e, 0x36, 0x48, 0xbc, 0x38, 0x5f, 0xfb, 0x3d, 0x63, 0xb9, 0x32, 0x3d, 0x00, 0x93, 0x33, 0x3a, 0x25, 0xdc, 0x17, 0x3d, 0xf9, 0x19, 0x08, 0x3d, 0x28, 0xab, 0xc1, 0xbc, 0x9b, 0x04, 0xdf, 0xbd, 0x00, 0x24, 0x7f, 0x39, 0xad, 0xae, 0xc6, 0xbd, 0x4e, 0xa0, 0xb4, 0x3c, 0x30, 0xca, 0x16, 0xbc, 0x9d, 0x37, 0x91, 0xb8, 0xc4, 0x83, 0x4f, 0x3d, 0x9f, 0xa5, 0x26, 0xbe, 0x65, 0xcb, 0x87, 0xbc, 0xe8, 0x20, 0x01, 0xbe, 0x19, 0x8c, 0x26, 0xbe, 0xd4, 0x8f, 0xb7, 0x3d, 0x63, 0xe2, 0xee, 0xbd, 0x97, 0x3d, 0x2f, 0x3c, 0x9d, 0x2c, 0x13, 0xbe, 0x2a, 0x14, 0xd4, 0xbe, 0xef, 0x9a, 0xbb, 0xbd, 0xaa, 0x9f, 0x13, 0xbd, 0xd5, 0x4b, 0x48, 0xbd, 0x11, 0xa1, 0x9b, 0xbd, 0x3f, 0xb9, 0xc0, 0x3b, 0x82, 0x41, 0x5f, 0xbd, 0x1f, 0x3c, 0xdc, 0xbd, 0x52, 0x5c, 0x7d, 0xbb, 0x50, 0x1f, 0x10, 0x3d, 0xf5, 0xd2, 0xcf, 0xbc, 0x0a, 0x9e, 0x77, 0xbd, 0x39, 0x29, 0x47, 0x3d, 0x82, 0x0a, 0x10, 0xbe, 0xbc, 0xcf, 0x7f, 0xbd, 0x74, 0x22, 0x47, 0xbd, 0x48, 0x55, 0x0a, 0x3e, 0x25, 0x94, 0xd4, 0xbd, 0xe0, 0x82, 0x1e, 0xbc, 0x8a, 0x77, 0x36, 0xbd, 0x94, 0x98, 0xca, 0xbd, 0x14, 0xec, 0xd7, 0x3d, 0x90, 0x24, 0x07, 0xbd, 0xe0, 0x96, 0xa7, 0xbb, 0x90, 0x6a, 0xef, 0xbd, 0xe4, 0x21, 0x1c, 0xbe, 0x16, 0x36, 0xaf, 0x3d, 0x31, 0xe0, 0x51, 0xbd, 0x86, 0x5e, 0x57, 0xbc, 0xbc, 0x38, 0xf1, 0xbd, 0xd2, 0x61, 0x82, 0x3d, 0xf8, 0xb5, 0xed, 0xbc, 0x87, 0x15, 0xb7, 0x3d, 0xa1, 0x05, 0xeb, 0xbe, 0x44, 0x2c, 0xc4, 0xbd, 0x1d, 0xdc, 0x1f, 0xbe, 0x50, 0x43, 0xfb, 0x3d, 0x00, 0x57, 0x60, 0xba, 0x43, 0xcd, 0x32, 0x3d, 0x4e, 0x6f, 0xd8, 0xbd, 0xbd, 0xbe, 0x3c, 0xbf, 0x60, 0x95, 0x81, 0xbc, 0xd8, 0x1a, 0x87, 0xbd, 0x0a, 0xfb, 0x24, 0xbd, 0xc0, 0x0e, 0x8f, 0x3d, 0x4a, 0x4b, 0x6e, 0xbb, 0x20, 0xee, 0x74, 0xbc, 0x7a, 0xe9, 0xc7, 0x3d, 0xe7, 0x95, 0xcf, 0xbf, 0x5a, 0xd5, 0x91, 0x3d, 0xc8, 0x11, 0x77, 0xbc, 0x00, 0x3d, 0x55, 0x3c, 0x8a, 0xf5, 0x90, 0x3c, 0xcd, 0xc7, 0xe4, 0xbc, 0xf3, 0x55, 0xa0, 0xbd, 0xcc, 0xf7, 0x23, 0xbb, 0x0c, 0xf7, 0xe5, 0x3d, 0x3e, 0x60, 0x0a, 0xbe, 0xe2, 0x30, 0x6d, 0xbe, 0x88, 0x5d, 0xb9, 0xbc, 0x54, 0xb9, 0x5f, 0xbf, 0x4a, 0x94, 0xc0, 0x3d, 0x1b, 0x86, 0x0f, 0x3d, 0xce, 0x26, 0x8d, 0xbe, 0x46, 0xf7, 0x09, 0x3e, 0xa8, 0xb2, 0x0c, 0x3d, 0xb2, 0x48, 0x07, 0xbe, 0x43, 0xa3, 0x70, 0xbc, 0xed, 0x93, 0xe3, 0x3c, 0x64, 0x0b, 0xc1, 0x3d, 0x0d, 0x50, 0x79, 0x3b, 0xe2, 0xfe, 0xc2, 0xbd, 0x62, 0xd7, 0x06, 0xbe, 0x1c, 0x91, 0x9e, 0xbc, 0xa8, 0x39, 0x47, 0x3d, 0x6c, 0xd5, 0x31, 0xbd, 0x85, 0xfc, 0x17, 0xbe, 0x10, 0x79, 0x98, 0x3c, 0x84, 0x69, 0xf3, 0xbd, 0xd4, 0x42, 0xdf, 0xbc, 0x23, 0xd6, 0xb1, 0xbc, 0x28, 0x9a, 0x10, 0xbd, 0x1b, 0x53, 0xb8, 0x3d, 0x3d, 0x5c, 0x2e, 0xbe, 0x0e, 0x59, 0x70, 0xbd, 0xb9, 0x0b, 0x36, 0xbf, 0xe4, 0x17, 0x39, 0x3d, 0x74, 0x36, 0xfc, 0x3d, 0xb7, 0xff, 0x91, 0xbd, 0x68, 0x4b, 0x0c, 0x3e, 0xec, 0x19, 0x20, 0x3d, 0xa6, 0xff, 0xe2, 0xbd, 0x93, 0x5c, 0x4b, 0x3c, 0x39, 0x0f, 0x0f, 0x3d, 0xc8, 0x6d, 0x34, 0xbd, 0xaf, 0x5e, 0x07, 0xbe, 0xbd, 0xe1, 0xff, 0xbd, 0xfb, 0xa5, 0x0f, 0xbd, 0x32, 0x3c, 0xa5, 0xbe, 0x4e, 0xa5, 0x30, 0xbd, 0x97, 0xbe, 0xa7, 0xbd, 0x36, 0xa3, 0xab, 0x3d, 0xdd, 0x1b, 0x13, 0x3d, 0x5f, 0x10, 0x29, 0xbe, 0x6e, 0xb4, 0x9a, 0x3d, 0x57, 0x95, 0x51, 0xba, 0xe2, 0x24, 0x6e, 0xbd, 0x04, 0xd8, 0xba, 0x3c, 0x92, 0xb5, 0xee, 0xbc, 0x72, 0x88, 0x06, 0x3e, 0xf1, 0x22, 0xc4, 0xbd, 0x34, 0x20, 0xf6, 0xbd, 0xac, 0xa1, 0x11, 0xbe, 0x41, 0x02, 0x17, 0xbe, 0xa8, 0x7c, 0x95, 0x3d, 0xb1, 0xb3, 0xa2, 0xbd, 0x00, 0x7d, 0xa0, 0x3b, 0x0a, 0x83, 0xd1, 0xbd, 0xd7, 0x0e, 0x71, 0x3b, 0xa9, 0xae, 0x07, 0xbe, 0x1e, 0x66, 0x89, 0xbc, 0xde, 0x14, 0x49, 0xbd, 0xcd, 0x41, 0xb2, 0x3c, 0x2f, 0x35, 0x0d, 0xbc, 0x4b, 0x12, 0xae, 0xbd, 0xef, 0x1b, 0xd2, 0xbc, 0x94, 0x4b, 0x13, 0x3d, 0xb2, 0x04, 0x3c, 0xbd, 0x33, 0x13, 0xa1, 0xbf, 0xb8, 0x8c, 0xae, 0xbc, 0x68, 0x40, 0x8b, 0xbd, 0x30, 0x2b, 0xd6, 0xbd, 0x57, 0x9f, 0xfe, 0xba, 0x7b, 0x9a, 0x18, 0xbe, 0x2b, 0xde, 0x91, 0xbd, 0x77, 0xb0, 0x7f, 0xbd, 0x0b, 0xaf, 0x90, 0xbd, 0xd2, 0xf8, 0x08, 0xbe, 0x02, 0xcd, 0x25, 0xbb, 0xb0, 0x43, 0x36, 0x3d, 0x2c, 0x0a, 0x28, 0x3d, 0x58, 0x92, 0x6e, 0x3d, 0xa9, 0x1f, 0x7a, 0xbd, 0x26, 0xc4, 0xff, 0x3c, 0x16, 0xc2, 0x2d, 0xbd, 0x6d, 0xfd, 0xd0, 0xbd, 0xc6, 0xe9, 0x50, 0xbd, 0xb6, 0x7e, 0x02, 0xbe, 0xe0, 0x46, 0xa6, 0xbb, 0xf1, 0x40, 0x9d, 0xbd, 0xf2, 0x5c, 0xc5, 0xbd, 0xa6, 0xce, 0x02, 0x3e, 0xb0, 0xf4, 0x68, 0xbc, 0x6c, 0x50, 0x69, 0xbd, 0x08, 0x42, 0xf4, 0xbd, 0x08, 0xdd, 0xf2, 0xbc, 0x59, 0x8a, 0x8c, 0xbd, 0xbc, 0xd5, 0x35, 0xbe, 0x3e, 0x8c, 0x0f, 0xbe, 0x54, 0x9d, 0xe5, 0xbc, 0x58, 0x44, 0x5a, 0xbf, 0x51, 0x7d, 0xf4, 0xbd, 0x52, 0xc8, 0x9d, 0xbd, 0x50, 0x50, 0x6f, 0x3c, 0xd0, 0xac, 0x74, 0x3c, 0xf6, 0x06, 0x7d, 0xb9, 0x48, 0x5c, 0x17, 0x3d, 0x0d, 0xda, 0xaa, 0xbd, 0xe7, 0x8d, 0x93, 0xbf, 0xa0, 0x59, 0xc3, 0xbb, 0x6f, 0xb0, 0x87, 0xbd, 0x1c, 0x9a, 0x04, 0x3d, 0xb2, 0xb8, 0x27, 0xbc, 0xe0, 0x12, 0x11, 0xbe, 0xff, 0xf5, 0x08, 0xbe, 0xdb, 0x63, 0x9f, 0xbd, 0x5c, 0xc5, 0x0b, 0xbd, 0x29, 0x4a, 0xd4, 0x3d, 0xa4, 0xe9, 0xc0, 0x3c, 0x9c, 0x93, 0x30, 0xbd, 0x07, 0x4d, 0x12, 0x3c, 0x94, 0xf2, 0x36, 0xbd, 0x08, 0x09, 0x48, 0x3d, 0xe4, 0xa2, 0x9c, 0xbb, 0x80, 0xbb, 0x3a, 0x3d, 0xc1, 0x70, 0xb8, 0xbd, 0xea, 0x06, 0x39, 0xbd, 0x2c, 0x77, 0xc3, 0xbd, 0xb6, 0x15, 0x01, 0xbe, 0x90, 0x6f, 0x8a, 0xbc, 0x46, 0x3f, 0x45, 0xbe, 0x4c, 0x2c, 0xd2, 0x3d, 0x39, 0x08, 0x77, 0x3a, 0xe8, 0x4f, 0x96, 0x3c, 0xe6, 0x3b, 0x38, 0xbd, 0x0e, 0x9f, 0x64, 0xbe, 0x66, 0xb3, 0x88, 0xbd, 0x58, 0x9d, 0xe0, 0x3d, 0xbb, 0x00, 0xa6, 0xbb, 0xd6, 0x5c, 0x13, 0x3e, 0x8d, 0x0a, 0x12, 0x3b, 0x9a, 0x7a, 0x9c, 0x3d, 0xf0, 0x4f, 0xfa, 0xbd, 0x77, 0xc2, 0x3d, 0xbe, 0x2f, 0x62, 0xc4, 0xbd, 0x04, 0x0e, 0xc6, 0xbd, 0xd0, 0x9e, 0xe9, 0xbc, 0x6a, 0x69, 0x4f, 0xbd, 0x36, 0xba, 0x00, 0xbe, 0x18, 0x57, 0xb1, 0xbc, 0x90, 0x83, 0x03, 0x38, 0xdc, 0xe4, 0xb6, 0x3d, 0x45, 0x11, 0x31, 0x3c, 0x4c, 0x61, 0xc2, 0xbc, 0xe0, 0x1d, 0x78, 0xbc, 0x3f, 0xa8, 0x1b, 0x3b, 0xc8, 0xf0, 0x3d, 0x3d, 0xf3, 0x33, 0x18, 0x3d, 0x1e, 0x98, 0xbc, 0xbd, 0xdb, 0x0d, 0x9c, 0xbd, 0x02, 0x37, 0xbb, 0xbe, 0x98, 0xa2, 0x9a, 0xbd, 0x21, 0x45, 0xa2, 0xbd, 0x06, 0x91, 0x10, 0xbd, 0xd8, 0x63, 0xac, 0x3c, 0xbd, 0xfb, 0xa1, 0xbd, 0xd2, 0x1d, 0x99, 0xbd, 0x60, 0x79, 0x02, 0xbc, 0x68, 0xa8, 0xbd, 0xbc, 0xf0, 0xa3, 0x14, 0xbd, 0x0c, 0x66, 0xd2, 0xbd, 0xe0, 0x4d, 0x0e, 0x3d, 0x72, 0x98, 0xc0, 0xbd, 0x5e, 0x88, 0x18, 0xbd, 0xae, 0x86, 0xaa, 0x3d, 0x39, 0x60, 0x2a, 0xbe, 0x68, 0x5d, 0x8e, 0xbc, 0xcc, 0xaf, 0xd6, 0xbc, 0x94, 0x0b, 0xff, 0xbc, 0x00, 0x52, 0x9e, 0x3b, 0x3d, 0x70, 0xd7, 0xbe, 0xc8, 0xac, 0x64, 0x3d, 0x8d, 0x7c, 0xc3, 0xbd, 0x10, 0xf4, 0xc0, 0xbd, 0x4a, 0x88, 0x07, 0x3e, 0x6a, 0x6c, 0x31, 0xbd, 0x88, 0x83, 0x94, 0x3c, 0xa4, 0x4e, 0x17, 0xbd, 0xc5, 0xcc, 0xab, 0xbc, 0xda, 0xb3, 0x2f, 0xbd, 0x5b, 0x46, 0x45, 0xbf, 0xc0, 0xfe, 0x04, 0x3d, 0xea, 0x2a, 0x05, 0x3e, 0xe0, 0xa8, 0xab, 0x3b, 0x4e, 0xf7, 0x09, 0xbe, 0x1d, 0x31, 0x35, 0xbc, 0x56, 0x29, 0x11, 0x3e, 0x2a, 0xec, 0x68, 0x3d, 0x37, 0x15, 0xeb, 0xbc, 0xd8, 0x16, 0x07, 0xbd, 0xe3, 0xc1, 0x85, 0x3b, 0x80, 0x62, 0x59, 0xbb, 0xf9, 0x0d, 0xb8, 0xbd, 0xb4, 0x26, 0xf1, 0xba, 0x26, 0x45, 0xba, 0x3d, 0x9d, 0x06, 0x9e, 0xbe, 0x15, 0xf4, 0x80, 0xbd, 0x4a, 0x97, 0x3f, 0x3c, 0x4a, 0x8d, 0x95, 0xbd, 0xc0, 0x0b, 0xaf, 0xbb, 0x48, 0xe0, 0xac, 0x3c, 0xab, 0x6c, 0xd2, 0xbd, 0x5b, 0x57, 0x9e, 0xbd, 0x95, 0xd0, 0x09, 0xc0, 0x10, 0x10, 0x14, 0x3e, 0xdb, 0xc4, 0x3a, 0xbd, 0x68, 0xb2, 0xed, 0xbd, 0x60, 0x91, 0xee, 0x3b, 0xdc, 0xd9, 0xe6, 0xbd, 0x75, 0x0e, 0x14, 0xbe, 0x44, 0x4d, 0x27, 0xbb, 0xd0, 0x68, 0x1d, 0xbd, 0xf4, 0x5a, 0xf5, 0xbd, 0x0a, 0x7f, 0x2a, 0xbe, 0x28, 0x74, 0xb1, 0xbd, 0xf1, 0x5c, 0x09, 0xbe, 0x44, 0x90, 0xe2, 0xbd, 0x44, 0x78, 0xab, 0xbd, 0x3b, 0x65, 0x02, 0x3b, 0xb0, 0x4b, 0xbe, 0x3c, 0xe0, 0x92, 0xf1, 0xbd, 0x70, 0x64, 0xf9, 0x3c, 0x3c, 0xff, 0xf2, 0xbd, 0x0f, 0x0d, 0x9e, 0xbd, 0x98, 0x4b, 0x05, 0x3e, 0xd0, 0x36, 0x83, 0xb9, 0x9a, 0x80, 0xcc, 0xbd, 0xa5, 0x3a, 0x21, 0xbd, 0xc0, 0xca, 0x08, 0xbe, 0x74, 0xf1, 0xc9, 0x3d, 0x29, 0x92, 0x1c, 0xbc, 0x44, 0xf2, 0x08, 0xbe, 0xe3, 0x09, 0x08, 0xbe, 0x72, 0xea, 0x51, 0xbb, 0x14, 0x9c, 0xaa, 0xbd, 0xa7, 0xfc, 0xd2, 0xbe, 0x4c, 0xc0, 0x15, 0x3e, 0x7c, 0x62, 0x84, 0xbd, 0x5a, 0xd5, 0x30, 0xbe, 0x44, 0x19, 0x3e, 0x3d, 0x5b, 0x6c, 0x46, 0xbf, 0xca, 0x46, 0x02, 0xbe, 0x75, 0xf7, 0x48, 0x3d, 0x67, 0xab, 0xeb, 0xbd, 0x74, 0x0e, 0xa3, 0xbd, 0x8d, 0x53, 0xd3, 0xba, 0x44, 0xe0, 0x02, 0x3e, 0xee, 0x18, 0xd8, 0xbd, 0x4c, 0x15, 0x1c, 0xbe, 0x10, 0x77, 0x8b, 0x3d, 0x3e, 0xc5, 0xb6, 0xbd, 0xfc, 0x32, 0x4f, 0xbd, 0xba, 0x02, 0xea, 0xbd, 0x1f, 0x6d, 0xf7, 0xbd, 0x33, 0x32, 0x80, 0xbd, 0xdc, 0x9d, 0x1f, 0xbe, 0x7c, 0x24, 0x39, 0x3d, 0x96, 0x9e, 0xf5, 0xbd, 0x2d, 0x18, 0xa2, 0x3d, 0x70, 0x58, 0xd7, 0xbd, 0xad, 0x2c, 0x09, 0xbe, 0xa6, 0x5d, 0x55, 0xbd, 0xcc, 0xa4, 0xce, 0xbb, 0xfa, 0x0f, 0xcd, 0xbd, 0x10, 0x0d, 0x90, 0xbc, 0x70, 0x94, 0x4f, 0xbf, 0x52, 0xb8, 0x16, 0x3e, 0x3f, 0x66, 0xf0, 0xbc, 0xf7, 0x18, 0x1b, 0x3d, 0x40, 0x65, 0x9d, 0xbb, 0x67, 0x67, 0x18, 0x3c, 0x88, 0x6b, 0x71, 0xbd, 0x09, 0xdc, 0x12, 0x3c, 0x04, 0x97, 0x0e, 0xbe, 0x98, 0x17, 0xc5, 0x3d, 0x8a, 0xcf, 0xb2, 0x3d, 0xc0, 0x08, 0x46, 0xbd, 0xdb, 0x35, 0xe4, 0x3c, 0xa0, 0xa8, 0x97, 0xbe, 0xb6, 0x6e, 0xc4, 0x3d, 0xb5, 0x7f, 0x16, 0x3d, 0xc6, 0xeb, 0x16, 0x3e, 0x4f, 0xd8, 0x43, 0xbd, 0xeb, 0x3a, 0x2b, 0x3d, 0x00, 0x91, 0x9d, 0xba, 0x38, 0x26, 0x50, 0xbe, 0xde, 0x3c, 0x4a, 0xbd, 0x0a, 0xa4, 0x2c, 0x3e, 0xbd, 0x94, 0x62, 0xbc, 0xe6, 0x19, 0xa3, 0x3d, 0xac, 0x95, 0xfb, 0xbc, 0x00, 0xe4, 0xcf, 0x3c, 0x24, 0x02, 0x75, 0xbd, 0xaf, 0x4d, 0xa0, 0xbc, 0x14, 0x23, 0x0a, 0xbe, 0xb2, 0x94, 0x43, 0xbc, 0xfc, 0x91, 0x58, 0x3d, 0x07, 0x1b, 0x88, 0xbd, 0xaf, 0x36, 0x0f, 0x39, 0x88, 0x03, 0xa9, 0x3c, 0x30, 0x10, 0xff, 0xbd, 0x44, 0xe2, 0xce, 0xbd, 0x55, 0x1e, 0xc5, 0xbc, 0x54, 0xad, 0x29, 0x3d, 0xf0, 0xbe, 0x08, 0x3e, 0x78, 0x8d, 0xe5, 0xba, 0x9e, 0xcc, 0x5b, 0xbd, 0x5a, 0x2f, 0x7c, 0xbd, 0x09, 0xd0, 0xa7, 0xbd, 0xa8, 0xf0, 0xfa, 0x3d, 0x42, 0x81, 0x2c, 0x3b, 0xee, 0xe8, 0xd7, 0xbd, 0xf5, 0x77, 0x2f, 0xbd, 0xad, 0x75, 0x0a, 0xbe, 0x90, 0x83, 0x90, 0xbc, 0x8a, 0xce, 0x21, 0xbd, 0xe0, 0xca, 0x50, 0x3d, 0x69, 0xf4, 0x2e, 0x3d, 0xc6, 0x15, 0xa9, 0x3c, 0xa0, 0xc6, 0x34, 0x3d, 0x6e, 0xca, 0xa2, 0xbd, 0xa8, 0x3d, 0x04, 0xbe, 0x6b, 0xd5, 0x8e, 0xbd, 0x05, 0x4f, 0x0b, 0x3b, 0xd4, 0x38, 0x38, 0xbd, 0x28, 0xb3, 0xaf, 0x3b, 0x72, 0xcc, 0xdd, 0xbd, 0xf8, 0x12, 0xa8, 0xbd, 0x24, 0x9f, 0x0a, 0xbe, 0x6e, 0x32, 0xc5, 0x3d, 0x31, 0xdb, 0xb6, 0xbd, 0x34, 0x50, 0x8a, 0xbd, 0xa5, 0xf7, 0x01, 0xbe, 0x9a, 0xef, 0x8f, 0xbd, 0x9c, 0x5d, 0x00, 0xbe, 0x1c, 0xdf, 0x25, 0xbe, 0xce, 0x33, 0x19, 0xbe, 0x35, 0x4d, 0x6f, 0xbc, 0xc3, 0xe2, 0x12, 0x3d, 0x56, 0x64, 0x04, 0x3e, 0xd3, 0x42, 0x53, 0xbd, 0xc4, 0x4a, 0x1a, 0x3e, 0xd7, 0x93, 0x38, 0x3d, 0xee, 0xdf, 0x31, 0xbe, 0x70, 0x46, 0xd1, 0x3d, 0x6a, 0xd0, 0xd9, 0x3d, 0xc4, 0xa7, 0x76, 0xbd, 0xd0, 0x43, 0xca, 0xbc, 0xa6, 0x7e, 0x98, 0xbe, 0xa4, 0xf2, 0x02, 0x3d, 0x2a, 0xcd, 0x55, 0xbd, 0x3a, 0x61, 0xcf, 0xbd, 0x10, 0x70, 0x97, 0x3b, 0xf0, 0xec, 0x4c, 0xbe, 0x20, 0x95, 0xaa, 0xbb, 0x33, 0x1b, 0x12, 0xbf, 0xd0, 0x28, 0xd5, 0xbc, 0xbf, 0x49, 0x62, 0xbd, 0x67, 0xcd, 0xe0, 0x3c, 0x70, 0x18, 0x40, 0xbc, 0x9f, 0x50, 0x8d, 0xbd, 0x1a, 0xa1, 0x53, 0xbd, 0x82, 0x13, 0x0b, 0xbd, 0xbd, 0x13, 0xa4, 0xbd, 0x38, 0x80, 0x00, 0x3e, 0xf9, 0xef, 0x19, 0x3d, 0xc0, 0x77, 0x81, 0x3c, 0xc6, 0x84, 0x95, 0x3b, 0xbc, 0xe9, 0xaf, 0x3d, 0xd0, 0x95, 0x04, 0xbe, 0xba, 0x95, 0x4b, 0xbd, 0x62, 0x8d, 0xec, 0xbd, 0x12, 0x22, 0x46, 0xbd, 0xb0, 0xfe, 0x03, 0xbc, 0x5a, 0xaa, 0x1d, 0xbd, 0x30, 0xe7, 0x1e, 0x3d, 0xba, 0x29, 0x04, 0xbe, 0x2d, 0xdd, 0xa1, 0x3d, 0x0d, 0xa8, 0x15, 0x3d, 0x4a, 0x99, 0x05, 0xbd, 0xd2, 0xe1, 0x05, 0x3a, 0x1d, 0xd6, 0x1a, 0xbe, 0xca, 0xe4, 0x10, 0xbe, 0x53, 0x8e, 0xf0, 0xbc, 0xd8, 0xf6, 0x4b, 0x3d, 0xc1, 0x4d, 0x25, 0x3c, 0xfe, 0x4d, 0x91, 0x3d, 0xac, 0x35, 0x5a, 0x3c, 0x48, 0x81, 0x8d, 0xbc, 0xae, 0xf1, 0xbf, 0x3d, 0x04, 0x68, 0x82, 0xbd, 0x74, 0x73, 0xf6, 0x3d, 0xab, 0x6d, 0x61, 0x3d, 0xb0, 0x37, 0xd7, 0xbb, 0xa7, 0x07, 0xd6, 0xbd, 0x89, 0x23, 0x57, 0x3d, 0x68, 0xdc, 0xd6, 0x3c, 0x2c, 0x46, 0x15, 0x3e, 0xb7, 0x66, 0x49, 0xbd, 0xcc, 0xd5, 0x3c, 0x3d, 0x2c, 0x3b, 0x97, 0xbe, 0xf8, 0xe2, 0xac, 0xbc, 0x48, 0xf7, 0xc8, 0x3d, 0x5c, 0xc2, 0xa6, 0xbd, 0x6e, 0xb5, 0x0a, 0x3e, 0x5f, 0xe0, 0x2e, 0x3b, 0xac, 0x4e, 0x83, 0x3d, 0xd4, 0xc9, 0x99, 0xbd, 0x71, 0x9a, 0xb6, 0xbc, 0x5a, 0x60, 0xbd, 0x3d, 0x20, 0xd2, 0xb9, 0xbd, 0x64, 0x80, 0x97, 0x3d, 0xf9, 0x4e, 0x0c, 0x3a, 0xf0, 0x94, 0xe5, 0xbd, 0xd8, 0x7f, 0xc0, 0x3d, 0x21, 0x83, 0x26, 0xbe, 0x27, 0x4f, 0xbe, 0xbd, 0xe8, 0x21, 0x68, 0xbd, 0x20, 0x43, 0x18, 0x3d, 0xf8, 0x5f, 0xe9, 0xbc, 0x7b, 0xc2, 0x16, 0x3c, 0x38, 0xe2, 0x96, 0x3c, 0x0d, 0x2e, 0x52, 0x3b, 0x0f, 0x7a, 0x99, 0xbc, 0x14, 0x71, 0xd5, 0x3d, 0x28, 0x46, 0x6f, 0xbf, 0x58, 0x74, 0x21, 0xbd, 0xfe, 0xf0, 0x86, 0x3e, 0x80, 0x6d, 0x48, 0xbd, 0x46, 0x18, 0x3d, 0xbd, 0x99, 0x04, 0xd6, 0xbc, 0xc7, 0x4f, 0xe1, 0xbd, 0x73, 0x4a, 0x3b, 0x3d, 0x30, 0x90, 0x3f, 0xbe, 0x3a, 0x17, 0x1f, 0xbd, 0x3a, 0x44, 0x1c, 0xbd, 0x2e, 0xc9, 0x0b, 0x3e, 0x64, 0x10, 0x88, 0xbd, 0x88, 0x71, 0xdf, 0xbd, 0xac, 0x57, 0xd6, 0x3d, 0x17, 0x6e, 0x19, 0x3c, 0x10, 0x6f, 0x43, 0x3d, 0x5a, 0x5d, 0x72, 0x3c, 0xb1, 0xb8, 0x21, 0xbd, 0xf0, 0x00, 0xeb, 0x3d, 0x8c, 0x6c, 0xe2, 0xbd, 0x84, 0x25, 0x8d, 0x3d, 0x57, 0x72, 0x18, 0x3e, 0x98, 0x82, 0xf4, 0xbd, 0x10, 0x4b, 0x11, 0x3d, 0xf3, 0x41, 0xd4, 0xbe, 0xc8, 0x15, 0x70, 0x3d, 0xe7, 0x4c, 0x2c, 0x3e, 0xb8, 0x9d, 0x63, 0xbd, 0x28, 0xdc, 0x12, 0x3e, 0x80, 0x02, 0x0a, 0xbe, 0x48, 0x6b, 0x8f, 0xbc, 0x2f, 0xfc, 0xa4, 0xbd, 0xb7, 0x54, 0xf9, 0x3c, 0x2c, 0x39, 0xc4, 0xbd, 0x02, 0x45, 0x0e, 0xbd, 0x08, 0x61, 0xda, 0x3d, 0x89, 0x61, 0xb6, 0xbc, 0x8e, 0xda, 0xc0, 0xbc, 0x22, 0x75, 0x63, 0xbd, 0x91, 0xb9, 0x71, 0xbf, 0x5c, 0x15, 0x07, 0x3d, 0xe4, 0x21, 0x6a, 0x3e, 0x59, 0x18, 0xe5, 0xbd, 0x40, 0xfa, 0x24, 0xbc, 0x3b, 0x7d, 0xe3, 0xbc, 0x42, 0x41, 0x2a, 0xbd, 0xd1, 0xcf, 0x04, 0xbe, 0xe3, 0xce, 0x7a, 0xbe, 0x5e, 0xa0, 0xc0, 0xbd, 0xc7, 0xac, 0x4d, 0xbd, 0x34, 0x32, 0xbd, 0x3d, 0xea, 0xc3, 0x6c, 0xbd, 0xf6, 0x4f, 0xd9, 0x3b, 0xc6, 0xa9, 0xc7, 0x3d, 0x19, 0xc8, 0x86, 0xbd, 0x5a, 0x60, 0x17, 0x3e, 0x20, 0x6a, 0x7f, 0xbb, 0xb4, 0xe2, 0x84, 0x39, 0x4c, 0x94, 0x6b, 0xbd, 0x54, 0xd3, 0xc0, 0xbd, 0x2c, 0xd9, 0x26, 0x3d, 0x45, 0x72, 0x98, 0xbd, 0x18, 0x27, 0xec, 0xbc, 0x2a, 0x27, 0x93, 0xbd, 0x2d, 0xb4, 0x3b, 0xbf, 0x6c, 0x4e, 0xe6, 0x3d, 0x00, 0xf3, 0x9a, 0xbd, 0x51, 0x13, 0x1f, 0xbe, 0x14, 0x91, 0xd1, 0x3d, 0x30, 0x32, 0x71, 0x3b, 0xce, 0x7a, 0x56, 0xbd, 0xc3, 0x89, 0x0c, 0xbc, 0xe2, 0xb0, 0x13, 0xbe, 0xca, 0xe0, 0xab, 0xbd, 0xb0, 0xf5, 0x8c, 0xbe, 0xe2, 0xb6, 0x0a, 0x3e, 0xdd, 0xcc, 0x0f, 0x3d, 0x6c, 0x20, 0x89, 0x3d, 0x30, 0x8d, 0xe2, 0x3d, 0xbb, 0x8c, 0x0f, 0xbe, 0x00, 0xc2, 0x09, 0x3d, 0x70, 0x24, 0x00, 0xbd, 0x21, 0x78, 0x07, 0xbd, 0xb0, 0xba, 0x5b, 0xbd, 0x1c, 0xf9, 0x01, 0x3c, 0x90, 0xce, 0x94, 0x3d, 0x22, 0xf6, 0x23, 0xbc, 0x88, 0x5c, 0xfd, 0xbd, 0xc0, 0x9d, 0x78, 0x3d, 0x84, 0x6a, 0xb8, 0xba, 0x3e, 0xa9, 0x3f, 0xbd, 0x8b, 0x12, 0x35, 0xbd, 0x4f, 0x9b, 0xb6, 0xbd, 0xea, 0x81, 0x04, 0x3e, 0x24, 0x18, 0x17, 0xbd, 0xc0, 0xf9, 0x5a, 0x3d, 0x45, 0x8f, 0x79, 0xbd, 0x77, 0x6a, 0x09, 0x3c, 0x74, 0xc1, 0x3e, 0x3d, 0x2e, 0x93, 0x38, 0xbe, 0xc0, 0x31, 0x6c, 0xbd, 0x1e, 0x6d, 0x7d, 0x3e, 0x4c, 0xc4, 0x01, 0x3e, 0xe4, 0x6c, 0x17, 0x3d, 0xa9, 0x4d, 0xb1, 0x3b, 0xf0, 0x82, 0x5c, 0x3d, 0x42, 0x07, 0xa4, 0xbd, 0x96, 0x54, 0x3f, 0xbe, 0x64, 0xc7, 0x0e, 0x3d, 0x1c, 0xa8, 0x43, 0xbd, 0xb0, 0x30, 0x13, 0xbc, 0xc0, 0xbd, 0x19, 0xbc, 0xb8, 0xfe, 0xea, 0xbd, 0xc2, 0xe3, 0x16, 0x3e, 0xbf, 0xa6, 0xd4, 0xbb, 0xe6, 0x34, 0x1b, 0x3e, 0xa2, 0xee, 0xc8, 0xbd, 0x9d, 0x0c, 0x7e, 0xbf, 0x6b, 0x51, 0xbd, 0xbd, 0x58, 0x88, 0x7e, 0xbb, 0xd2, 0x99, 0x05, 0x3e, 0x52, 0x79, 0x42, 0xbc, 0x0f, 0xab, 0x4b, 0xbe, 0x3d, 0x8a, 0xc5, 0xbd, 0x41, 0xb2, 0x2f, 0x3c, 0x14, 0xb7, 0xb3, 0x3d, 0x07, 0xfb, 0x3a, 0xbd, 0x3a, 0xfb, 0x9a, 0xbc, 0x75, 0xf1, 0x89, 0xbd, 0xd7, 0x46, 0x28, 0x3a, 0x44, 0xaa, 0x37, 0x3d, 0x6e, 0xc1, 0xd2, 0x3d, 0xe1, 0xf3, 0x8c, 0xbe, 0x88, 0x6d, 0x8b, 0xbc, 0x63, 0xbc, 0x0c, 0xbf, 0x81, 0x94, 0xf3, 0xbd, 0x3b, 0xe8, 0xca, 0x3d, 0xab, 0x45, 0x8b, 0xbd, 0x48, 0x3f, 0x39, 0x3d, 0xe2, 0x61, 0x03, 0xbe, 0x10, 0x27, 0x78, 0xbd, 0xe2, 0x1b, 0x1b, 0xbd, 0x56, 0x24, 0x20, 0x3d, 0x6d, 0xdf, 0xda, 0xbd, 0x4b, 0x27, 0xca, 0xbd, 0xae, 0x5a, 0x8a, 0x3d, 0x76, 0x79, 0x00, 0xbe, 0x2c, 0xf5, 0xbe, 0x3a, 0x20, 0xc1, 0x1f, 0x3c, 0xa4, 0xea, 0xf6, 0xbd, 0x7c, 0x9d, 0x27, 0xbd, 0xe0, 0x4a, 0x5c, 0xbd, 0x56, 0xcf, 0xff, 0x3c, 0xb8, 0x79, 0x95, 0xbd, 0x5e, 0x6a, 0x80, 0xbc, 0xa8, 0x8f, 0xd3, 0xbc, 0xe5, 0x3c, 0xb4, 0xbd, 0x7b, 0xa5, 0x55, 0xbe, 0xea, 0xbb, 0x45, 0xbd, 0x1a, 0x83, 0xee, 0xbc, 0x68, 0x46, 0xd7, 0x3d, 0x39, 0x6a, 0x87, 0x3d, 0x84, 0x05, 0x41, 0xbc, 0x36, 0xd1, 0xe0, 0xbd, 0x3e, 0xbc, 0xf4, 0xbd, 0xac, 0x35, 0x04, 0x3d, 0x87, 0xd9, 0x1a, 0xbe, 0x4c, 0xc8, 0xeb, 0x3c, 0x18, 0x51, 0xbb, 0xbd, 0x32, 0x31, 0xcc, 0xbe, 0xc1, 0xbd, 0xf6, 0xbd, 0x2b, 0x70, 0x95, 0x3d, 0x9b, 0xe4, 0x23, 0x3d, 0x18, 0x64, 0xad, 0x3c, 0xbd, 0xb3, 0xf7, 0xbb, 0x64, 0xfc, 0xe5, 0xbc, 0x37, 0x5e, 0xf0, 0xbd, 0x01, 0x30, 0xdb, 0x3a, 0xd0, 0x8d, 0x81, 0x3c, 0x00, 0x68, 0x5a, 0x3b, 0xdc, 0xd7, 0x04, 0xbd, 0xee, 0x30, 0x3b, 0x3a, 0xc0, 0x40, 0x87, 0xbd, 0x94, 0x24, 0xc5, 0xbd, 0xbb, 0x99, 0x39, 0xbf, 0x00, 0xad, 0x7e, 0xbb, 0xc3, 0xe0, 0x8a, 0x3c, 0xf7, 0x38, 0x22, 0xbe, 0xaa, 0x92, 0x9b, 0xbd, 0xf7, 0x00, 0x91, 0xbd, 0x14, 0x52, 0xb1, 0x3d, 0x50, 0xe9, 0xaa, 0x3a, 0x40, 0x6e, 0x83, 0xbb, 0x40, 0xa4, 0x10, 0xbc, 0xb8, 0x5a, 0x2d, 0xbd, 0x90, 0xb5, 0x1b, 0xbc, 0x9c, 0x73, 0xf6, 0xbd, 0xfc, 0xc2, 0xaa, 0xbd, 0xae, 0x83, 0x18, 0x3e, 0x9c, 0xaa, 0x5e, 0xbf, 0x00, 0x9a, 0xe6, 0x3b, 0xc9, 0xf0, 0x74, 0x3d, 0x22, 0xf4, 0x70, 0xbe, 0x88, 0x6f, 0x96, 0xbc, 0xdf, 0xd3, 0xa9, 0xbc, 0xe4, 0x36, 0x43, 0x3d, 0xc2, 0x20, 0xc0, 0x3d, 0x82, 0x9a, 0x33, 0xbe, 0x64, 0x7b, 0x1d, 0xbd, 0x71, 0x9f, 0xfc, 0xbc, 0xee, 0xc5, 0x13, 0x3e, 0x37, 0x3c, 0xf4, 0xbc, 0x78, 0xbf, 0xe4, 0xbb, 0x02, 0x9d, 0x19, 0x3e, 0x65, 0x20, 0xba, 0x3a, 0x70, 0xae, 0xb9, 0xbd, 0x93, 0x59, 0xfc, 0x3c, 0xe4, 0x94, 0xb6, 0xbf, 0xa2, 0xe2, 0xb5, 0x3d, 0x37, 0x91, 0x3f, 0xbf, 0xf2, 0x77, 0x0d, 0xbe, 0x1a, 0xbf, 0x37, 0xbc, 0x6f, 0x99, 0xf3, 0x3c, 0xd3, 0xdb, 0x03, 0xbe, 0x2c, 0xa6, 0x2c, 0x3d, 0x74, 0xe8, 0xb2, 0x3d, 0x87, 0x8b, 0xc9, 0x3c, 0xb0, 0x02, 0x0e, 0x3d, 0xac, 0xd3, 0xd2, 0xbd, 0x84, 0xfa, 0x0f, 0x3c, 0x04, 0x6a, 0xc1, 0x3d, 0x6c, 0x2e, 0x78, 0xbc, 0x97, 0x7a, 0xdb, 0xbc, 0x3c, 0xd2, 0x02, 0xbe, 0xc1, 0xd1, 0x10, 0xbf, 0x68, 0xee, 0x8f, 0x3d, 0xa9, 0x13, 0x3f, 0x3d, 0x7e, 0x47, 0xb3, 0xbe, 0x1f, 0x73, 0xd9, 0xbd, 0x44, 0x93, 0x66, 0xbd, 0x86, 0x7d, 0xae, 0x3d, 0x62, 0xd9, 0x8b, 0xbc, 0x6e, 0xd3, 0x04, 0xbd, 0x3a, 0x85, 0xf5, 0xbd, 0xc0, 0x43, 0x77, 0xbd, 0xb8, 0xd0, 0xd3, 0x3c, 0x9d, 0x40, 0x08, 0xbe, 0x3a, 0xa0, 0x81, 0xbd, 0x6f, 0xa1, 0x15, 0xbe, 0x84, 0xf4, 0x35, 0x3a, 0xf6, 0xc4, 0x7a, 0xbd, 0x4f, 0x17, 0xa2, 0xbc, 0x30, 0xa9, 0x87, 0xbe, 0x88, 0x44, 0xda, 0xbc, 0xe5, 0x59, 0x87, 0xbc, 0x19, 0x21, 0x8f, 0xbd, 0x21, 0x9c, 0x91, 0xbd, 0x82, 0x79, 0xc4, 0xbd, 0x50, 0x51, 0x18, 0x3e, 0x80, 0xe6, 0xcd, 0xbd, 0x60, 0xa1, 0x15, 0x3d, 0xa8, 0x81, 0x06, 0xbe, 0x88, 0x9e, 0xd6, 0xbd, 0x5e, 0x2a, 0xed, 0xbd, 0x9b, 0xcb, 0x4e, 0xbe, 0xde, 0x2e, 0x10, 0xbe, 0x55, 0x71, 0xe8, 0x3d, 0x64, 0x7f, 0x18, 0x3d, 0x53, 0x3b, 0xf6, 0xbd, 0x56, 0xb8, 0x94, 0xbd, 0xc8, 0xe3, 0xd7, 0x3c, 0xee, 0xb2, 0xd3, 0x3d, 0x2f, 0x6c, 0x2c, 0x3c, 0x28, 0x4a, 0x0c, 0x3e, 0xa5, 0x0b, 0x1e, 0x3b, 0x98, 0xc0, 0xcb, 0x3d, 0xbc, 0x80, 0xd6, 0xbd, 0xfe, 0x5d, 0xae, 0xbd, 0x44, 0xc0, 0x06, 0xbd, 0x6f, 0x27, 0xaf, 0xbe, 0xd6, 0xad, 0x81, 0x3d, 0xae, 0xad, 0xe5, 0x3e, 0x2e, 0x8c, 0xef, 0x3d, 0xf8, 0x72, 0xe8, 0x3d, 0xb6, 0x0d, 0x51, 0xbe, 0xa0, 0xfb, 0xa9, 0xbd, 0x70, 0x04, 0xba, 0x3d, 0x71, 0x14, 0xcc, 0xbd, 0x0e, 0xb0, 0xbc, 0xbd, 0x7c, 0x56, 0x65, 0xbd, 0xcc, 0x14, 0x3a, 0xbd, 0xe0, 0x0b, 0x83, 0xbc, 0x24, 0x48, 0x93, 0xbd, 0x1a, 0x9d, 0x7c, 0xbd, 0x13, 0xcb, 0x4e, 0xbe, 0xdb, 0xc2, 0x8b, 0xbd, 0xa9, 0x0a, 0xcb, 0xbd, 0x95, 0x80, 0x5f, 0x3d, 0xdc, 0xbb, 0x5e, 0x3d, 0xd1, 0xbb, 0x3d, 0xbf, 0x38, 0x9f, 0xdd, 0x3d, 0x2f, 0x46, 0x99, 0x3e, 0x57, 0x7f, 0x04, 0xbc, 0x6a, 0xa7, 0x06, 0x3e, 0xfb, 0x56, 0x04, 0xbd, 0xc9, 0xbf, 0xdd, 0xbd, 0xc0, 0x59, 0x8f, 0x3d, 0x8c, 0xb8, 0x11, 0xbe, 0x80, 0xb4, 0x01, 0x3e, 0x35, 0x80, 0x89, 0xbd, 0xe8, 0x59, 0x79, 0xbd, 0xbf, 0xa5, 0xd0, 0x3c, 0x88, 0x02, 0x45, 0xbe, 0x34, 0x04, 0x8c, 0x3d, 0x3d, 0x04, 0x4d, 0xbd, 0x60, 0x83, 0x88, 0xbb, 0x3a, 0xd6, 0x03, 0x3e, 0x4f, 0xf3, 0x5d, 0x3e, 0xe4, 0xb3, 0xcb, 0x3d, 0xef, 0x9b, 0x05, 0xbe, 0xf3, 0x69, 0x11, 0xbe, 0x04, 0x34, 0x02, 0xbd, 0xf3, 0x4d, 0x43, 0x3b, 0x38, 0x50, 0x25, 0xbd, 0x06, 0x89, 0x2c, 0xbe, 0x30, 0x10, 0xaf, 0xbc, 0xe4, 0xba, 0xbc, 0xbd, 0x3d, 0x5f, 0x2a, 0xbd, 0xd8, 0x6b, 0x02, 0x3e, 0xe0, 0x41, 0x34, 0xbf, 0x83, 0x28, 0x1b, 0xbe, 0xa0, 0x1d, 0x57, 0x3e, 0xbf, 0x52, 0x27, 0x3d, 0x2c, 0x4b, 0x10, 0x3e, 0x13, 0x5f, 0x20, 0xba, 0xed, 0x4c, 0xe2, 0xbd, 0xbf, 0x55, 0x17, 0xbd, 0xad, 0xe3, 0xe1, 0xbc, 0x30, 0xd5, 0x4a, 0x3c, 0x95, 0x18, 0x33, 0x3c, 0x26, 0xc7, 0x37, 0xbd, 0x50, 0x25, 0xc2, 0xbd, 0x6b, 0x57, 0xc5, 0xbc, 0xc0, 0xbd, 0x4e, 0x3d, 0x23, 0xa2, 0x23, 0xbd, 0x30, 0xe1, 0xcf, 0xbc, 0x38, 0xba, 0xca, 0xba, 0xa0, 0x69, 0x35, 0xbe, 0x80, 0xb5, 0x96, 0xba, 0x32, 0x43, 0x86, 0xbd, 0xac, 0x13, 0xcd, 0xbd, 0xbb, 0x26, 0x52, 0x3d, 0xfd, 0x9c, 0x3f, 0x3b, 0xae, 0x20, 0x17, 0x3e, 0x3c, 0x8d, 0x21, 0xbe, 0x48, 0x9a, 0xed, 0x3d, 0x91, 0x45, 0x42, 0xbc, 0x10, 0x78, 0x15, 0xbc, 0x4c, 0xe6, 0x87, 0x3d, 0xfb, 0xed, 0xde, 0xbd, 0x71, 0x76, 0x18, 0xbe, 0xdc, 0xee, 0x91, 0x3e, 0x01, 0x4d, 0x17, 0xbe, 0xdc, 0x37, 0x3e, 0x3d, 0x0a, 0x50, 0xb1, 0xbb, 0xce, 0x64, 0x90, 0xbd, 0x39, 0x6e, 0x6e, 0xbd, 0xda, 0x6b, 0xc3, 0xbf, 0x34, 0xc0, 0x7c, 0x3d, 0x33, 0x9a, 0xfe, 0xbe, 0xc0, 0x5d, 0x53, 0x3d, 0x65, 0x2f, 0x10, 0x3e, 0x73, 0xfd, 0x02, 0xbe, 0x8a, 0xa3, 0x45, 0xbd, 0x8a, 0x73, 0xc8, 0xbd, 0x00, 0x04, 0xc8, 0xbc, 0x8e, 0xc5, 0x92, 0x3e, 0xbb, 0xfb, 0x23, 0xbe, 0x98, 0xbd, 0xce, 0x3d, 0x13, 0x00, 0x9e, 0xbd, 0x80, 0xf0, 0x0f, 0x3b, 0xe0, 0x9b, 0x84, 0xbb, 0x0e, 0xed, 0x5e, 0xbd, 0x90, 0xed, 0xe0, 0x3c, 0xea, 0x3b, 0x0f, 0xbd, 0x4a, 0xd3, 0x04, 0x3e, 0x2c, 0xe7, 0x69, 0x3c, 0xcd, 0xde, 0x91, 0x3b, 0x00, 0x6a, 0xfc, 0x3c, 0x1f, 0x13, 0x83, 0xbe, 0x2e, 0x14, 0xa7, 0x3d, 0x78, 0x0d, 0xc0, 0xbc, 0x47, 0x56, 0x97, 0x3d, 0x5a, 0xdc, 0xc8, 0xbd, 0xb9, 0x1e, 0x60, 0xbf, 0xb2, 0xb3, 0x3a, 0xbd, 0xfa, 0x1d, 0x70, 0xbd, 0x21, 0x09, 0x3e, 0xbe, 0x8c, 0x0d, 0x0e, 0xbe, 0xda, 0xc6, 0x4d, 0x3c, 0x54, 0xc6, 0xed, 0xbd, 0xdf, 0x89, 0x31, 0xbb, 0xcc, 0xf9, 0xe6, 0xbc, 0x18, 0x8a, 0x13, 0x3e, 0xc8, 0x44, 0xbd, 0xbc, 0xcc, 0xd8, 0x18, 0xbe, 0x5f, 0xa3, 0xf6, 0xbd, 0xf8, 0x49, 0x0b, 0xbe, 0x49, 0xba, 0x03, 0xbe, 0x18, 0xd8, 0xf5, 0xbc, 0x9e, 0x4c, 0xa5, 0x3d, 0xe5, 0x06, 0x0d, 0xbe, 0xd0, 0x5d, 0x19, 0xbe, 0x61, 0x49, 0x0e, 0xbe, 0x52, 0xd8, 0x07, 0xbc, 0xcd, 0x81, 0x8c, 0xbd, 0x6c, 0x1b, 0x82, 0x3b, 0xcd, 0x28, 0x10, 0x3b, 0x14, 0xdf, 0xf1, 0x3d, 0xd5, 0x90, 0x10, 0xbe, 0x60, 0xb7, 0x71, 0xbd, 0x1d, 0xc0, 0x02, 0x3e, 0x75, 0x29, 0x80, 0x3d, 0x90, 0xb6, 0x0c, 0xbc, 0x26, 0xd5, 0xe6, 0xbe, 0xd6, 0x8a, 0x14, 0x3e, 0xca, 0x82, 0x87, 0x3e, 0x44, 0xa3, 0x39, 0x3e, 0xb6, 0x84, 0x1d, 0xbd, 0x4a, 0x7d, 0x28, 0xbf, 0xa8, 0x9b, 0xe4, 0x3d, 0x58, 0x2c, 0xf6, 0x3d, 0x11, 0x7a, 0xa5, 0xbd, 0xd3, 0x4d, 0x8f, 0xbd, 0x10, 0xb6, 0x2b, 0xbf, 0xbd, 0xfc, 0x93, 0xbd, 0x19, 0xeb, 0x06, 0xbd, 0x26, 0x40, 0x64, 0x3e, 0xa8, 0x24, 0x37, 0x3d, 0x16, 0x95, 0xeb, 0xbd, 0x64, 0x2d, 0xc7, 0xbd, 0x58, 0x6a, 0xa1, 0x3d, 0xfe, 0x0b, 0x98, 0xbd, 0x78, 0x5a, 0x69, 0xbd, 0x41, 0x78, 0x4e, 0xbd, 0xf0, 0xa3, 0x37, 0xbc, 0x3f, 0xde, 0xc2, 0xbd, 0x12, 0xbc, 0x33, 0xbd, 0xc2, 0xa4, 0x0c, 0xbe, 0x92, 0xc6, 0x1b, 0x3c, 0xec, 0xc4, 0xf0, 0x3d, 0x2c, 0x41, 0x83, 0xbc, 0xe1, 0x3a, 0x5c, 0xbd, 0x28, 0x9d, 0xae, 0x3d, 0x09, 0x24, 0xc7, 0xbd, 0x88, 0x5f, 0x16, 0x3e, 0x28, 0xe1, 0xc1, 0x3d, 0x56, 0x23, 0x38, 0x3c, 0xe8, 0xee, 0x03, 0x3d, 0xae, 0x51, 0xdb, 0xbd, 0xa2, 0x75, 0xbd, 0x3d, 0xa2, 0xd1, 0x27, 0xbc, 0x38, 0x8f, 0x88, 0xbd, 0x66, 0x25, 0x95, 0x3d, 0x1d, 0xe7, 0x21, 0xbc, 0xfc, 0x03, 0x5b, 0xbd, 0x70, 0x07, 0xb6, 0x3b, 0x17, 0x8f, 0x34, 0xbb, 0xd0, 0xde, 0x09, 0xbd, 0x7b, 0x02, 0xdd, 0xbd, 0x2c, 0xf3, 0x16, 0x3d, 0xed, 0x58, 0xa9, 0xbd, 0xd6, 0xcb, 0x19, 0xbd, 0x06, 0x6d, 0x63, 0xbd, 0x14, 0xca, 0xf3, 0xbe, 0xdc, 0x5b, 0x17, 0xbe, 0xdd, 0xb2, 0xc0, 0x3e, 0x50, 0xc4, 0x0c, 0x3e, 0x08, 0x0d, 0x8b, 0x3c, 0xb6, 0x1b, 0x2a, 0x3d, 0x54, 0xf4, 0x1f, 0xbd, 0x07, 0x82, 0xee, 0xbc, 0x40, 0x40, 0x02, 0x3d, 0xf4, 0x3b, 0x78, 0xbd, 0xff, 0xa7, 0xa6, 0x3b, 0x7a, 0x8d, 0xe8, 0xbd, 0x93, 0xaa, 0xd0, 0x3d, 0xfb, 0x8c, 0x4d, 0xbe, 0x6e, 0x19, 0x04, 0x3e, 0xfa, 0xc1, 0x27, 0xbf, 0x18, 0xd1, 0xa4, 0x3c, 0x7c, 0x06, 0xef, 0x3d, 0x18, 0x42, 0xcb, 0x3c, 0x36, 0x02, 0x1d, 0xbd, 0x5d, 0xf0, 0x0d, 0x3c, 0xc4, 0x11, 0x93, 0xbd, 0xdd, 0x67, 0x07, 0x3d, 0xfb, 0x0a, 0xf0, 0xbd, 0xa0, 0x7b, 0x52, 0xbc, 0x5d, 0x20, 0x49, 0xbd, 0x08, 0xcb, 0x97, 0x3c, 0x43, 0x00, 0x1c, 0x3e, 0x80, 0x02, 0x60, 0x3e, 0x5f, 0x9a, 0xac, 0xbd, 0x6d, 0xea, 0xd5, 0xbd, 0x20, 0xf8, 0xbc, 0x3c, 0x1e, 0x45, 0x49, 0xbd, 0xd4, 0xb4, 0x32, 0xbd, 0x1c, 0xbd, 0x5b, 0xbd, 0x41, 0x24, 0x9b, 0xbd, 0x24, 0xf6, 0x51, 0x3d, 0x4e, 0x81, 0xdd, 0x3d, 0x54, 0xad, 0x38, 0x3c, 0x9c, 0x42, 0x0a, 0x3e, 0xef, 0x2c, 0xdd, 0xbd, 0x69, 0x6c, 0xa8, 0xbd, 0x0c, 0x01, 0x3a, 0x3d, 0x1d, 0xf2, 0xab, 0x3c, 0x9c, 0x6c, 0xa5, 0xbd, 0x2e, 0x04, 0x27, 0xbc, 0x40, 0xa1, 0x10, 0x3e, 0xd4, 0xdb, 0x0a, 0x3e, 0x50, 0xdd, 0x8f, 0xbb, 0xb4, 0x69, 0x8f, 0xbd, 0x3e, 0x6a, 0xbb, 0xbd, 0x36, 0x5b, 0x29, 0xbd, 0xb6, 0x11, 0x0d, 0xbd, 0x34, 0xcf, 0xfb, 0xbc, 0xa0, 0x46, 0x6b, 0xbd, 0x06, 0x51, 0xdb, 0xbd, 0xba, 0x17, 0x94, 0x3d, 0x91, 0xd5, 0xea, 0xbd, 0xbc, 0xcf, 0xbb, 0xbd, 0x89, 0x41, 0x94, 0xbd, 0xa7, 0x05, 0x11, 0xbe, 0xcc, 0x92, 0x93, 0x3d, 0x0c, 0x4c, 0xdc, 0x3c, 0xfb, 0x8c, 0x0f, 0xbe, 0x7c, 0x60, 0x19, 0xbe, 0x80, 0x6c, 0x8f, 0xbc, 0xed, 0xf2, 0xab, 0xbd, 0x70, 0x49, 0x18, 0xbe, 0x7b, 0xa5, 0x13, 0xbe, 0x40, 0xf7, 0x9f, 0x3b, 0xce, 0xb3, 0x09, 0xbd, 0x38, 0x00, 0xab, 0x3d, 0x29, 0xe9, 0xd9, 0x3d, 0x2b, 0x64, 0xd9, 0xbe, 0xfc, 0xf4, 0x25, 0x3d, 0x24, 0x21, 0x41, 0xbe, 0x70, 0x07, 0xcc, 0x3d, 0x82, 0xca, 0xac, 0x3d, 0x5f, 0x12, 0x56, 0xbd, 0xa0, 0x7a, 0x58, 0xbc, 0x75, 0x7d, 0x9e, 0xba, 0xd8, 0xb5, 0x35, 0x3d, 0x67, 0x8b, 0x97, 0x3b, 0xb4, 0x90, 0xb0, 0xbd, 0x0e, 0x91, 0x84, 0xbd, 0xac, 0x83, 0xb0, 0x3b, 0x20, 0xe7, 0x72, 0x3c, 0x4c, 0xdb, 0x96, 0x3c, 0x7b, 0xac, 0xb7, 0xbc, 0xa4, 0xb9, 0xff, 0x3d, 0x99, 0x20, 0x9b, 0xbd, 0x86, 0x43, 0x12, 0xbd, 0x95, 0xbb, 0xbf, 0x3d, 0x70, 0x4a, 0x0e, 0xbe, 0xd0, 0xb2, 0xd6, 0x3d, 0x0c, 0x40, 0x8f, 0xbd, 0x8e, 0x9e, 0x0a, 0x3e, 0x04, 0xcf, 0x78, 0x3d, 0x30, 0x27, 0xef, 0xbd, 0xf2, 0xff, 0x8c, 0x3d, 0xdc, 0xfb, 0xe8, 0xbe, 0x92, 0xab, 0xa7, 0x3d, 0xf5, 0x6b, 0xbb, 0xbd, 0x69, 0x43, 0xaf, 0xbd, 0x9a, 0x8d, 0x15, 0x3e, 0x78, 0xde, 0x89, 0xbd, 0x80, 0xad, 0x42, 0xbc, 0x72, 0x55, 0x96, 0xbc, 0xa6, 0x20, 0x60, 0xbe, 0x9c, 0x28, 0xb3, 0x3d, 0x13, 0xd0, 0x13, 0xbd, 0x0a, 0xe2, 0xa5, 0xbd, 0x8c, 0xdb, 0xe2, 0xbd, 0x34, 0x0a, 0x2c, 0x3c, 0x58, 0xc3, 0xe0, 0xbc, 0x84, 0xbc, 0x10, 0xbe, 0x3c, 0xc0, 0xd3, 0x3d, 0x61, 0x89, 0x9d, 0x3d, 0xc9, 0xb8, 0xef, 0xbc, 0xa0, 0x62, 0xa8, 0x3b, 0x37, 0xe2, 0xcd, 0xbd, 0x01, 0x81, 0xad, 0xbd, 0xb0, 0x37, 0x8e, 0x3c, 0xd8, 0x6d, 0x5d, 0x3c, 0xfc, 0x17, 0xfd, 0x3d, 0x25, 0x31, 0x16, 0xbc, 0x6c, 0x41, 0xec, 0xbd, 0x49, 0x6b, 0xbf, 0xbc, 0x27, 0x3c, 0xf6, 0xbd, 0x10, 0xa9, 0xfe, 0xbd, 0x81, 0x32, 0x11, 0xbe, 0x16, 0x5d, 0x17, 0x3e, 0xb0, 0x61, 0x8b, 0xba, 0x71, 0x9f, 0x04, 0xbe, 0x38, 0x9c, 0xe1, 0x3c, 0x7a, 0x5f, 0x82, 0xbd, 0xac, 0x6c, 0x04, 0x3d, 0x2c, 0xd2, 0x32, 0xbd, 0xa7, 0x59, 0x95, 0xbd, 0xc8, 0x5c, 0xde, 0x3d, 0x41, 0xd5, 0xc0, 0xbc, 0x30, 0x37, 0x7c, 0x3c, 0x32, 0x09, 0x2d, 0x3d, 0x6d, 0x8b, 0x5d, 0xbe, 0x68, 0x22, 0xf6, 0x3d, 0x01, 0x98, 0x08, 0xbf, 0x60, 0x7b, 0x0d, 0xbe, 0x5f, 0x80, 0xf8, 0x3e, 0x79, 0xb0, 0x97, 0xbd, 0x16, 0x88, 0xc8, 0xbd, 0xa7, 0x0b, 0x6c, 0xbf, 0x90, 0xb0, 0x43, 0xbd, 0x35, 0x8e, 0x58, 0x3e, 0x97, 0xdf, 0x7f, 0x3c, 0x19, 0x14, 0xe9, 0xbd, 0xc7, 0xed, 0x80, 0xba, 0xfa, 0xe1, 0xe9, 0xbd, 0x0a, 0x65, 0x1d, 0xbe, 0x4a, 0xea, 0x1d, 0xbe, 0x87, 0x57, 0x08, 0xbe, 0x69, 0x46, 0x48, 0xbd, 0x64, 0xd7, 0x31, 0x3d, 0x30, 0x7e, 0x17, 0x3e, 0x69, 0x0d, 0x61, 0x3e, 0x74, 0x61, 0x11, 0x3d, 0xdb, 0x12, 0x55, 0xbf, 0xa0, 0x4f, 0xbf, 0x3c, 0x50, 0x41, 0x09, 0x3e, 0xda, 0x13, 0x0f, 0xbd, 0x9d, 0x50, 0xbe, 0xbd, 0x5a, 0x70, 0x5f, 0xbe, 0x0c, 0x82, 0xbd, 0x3d, 0x7c, 0xe2, 0xfb, 0x3d, 0xdb, 0xe9, 0xd2, 0x3c, 0x35, 0xa4, 0x87, 0xbd, 0xc6, 0xdd, 0x09, 0xbe, 0x18, 0x49, 0x09, 0x3e, 0x23, 0xde, 0x61, 0xbc, 0x5d, 0x13, 0x08, 0x3d, 0x22, 0x53, 0x19, 0x3e, 0xcc, 0x4b, 0xf9, 0xbc, 0xf8, 0x50, 0x73, 0x3d, 0xca, 0xa7, 0x03, 0xbd, 0xc4, 0xb7, 0xc7, 0xbd, 0x90, 0x71, 0x41, 0x3c, 0x1f, 0x9b, 0x1a, 0xbb, 0x00, 0x3d, 0xe7, 0x3d, 0xf1, 0xe0, 0x0a, 0xbe, 0xdf, 0x4e, 0x0d, 0xbe, 0x20, 0xa4, 0x06, 0x3e, 0x40, 0x80, 0xaf, 0x3b, 0xf2, 0x0f, 0x11, 0xbe, 0xc0, 0xda, 0x8c, 0xbc, 0xfe, 0x58, 0xe0, 0xbc, 0xdc, 0xb5, 0xde, 0x3d, 0x1e, 0x05, 0x64, 0xbe, 0x12, 0xc8, 0x19, 0xbd, 0x55, 0xdd, 0xd2, 0xbc, 0x9e, 0xe0, 0x99, 0x3d, 0xde, 0xa0, 0x6e, 0xbd, 0xa9, 0xf0, 0x3b, 0xbc, 0x70, 0x05, 0xee, 0xbd, 0x61, 0xf2, 0xe8, 0xbd, 0x0b, 0xda, 0xf9, 0xbd, 0xa0, 0xe3, 0xef, 0x3c, 0xc7, 0x16, 0xac, 0x3d, 0x8a, 0xb7, 0x7e, 0xbd, 0x7f, 0x71, 0x10, 0xbe, 0xe4, 0x23, 0x1f, 0xbf, 0xa0, 0x07, 0x9b, 0x3d, 0xd3, 0x8d, 0x06, 0x3c, 0x36, 0x64, 0x05, 0x3e, 0x0a, 0x1d, 0xc4, 0xbd, 0x8a, 0xf9, 0x0d, 0xbd, 0x98, 0x0a, 0xa0, 0x3d, 0x83, 0x79, 0x31, 0xbd, 0x7d, 0xa5, 0x8e, 0xbd, 0x69, 0x78, 0xf4, 0x3d, 0x3a, 0x9d, 0x39, 0x3e, 0xee, 0x07, 0xe5, 0xbd, 0xc1, 0xfc, 0x38, 0x3b, 0x50, 0xbf, 0xf6, 0x3d, 0x54, 0x7c, 0xa1, 0xbd, 0xac, 0xa3, 0x82, 0xba, 0x67, 0x2f, 0xd1, 0xbd, 0x24, 0x2a, 0xed, 0xbb, 0x36, 0x72, 0x0d, 0xbd, 0x1c, 0x26, 0xa5, 0xbd, 0x13, 0x74, 0xcb, 0xbc, 0x82, 0x96, 0xba, 0xbd, 0x15, 0x54, 0x11, 0xbe, 0x94, 0x33, 0x16, 0xbe, 0x41, 0x73, 0xca, 0xbc, 0x4d, 0xb0, 0x0f, 0x3d, 0x80, 0x31, 0xaa, 0xbc, 0x62, 0x90, 0x74, 0xbe, 0x44, 0xfb, 0x1f, 0x3d, 0xaa, 0x9b, 0xa0, 0x3e, 0x0a, 0x71, 0x75, 0xbd, 0x90, 0x3c, 0x33, 0x3d, 0xe2, 0x62, 0x46, 0xbe, 0xc0, 0x8d, 0x5d, 0xbd, 0x75, 0xc6, 0x5e, 0x3b, 0x82, 0x83, 0x85, 0x3d, 0xeb, 0x74, 0xf0, 0xbd, 0xfa, 0xf9, 0xff, 0xff, 0x10, 0x00, 0x00, 0x00, 0x06, 0x00, 0x00, 0x00, 0x14, 0x00, 0x00, 0x00, 0x34, 0x00, 0x00, 0x00, 0x02, 0x00, 0x00, 0x00, 0x00, 0x01, 0x00, 0x00, 0x05, 0x00, 0x00, 0x00, 0x1c, 0x00, 0x00, 0x00, 0x53, 0x65, 0x71, 0x75, 0x65, 0x6e, 0x74, 0x69, 0x61, 0x6c, 0x2d, 0x4e, 0x4e, 0x2f, 0x64, 0x65, 0x6e, 0x73, 0x65, 0x5f, 0x31, 0x2f, 0x4d, 0x61, 0x74, 0x4d, 0x75, 0x6c, 0x00, 0x00, 0x00, 0x00, 0x80, 0xf9, 0xff, 0xff, 0x6a, 0xfa, 0xff, 0xff, 0x04, 0x00, 0x00, 0x00, 0x64, 0x00, 0x00, 0x00, 0xcf, 0x8f, 0x9a, 0x3e, 0x0f, 0x0c, 0xd5, 0x3d, 0x9d, 0x84, 0x1e, 0xbf, 0x85, 0xc3, 0x8f, 0x3d, 0x11, 0xd9, 0x54, 0xc0, 0xb0, 0x2b, 0xbb, 0xbd, 0x40, 0x75, 0xbe, 0x3e, 0x98, 0x5a, 0xb0, 0x3e, 0x24, 0x8b, 0x42, 0xbf, 0xe8, 0x6b, 0x91, 0x3d, 0x58, 0x77, 0xc8, 0xbe, 0x24, 0x50, 0x10, 0x3f, 0xba, 0x8c, 0x07, 0xbf, 0x6a, 0x92, 0x9b, 0xbc, 0x12, 0xf8, 0x1a, 0xbf, 0xb8, 0xfd, 0xba, 0xbe, 0x1e, 0x4f, 0x34, 0xbf, 0x61, 0xac, 0x56, 0x3e, 0x5d, 0x0e, 0xca, 0x3d, 0xfc, 0x8a, 0x62, 0x40, 0x7f, 0xf2, 0x38, 0xbf, 0x81, 0x8e, 0xdb, 0xbe, 0x08, 0xb7, 0xec, 0x3d, 0x28, 0x7d, 0xee, 0xbe, 0x18, 0x42, 0x7e, 0x3e, 0xb2, 0xfa, 0xff, 0xff, 0x10, 0x00, 0x00, 0x00, 0x05, 0x00, 0x00, 0x00, 0x14, 0x00, 0x00, 0x00, 0x30, 0x00, 0x00, 0x00, 0x02, 0x00, 0x00, 0x00, 0x05, 0x00, 0x00, 0x00, 0x05, 0x00, 0x00, 0x00, 0x1a, 0x00, 0x00, 0x00, 0x53, 0x65, 0x71, 0x75, 0x65, 0x6e, 0x74, 0x69, 0x61, 0x6c, 0x2d, 0x4e, 0x4e, 0x2f, 0x64, 0x65, 0x6e, 0x73, 0x65, 0x2f, 0x4d, 0x61, 0x74, 0x4d, 0x75, 0x6c, 0x00, 0x00, 0x34, 0xfa, 0xff, 0xff, 0x1e, 0xfb, 0xff, 0xff, 0x04, 0x00, 0x00, 0x00, 0x0c, 0x00, 0x00, 0x00, 0x0a, 0xbd, 0x80, 0x3f, 0x3c, 0x7e, 0x1f, 0x3f, 0x37, 0x38, 0xc2, 0xbf, 0x0e, 0xfb, 0xff, 0xff, 0x10, 0x00, 0x00, 0x00, 0x04, 0x00, 0x00, 0x00, 0x10, 0x00, 0x00, 0x00, 0x48, 0x00, 0x00, 0x00, 0x01, 0x00, 0x00, 0x00, 0x03, 0x00, 0x00, 0x00, 0x35, 0x00, 0x00, 0x00, 0x53, 0x65, 0x71, 0x75, 0x65, 0x6e, 0x74, 0x69, 0x61, 0x6c, 0x2d, 0x4e, 0x4e, 0x2f, 0x64, 0x65, 0x6e, 0x73, 0x65, 0x5f, 0x32, 0x2f, 0x42, 0x69, 0x61, 0x73, 0x41, 0x64, 0x64, 0x2f, 0x52, 0x65, 0x61, 0x64, 0x56, 0x61, 0x72, 0x69, 0x61, 0x62, 0x6c, 0x65, 0x4f, 0x70, 0x2f, 0x72, 0x65, 0x73, 0x6f, 0x75, 0x72, 0x63, 0x65, 0x00, 0x00, 0x00, 0xa8, 0xfa, 0xff, 0xff, 0x92, 0xfb, 0xff, 0xff, 0x04, 0x00, 0x00, 0x00, 0x00, 0x04, 0x00, 0x00, 0xa8, 0xae, 0xcd, 0xb8, 0x91, 0x75, 0x91, 0xbd, 0xb8, 0x59, 0x4a, 0xbf, 0x35, 0x35, 0x85, 0xbc, 0xd6, 0x10, 0x04, 0xbd, 0x4b, 0x4a, 0x8b, 0xbf, 0x58, 0xed, 0x2a, 0xbf, 0x3f, 0x29, 0x9e, 0xb6, 0x1d, 0x0b, 0xff, 0xbc, 0x8d, 0x82, 0x08, 0xc0, 0x88, 0xfb, 0xcc, 0xbb, 0x91, 0x09, 0x8a, 0xbe, 0x16, 0x88, 0x86, 0xbd, 0xf9, 0x18, 0xe5, 0x3d, 0xc4, 0xdb, 0x33, 0xbf, 0xa9, 0x6e, 0xe6, 0xb8, 0x00, 0x00, 0x00, 0x00, 0x00, 0x00, 0x00, 0x00, 0xf8, 0x35, 0x28, 0x3f, 0x35, 0x37, 0x82, 0x3e, 0x0b, 0x92, 0x0c, 0xbe, 0x80, 0xc1, 0xba, 0x3e, 0xf7, 0x1f, 0xa3, 0x3f, 0x05, 0x76, 0x9d, 0xbf, 0x5d, 0x8a, 0x16, 0x3f, 0x30, 0xb6, 0x03, 0x3f, 0x74, 0x16, 0xdb, 0xbf, 0xe0, 0x8f, 0xab, 0xbe, 0x6d, 0x59, 0x82, 0xbe, 0xa0, 0x1e, 0xd6, 0xb6, 0x2f, 0xa8, 0x37, 0xbe, 0x6a, 0x7e, 0xfc, 0xbf, 0xc7, 0xb5, 0xf2, 0x3e, 0xdb, 0x32, 0x74, 0xb8, 0xce, 0x5b, 0xd7, 0xbd, 0x65, 0x61, 0x99, 0xb8, 0xc4, 0xb2, 0x53, 0xbd, 0x6e, 0x6c, 0x4d, 0xbf, 0xc1, 0xa7, 0xaa, 0x3f, 0xf8, 0x9b, 0xf1, 0xbc, 0x01, 0xb5, 0xdd, 0xbc, 0x8d, 0x28, 0x00, 0xc0, 0x00, 0x00, 0x00, 0x00, 0x00, 0x00, 0x00, 0x00, 0xd2, 0xbb, 0x54, 0xb8, 0x64, 0x97, 0xc1, 0x3e, 0xce, 0x49, 0x80, 0x3f, 0x81, 0x70, 0x32, 0xb8, 0x16, 0x4b, 0x15, 0xbf, 0x37, 0x05, 0x91, 0xbf, 0x00, 0x00, 0x00, 0x00, 0x9d, 0x40, 0xa0, 0xbd, 0xed, 0x27, 0x5c, 0xbe, 0xb7, 0x67, 0xaa, 0xbe, 0x00, 0x00, 0x00, 0x00, 0x0a, 0xd1, 0x41, 0xbd, 0x8c, 0x26, 0xce, 0xbf, 0xc1, 0x3c, 0x8b, 0x3e, 0x00, 0x00, 0x00, 0x00, 0xa8, 0x92, 0xb2, 0x3e, 0x80, 0x8f, 0x7f, 0xbd, 0xe0, 0xd0, 0x6e, 0x3e, 0xda, 0x5c, 0x1f, 0xbc, 0x6c, 0x9f, 0x41, 0xbe, 0xff, 0x28, 0xae, 0xbe, 0xd0, 0x94, 0x24, 0xbf, 0xd5, 0x03, 0x51, 0x3d, 0x1a, 0xd7, 0xcd, 0x3f, 0x02, 0x58, 0x9f, 0xba, 0x5b, 0x23, 0x7b, 0xbf, 0x57, 0x6d, 0x70, 0xbd, 0x00, 0x00, 0x00, 0x00, 0xdc, 0xab, 0xb7, 0xbd, 0x2e, 0x1d, 0xc0, 0xbc, 0x79, 0xb4, 0x79, 0x3d, 0x9e, 0xae, 0xca, 0x3e, 0x74, 0x65, 0x26, 0xbe, 0x00, 0x00, 0x00, 0x00, 0xab, 0x09, 0x00, 0xbe, 0xbf, 0xab, 0xef, 0xbc, 0xc3, 0x63, 0xb7, 0x3e, 0xd3, 0x81, 0x6d, 0xbf, 0x4e, 0xca, 0x94, 0xbf, 0xcc, 0x5e, 0xf2, 0xbf, 0x63, 0x19, 0xb4, 0xb7, 0xb7, 0xc9, 0x09, 0x3e, 0x7a, 0x03, 0xe2, 0xbd, 0xaf, 0x8b, 0x43, 0xbd, 0x41, 0x32, 0xac, 0xbf, 0x1b, 0xd4, 0x96, 0xbf, 0x74, 0x19, 0x59, 0xbf, 0xfd, 0x37, 0x33, 0xbc, 0xf8, 0x0b, 0xb5, 0xbf, 0x00, 0x00, 0x00, 0x00, 0x82, 0x69, 0x9b, 0xbd, 0x64, 0xa8, 0x33, 0x3e, 0xa7, 0x80, 0xb1, 0xbf, 0x84, 0x8d, 0x3e, 0xba, 0x74, 0x32, 0x23, 0x3e, 0xfd, 0x05, 0x22, 0xb7, 0x2b, 0xce, 0x02, 0xc0, 0x00, 0x00, 0x00, 0x00, 0xfe, 0x10, 0xfc, 0xbf, 0x04, 0x4a, 0x38, 0xbd, 0x10, 0x05, 0x85, 0xbf, 0xe6, 0x13, 0xcb, 0xbe, 0x80, 0x48, 0xa7, 0x3f, 0xe4, 0x1d, 0x1d, 0xbe, 0xe7, 0x24, 0x25, 0xbf, 0xc0, 0xec, 0x0c, 0xbd, 0x8c, 0xfc, 0x3d, 0xbd, 0x70, 0x60, 0x56, 0xbf, 0x93, 0x55, 0x01, 0x3f, 0xc0, 0x43, 0xc3, 0xbc, 0x00, 0x00, 0x00, 0x00, 0x77, 0x38, 0x88, 0xbf, 0x8f, 0xfe, 0xee, 0x3e, 0xf8, 0x3a, 0x0a, 0x3e, 0xdf, 0x0e, 0xcc, 0x3e, 0xe5, 0xf6, 0xce, 0xb7, 0x52, 0x33, 0x10, 0x3f, 0xd5, 0x3d, 0xb8, 0xb7, 0x19, 0xc7, 0xf1, 0xbc, 0x06, 0xd0, 0x16, 0xbe, 0xa4, 0x21, 0x5d, 0xba, 0xd5, 0x9d, 0xce, 0x3e, 0xb5, 0x2d, 0xc7, 0xbe, 0xd7, 0x07, 0x35, 0xbd, 0x26, 0x79, 0x19, 0x3f, 0x7d, 0x55, 0x6f, 0xbf, 0x7f, 0xa2, 0x84, 0xbf, 0x4d, 0xcb, 0x42, 0xbe, 0x67, 0x7d, 0xf0, 0x3d, 0xbb, 0xce, 0x25, 0xbf, 0x00, 0x00, 0x00, 0x00, 0xe2, 0xd6, 0xb7, 0x3f, 0x2a, 0x61, 0x0c, 0xbf, 0x1c, 0x63, 0xb4, 0xbf, 0x95, 0x7f, 0x10, 0xbe, 0x39, 0xc5, 0xdc, 0x3e, 0x35, 0x22, 0xb5, 0xbd, 0xcf, 0x68, 0x6c, 0xbd, 0x7c, 0xe6, 0x10, 0xbd, 0x92, 0x8e, 0xa9, 0xb6, 0xd2, 0xe3, 0x75, 0xbe, 0x17, 0x0a, 0x64, 0xbd, 0x7b, 0x28, 0x8e, 0xbd, 0xee, 0x12, 0xaa, 0xbd, 0xd3, 0xdd, 0xb6, 0xbe, 0xb7, 0x3c, 0x98, 0x3e, 0xc0, 0x2d, 0x5c, 0xbd, 0x00, 0x00, 0x00, 0x00, 0x6a, 0xd5, 0xfc, 0x3e, 0x2f, 0xf1, 0xb1, 0xbc, 0x6e, 0xc5, 0xb7, 0xb6, 0x8d, 0xb2, 0xaf, 0x3f, 0x67, 0x49, 0xc0, 0x3e, 0x18, 0x5a, 0x05, 0xc0, 0x55, 0x52, 0x6e, 0xbf, 0x0c, 0xef, 0x42, 0x3f, 0x34, 0x60, 0xf2, 0xbc, 0x00, 0x00, 0x00, 0x00, 0xac, 0xbd, 0x4a, 0xbe, 0xe4, 0x09, 0x64, 0xbf, 0x00, 0x00, 0x00, 0x00, 0xb9, 0x92, 0x17, 0xbd, 0xef, 0x5e, 0xff, 0xbc, 0x60, 0x3d, 0x64, 0xbe, 0x13, 0xe4, 0xa0, 0x3d, 0x05, 0x98, 0x8f, 0xb6, 0x00, 0x00, 0x00, 0x00, 0xd5, 0x38, 0x0c, 0x3e, 0x77, 0xbe, 0xbd, 0x3e, 0xcc, 0xe5, 0x8d, 0xbd, 0x09, 0xcc, 0x66, 0xbb, 0xf8, 0x80, 0xc1, 0x3f, 0x3d, 0xa5, 0xe5, 0xbc, 0x20, 0x59, 0x37, 0x3f, 0x0f, 0x8a, 0x40, 0xbe, 0xcb, 0x9d, 0x69, 0xbe, 0x9f, 0x1d, 0x7a, 0xbf, 0xcc, 0x69, 0x05, 0x3e, 0x13, 0x60, 0xfe, 0xbc, 0xa8, 0xc4, 0xef, 0xbc, 0x0b, 0xd0, 0xc4, 0x3e, 0x68, 0x14, 0xc8, 0x3f, 0xe7, 0xb1, 0x82, 0xbe, 0xf1, 0x23, 0xd3, 0x3e, 0x00, 0x00, 0x00, 0x00, 0x3a, 0x45, 0x7e, 0xbd, 0x0b, 0x03, 0xd4, 0xbd, 0xf6, 0x7d, 0xe2, 0x3e, 0x05, 0x0c, 0x90, 0xbf, 0x00, 0x00, 0x00, 0x00, 0x00, 0x00, 0x00, 0x00, 0x5f, 0x6f, 0x55, 0xbf, 0xc2, 0x46, 0x1d, 0x3d, 0xb3, 0x87, 0x44, 0x3e, 0xab, 0x8e, 0x3b, 0xbe, 0xfb, 0x97, 0xaf, 0x3e, 0x3f, 0x1f, 0xe0, 0x3e, 0xfe, 0xe4, 0xe8, 0xb8, 0xe5, 0x02, 0x7a, 0xbf, 0x05, 0x4e, 0x08, 0xba, 0x9c, 0xf6, 0xef, 0xbc, 0xab, 0x66, 0xbc, 0xbf, 0x85, 0x66, 0xd1, 0x3e, 0x63, 0xfe, 0x22, 0x3e, 0x11, 0xf0, 0x02, 0xc0, 0x7a, 0x58, 0xfd, 0xbe, 0xe9, 0x09, 0x2c, 0xbe, 0xd0, 0x35, 0x81, 0xbf, 0x13, 0x85, 0xaf, 0x3f, 0x00, 0x00, 0x00, 0x00, 0xea, 0xb4, 0x95, 0xbe, 0x77, 0x87, 0xba, 0xb6, 0xbf, 0x9d, 0xca, 0xbb, 0x00, 0x00, 0x00, 0x00, 0xcc, 0x97, 0x6b, 0xb7, 0x90, 0x18, 0x22, 0x3f, 0x00, 0x00, 0x00, 0x00, 0xbc, 0x38, 0xc5, 0x3f, 0x02, 0x7b, 0x46, 0x3f, 0xd5, 0xd5, 0x30, 0xbe, 0xfd, 0x72, 0x81, 0xbf, 0xc5, 0xb9, 0x7e, 0x3e, 0x9c, 0xce, 0x31, 0xbe, 0x45, 0x5b, 0x55, 0x3e, 0x56, 0xb1, 0x45, 0x3e, 0x7b, 0x9d, 0xb2, 0xbe, 0x17, 0x1f, 0x7d, 0xb6, 0x5c, 0xb6, 0x2e, 0xbd, 0x27, 0x8d, 0x60, 0xbf, 0x16, 0x1d, 0x34, 0xbd, 0x00, 0x00, 0x00, 0x00, 0xd8, 0xe2, 0xba, 0xbc, 0x33, 0x3b, 0x4e, 0x3e, 0xa4, 0xfa, 0x00, 0x3f, 0x4c, 0xca, 0x27, 0xbd, 0x17, 0x52, 0xaa, 0x3f, 0x96, 0xdd, 0x46, 0xbe, 0x63, 0xe5, 0x9d, 0xbe, 0x50, 0x92, 0x4d, 0xb7, 0x00, 0x00, 0x00, 0x00, 0xb6, 0xc0, 0xad, 0xbd, 0x13, 0xa0, 0x2a, 0xbf, 0x94, 0x18, 0xbf, 0xbd, 0x6d, 0xd4, 0x34, 0xbf, 0xca, 0x98, 0xab, 0x3e, 0xc4, 0x31, 0x38, 0xbf, 0x90, 0xdf, 0xb2, 0x3f, 0xdb, 0x4d, 0x6e, 0xbf, 0xc0, 0x45, 0x99, 0xb7, 0xa8, 0x08, 0x17, 0xbd, 0x19, 0x9b, 0x0a, 0x3d, 0xcb, 0xe3, 0xd2, 0xbd, 0x76, 0xff, 0xff, 0xff, 0x10, 0x00, 0x00, 0x00, 0x03, 0x00, 0x00, 0x00, 0x10, 0x00, 0x00, 0x00, 0x4c, 0x00, 0x00, 0x00, 0x01, 0x00, 0x00, 0x00, 0x00, 0x01, 0x00, 0x00, 0x35, 0x00, 0x00, 0x00, 0x53, 0x65, 0x71, 0x75, 0x65, 0x6e, 0x74, 0x69, 0x61, 0x6c, 0x2d, 0x4e, 0x4e, 0x2f, 0x64, 0x65, 0x6e, 0x73, 0x65, 0x5f, 0x31, 0x2f, 0x42, 0x69, 0x61, 0x73, 0x41, 0x64, 0x64, 0x2f, 0x52, 0x65, 0x61, 0x64, 0x56, 0x61, 0x72, 0x69, 0x61, 0x62, 0x6c, 0x65, 0x4f, 0x70, 0x2f, 0x72, 0x65, 0x73, 0x6f, 0x75, 0x72, 0x63, 0x65, 0x00, 0x00, 0x00, 0x04, 0x00, 0x06, 0x00, 0x04, 0x00, 0x00, 0x00, 0x00, 0x00, 0x06, 0x00, 0x08, 0x00, 0x04, 0x00, 0x06, 0x00, 0x00, 0x00, 0x04, 0x00, 0x00, 0x00, 0x14, 0x00, 0x00, 0x00, 0x9d, 0x3e, 0xe3, 0xbf, 0x00, 0x00, 0x00, 0x00, 0x48, 0xde, 0xb9, 0x3d, 0x7a, 0x84, 0x5a, 0x3f, 0x00, 0x00, 0x00, 0x00, 0x00, 0x00, 0x0e, 0x00, 0x14, 0x00, 0x04, 0x00, 0x00, 0x00, 0x08, 0x00, 0x0c, 0x00, 0x10, 0x00, 0x0e, 0x00, 0x00, 0x00, 0x10, 0x00, 0x00, 0x00, 0x02, 0x00, 0x00, 0x00, 0x10, 0x00, 0x00, 0x00, 0x44, 0x00, 0x00, 0x00, 0x01, 0x00, 0x00, 0x00, 0x05, 0x00, 0x00, 0x00, 0x33, 0x00, 0x00, 0x00, 0x53, 0x65, 0x71, 0x75, 0x65, 0x6e, 0x74, 0x69, 0x61, 0x6c, 0x2d, 0x4e, 0x4e, 0x2f, 0x64, 0x65, 0x6e, 0x73, 0x65, 0x2f, 0x42, 0x69, 0x61, 0x73, 0x41, 0x64, 0x64, 0x2f, 0x52, 0x65, 0x61, 0x64, 0x56, 0x61, 0x72, 0x69, 0x61, 0x62, 0x6c, 0x65, 0x4f, 0x70, 0x2f, 0x72, 0x65, 0x73, 0x6f, 0x75, 0x72, 0x63, 0x65, 0x00, 0xa4, 0xff, 0xff, 0xff, 0x14, 0x00, 0x18, 0x00, 0x04, 0x00, 0x00, 0x00, 0x08, 0x00, 0x0c, 0x00, 0x10, 0x00, 0x00, 0x00, 0x00, 0x00, 0x14, 0x00, 0x14, 0x00, 0x00, 0x00, 0x14, 0x00, 0x00, 0x00, 0x01, 0x00, 0x00, 0x00, 0x18, 0x00, 0x00, 0x00, 0x30, 0x00, 0x00, 0x00, 0x20, 0x00, 0x00, 0x00, 0x02, 0x00, 0x00, 0x00, 0x01, 0x00, 0x00, 0x00, 0x05, 0x00, 0x00, 0x00, 0x0b, 0x00, 0x00, 0x00, 0x64, 0x65, 0x6e, 0x73, 0x65, 0x5f, 0x69, 0x6e, 0x70, 0x75, 0x74, 0x00, 0x02, 0x00, 0x00, 0x00, 0xff, 0xff, 0xff, 0xff, 0x05, 0x00, 0x00, 0x00, 0xfc, 0xff, 0xff, 0xff, 0x04, 0x00, 0x04, 0x00, 0x04, 0x00, 0x00, 0x00};
const int model_data_len = 11068;