
#ifdef __has_attribute
#define HAVE_ATTRIBUTE(x) __has_attribute(x)
#else
#define HAVE_ATTRIBUTE(x) 0
#endif
#if HAVE_ATTRIBUTE(aligned) || (defined(__GNUC__) && !defined(__clang__))
#define DATA_ALIGN_ATTRIBUTE __attribute__((aligned(4)))
#else
#define DATA_ALIGN_ATTRIBUTE
#endif

const unsigned char model_data[] DATA_ALIGN_ATTRIBUTE = {0x1c, 0x00, 0x00, 0x00, 0x54, 0x46, 0x4c, 0x33, 0x00, 0x00, 0x12, 0x00, 0x1c, 0x00, 0x04, 0x00, 0x08, 0x00, 0x0c, 0x00, 0x10, 0x00, 0x14, 0x00, 0x00, 0x00, 0x18, 0x00, 0x12, 0x00, 0x00, 0x00, 0x03, 0x00, 0x00, 0x00, 0x14, 0x00, 0x00, 0x00, 0x1c, 0x00, 0x00, 0x00, 0xa8, 0x00, 0x00, 0x00, 0x1c, 0x00, 0x00, 0x00, 0x50, 0x00, 0x00, 0x00, 0x02, 0x00, 0x00, 0x00, 0x58, 0x03, 0x00, 0x00, 0x6c, 0x01, 0x00, 0x00, 0x01, 0x00, 0x00, 0x00, 0xb0, 0x00, 0x00, 0x00, 0x0d, 0x00, 0x00, 0x00, 0x70, 0x1f, 0x00, 0x00, 0x6c, 0x1f, 0x00, 0x00, 0x10, 0x1e, 0x00, 0x00, 0x5c, 0x1d, 0x00, 0x00, 0xe4, 0x1c, 0x00, 0x00, 0x8c, 0x0c, 0x00, 0x00, 0xb4, 0x04, 0x00, 0x00, 0xa8, 0x03, 0x00, 0x00, 0x50, 0x1f, 0x00, 0x00, 0x4c, 0x1f, 0x00, 0x00, 0x48, 0x1f, 0x00, 0x00, 0x44, 0x1f, 0x00, 0x00, 0x38, 0x00, 0x00, 0x00, 0x01, 0x00, 0x00, 0x00, 0x0c, 0x00, 0x00, 0x00, 0x08, 0x00, 0x0c, 0x00, 0x04, 0x00, 0x08, 0x00, 0x08, 0x00, 0x00, 0x00, 0x08, 0x00, 0x00, 0x00, 0x0c, 0x00, 0x00, 0x00, 0x13, 0x00, 0x00, 0x00, 0x6d, 0x69, 0x6e, 0x5f, 0x72, 0x75, 0x6e, 0x74, 0x69, 0x6d, 0x65, 0x5f, 0x76, 0x65, 0x72, 0x73, 0x69, 0x6f, 0x6e, 0x00, 0x56, 0xe2, 0xff, 0xff, 0x04, 0x00, 0x00, 0x00, 0x10, 0x00, 0x00, 0x00, 0x31, 0x2e, 0x35, 0x2e, 0x30, 0x00, 0x00, 0x00, 0x00, 0x00, 0x00, 0x00, 0x00, 0x00, 0x00, 0x00, 0x0f, 0x00, 0x00, 0x00, 0x4d, 0x4c, 0x49, 0x52, 0x20, 0x43, 0x6f, 0x6e, 0x76, 0x65, 0x72, 0x74, 0x65, 0x64, 0x2e, 0x00, 0x00, 0x00, 0x0e, 0x00, 0x18, 0x00, 0x04, 0x00, 0x08, 0x00, 0x0c, 0x00, 0x10, 0x00, 0x14, 0x00, 0x0e, 0x00, 0x00, 0x00, 0x14, 0x00, 0x00, 0x00, 0x40, 0x00, 0x00, 0x00, 0x44, 0x00, 0x00, 0x00, 0x48, 0x00, 0x00, 0x00, 0x58, 0x00, 0x00, 0x00, 0x0b, 0x00, 0x00, 0x00, 0x60, 0x1e, 0x00, 0x00, 0xec, 0x1d, 0x00, 0x00, 0xe4, 0x1c, 0x00, 0x00, 0x3c, 0x1c, 0x00, 0x00, 0xd8, 0x1b, 0x00, 0x00, 0x80, 0x0b, 0x00, 0x00, 0xa8, 0x03, 0x00, 0x00, 0x70, 0x02, 0x00, 0x00, 0x94, 0x01, 0x00, 0x00, 0xf4, 0x00, 0x00, 0x00, 0x7c, 0x00, 0x00, 0x00, 0x01, 0x00, 0x00, 0x00, 0x00, 0x00, 0x00, 0x00, 0x01, 0x00, 0x00, 0x00, 0x0a, 0x00, 0x00, 0x00, 0x04, 0x00, 0x00, 0x00, 0xf8, 0x01, 0x00, 0x00, 0x3c, 0x01, 0x00, 0x00, 0xa0, 0x00, 0x00, 0x00, 0x1c, 0x00, 0x00, 0x00, 0x04, 0x00, 0x00, 0x00, 0x6d, 0x61, 0x69, 0x6e, 0x00, 0x00, 0x0e, 0x00, 0x18, 0x00, 0x08, 0x00, 0x0c, 0x00, 0x10, 0x00, 0x07, 0x00, 0x14, 0x00, 0x0e, 0x00, 0x00, 0x00, 0x00, 0x00, 0x00, 0x09, 0x01, 0x00, 0x00, 0x00, 0x1c, 0x00, 0x00, 0x00, 0x10, 0x00, 0x00, 0x00, 0x04, 0x00, 0x00, 0x00, 0x32, 0xe3, 0xff, 0xff, 0x00, 0x00, 0x80, 0x3f, 0x01, 0x00, 0x00, 0x00, 0x0a, 0x00, 0x00, 0x00, 0x01, 0x00, 0x00, 0x00, 0x09, 0x00, 0x00, 0x00, 0x22, 0xfe, 0xff, 0xff, 0x00, 0x00, 0x00, 0x19, 0x01, 0x00, 0x00, 0x00, 0x58, 0xe2, 0xff, 0xff, 0x14, 0x00, 0x00, 0x00, 0x0b, 0x00, 0x00, 0x00, 0x24, 0x00, 0x00, 0x00, 0x30, 0x00, 0x00, 0x00, 0x10, 0x00, 0x00, 0x00, 0x02, 0x00, 0x00, 0x00, 0x01, 0x00, 0x00, 0x00, 0x03, 0x00, 0x00, 0x00, 0x02, 0x00, 0x00, 0x00, 0xff, 0xff, 0xff, 0xff, 0x03, 0x00, 0x00, 0x00, 0x08, 0x00, 0x00, 0x00, 0x49, 0x64, 0x65, 0x6e, 0x74, 0x69, 0x74, 0x79, 0x00, 0x00, 0x00, 0x00, 0x3c, 0xe2, 0xff, 0xff, 0x76, 0xff, 0xff, 0xff, 0x00, 0x00, 0x00, 0x08, 0x18, 0x00, 0x00, 0x00, 0x0c, 0x00, 0x00, 0x00, 0x04, 0x00, 0x00, 0x00, 0x54, 0xe2, 0xff, 0xff, 0x01, 0x00, 0x00, 0x00, 0x09, 0x00, 0x00, 0x00, 0x03, 0x00, 0x00, 0x00, 0x08, 0x00, 0x00, 0x00, 0x06, 0x00, 0x00, 0x00, 0x03, 0x00, 0x00, 0x00, 0xcc, 0xe2, 0xff, 0xff, 0x14, 0x00, 0x00, 0x00, 0x0a, 0x00, 0x00, 0x00, 0x24, 0x00, 0x00, 0x00, 0x44, 0x00, 0x00, 0x00, 0x10, 0x00, 0x00, 0x00, 0x02, 0x00, 0x00, 0x00, 0x01, 0x00, 0x00, 0x00, 0x03, 0x00, 0x00, 0x00, 0x02, 0x00, 0x00, 0x00, 0xff, 0xff, 0xff, 0xff, 0x03, 0x00, 0x00, 0x00, 0x1e, 0x00, 0x00, 0x00, 0x53, 0x65, 0x71, 0x75, 0x65, 0x6e, 0x74, 0x69, 0x61, 0x6c, 0x2d, 0x4e, 0x4e, 0x2f, 0x64, 0x65, 0x6e, 0x73, 0x65, 0x5f, 0x35, 0x36, 0x2f, 0x42, 0x69, 0x61, 0x73, 0x41, 0x64, 0x64, 0x00, 0x00, 0x28, 0xe4, 0xff, 0xff, 0x00, 0x00, 0x0e, 0x00, 0x14, 0x00, 0x00, 0x00, 0x08, 0x00, 0x0c, 0x00, 0x07, 0x00, 0x10, 0x00, 0x0e, 0x00, 0x00, 0x00, 0x00, 0x00, 0x00, 0x08, 0x1c, 0x00, 0x00, 0x00, 0x10, 0x00, 0x00, 0x00, 0x04, 0x00, 0x00, 0x00, 0x46, 0xff, 0xff, 0xff, 0x00, 0x00, 0x00, 0x01, 0x01, 0x00, 0x00, 0x00, 0x08, 0x00, 0x00, 0x00, 0x03, 0x00, 0x00, 0x00, 0x07, 0x00, 0x00, 0x00, 0x05, 0x00, 0x00, 0x00, 0x02, 0x00, 0x00, 0x00, 0x68, 0xe3, 0xff, 0xff, 0x14, 0x00, 0x00, 0x00, 0x09, 0x00, 0x00, 0x00, 0x24, 0x00, 0x00, 0x00, 0x60, 0x00, 0x00, 0x00, 0x10, 0x00, 0x00, 0x00, 0x02, 0x00, 0x00, 0x00, 0x01, 0x00, 0x00, 0x00, 0x0f, 0x00, 0x00, 0x00, 0x02, 0x00, 0x00, 0x00, 0xff, 0xff, 0xff, 0xff, 0x0f, 0x00, 0x00, 0x00, 0x3a, 0x00, 0x00, 0x00, 0x53, 0x65, 0x71, 0x75, 0x65, 0x6e, 0x74, 0x69, 0x61, 0x6c, 0x2d, 0x4e, 0x4e, 0x2f, 0x64, 0x65, 0x6e, 0x73, 0x65, 0x5f, 0x35, 0x35, 0x2f, 0x52, 0x65, 0x6c, 0x75, 0x3b, 0x53, 0x65, 0x71, 0x75, 0x65, 0x6e, 0x74, 0x69, 0x61, 0x6c, 0x2d, 0x4e, 0x4e, 0x2f, 0x64, 0x65, 0x6e, 0x73, 0x65, 0x5f, 0x35, 0x35, 0x2f, 0x42, 0x69, 0x61, 0x73, 0x41, 0x64, 0x64, 0x00, 0x00, 0xe0, 0xe4, 0xff, 0xff, 0x00, 0x00, 0x0e, 0x00, 0x16, 0x00, 0x00, 0x00, 0x08, 0x00, 0x0c, 0x00, 0x07, 0x00, 0x10, 0x00, 0x0e, 0x00, 0x00, 0x00, 0x00, 0x00, 0x00, 0x08, 0x24, 0x00, 0x00, 0x00, 0x18, 0x00, 0x00, 0x00, 0x0c, 0x00, 0x00, 0x00, 0x00, 0x00, 0x06, 0x00, 0x08, 0x00, 0x07, 0x00, 0x06, 0x00, 0x00, 0x00, 0x00, 0x00, 0x00, 0x01, 0x01, 0x00, 0x00, 0x00, 0x07, 0x00, 0x00, 0x00, 0x03, 0x00, 0x00, 0x00, 0x00, 0x00, 0x00, 0x00, 0x04, 0x00, 0x00, 0x00, 0x01, 0x00, 0x00, 0x00, 0x00, 0x00, 0x0a, 0x00, 0x0c, 0x00, 0x07, 0x00, 0x00, 0x00, 0x08, 0x00, 0x0a, 0x00, 0x00, 0x00, 0x00, 0x00, 0x00, 0x09, 0x01, 0x00, 0x00, 0x00, 0x40, 0xe4, 0xff, 0xff, 0x14, 0x00, 0x00, 0x00, 0x08, 0x00, 0x00, 0x00, 0x24, 0x00, 0x00, 0x00, 0x60, 0x00, 0x00, 0x00, 0x10, 0x00, 0x00, 0x00, 0x02, 0x00, 0x00, 0x00, 0x01, 0x00, 0x00, 0x00, 0x20, 0x00, 0x00, 0x00, 0x02, 0x00, 0x00, 0x00, 0xff, 0xff, 0xff, 0xff, 0x20, 0x00, 0x00, 0x00, 0x3a, 0x00, 0x00, 0x00, 0x53, 0x65, 0x71, 0x75, 0x65, 0x6e, 0x74, 0x69, 0x61, 0x6c, 0x2d, 0x4e, 0x4e, 0x2f, 0x64, 0x65, 0x6e, 0x73, 0x65, 0x5f, 0x35, 0x34, 0x2f, 0x52, 0x65, 0x6c, 0x75, 0x3b, 0x53, 0x65, 0x71, 0x75, 0x65, 0x6e, 0x74, 0x69, 0x61, 0x6c, 0x2d, 0x4e, 0x4e, 0x2f, 0x64, 0x65, 0x6e, 0x73, 0x65, 0x5f, 0x35, 0x34, 0x2f, 0x42, 0x69, 0x61, 0x73, 0x41, 0x64, 0x64, 0x00, 0x00, 0x54, 0xe4, 0xff, 0xff, 0xb2, 0xe5, 0xff, 0xff, 0x04, 0x00, 0x00, 0x00, 0xb4, 0x00, 0x00, 0x00, 0xa8, 0xa8, 0x46, 0x3f, 0x24, 0x7a, 0x84, 0xbe, 0xd3, 0x79, 0x20, 0xbf, 0x3c, 0x9f, 0x25, 0x3e, 0xd1, 0x47, 0x7c, 0x3f, 0xf4, 0xb2, 0xff, 0xbe, 0xd3, 0xb1, 0xf5, 0xbf, 0x29, 0x95, 0x78, 0xbe, 0x1e, 0x18, 0x81, 0xbf, 0x35, 0xde, 0x5f, 0xbf, 0xba, 0x19, 0x10, 0x3f, 0x4a, 0x17, 0x9a, 0x3f, 0x5c, 0x77, 0x91, 0xbf, 0x7f, 0xa1, 0xdd, 0x3f, 0x7c, 0x82, 0x0a, 0xbf, 0x13, 0x4b, 0xbc, 0x3e, 0x75, 0xb7, 0x2e, 0x3f, 0x3a, 0x68, 0x6c, 0xbf, 0x66, 0x37, 0x67, 0x3f, 0xae, 0xa0, 0x4c, 0xbf, 0x54, 0xa1, 0x9b, 0x3e, 0x75, 0x77, 0xb4, 0x3f, 0x85, 0x22, 0x9b, 0x3f, 0x7b, 0xc3, 0xb3, 0x3f, 0xac, 0x7d, 0x16, 0xbf, 0xae, 0x12, 0x09, 0xbf, 0x49, 0xea, 0x6d, 0xbe, 0x97, 0xdc, 0x84, 0xbe, 0x29, 0x7b, 0xa7, 0xbf, 0x7c, 0xa8, 0xb9, 0xbf, 0x99, 0x41, 0xcb, 0xbf, 0x87, 0x23, 0x52, 0xbf, 0x6a, 0xd8, 0x29, 0x3e, 0x51, 0xb0, 0xef, 0xbf, 0x54, 0x6b, 0xf1, 0x3d, 0x02, 0xa9, 0x6d, 0x3f, 0x9c, 0x46, 0xbe, 0x3e, 0xe9, 0xc7, 0xce, 0xbf, 0xa1, 0xb8, 0xc1, 0x3e, 0xd1, 0x96, 0x98, 0x3e, 0x3d, 0xb2, 0x69, 0xbf, 0xb5, 0xa0, 0x41, 0x3e, 0x04, 0x74, 0x6c, 0x3f, 0xba, 0xfa, 0xea, 0xbf, 0x97, 0x21, 0xac, 0x3f, 0xde, 0xe5, 0xff, 0xff, 0x10, 0x00, 0x00, 0x00, 0x07, 0x00, 0x00, 0x00, 0x14, 0x00, 0x00, 0x00, 0x34, 0x00, 0x00, 0x00, 0x02, 0x00, 0x00, 0x00, 0x03, 0x00, 0x00, 0x00, 0x0f, 0x00, 0x00, 0x00, 0x1d, 0x00, 0x00, 0x00, 0x53, 0x65, 0x71, 0x75, 0x65, 0x6e, 0x74, 0x69, 0x61, 0x6c, 0x2d, 0x4e, 0x4e, 0x2f, 0x64, 0x65, 0x6e, 0x73, 0x65, 0x5f, 0x35, 0x36, 0x2f, 0x4d, 0x61, 0x74, 0x4d, 0x75, 0x6c, 0x00, 0x00, 0x00, 0x5c, 0xe5, 0xff, 0xff, 0xba, 0xe6, 0xff, 0xff, 0x04, 0x00, 0x00, 0x00, 0x80, 0x07, 0x00, 0x00, 0xf7, 0x26, 0x68, 0xbd, 0x4e, 0x08, 0xf0, 0x3e, 0x39, 0x22, 0x87, 0xbe, 0x9a, 0x51, 0x6f, 0xbf, 0x4c, 0x27, 0x7f, 0xbe, 0xb2, 0x41, 0xe3, 0xbe, 0xaa, 0x6f, 0x30, 0xbf, 0x02, 0x53, 0xc0, 0xbe, 0x7f, 0x22, 0x83, 0x3e, 0x11, 0xda, 0xf3, 0x3e, 0x3c, 0xfa, 0x00, 0xbf, 0x96, 0x05, 0xbd, 0x3d, 0x4b, 0x27, 0xcc, 0x3d, 0x9e, 0x27, 0xcd, 0x3e, 0x46, 0xbc, 0x86, 0xbe, 0xe2, 0x7b, 0x78, 0x3f, 0xc8, 0x74, 0x8a, 0xbf, 0xe2, 0x67, 0x3a, 0x3d, 0x8c, 0x09, 0x64, 0x3f, 0x2d, 0xa7, 0x99, 0xbf, 0xee, 0x73, 0x4c, 0xbf, 0x33, 0x74, 0xab, 0x3e, 0x89, 0xc8, 0xec, 0x3e, 0xd3, 0xd9, 0x2b, 0x3e, 0x35, 0x54, 0xba, 0x3e, 0x48, 0xf0, 0x51, 0x3e, 0xcb, 0x71, 0xac, 0x3e, 0xaf, 0x5a, 0xfd, 0xbb, 0x37, 0x1a, 0x1b, 0x3f, 0x16, 0x42, 0xec, 0xbd, 0x38, 0x98, 0x75, 0x3e, 0x2d, 0x5e, 0xc9, 0xbe, 0xdf, 0x40, 0x6a, 0xbd, 0x84, 0x9f, 0x12, 0x3e, 0x64, 0x14, 0x81, 0xbf, 0x37, 0xc3, 0x03, 0xbf, 0x1d, 0xc8, 0x0a, 0xbe, 0x75, 0x85, 0x35, 0x3f, 0x12, 0x1b, 0xa2, 0xbe, 0x34, 0xc4, 0x06, 0x3f, 0x40, 0x74, 0xb5, 0x3e, 0x3c, 0x55, 0x73, 0x3f, 0xba, 0x6c, 0x0e, 0xbe, 0x65, 0xb8, 0x31, 0xbd, 0x74, 0xca, 0xca, 0x3c, 0x48, 0x1f, 0x04, 0x3e, 0x95, 0x64, 0x73, 0x3e, 0x62, 0x75, 0x99, 0x3e, 0xa2, 0x7d, 0x83, 0xbe, 0x23, 0x5a, 0x80, 0xbe, 0xb4, 0x26, 0xa6, 0x3d, 0x4c, 0x88, 0xa2, 0x3d, 0x56, 0x0a, 0xf0, 0xbe, 0x4e, 0xd5, 0x29, 0xbe, 0x57, 0x10, 0xa7, 0xbe, 0x08, 0x7b, 0xd7, 0x3e, 0x60, 0x66, 0x94, 0x3e, 0x6b, 0x1c, 0x6a, 0x3e, 0xb7, 0xff, 0x3e, 0x3f, 0x87, 0x67, 0xfa, 0x3e, 0x75, 0xae, 0x2c, 0xbe, 0x6e, 0x36, 0x3f, 0xbe, 0xc4, 0x9a, 0xf0, 0xbe, 0xc6, 0x14, 0xe1, 0x3e, 0x13, 0x89, 0xfb, 0x3e, 0x2d, 0x1a, 0x07, 0xbf, 0x82, 0x16, 0xf1, 0x3e, 0xd5, 0x91, 0xb9, 0x3e, 0xd3, 0x46, 0x05, 0x3f, 0xd0, 0x61, 0x6f, 0xbe, 0x9d, 0x08, 0xdb, 0x3e, 0x50, 0x4a, 0x62, 0xbe, 0xf1, 0x97, 0x17, 0xbe, 0x9e, 0x6c, 0x15, 0xbe, 0x70, 0xde, 0x80, 0xbd, 0xbe, 0x5f, 0x3f, 0x3f, 0xd0, 0x64, 0xa2, 0x3e, 0xb4, 0xb5, 0xa4, 0xbe, 0x96, 0x18, 0x71, 0x3d, 0xc0, 0x5b, 0x0e, 0x3c, 0x21, 0xbc, 0x19, 0x3e, 0xbb, 0xce, 0x45, 0x3e, 0x1d, 0xa4, 0x89, 0x3d, 0x8f, 0x02, 0x83, 0x3c, 0x4c, 0xb2, 0xc1, 0x3e, 0xf8, 0xd3, 0xa9, 0x3e, 0x89, 0x87, 0x89, 0x3e, 0x96, 0x8b, 0xc9, 0xbe, 0x31, 0xc4, 0x99, 0x3d, 0x4d, 0x32, 0xa4, 0xbe, 0x58, 0xe6, 0x22, 0xbd, 0xd3, 0x8d, 0xd7, 0x3a, 0x19, 0xb9, 0x81, 0x3b, 0x94, 0x60, 0xf3, 0xbe, 0x29, 0x18, 0xbb, 0xbe, 0xc0, 0x5b, 0x16, 0xbf, 0x5a, 0x3d, 0x52, 0xbe, 0xbf, 0xc5, 0x16, 0xbe, 0x3d, 0x10, 0xd7, 0xbe, 0x39, 0x92, 0x65, 0x3d, 0xda, 0x08, 0xc9, 0xbe, 0x43, 0xbb, 0x67, 0xbe, 0x6f, 0xb8, 0x41, 0xbd, 0x94, 0x38, 0x24, 0x3f, 0x61, 0x3c, 0xf6, 0x3e, 0xe1, 0x29, 0x6c, 0x3f, 0x0c, 0x6c, 0x0e, 0x3f, 0xf7, 0xaa, 0x7a, 0xbe, 0xc0, 0x12, 0x4d, 0xbf, 0x28, 0xae, 0x02, 0x3e, 0x06, 0xe1, 0x43, 0xbf, 0x98, 0x8a, 0x8a, 0x3e, 0x9d, 0x9a, 0xd9, 0xbd, 0xfd, 0x2d, 0x7f, 0x3d, 0xf5, 0x0e, 0x18, 0x3f, 0xf0, 0x98, 0xd6, 0xbd, 0x52, 0x2a, 0x44, 0x3e, 0x5f, 0xfb, 0xf0, 0x3d, 0x83, 0x0b, 0x45, 0xbf, 0x72, 0xaa, 0x99, 0xbe, 0x94, 0x1a, 0x92, 0x3d, 0x5e, 0x25, 0x8d, 0x3e, 0xd8, 0x08, 0x30, 0x3f, 0x8b, 0xbc, 0xc8, 0x3d, 0x06, 0xe5, 0x38, 0x3f, 0x6d, 0xc8, 0x20, 0x3e, 0x9f, 0xe3, 0x42, 0x3f, 0x67, 0x74, 0xc0, 0x3e, 0x5f, 0xaa, 0x92, 0x3e, 0xca, 0x54, 0x31, 0x3e, 0x81, 0xc1, 0x1a, 0x3f, 0x39, 0x7f, 0xb0, 0x3e, 0x30, 0x77, 0x4a, 0x3f, 0x80, 0xff, 0x10, 0xbf, 0x19, 0x23, 0x25, 0xbe, 0xa1, 0xcf, 0x1c, 0xbf, 0x14, 0xd9, 0x22, 0x3f, 0x48, 0x83, 0x3f, 0xbe, 0x5b, 0x65, 0x98, 0x3e, 0xe6, 0x83, 0x4e, 0x3d, 0x3e, 0x19, 0x81, 0xbe, 0x29, 0xf3, 0x63, 0xbf, 0xf8, 0x8e, 0x07, 0x3e, 0xb6, 0x7a, 0x4e, 0x3e, 0x2a, 0xa3, 0xde, 0x3e, 0xb1, 0xc4, 0xf2, 0xbc, 0xdd, 0x0b, 0xa1, 0x3e, 0xf9, 0x57, 0xb7, 0x3e, 0x9b, 0xd8, 0x59, 0xbe, 0x9b, 0x7d, 0x4a, 0x3e, 0xef, 0x3d, 0x7d, 0x3e, 0x1a, 0xd8, 0x41, 0xbe, 0x9f, 0x54, 0xc0, 0x3e, 0x20, 0xc8, 0x56, 0x3c, 0xeb, 0x93, 0x00, 0xbe, 0x5d, 0xe9, 0xfd, 0x3d, 0xa2, 0x2a, 0x3c, 0x3e, 0x5f, 0xe7, 0x0d, 0x3f, 0x4c, 0xc3, 0xe0, 0x3e, 0x88, 0x1e, 0x67, 0x3d, 0x63, 0x4f, 0xfd, 0x3e, 0xa1, 0xe2, 0x84, 0xbe, 0xc1, 0x91, 0xa2, 0x3e, 0xce, 0x28, 0xdb, 0xbd, 0xdb, 0xee, 0x87, 0x3e, 0x92, 0x2a, 0xa9, 0xbe, 0x98, 0x8f, 0xab, 0x3e, 0x6c, 0x74, 0x1e, 0xbe, 0xf8, 0xcb, 0x14, 0xbd, 0x05, 0x59, 0x11, 0x3e, 0x62, 0x10, 0x76, 0xbd, 0x86, 0xf8, 0xe8, 0x3c, 0x11, 0x7c, 0x50, 0x3e, 0x1e, 0xe5, 0x90, 0x3e, 0x35, 0x37, 0xe7, 0x3d, 0xf5, 0xec, 0x49, 0x3e, 0x12, 0x52, 0x97, 0x3e, 0xb5, 0xa8, 0xca, 0xbe, 0xbb, 0xca, 0x5b, 0xbd, 0xa4, 0xa9, 0x6b, 0x3d, 0x05, 0x69, 0xbe, 0x3d, 0xf7, 0x4a, 0x2f, 0x3f, 0xc3, 0x56, 0x79, 0x3c, 0x0d, 0x0f, 0xff, 0xbe, 0xb5, 0xc6, 0x84, 0xbd, 0xbb, 0xe1, 0x79, 0x3e, 0x18, 0x30, 0xef, 0xbe, 0x7b, 0x2e, 0xaf, 0x3e, 0xd8, 0xd5, 0x1d, 0xbe, 0xe6, 0x10, 0x4e, 0xbf, 0xfe, 0x99, 0xff, 0xbe, 0xf9, 0x0f, 0xa2, 0xbd, 0x7d, 0x89, 0x01, 0x3f, 0x49, 0x96, 0x63, 0xbf, 0xd7, 0x56, 0x42, 0xbf, 0xba, 0x29, 0x27, 0x3e, 0x8c, 0x29, 0x0c, 0xbe, 0x50, 0xad, 0x88, 0x3e, 0xf5, 0xda, 0x48, 0x3f, 0xba, 0xee, 0x0b, 0x3f, 0x25, 0xa9, 0xa7, 0x3e, 0xde, 0x99, 0x09, 0xbe, 0x8e, 0x19, 0xcf, 0xbe, 0x28, 0x3c, 0x37, 0x3e, 0x6a, 0x8f, 0xd7, 0xbd, 0x8e, 0x45, 0x89, 0x3f, 0x94, 0x99, 0x76, 0x3d, 0x85, 0x37, 0xe7, 0xbe, 0x4c, 0xd9, 0x23, 0xbf, 0xfc, 0xee, 0x47, 0x3e, 0xd1, 0x9d, 0x64, 0x3e, 0xcb, 0x6f, 0x1d, 0xbf, 0x40, 0x5f, 0x43, 0xbe, 0x98, 0x51, 0x04, 0x3c, 0xaa, 0xaf, 0xe1, 0x3e, 0x04, 0x8c, 0x1c, 0x3f, 0x2b, 0xa2, 0x0f, 0xbf, 0x5d, 0x9f, 0xf5, 0x3e, 0xd4, 0xc4, 0xe0, 0x3d, 0x04, 0xb1, 0x0c, 0x3d, 0xa0, 0x80, 0x3e, 0xbe, 0xc9, 0xf5, 0xf3, 0xbe, 0x15, 0x35, 0xa0, 0xbe, 0xaa, 0x3b, 0x25, 0xbf, 0x0c, 0xa0, 0x42, 0x3d, 0xae, 0xe3, 0xb6, 0x3e, 0xba, 0x1f, 0x8d, 0x3d, 0x1e, 0xe6, 0xf1, 0xbd, 0x5d, 0xaf, 0xaa, 0xbd, 0x54, 0xfe, 0x17, 0x3f, 0x26, 0x3e, 0x84, 0x3d, 0xda, 0x5a, 0x21, 0xbf, 0x1d, 0x3d, 0xa8, 0xbf, 0x62, 0x6b, 0x06, 0x3d, 0x85, 0xeb, 0x98, 0x3e, 0x83, 0x60, 0xff, 0xbe, 0x34, 0xc0, 0xca, 0xbe, 0x5b, 0x2a, 0x1a, 0x3f, 0x4a, 0x5f, 0x9c, 0xbe, 0xa1, 0x17, 0xe2, 0x3e, 0x97, 0xf8, 0x87, 0x3e, 0x6d, 0xa8, 0x0c, 0x3f, 0xad, 0xd3, 0x9b, 0x3d, 0xbb, 0xe4, 0x36, 0xbf, 0xc6, 0x79, 0xa6, 0x3e, 0xa7, 0x5b, 0xca, 0xbe, 0x99, 0xfd, 0x54, 0xbe, 0xc2, 0x3b, 0x98, 0xbe, 0x3d, 0x49, 0xb2, 0xbd, 0x9b, 0x7f, 0x5d, 0x3d, 0x32, 0x17, 0x0e, 0x3f, 0xa0, 0xc2, 0xa1, 0xbe, 0x43, 0x00, 0x9b, 0xbe, 0xdf, 0x93, 0x8a, 0x3e, 0x43, 0x79, 0x21, 0xbe, 0x25, 0x48, 0x6f, 0x3f, 0x65, 0x18, 0x81, 0xbf, 0xf6, 0xf5, 0xe4, 0x3e, 0xaf, 0xa1, 0x27, 0xbe, 0xa9, 0x3b, 0x74, 0x3e, 0x5c, 0xc0, 0x6a, 0xbf, 0x68, 0x92, 0xaf, 0x3e, 0x6e, 0xef, 0x32, 0xbe, 0x88, 0xda, 0xf8, 0x3e, 0x2f, 0xf7, 0x3e, 0x3c, 0x8f, 0xc8, 0x5c, 0x3f, 0x9b, 0xbc, 0xe2, 0x3e, 0x08, 0xc6, 0xe2, 0x3e, 0x95, 0xb8, 0x89, 0xbe, 0xaa, 0x09, 0x02, 0x3f, 0x5b, 0xaf, 0x3c, 0x3e, 0x9c, 0x61, 0xb8, 0xbe, 0x5e, 0x2d, 0x7c, 0x3e, 0x66, 0x48, 0x97, 0x3e, 0x48, 0x22, 0xc7, 0x3d, 0xd8, 0x47, 0xbe, 0xbe, 0xd1, 0x62, 0x23, 0x3e, 0x2e, 0x68, 0x8a, 0xbf, 0x80, 0x50, 0xb1, 0xbe, 0xa0, 0xc7, 0x5a, 0xbe, 0x62, 0xee, 0xae, 0xbe, 0xa5, 0x6c, 0x3c, 0x3f, 0x10, 0x98, 0x84, 0x3d, 0xda, 0x75, 0x96, 0x3e, 0x6d, 0x78, 0xc8, 0xbd, 0xff, 0x3d, 0x86, 0xbe, 0x1f, 0xfa, 0x70, 0x3e, 0xd1, 0xa8, 0x44, 0xbc, 0xa8, 0xf1, 0x17, 0x3e, 0xbc, 0x2a, 0x91, 0x3e, 0xea, 0x96, 0x10, 0xbe, 0x4d, 0xbf, 0x02, 0xbe, 0x2c, 0xda, 0x37, 0x3e, 0x15, 0xbd, 0x90, 0x3e, 0x2f, 0x13, 0xdd, 0x3e, 0xa6, 0x6d, 0xed, 0x3e, 0x97, 0x71, 0xf9, 0xbc, 0xc7, 0xf1, 0x8c, 0x3d, 0xb2, 0x50, 0x9a, 0xbc, 0x5a, 0xee, 0x27, 0x3f, 0x5b, 0xc2, 0x45, 0x3d, 0xba, 0x5e, 0x3a, 0xbe, 0x35, 0x8a, 0xe5, 0x3e, 0x47, 0x0d, 0x5b, 0xbf, 0x03, 0x3c, 0x3f, 0x3e, 0x2e, 0xab, 0xb1, 0xbe, 0x3e, 0x70, 0xb8, 0xbe, 0xd6, 0x16, 0xa1, 0x3e, 0x49, 0x92, 0xe5, 0x3e, 0x4a, 0x44, 0xbc, 0xbe, 0x50, 0xbc, 0xf5, 0x3e, 0x05, 0x5a, 0xf5, 0xbd, 0x70, 0x9a, 0xcf, 0xbe, 0x11, 0x36, 0xdb, 0x3e, 0x85, 0x6f, 0x94, 0xbe, 0xde, 0x89, 0xe8, 0x3d, 0xea, 0x85, 0x5b, 0xbf, 0x7e, 0xc6, 0xa8, 0xbe, 0x9c, 0xd9, 0xa9, 0x3e, 0x95, 0x70, 0xd2, 0xbe, 0x77, 0xd3, 0xfb, 0xbd, 0x8b, 0x20, 0x82, 0x3d, 0xc9, 0x4c, 0x86, 0x3e, 0x5a, 0x3f, 0x42, 0x3e, 0x0e, 0xee, 0x94, 0x3c, 0xa8, 0x49, 0x67, 0xbc, 0xfa, 0x5b, 0x44, 0xbe, 0x47, 0xe9, 0x8f, 0xbe, 0xb4, 0xcf, 0x2d, 0x3f, 0x0c, 0x0a, 0xc2, 0xbe, 0x91, 0x22, 0xdb, 0xbc, 0x1e, 0x75, 0xd2, 0xbe, 0x57, 0x58, 0xd7, 0xbe, 0xb5, 0x97, 0xb2, 0xbe, 0x0d, 0xb3, 0x6b, 0xbd, 0xf6, 0xdd, 0x11, 0x3f, 0x79, 0x2a, 0x36, 0x3d, 0x20, 0x66, 0x8b, 0x3d, 0x70, 0x76, 0x14, 0x3f, 0x7c, 0xd7, 0x82, 0xbe, 0x7f, 0x32, 0x9d, 0xbe, 0x94, 0x3d, 0x8a, 0x3c, 0x8e, 0x9c, 0x77, 0xbd, 0xcf, 0x3a, 0xc0, 0xbd, 0x24, 0x59, 0x0a, 0x3f, 0x00, 0x1c, 0x2f, 0xbe, 0x61, 0x50, 0x39, 0x3e, 0x61, 0x2c, 0x6a, 0x3e, 0xa8, 0x94, 0xcd, 0x3d, 0xbd, 0xc9, 0x37, 0x3f, 0xc9, 0x29, 0xd1, 0x3e, 0xcf, 0x93, 0xff, 0x3e, 0xad, 0x5e, 0x7f, 0x3e, 0xfc, 0x01, 0xf8, 0x3d, 0xbd, 0x45, 0x0f, 0x3f, 0xb4, 0x54, 0x00, 0x3e, 0x62, 0x0b, 0x33, 0x3e, 0x52, 0xc1, 0xd8, 0xbe, 0x22, 0x3e, 0xa7, 0xbe, 0x8d, 0xe6, 0x31, 0xbf, 0xec, 0x5f, 0x1d, 0x3f, 0x45, 0xf6, 0x02, 0xbf, 0x38, 0x9f, 0x1b, 0xbe, 0xf5, 0x08, 0x12, 0xbf, 0x27, 0xb3, 0xf7, 0xbe, 0xad, 0x9f, 0x1a, 0xbd, 0xa1, 0x85, 0xa4, 0x3e, 0xa7, 0xe3, 0x48, 0x3e, 0xb0, 0xc7, 0xa6, 0x3e, 0x73, 0x8d, 0xaf, 0x3d, 0x59, 0x21, 0xea, 0x3e, 0xb2, 0x50, 0x61, 0xba, 0xaa, 0xa3, 0xf0, 0xbd, 0xfd, 0x6d, 0x59, 0xbd, 0x3a, 0x6d, 0x34, 0x3e, 0xe0, 0x9a, 0x2c, 0x3d, 0xd4, 0x2e, 0x90, 0x3e, 0x49, 0xa9, 0xcf, 0xbe, 0x71, 0xcc, 0xd4, 0xbc, 0x33, 0xed, 0x95, 0x3e, 0xf4, 0x60, 0x92, 0x3e, 0x8d, 0xa6, 0x27, 0x3f, 0xa0, 0x70, 0xc3, 0x3d, 0xb0, 0x4b, 0x33, 0xbe, 0xeb, 0x1e, 0x04, 0xbe, 0x90, 0xb0, 0xd1, 0x3e, 0xd3, 0xda, 0x7c, 0xbe, 0x83, 0xf8, 0xe6, 0x3e, 0x26, 0x85, 0xdd, 0x3d, 0x7a, 0x79, 0xd6, 0xbe, 0xc2, 0xa0, 0x26, 0xbd, 0xf1, 0x75, 0xa7, 0x3e, 0x3b, 0x50, 0x1f, 0xbe, 0x1c, 0x4a, 0x09, 0x3e, 0xc9, 0x8f, 0x8c, 0x3e, 0xc2, 0x9b, 0x01, 0x3f, 0x85, 0x68, 0x4b, 0x3f, 0x4e, 0x85, 0x5e, 0xbd, 0xc4, 0x8f, 0x82, 0x3e, 0x16, 0x3f, 0x49, 0xbf, 0xd1, 0xbf, 0x56, 0x3e, 0xf6, 0x1d, 0x2e, 0x3e, 0x74, 0xa6, 0x81, 0xbf, 0x48, 0xaa, 0xdd, 0x3e, 0xe5, 0xe5, 0x88, 0x3e, 0x36, 0x6e, 0xa7, 0x3e, 0x7d, 0xbf, 0xb1, 0x3e, 0xbd, 0x25, 0xc1, 0xbe, 0xc8, 0x47, 0x4d, 0xbd, 0x8f, 0x4d, 0x04, 0x3f, 0x55, 0x9c, 0x7b, 0xbe, 0x39, 0x38, 0x19, 0x3e, 0x15, 0xf4, 0xa9, 0xbe, 0xe4, 0xf2, 0x4f, 0xbe, 0x9a, 0xb9, 0x4e, 0xbe, 0xee, 0x80, 0x16, 0x3d, 0xde, 0x4b, 0xaf, 0xbd, 0x4b, 0x1e, 0x34, 0xbe, 0xb2, 0x0d, 0x4f, 0x3e, 0x03, 0x98, 0xdf, 0xbe, 0xfa, 0x0e, 0xd3, 0x3e, 0xa5, 0x95, 0xcc, 0xbe, 0x3a, 0xfe, 0x01, 0x3e, 0xdc, 0x29, 0x71, 0x3e, 0x67, 0x6c, 0x2b, 0x3f, 0x8e, 0xe9, 0x05, 0x3e, 0x18, 0xe3, 0x02, 0x3f, 0x44, 0x73, 0x38, 0xbe, 0x4d, 0x13, 0x95, 0xbf, 0x68, 0xad, 0xc8, 0xbd, 0xab, 0x21, 0xdb, 0x3e, 0x62, 0x7b, 0x85, 0x3e, 0x47, 0xb3, 0x70, 0xbe, 0x2f, 0xec, 0xd7, 0x3e, 0x28, 0x54, 0xf0, 0xbe, 0xe6, 0xf6, 0x94, 0xbe, 0x85, 0x58, 0xa6, 0xbe, 0xf8, 0x7c, 0x62, 0xbe, 0xfa, 0xad, 0x85, 0xbf, 0xb0, 0xba, 0x0c, 0xbf, 0xe2, 0x53, 0x4b, 0x3f, 0xc2, 0xeb, 0x75, 0xbf, 0xc9, 0x2a, 0xb6, 0xbe, 0x35, 0x62, 0x35, 0xbe, 0x93, 0xeb, 0x2f, 0x3e, 0x84, 0xdc, 0x56, 0x3e, 0x08, 0x0a, 0x13, 0x3e, 0xab, 0xae, 0x6a, 0x3d, 0x38, 0x64, 0x00, 0x3f, 0xae, 0x0a, 0xb6, 0x3e, 0xb9, 0x74, 0x1e, 0x3f, 0x69, 0xce, 0x9e, 0x3f, 0x33, 0x7d, 0xcc, 0x3e, 0xf4, 0x2f, 0xfa, 0x3e, 0x6b, 0x8c, 0x81, 0x3e, 0x8c, 0xbe, 0x88, 0x3e, 0x06, 0x4e, 0x04, 0x3e, 0x80, 0x4d, 0x1a, 0xbe, 0xf6, 0x9a, 0x41, 0xbf, 0x0f, 0xce, 0x2b, 0x3f, 0x65, 0x31, 0xc5, 0x3d, 0x95, 0xbc, 0xa8, 0xbc, 0x1e, 0xae, 0x45, 0x3f, 0xc9, 0x0c, 0x0f, 0xbf, 0xf9, 0xa2, 0x32, 0xbf, 0x7c, 0xec, 0x01, 0xbf, 0xd8, 0x69, 0xa1, 0xbe, 0xda, 0x20, 0x89, 0x3f, 0xe5, 0xf0, 0xfd, 0x3d, 0xf4, 0xe8, 0x54, 0x3c, 0x7b, 0xe7, 0xd9, 0x3c, 0xa2, 0xfe, 0x87, 0xbe, 0x6c, 0x91, 0x33, 0x3e, 0x95, 0x8c, 0xbd, 0x3e, 0x2f, 0xc6, 0x3d, 0xbf, 0xce, 0x16, 0x8d, 0xbf, 0xde, 0xf5, 0x36, 0xbf, 0xe1, 0x83, 0xe9, 0xbe, 0xa8, 0xdf, 0x9a, 0x3d, 0xbc, 0x8e, 0x9f, 0xbd, 0xb2, 0xed, 0xff, 0xff, 0x10, 0x00, 0x00, 0x00, 0x06, 0x00, 0x00, 0x00, 0x14, 0x00, 0x00, 0x00, 0x34, 0x00, 0x00, 0x00, 0x02, 0x00, 0x00, 0x00, 0x0f, 0x00, 0x00, 0x00, 0x20, 0x00, 0x00, 0x00, 0x1d, 0x00, 0x00, 0x00, 0x53, 0x65, 0x71, 0x75, 0x65, 0x6e, 0x74, 0x69, 0x61, 0x6c, 0x2d, 0x4e, 0x4e, 0x2f, 0x64, 0x65, 0x6e, 0x73, 0x65, 0x5f, 0x35, 0x35, 0x2f, 0x4d, 0x61, 0x74, 0x4d, 0x75, 0x6c, 0x00, 0x00, 0x00, 0x30, 0xed, 0xff, 0xff, 0x8e, 0xee, 0xff, 0xff, 0x04, 0x00, 0x00, 0x00, 0x00, 0x10, 0x00, 0x00, 0xb9, 0x7e, 0xef, 0x3e, 0xb0, 0x98, 0xed, 0x3e, 0x99, 0xd4, 0x2c, 0x3e, 0x63, 0x51, 0x9b, 0x3e, 0x2f, 0xe2, 0x95, 0x3e, 0xb2, 0x23, 0x81, 0xbe, 0xbf, 0xeb, 0xd4, 0xbe, 0x02, 0xf0, 0xad, 0x3e, 0x0c, 0xdf, 0x34, 0x3d, 0x65, 0xca, 0xc6, 0x3e, 0xba, 0xe7, 0x1b, 0xbe, 0xd1, 0xba, 0xb9, 0x3d, 0x50, 0x70, 0x9b, 0xbd, 0xd7, 0xae, 0x9f, 0x3e, 0x6b, 0xcc, 0xe0, 0x3e, 0xd8, 0x71, 0xb9, 0x3e, 0xad, 0xbc, 0x49, 0xbe, 0xcd, 0x30, 0x75, 0xbe, 0xa3, 0x4a, 0x91, 0x3e, 0x4e, 0xd1, 0xc2, 0x3e, 0x79, 0x7e, 0x79, 0xbe, 0xa8, 0x19, 0x03, 0xbe, 0x23, 0x37, 0x05, 0xbf, 0x27, 0x36, 0xfc, 0xbe, 0x5c, 0x37, 0x7f, 0xbe, 0x11, 0x39, 0xa9, 0xbd, 0x51, 0x37, 0xea, 0xbb, 0xdf, 0xae, 0xc2, 0xbd, 0xb3, 0x09, 0x4d, 0x3e, 0xc2, 0x8d, 0xa1, 0x3d, 0xa5, 0x80, 0x52, 0x3e, 0x9a, 0xe4, 0xce, 0xbb, 0xcc, 0x1b, 0x83, 0x3e, 0x92, 0xf4, 0x3d, 0xbe, 0x8e, 0x4d, 0x04, 0xbf, 0xc5, 0x01, 0x6c, 0xbf, 0x29, 0xf1, 0x41, 0xbf, 0x94, 0x12, 0x83, 0xbe, 0xa5, 0x20, 0x6f, 0x3c, 0xdf, 0xf4, 0xbd, 0xbe, 0x10, 0x73, 0x9d, 0x3e, 0x46, 0x25, 0x17, 0x3f, 0xed, 0xfd, 0xc1, 0x3e, 0xd8, 0x2b, 0x58, 0x3f, 0xd7, 0x5b, 0xd1, 0x3e, 0x4d, 0xdd, 0x86, 0xbb, 0x47, 0x94, 0x6c, 0x3e, 0xb1, 0xb3, 0x08, 0xbd, 0x7c, 0x24, 0x87, 0x3d, 0xf4, 0xa6, 0xbc, 0x3e, 0xe5, 0x8a, 0x05, 0xbf, 0xc1, 0xde, 0xbc, 0xbe, 0x0e, 0x54, 0xf3, 0xbd, 0x8e, 0xdd, 0x70, 0xbe, 0xd8, 0xfc, 0xeb, 0xbe, 0x2e, 0x64, 0xe9, 0xbe, 0x0a, 0xb5, 0x3c, 0xbf, 0xc0, 0x82, 0x01, 0xbf, 0xcd, 0x18, 0xd2, 0xbe, 0xe5, 0xe3, 0x6c, 0xbe, 0x34, 0x1a, 0x24, 0xbe, 0x75, 0x81, 0x40, 0x3c, 0x0c, 0x95, 0x05, 0xbe, 0x9d, 0x38, 0xa8, 0xbd, 0x4b, 0x12, 0x58, 0x3e, 0xdc, 0x70, 0xa3, 0xbc, 0xc1, 0xe0, 0x9d, 0xbe, 0x92, 0x1e, 0xdc, 0xbe, 0x87, 0x85, 0x3e, 0xbf, 0x81, 0xe9, 0xa0, 0x3d, 0x8f, 0xf5, 0x29, 0x3d, 0xd3, 0x44, 0xc4, 0x3c, 0x20, 0x1a, 0x91, 0x3c, 0xd2, 0x22, 0x35, 0x3e, 0xcf, 0x49, 0x80, 0xbd, 0xc6, 0x9c, 0xcb, 0xbe, 0xcd, 0xb7, 0xea, 0xbe, 0x31, 0x61, 0x23, 0xbf, 0xee, 0x6f, 0x5e, 0xbe, 0xf7, 0x83, 0x63, 0x3e, 0xcc, 0xc0, 0xf4, 0xbe, 0x6c, 0xb4, 0x5f, 0xbb, 0xb2, 0xfc, 0x26, 0xbf, 0x7a, 0x8a, 0x47, 0x3e, 0x38, 0x3e, 0x03, 0xbd, 0xe3, 0xf3, 0x94, 0x3d, 0x0a, 0x77, 0x3d, 0x3e, 0x08, 0x32, 0xb6, 0x3b, 0x7a, 0x3f, 0x9e, 0x3e, 0xa6, 0x83, 0x5f, 0xbf, 0xa5, 0x15, 0x6c, 0xbe, 0xef, 0xc6, 0x02, 0xbf, 0xa3, 0x2a, 0xb2, 0x3e, 0x0e, 0x11, 0x2e, 0xbf, 0x24, 0xc2, 0xef, 0xbd, 0x43, 0x14, 0x19, 0x3d, 0xc0, 0x9d, 0x96, 0xbe, 0xfd, 0xfe, 0x61, 0xbe, 0x8c, 0x23, 0x26, 0x3e, 0x4a, 0x53, 0x88, 0x3e, 0x4b, 0x8b, 0x28, 0xbe, 0x8a, 0x8b, 0xe3, 0x3d, 0xab, 0x94, 0xae, 0x3d, 0x09, 0x12, 0xf4, 0xbe, 0x44, 0x74, 0xf1, 0xbd, 0xb5, 0x1c, 0x8d, 0x3d, 0xfb, 0xb5, 0x9e, 0xbc, 0x00, 0x75, 0x8e, 0xbe, 0x21, 0xcb, 0x57, 0xbe, 0x74, 0x19, 0x00, 0x3d, 0xfa, 0xd3, 0x11, 0x3f, 0xf2, 0x8b, 0xbe, 0x3e, 0x69, 0x3c, 0x92, 0x3e, 0x90, 0x83, 0x72, 0x3e, 0x0f, 0xf8, 0xa4, 0xbd, 0x24, 0x83, 0x1d, 0x3d, 0x16, 0xdb, 0x95, 0x3e, 0xe8, 0x3c, 0x8f, 0x3e, 0x4f, 0xfb, 0x5b, 0x3e, 0xd3, 0x96, 0xea, 0xbd, 0x68, 0xe2, 0xbe, 0x3d, 0xd4, 0xa2, 0x8c, 0xbe, 0x9c, 0xaa, 0xc9, 0xbe, 0xec, 0x76, 0xdd, 0xbc, 0x30, 0xf6, 0x58, 0xbf, 0x35, 0x26, 0xa5, 0xbe, 0x26, 0x16, 0x65, 0x3d, 0x19, 0x85, 0x4d, 0x3e, 0xb4, 0xaa, 0x73, 0xbd, 0x38, 0x28, 0x08, 0x3f, 0x65, 0x60, 0xac, 0x3e, 0x30, 0x99, 0x0f, 0x3e, 0xff, 0x71, 0x6f, 0x3e, 0xfe, 0xaa, 0x84, 0x3e, 0x06, 0xa3, 0xc6, 0xbe, 0xcc, 0xc6, 0x1e, 0xbf, 0xaf, 0xd5, 0xf6, 0xbd, 0xc7, 0x10, 0xe6, 0x3e, 0xb7, 0x02, 0x71, 0xbd, 0x7a, 0x00, 0x22, 0x3e, 0x78, 0xb1, 0x04, 0x3f, 0x6a, 0x37, 0x27, 0xbe, 0x0d, 0xf4, 0xcf, 0x3d, 0x91, 0x5b, 0x77, 0xbe, 0x26, 0x21, 0xdc, 0xbd, 0xe4, 0x7a, 0x2d, 0xbe, 0xf1, 0x0e, 0xe5, 0xbe, 0x42, 0x9b, 0xaa, 0xbe, 0xba, 0xc7, 0xd4, 0xbd, 0x5d, 0x2b, 0xfb, 0x3e, 0x60, 0xc5, 0x12, 0xbe, 0xe9, 0x5e, 0x59, 0x3e, 0x1c, 0x3d, 0xbe, 0xbd, 0x3c, 0xe4, 0x94, 0xbe, 0x05, 0x22, 0x3e, 0xbe, 0x66, 0x97, 0xb8, 0x3e, 0xad, 0xd6, 0x1d, 0x3e, 0x92, 0xdf, 0x10, 0x3e, 0xe2, 0xb2, 0x9c, 0x3d, 0x1e, 0x1a, 0x8f, 0x3d, 0x4e, 0x32, 0x0f, 0x3f, 0x4f, 0x00, 0xa2, 0x3e, 0xed, 0x06, 0xc7, 0x3e, 0xb7, 0xa9, 0x8d, 0x3e, 0x31, 0x12, 0x10, 0x3f, 0xdd, 0x88, 0xbe, 0x3e, 0x85, 0x7b, 0x84, 0x3d, 0x6b, 0x2c, 0x61, 0xbd, 0xe7, 0xda, 0x48, 0xbe, 0xfd, 0x24, 0x00, 0xbe, 0xbf, 0x80, 0x48, 0x3d, 0xe8, 0xe1, 0xbd, 0x3d, 0x79, 0x10, 0xcb, 0xbe, 0x94, 0x2a, 0x1d, 0x3e, 0x28, 0x74, 0x2f, 0x3a, 0x75, 0xc7, 0xf5, 0x3d, 0x18, 0xc6, 0xb7, 0x3e, 0x6c, 0x73, 0xbf, 0x3e, 0x74, 0x83, 0x6a, 0x3e, 0xc3, 0xde, 0x8e, 0xbd, 0x5a, 0xc1, 0xb0, 0xbd, 0xe6, 0xc8, 0x14, 0xbe, 0x1a, 0x28, 0xa0, 0xbd, 0x18, 0x6d, 0x77, 0xbe, 0x00, 0x98, 0xbd, 0x3d, 0xa7, 0x2b, 0x68, 0x3d, 0xbf, 0xf5, 0x85, 0xbe, 0x90, 0xdb, 0xd5, 0x3e, 0xf1, 0x53, 0x9a, 0x3e, 0x44, 0x36, 0x3f, 0xbe, 0x5d, 0xa6, 0xdc, 0x3e, 0x9d, 0x0b, 0x19, 0x3e, 0x95, 0xc7, 0x43, 0x3e, 0x47, 0xdf, 0x8a, 0x3c, 0xaa, 0x87, 0x8b, 0x3c, 0x5c, 0xe4, 0x0b, 0x3e, 0xd3, 0x96, 0xb3, 0xbd, 0x46, 0x4a, 0x5e, 0xbe, 0x1c, 0xdb, 0x07, 0xbe, 0x3b, 0x88, 0x0e, 0x3e, 0x68, 0x64, 0x2a, 0x3e, 0x43, 0x1a, 0x23, 0x3e, 0xa2, 0x47, 0x94, 0x3e, 0x80, 0xf0, 0xba, 0xbe, 0x89, 0xba, 0x6f, 0xbd, 0xfc, 0x65, 0x93, 0x3d, 0x25, 0x57, 0x7a, 0xbe, 0x3a, 0xc6, 0x40, 0xbe, 0x82, 0x52, 0x8f, 0x3e, 0x08, 0x6f, 0x5d, 0x3e, 0xa4, 0xec, 0xd7, 0x3e, 0xc6, 0xba, 0x0f, 0x3f, 0x94, 0xac, 0xbd, 0x3e, 0xd2, 0x21, 0x9e, 0x3e, 0xb5, 0xa7, 0x84, 0x3d, 0x62, 0x82, 0x8b, 0x3e, 0x62, 0x5b, 0xbf, 0x3d, 0x71, 0xea, 0xcd, 0x3e, 0xa0, 0x55, 0x39, 0x3e, 0xfc, 0xbb, 0x0d, 0x3e, 0xa6, 0x18, 0xa5, 0xbe, 0xbf, 0x23, 0xa7, 0xbe, 0x2c, 0x09, 0x0e, 0x3d, 0x48, 0x4f, 0xce, 0xbe, 0xeb, 0xf1, 0xd5, 0x3e, 0x0c, 0x1a, 0x2f, 0xbd, 0xc5, 0x57, 0x89, 0xbe, 0x7a, 0xc1, 0x45, 0x3e, 0x1d, 0x64, 0x3e, 0xbc, 0xde, 0x69, 0x39, 0x3e, 0x30, 0x7c, 0x1e, 0xbc, 0x71, 0x87, 0x21, 0x3f, 0x14, 0x1f, 0x21, 0xbe, 0x74, 0xf3, 0x24, 0x3f, 0x3a, 0x0a, 0x0c, 0x3e, 0x08, 0x28, 0xf7, 0x3e, 0xa7, 0xa9, 0x68, 0xbd, 0x46, 0xbe, 0x7d, 0xbe, 0x64, 0x59, 0xd1, 0xbe, 0x36, 0xf8, 0x7a, 0xbe, 0x58, 0x9c, 0xa1, 0xbe, 0x6a, 0x1c, 0xb2, 0xbe, 0x4f, 0x47, 0xb0, 0xbe, 0xf6, 0xb6, 0x05, 0xbf, 0xfd, 0x41, 0xce, 0xbe, 0x90, 0x4e, 0xd1, 0xbe, 0x03, 0xcc, 0x43, 0xbe, 0x08, 0x32, 0xb5, 0x3e, 0xe1, 0x4a, 0x83, 0x3d, 0x41, 0x1a, 0xb5, 0x3e, 0x1a, 0x38, 0x1e, 0xbe, 0x26, 0x3c, 0x0f, 0x3e, 0x83, 0x10, 0xa0, 0x3d, 0x89, 0xe8, 0x2e, 0xbd, 0x0e, 0x09, 0xe3, 0x3c, 0xda, 0xa8, 0xe8, 0xbe, 0x22, 0x83, 0x40, 0xbf, 0xd0, 0x08, 0xec, 0xbe, 0xe9, 0x85, 0xa4, 0x3e, 0xaa, 0xab, 0x55, 0xbe, 0x06, 0xc1, 0x8e, 0x3d, 0x7a, 0x85, 0x82, 0x3c, 0x7a, 0x3f, 0x29, 0x3f, 0xaf, 0x1a, 0x4e, 0x3f, 0x2e, 0xe9, 0x41, 0x3f, 0xb0, 0x73, 0x34, 0x3e, 0x1f, 0x3c, 0xf3, 0x3d, 0xba, 0xb9, 0x66, 0xbd, 0x4c, 0xba, 0x73, 0xbe, 0x23, 0x12, 0x9a, 0x3e, 0xd1, 0xdd, 0xe4, 0x3d, 0x2a, 0xa9, 0x63, 0xbd, 0xec, 0xb3, 0x22, 0xbe, 0x59, 0xeb, 0x08, 0xbe, 0x02, 0x40, 0x07, 0x3e, 0xc2, 0x5f, 0x4b, 0xbe, 0xbb, 0x8c, 0x92, 0xbd, 0x20, 0xea, 0x66, 0xbc, 0x19, 0x50, 0x80, 0xbe, 0x89, 0x8a, 0x85, 0xbe, 0x30, 0xcc, 0x56, 0xbe, 0x73, 0x49, 0xf4, 0xbe, 0x0b, 0x6f, 0xb3, 0xbe, 0x25, 0xd1, 0xf8, 0xbe, 0xf6, 0x4c, 0x81, 0x3d, 0xd1, 0xd1, 0xd3, 0xbe, 0x17, 0xd7, 0x02, 0xbe, 0x82, 0xc0, 0x0a, 0xbf, 0x84, 0x06, 0x2c, 0x3d, 0x19, 0x42, 0x6e, 0x3e, 0x1d, 0x8b, 0x80, 0xbe, 0x51, 0x0e, 0x5a, 0x3d, 0x1f, 0x0d, 0xe2, 0x39, 0x50, 0x13, 0x67, 0x3e, 0x32, 0x7b, 0x27, 0xbd, 0xf4, 0x0e, 0x9a, 0x3e, 0xb5, 0x94, 0x15, 0xbf, 0x88, 0x4d, 0x6b, 0xbf, 0xbf, 0xe5, 0x6a, 0xbf, 0x01, 0x6c, 0xf4, 0xbe, 0x24, 0xec, 0xcd, 0xbd, 0x29, 0xfc, 0xe3, 0xbb, 0x69, 0x66, 0x42, 0xbd, 0xa1, 0x46, 0xb3, 0xbd, 0xd7, 0x78, 0x1f, 0x3f, 0x75, 0x93, 0xb0, 0x3d, 0x6d, 0x8b, 0x8f, 0x3d, 0x94, 0xad, 0xde, 0xbc, 0xb7, 0xd0, 0xd6, 0x3e, 0x38, 0xa1, 0xbe, 0x3d, 0xef, 0xf1, 0x41, 0xbe, 0x02, 0x7a, 0x5a, 0x3e, 0x01, 0x3e, 0x84, 0xbe, 0x02, 0xbd, 0xf3, 0xbd, 0x00, 0x47, 0xf1, 0x3d, 0x80, 0x34, 0xcc, 0xbe, 0xf4, 0x5c, 0x54, 0xbe, 0x34, 0xab, 0xae, 0x3e, 0x37, 0xdb, 0x84, 0x3c, 0x6d, 0x5d, 0x09, 0x3f, 0x7c, 0x06, 0xbd, 0xbd, 0x4e, 0x12, 0x91, 0x3e, 0xc0, 0xa4, 0x97, 0xbe, 0x21, 0xcf, 0xe3, 0xbe, 0xe2, 0x30, 0x2b, 0x3e, 0x56, 0xc3, 0xbf, 0xbe, 0x79, 0x68, 0x2a, 0xbd, 0x0b, 0x9d, 0xf8, 0xbd, 0xf7, 0x53, 0x65, 0x3e, 0x9a, 0x44, 0x49, 0x3e, 0xe8, 0xa6, 0xee, 0xbd, 0xba, 0xa9, 0x76, 0x3e, 0x6a, 0xc6, 0x20, 0x3f, 0x3e, 0xa7, 0x21, 0x3f, 0x2a, 0x74, 0xec, 0xbd, 0x30, 0x05, 0xb8, 0x3d, 0x3c, 0x5d, 0xbc, 0x3e, 0x14, 0x2f, 0x1a, 0x3f, 0x25, 0x31, 0x66, 0x3e, 0x1f, 0xfb, 0x0e, 0xbe, 0xc7, 0x05, 0x3c, 0xbd, 0x39, 0x71, 0x2c, 0x3f, 0x9e, 0x9c, 0x96, 0x3e, 0x28, 0x53, 0xfb, 0x3e, 0x61, 0x98, 0x72, 0x3e, 0xbe, 0xe8, 0xcb, 0xbd, 0x07, 0xae, 0xbd, 0xbb, 0xdd, 0x4f, 0xd8, 0xbe, 0x09, 0x7d, 0x26, 0xbe, 0x5f, 0x87, 0xac, 0x3d, 0xfa, 0xe0, 0xae, 0xbd, 0x20, 0x77, 0xc8, 0x3b, 0x05, 0x43, 0x88, 0x3e, 0x4f, 0x23, 0x25, 0xbe, 0x79, 0xb5, 0xaa, 0x3e, 0xa9, 0x82, 0xcb, 0xbd, 0x54, 0x77, 0x79, 0x3e, 0xb9, 0xbd, 0x9c, 0x3e, 0x0d, 0x7f, 0x40, 0x3e, 0x42, 0xd4, 0x80, 0x3e, 0xb2, 0xfc, 0xed, 0xbd, 0x35, 0xcb, 0xc5, 0xbd, 0xbb, 0x58, 0x09, 0xbd, 0x74, 0x12, 0x49, 0x3e, 0x14, 0x1a, 0x9c, 0xbd, 0x8c, 0xf8, 0x16, 0xbf, 0xdf, 0x41, 0x96, 0xbe, 0x00, 0xdb, 0xeb, 0xbe, 0x03, 0x34, 0x30, 0xbe, 0x7c, 0x13, 0x46, 0x3e, 0x6c, 0xf5, 0x1d, 0x3e, 0x12, 0x9d, 0x95, 0x3e, 0x6c, 0x8d, 0x0a, 0xbe, 0x31, 0x22, 0xc2, 0xbe, 0x9b, 0x3e, 0x92, 0x3e, 0xde, 0x92, 0x84, 0xbd, 0x05, 0xb9, 0x19, 0xbe, 0x4d, 0xaa, 0xc8, 0xbd, 0x9e, 0xb5, 0x49, 0xbf, 0x5f, 0x18, 0x25, 0xbe, 0x0d, 0xdd, 0x1c, 0xbe, 0x2b, 0x47, 0xff, 0xbe, 0x3d, 0xf1, 0x2b, 0xbe, 0xb0, 0xf9, 0x77, 0x3c, 0x97, 0x29, 0xd2, 0xbe, 0x62, 0x8e, 0xaa, 0x3e, 0x04, 0xa3, 0x81, 0x3e, 0xbd, 0x55, 0x5e, 0x3f, 0xa4, 0x19, 0x18, 0x3f, 0xfb, 0x8f, 0x13, 0x3d, 0x76, 0xe8, 0xa3, 0x3d, 0xf9, 0xa3, 0x1a, 0xbe, 0xd5, 0x16, 0x78, 0x3d, 0xbb, 0xe0, 0x24, 0x3e, 0x3f, 0x90, 0x00, 0xbe, 0xe7, 0x61, 0xcc, 0xbd, 0x58, 0xe4, 0xa5, 0x3d, 0x57, 0x92, 0x12, 0xbb, 0xe1, 0x78, 0xe4, 0x3b, 0xb2, 0xe5, 0x99, 0xbe, 0x43, 0x19, 0x9d, 0xbc, 0xa2, 0x70, 0x33, 0x3d, 0xd4, 0x35, 0xca, 0xbd, 0x5e, 0x09, 0x89, 0x3e, 0xe0, 0x88, 0xc6, 0xbd, 0xae, 0x15, 0x69, 0xbe, 0x17, 0xd7, 0x31, 0x3d, 0x85, 0xd2, 0x98, 0xbe, 0x35, 0x90, 0x92, 0x3e, 0x25, 0x49, 0x81, 0x3e, 0x0a, 0x43, 0x18, 0xbe, 0xd8, 0xaf, 0x01, 0x3e, 0x88, 0xf1, 0x3d, 0x3e, 0x7f, 0x48, 0xc1, 0xbe, 0x72, 0x58, 0x92, 0x3d, 0x67, 0x33, 0x7f, 0x3e, 0x42, 0x41, 0xea, 0xbd, 0x86, 0xff, 0x8c, 0xbe, 0x2c, 0xc4, 0xcb, 0xbe, 0x8f, 0xad, 0xe7, 0x3e, 0x30, 0xe7, 0xb4, 0x3e, 0xbf, 0x73, 0x15, 0xbf, 0xed, 0x7b, 0xd7, 0xbd, 0x5b, 0xfb, 0x30, 0x3e, 0x8d, 0xa7, 0x01, 0xbe, 0x2a, 0x6b, 0x85, 0xbe, 0xa3, 0x69, 0x9a, 0xbe, 0xb7, 0x40, 0x7e, 0xbe, 0xe5, 0x0d, 0x00, 0xbe, 0x06, 0x85, 0xb9, 0x3e, 0x57, 0x0c, 0x0b, 0xbf, 0x65, 0x13, 0x96, 0xbe, 0xb5, 0xf4, 0x05, 0xbf, 0xee, 0x04, 0x23, 0xbf, 0x3d, 0xcb, 0x97, 0x3d, 0x4e, 0x21, 0xc0, 0x3b, 0xd6, 0x99, 0x42, 0x3e, 0x0a, 0x15, 0x71, 0x3e, 0xb1, 0x71, 0x40, 0x3e, 0xb4, 0x12, 0x87, 0x3e, 0xc9, 0x5b, 0xdb, 0xbe, 0x6b, 0xcb, 0x11, 0x3f, 0xa4, 0x85, 0x24, 0xbe, 0xb1, 0xc2, 0xed, 0xbe, 0xbb, 0x3f, 0x3e, 0xbf, 0x20, 0x0a, 0x6d, 0xbe, 0xbf, 0x91, 0xd5, 0xbe, 0x17, 0x3d, 0x73, 0xbe, 0x00, 0xe6, 0x91, 0x3e, 0xcb, 0xbf, 0x94, 0x3e, 0xf6, 0x0c, 0x73, 0x3d, 0xa0, 0x84, 0xbc, 0xbc, 0x4a, 0x77, 0x05, 0xbf, 0xc6, 0xdf, 0x8e, 0xbe, 0x50, 0x6d, 0x16, 0xbd, 0x54, 0x34, 0x10, 0x3d, 0x88, 0xcd, 0x94, 0x3c, 0xe8, 0x84, 0x5a, 0xbc, 0xc4, 0x08, 0x97, 0x3c, 0x96, 0x06, 0x61, 0x3e, 0xa5, 0xd4, 0x12, 0x3f, 0xf5, 0x51, 0x42, 0xbe, 0xf9, 0xec, 0xe3, 0x3d, 0x2b, 0x78, 0xb4, 0x3d, 0x8c, 0x00, 0x01, 0xbe, 0x2e, 0x5a, 0x6f, 0xbd, 0x86, 0x7f, 0x33, 0x3e, 0xe6, 0x4c, 0x1b, 0xbc, 0x66, 0xd7, 0x9d, 0x3e, 0x4e, 0xa7, 0x17, 0xbe, 0xa3, 0x32, 0xbe, 0x3d, 0x6c, 0xa9, 0x41, 0xbe, 0xe3, 0x15, 0x70, 0x3d, 0x2f, 0xf1, 0x75, 0xbd, 0x72, 0xc9, 0x8b, 0xbe, 0xef, 0xf6, 0x78, 0x3e, 0xbe, 0x30, 0xac, 0x3e, 0xe0, 0xcf, 0xe0, 0x3e, 0x73, 0x95, 0x11, 0x3f, 0xf5, 0xb3, 0xb1, 0xbc, 0x2f, 0x08, 0xcd, 0x3e, 0xed, 0x9c, 0xa9, 0xbe, 0xff, 0x96, 0x14, 0x3e, 0xbf, 0x7c, 0x77, 0xbe, 0x31, 0xaa, 0xb2, 0xbe, 0xb2, 0x95, 0x93, 0xbd, 0xd5, 0x34, 0x01, 0xbf, 0xfc, 0x06, 0x95, 0xbe, 0xf2, 0xf4, 0xe7, 0xbe, 0x44, 0x79, 0xc1, 0xbe, 0xe7, 0x52, 0x8c, 0xbe, 0x7c, 0x9e, 0xaa, 0xbe, 0x05, 0x92, 0x70, 0x3e, 0xf6, 0x16, 0x4b, 0xbe, 0x48, 0x07, 0x24, 0x3e, 0xa4, 0x02, 0x16, 0x3f, 0x08, 0xb0, 0x81, 0x3e, 0xd4, 0x0c, 0x9f, 0x3e, 0x04, 0x56, 0x84, 0x3e, 0xeb, 0xc4, 0x43, 0x3e, 0x04, 0xaa, 0x6d, 0x3e, 0x0c, 0x0f, 0x3a, 0xbe, 0x09, 0x28, 0x80, 0x3e, 0xde, 0xb2, 0x92, 0x3d, 0xfa, 0xc2, 0x80, 0x3e, 0x64, 0x80, 0xde, 0xbe, 0xe9, 0xe5, 0xc2, 0xbd, 0xa7, 0x61, 0xe6, 0xbd, 0xd4, 0xa2, 0x92, 0xbe, 0xb8, 0x75, 0x18, 0xbd, 0x24, 0x9a, 0x45, 0xbe, 0xb7, 0xfd, 0x08, 0x3f, 0x51, 0x37, 0x8d, 0xbf, 0x3a, 0x41, 0xa1, 0x3e, 0x69, 0xcc, 0xa9, 0xbd, 0x38, 0x5e, 0x0b, 0xbf, 0x14, 0x6c, 0x33, 0xbe, 0x5d, 0xa7, 0xcc, 0x3d, 0x03, 0x4e, 0x00, 0x3f, 0x16, 0x46, 0x9b, 0x3c, 0xe8, 0xc1, 0x5c, 0x3e, 0x3e, 0xf5, 0xd2, 0xbe, 0x00, 0x37, 0xbd, 0x3e, 0x1e, 0x09, 0xd3, 0xbd, 0xe0, 0xa4, 0x91, 0x3e, 0x05, 0x2a, 0xec, 0x3e, 0x1e, 0xf1, 0xec, 0x3e, 0x10, 0xec, 0xb0, 0x3d, 0x53, 0x42, 0xa3, 0x3e, 0x2c, 0x91, 0xa7, 0x3e, 0x68, 0x8a, 0xee, 0x3e, 0xb1, 0x8e, 0x49, 0x3d, 0xbb, 0x39, 0xb9, 0x3e, 0x01, 0xec, 0xfb, 0x3c, 0x1f, 0x52, 0x74, 0x3e, 0xed, 0xf8, 0xbb, 0x3e, 0x70, 0x16, 0x3a, 0x3e, 0xf3, 0x3a, 0x5d, 0x3d, 0xf3, 0x6d, 0x35, 0xbd, 0x27, 0x11, 0x45, 0xbd, 0x7a, 0xd8, 0x16, 0x3e, 0x7d, 0xcb, 0x0f, 0xbe, 0x9f, 0x88, 0xba, 0x3e, 0xf1, 0x2f, 0x7c, 0x3d, 0x85, 0x90, 0x38, 0xbd, 0x84, 0x1a, 0xa2, 0xbe, 0xf1, 0xaf, 0xc1, 0xbe, 0xaf, 0xfd, 0xac, 0xbd, 0x12, 0x31, 0x66, 0xbd, 0x5d, 0xd4, 0x89, 0xbe, 0xe6, 0x8d, 0x12, 0xbf, 0x15, 0x76, 0x87, 0x3e, 0xae, 0xfc, 0x86, 0xbe, 0xc3, 0x3f, 0xb9, 0xbe, 0x39, 0xa7, 0x61, 0xbe, 0xe9, 0x9f, 0xea, 0xbd, 0x97, 0xab, 0x04, 0x3f, 0x9e, 0x97, 0xee, 0x3e, 0x82, 0x1d, 0x52, 0xbd, 0x88, 0x1e, 0xa8, 0xbd, 0x91, 0xfa, 0x68, 0xbe, 0x7c, 0x5b, 0x82, 0x3e, 0xbd, 0x41, 0x60, 0xbe, 0x10, 0xa2, 0x66, 0x3d, 0x63, 0xc5, 0xe0, 0x3d, 0x51, 0x7c, 0xe6, 0xbd, 0xbd, 0x7e, 0xa8, 0xbd, 0x5a, 0x12, 0xaf, 0x3e, 0x21, 0x34, 0x40, 0xbd, 0x1b, 0x17, 0xe4, 0x3d, 0xcf, 0x07, 0xf3, 0x3d, 0xea, 0xe1, 0x38, 0x3e, 0xe4, 0x26, 0x65, 0xbe, 0x39, 0xe2, 0x0a, 0x3c, 0x1b, 0x15, 0xba, 0xbe, 0x34, 0xac, 0xd0, 0xbe, 0x77, 0xa2, 0x6e, 0x3e, 0x51, 0x74, 0x9a, 0x3e, 0xbe, 0xbd, 0x57, 0x3f, 0x1e, 0x90, 0x06, 0x3f, 0x70, 0xd3, 0x47, 0xbc, 0x22, 0xab, 0x84, 0xbe, 0x4d, 0xa6, 0x2c, 0x3e, 0x8e, 0x4c, 0xc4, 0xbe, 0xe9, 0x33, 0x7f, 0xbd, 0x82, 0x72, 0x0d, 0xbe, 0x63, 0x67, 0xc7, 0xbe, 0x6f, 0x86, 0x25, 0xbf, 0x5d, 0xc2, 0x94, 0xbe, 0x03, 0x42, 0x6d, 0xbf, 0xb3, 0xe1, 0xd0, 0xbe, 0xc7, 0xd1, 0xad, 0xbe, 0x75, 0xff, 0x8e, 0xbe, 0x4b, 0x6d, 0xfc, 0x3d, 0xd4, 0xb9, 0x65, 0x3e, 0x90, 0x2c, 0xb4, 0x3e, 0xc8, 0xc7, 0x04, 0x3d, 0x60, 0x0a, 0x37, 0x3e, 0xbe, 0x75, 0x8c, 0xbd, 0xd9, 0xe2, 0x96, 0x3d, 0x52, 0x2e, 0x2d, 0x3e, 0xc0, 0xbb, 0xe2, 0xbb, 0xdf, 0x64, 0xca, 0xbd, 0xa3, 0xf5, 0x81, 0xbe, 0x6c, 0x37, 0x42, 0x3e, 0x5a, 0x5d, 0xd3, 0xbc, 0x8b, 0xa9, 0x77, 0x3e, 0xb1, 0x27, 0xb6, 0x3e, 0xc0, 0x93, 0x98, 0xbf, 0x46, 0xb7, 0x35, 0xbf, 0x6d, 0x7c, 0x8c, 0xbe, 0x4e, 0x59, 0xd4, 0x3d, 0x4b, 0xfb, 0xe2, 0x3e, 0xd8, 0x01, 0x69, 0x3e, 0x96, 0x50, 0x9a, 0x3e, 0xab, 0x1f, 0x75, 0xbc, 0xa3, 0x20, 0x27, 0xbe, 0x7d, 0x0c, 0x40, 0xbe, 0xa9, 0x96, 0xe5, 0x3e, 0xd3, 0xf4, 0x96, 0x3e, 0xe7, 0xb5, 0xa5, 0xbd, 0x8b, 0x4d, 0x09, 0xbe, 0x33, 0x83, 0x8e, 0xbe, 0x04, 0x18, 0x8c, 0x3d, 0xd0, 0x3f, 0x2a, 0x3e, 0x0e, 0xe5, 0xdf, 0xbe, 0x83, 0x97, 0x3e, 0x3c, 0x4b, 0x19, 0xa0, 0x3d, 0x2b, 0x20, 0x9b, 0x3e, 0xcd, 0x06, 0xaa, 0x3e, 0x81, 0x7f, 0xfd, 0xbd, 0x3c, 0x5d, 0xda, 0xbc, 0x1d, 0x15, 0x79, 0xbe, 0xd6, 0x50, 0x58, 0x3e, 0x6f, 0xb6, 0x0f, 0xbd, 0x20, 0xaf, 0x8e, 0x3e, 0xa2, 0x72, 0x16, 0x3e, 0x31, 0xca, 0x0a, 0xbe, 0xa2, 0xe8, 0x98, 0xbe, 0x18, 0xcc, 0xaa, 0x3d, 0x74, 0x6d, 0x22, 0x3e, 0x24, 0x95, 0xf6, 0x3e, 0x2a, 0x72, 0xdb, 0x3d, 0x73, 0x0f, 0x05, 0x3e, 0xd2, 0x74, 0xb3, 0x3e, 0xa3, 0xb6, 0x22, 0xbd, 0x8d, 0x6f, 0xb9, 0xbe, 0x9d, 0x6d, 0x7d, 0x3e, 0x0c, 0x68, 0x6b, 0xb9, 0xeb, 0xb4, 0x14, 0xbf, 0x9f, 0x73, 0x05, 0xbe, 0x01, 0x81, 0x93, 0xbe, 0xc3, 0x07, 0x00, 0x3f, 0x78, 0x7c, 0x2f, 0x3d, 0xa0, 0x5d, 0x60, 0x3e, 0xdc, 0xd7, 0x95, 0xbc, 0x88, 0x73, 0xa1, 0x3e, 0x30, 0xe6, 0x9b, 0x3e, 0x9c, 0x7a, 0xb3, 0x3e, 0x00, 0x9a, 0x2d, 0x3e, 0x7c, 0xed, 0x01, 0xbe, 0x31, 0x06, 0x05, 0x3e, 0x3d, 0x97, 0x92, 0x3e, 0x07, 0xa2, 0xe5, 0xbd, 0xb5, 0xda, 0x7f, 0xbe, 0x7d, 0x22, 0x01, 0x3e, 0x87, 0x6d, 0xe8, 0x3d, 0x8e, 0x4f, 0x55, 0x3e, 0xd7, 0x00, 0x9c, 0xbe, 0xff, 0x96, 0x89, 0xbc, 0xff, 0x76, 0x8a, 0x3e, 0xc9, 0xdd, 0xdc, 0xbd, 0x27, 0xfc, 0x00, 0xbd, 0x34, 0x69, 0x2a, 0x3e, 0x87, 0x14, 0x7f, 0xbd, 0x55, 0x11, 0xe2, 0x3e, 0xb7, 0xeb, 0x15, 0x3f, 0x52, 0x25, 0xf6, 0x3c, 0xd3, 0xf5, 0x40, 0x3f, 0xbe, 0x4e, 0xc3, 0x3e, 0x13, 0x3a, 0x47, 0x3f, 0x76, 0xa2, 0xca, 0x3e, 0x3a, 0xcc, 0xe6, 0x3e, 0x7b, 0xaa, 0x27, 0xbe, 0x7f, 0x5d, 0x91, 0xbe, 0x59, 0xf2, 0xcd, 0x3d, 0x22, 0x5a, 0x23, 0xbe, 0xf7, 0x55, 0x0b, 0x3f, 0x91, 0x0a, 0x32, 0xbe, 0xe7, 0x64, 0xa0, 0xbe, 0xb9, 0xaa, 0xa6, 0x3d, 0x7b, 0xca, 0x09, 0x3f, 0x21, 0xde, 0xb4, 0x3e, 0x8c, 0x83, 0x94, 0xbd, 0xc5, 0x9b, 0xbb, 0xbe, 0x13, 0xb5, 0x7e, 0xbe, 0x64, 0xf7, 0x38, 0xbe, 0xab, 0x7b, 0x04, 0xbe, 0x91, 0xf4, 0xbd, 0x3c, 0x74, 0xd7, 0xd4, 0x3d, 0x00, 0x91, 0x7f, 0xbd, 0xee, 0x4e, 0x7f, 0xbe, 0xc0, 0x2c, 0x9a, 0xbc, 0x16, 0x4c, 0x40, 0xbe, 0x41, 0x99, 0x3f, 0xbf, 0x62, 0xe4, 0x39, 0xbf, 0xe2, 0xfa, 0x6c, 0xbf, 0x8a, 0x63, 0x05, 0xbf, 0x67, 0x5d, 0xa3, 0xbe, 0x8b, 0x88, 0xef, 0xbe, 0xdc, 0x47, 0x7e, 0xbe, 0xea, 0x0c, 0x5c, 0xbe, 0x33, 0x9b, 0xa5, 0xbe, 0x26, 0x5b, 0x16, 0xbe, 0x6a, 0xf4, 0xf7, 0xbd, 0xc7, 0x4e, 0x3e, 0xbf, 0x42, 0x1f, 0x23, 0xbf, 0x5a, 0xce, 0x3a, 0xbe, 0x7c, 0xe8, 0xe0, 0xbd, 0xef, 0x6d, 0xf7, 0xbe, 0xd1, 0xb7, 0xb6, 0x3d, 0x37, 0x8a, 0xa1, 0xbe, 0x00, 0xbd, 0x5b, 0x3d, 0xb7, 0x17, 0x9a, 0xbd, 0x96, 0xf6, 0x3a, 0xbe, 0xee, 0x0b, 0x4e, 0x3e, 0xf0, 0x4a, 0x21, 0xbe, 0x81, 0x50, 0x65, 0x3e, 0x67, 0x31, 0x0e, 0xbe, 0xa0, 0xed, 0x32, 0xbe, 0x53, 0x50, 0x11, 0x3e, 0xa7, 0xf4, 0xa6, 0x3e, 0xc1, 0x0c, 0x7b, 0x3e, 0x0f, 0x70, 0x19, 0x3d, 0xed, 0x38, 0xba, 0xbd, 0x6c, 0xa1, 0xa9, 0xbd, 0x35, 0x45, 0x3a, 0x3e, 0x7f, 0x29, 0x0f, 0xbd, 0xa9, 0xc6, 0xd9, 0x3d, 0x74, 0x64, 0x8e, 0x3e, 0xba, 0xab, 0x54, 0xbe, 0x55, 0x3e, 0x8a, 0x3c, 0x12, 0x70, 0x90, 0x3e, 0xf4, 0x34, 0x41, 0x3d, 0xeb, 0x08, 0x30, 0xbf, 0x5b, 0x8a, 0xcb, 0x3c, 0x40, 0xfd, 0x32, 0xbe, 0xe9, 0xec, 0xd8, 0xbe, 0xeb, 0x1c, 0xeb, 0xbe, 0x15, 0x83, 0x12, 0xbf, 0xd8, 0xd6, 0xa4, 0xbe, 0x6a, 0x5f, 0xc7, 0xbd, 0xc8, 0x2b, 0x02, 0x3f, 0xec, 0x0e, 0x9c, 0x3e, 0x9e, 0xd2, 0x02, 0xbe, 0x79, 0xa1, 0x95, 0xbe, 0xaf, 0x5f, 0x9e, 0xbe, 0x3e, 0x39, 0xbb, 0xbe, 0x66, 0x85, 0xf3, 0xbe, 0xb6, 0x31, 0x5e, 0x3d, 0xe7, 0xbd, 0xb4, 0x3e, 0x0d, 0xee, 0x88, 0x3e, 0x50, 0xc8, 0xa7, 0x3e, 0x75, 0xa5, 0x86, 0x3e, 0xec, 0x3d, 0xe8, 0x3e, 0x90, 0x6c, 0xc9, 0x3d, 0x4a, 0xe2, 0x40, 0xba, 0x0e, 0x82, 0x33, 0x3e, 0xaa, 0x5f, 0x02, 0xbe, 0x6b, 0x29, 0x8b, 0x3e, 0x1d, 0x09, 0x94, 0x3e, 0x10, 0xfb, 0xe0, 0xbe, 0xf4, 0x05, 0x41, 0x3f, 0xc3, 0x8b, 0xfd, 0x3e, 0xb0, 0x8b, 0x9a, 0x3e, 0xb2, 0x75, 0xc4, 0x3e, 0x04, 0x78, 0xd4, 0x3d, 0x4f, 0x95, 0xb3, 0xbd, 0xa7, 0x98, 0x9f, 0x3d, 0x9d, 0x81, 0x77, 0x3e, 0xf1, 0x1a, 0x20, 0xbe, 0xad, 0xbf, 0x5c, 0xbe, 0xfe, 0x5c, 0xc3, 0x3d, 0x98, 0x06, 0x28, 0xbe, 0x11, 0x75, 0xf1, 0xbe, 0xae, 0xda, 0x22, 0xbe, 0x4d, 0x35, 0x25, 0xbf, 0x24, 0x79, 0x92, 0x3e, 0x7f, 0x7e, 0x71, 0xbd, 0x61, 0x72, 0xa5, 0x3e, 0x7d, 0x78, 0x46, 0x3d, 0x14, 0x14, 0xb9, 0x3e, 0x01, 0x9b, 0x1c, 0xbe, 0x5f, 0xfc, 0x9c, 0xbe, 0x15, 0x4a, 0xa0, 0x3e, 0x33, 0xe7, 0xf8, 0x3d, 0x09, 0x43, 0x92, 0x3e, 0x3f, 0x14, 0xc2, 0x3e, 0x26, 0x25, 0x68, 0x3e, 0x00, 0xfe, 0xd6, 0xba, 0xbc, 0x0d, 0x68, 0xbe, 0x95, 0x56, 0x49, 0xbf, 0xbe, 0xef, 0x97, 0xbe, 0x2e, 0xe7, 0xf0, 0xbe, 0x3d, 0x4b, 0x83, 0x3d, 0x19, 0x1b, 0x02, 0xbe, 0x68, 0xdf, 0x07, 0xbe, 0x5d, 0x36, 0xee, 0xbc, 0x48, 0x7a, 0x11, 0x3e, 0x12, 0x51, 0x90, 0x3e, 0xdd, 0x7f, 0x7d, 0xbe, 0x04, 0x32, 0x86, 0xbd, 0xe4, 0x20, 0xee, 0x3d, 0x8d, 0xfe, 0x89, 0xbe, 0x86, 0x37, 0xb2, 0xbe, 0xa8, 0xe6, 0xdd, 0xbe, 0x39, 0x60, 0x92, 0x3e, 0xed, 0x07, 0xca, 0xbb, 0x9f, 0xd1, 0x0c, 0x3e, 0xf4, 0xb9, 0x2a, 0xbe, 0x7d, 0x5c, 0xe2, 0xbe, 0x3c, 0x0e, 0x21, 0x3e, 0x7a, 0x2e, 0x48, 0xbe, 0x50, 0x6d, 0x92, 0x3e, 0x0a, 0xc1, 0x91, 0xbe, 0xde, 0x1e, 0x30, 0x3e, 0xd1, 0xe4, 0xc6, 0xbe, 0x66, 0x84, 0x22, 0x3e, 0x8b, 0x88, 0xcd, 0xbe, 0xd4, 0x65, 0x95, 0x3e, 0x58, 0x9e, 0xba, 0x3d, 0x2b, 0xcd, 0xa4, 0xbe, 0x8b, 0xac, 0x83, 0xbd, 0x6d, 0xae, 0x2c, 0xbc, 0x8f, 0x2c, 0x96, 0xbe, 0x55, 0xea, 0x0f, 0xbf, 0x83, 0x39, 0xde, 0xbd, 0x0b, 0xb4, 0x0b, 0xbe, 0x49, 0xc8, 0x21, 0x3e, 0x8f, 0xdc, 0x87, 0x3e, 0x5e, 0xaf, 0x02, 0x3f, 0x81, 0x66, 0x84, 0x3e, 0xa4, 0xb8, 0x68, 0x3e, 0x64, 0x2b, 0xef, 0x3e, 0x19, 0xaf, 0x81, 0xbd, 0xa8, 0x51, 0x1c, 0x3f, 0xa5, 0x5f, 0x9a, 0x3d, 0x98, 0xb1, 0x0a, 0x3e, 0xa2, 0x8a, 0x25, 0x3e, 0x9e, 0x8b, 0x2b, 0x3e, 0x14, 0xc5, 0x17, 0x3e, 0xae, 0xca, 0xa2, 0xbe, 0x86, 0xba, 0x27, 0xbf, 0xdb, 0x51, 0x3f, 0xbe, 0x3a, 0x8b, 0x83, 0x3c, 0x26, 0x08, 0x45, 0xbe, 0x6b, 0xab, 0x21, 0x3e, 0x21, 0x5d, 0xb6, 0xbe, 0x65, 0x51, 0xb0, 0x3d, 0xb9, 0x4e, 0x15, 0xbf, 0x7b, 0x9d, 0x5a, 0xbe, 0x66, 0x77, 0xfe, 0x3d, 0xc4, 0xe9, 0x5d, 0x3e, 0x2d, 0xe2, 0xc8, 0x3e, 0x30, 0x58, 0x1a, 0xbf, 0x6b, 0x93, 0xec, 0xbe, 0x94, 0x66, 0xc4, 0x3d, 0x65, 0x21, 0xd2, 0xbd, 0x14, 0x50, 0x02, 0xbf, 0xb2, 0xbf, 0x00, 0xbe, 0xa8, 0x36, 0xe2, 0x3e, 0x3d, 0x80, 0x55, 0x3e, 0xe9, 0x4e, 0xe8, 0x3e, 0x26, 0x6c, 0x13, 0x3f, 0x7c, 0xad, 0x78, 0xbe, 0x65, 0x58, 0x24, 0x3e, 0xfe, 0xd0, 0x3f, 0x3d, 0x9d, 0x3c, 0x90, 0xbe, 0xa1, 0x65, 0x09, 0x3e, 0xd1, 0xf2, 0xa2, 0x3d, 0xa0, 0x31, 0x2d, 0xbe, 0x40, 0x04, 0x0b, 0x3f, 0x27, 0xc9, 0xb7, 0x3e, 0x6a, 0x6e, 0x6f, 0xbe, 0x1e, 0x42, 0xad, 0xbd, 0xc6, 0x97, 0x90, 0x3e, 0x52, 0x98, 0x6c, 0x3e, 0x5d, 0x27, 0x2f, 0xbe, 0x19, 0xb2, 0xa6, 0x3e, 0x18, 0xfd, 0xfd, 0x3e, 0xa6, 0xb6, 0x63, 0x3d, 0x05, 0x54, 0xd4, 0x3e, 0xcf, 0x4c, 0x01, 0xbe, 0x2d, 0x92, 0xfa, 0x3d, 0x22, 0xd0, 0x59, 0x3e, 0x05, 0xda, 0xdf, 0x3e, 0xce, 0xf5, 0x0a, 0xbe, 0xef, 0x82, 0x70, 0x3e, 0x24, 0xed, 0x90, 0x3e, 0xb3, 0x9f, 0xbd, 0x3e, 0x83, 0x7f, 0x6d, 0x3e, 0x5d, 0x5d, 0xc1, 0x3e, 0x33, 0xc8, 0x06, 0x3f, 0x98, 0x46, 0x9e, 0x3d, 0xa2, 0xaf, 0x08, 0x3f, 0xe4, 0x47, 0x79, 0x3e, 0x34, 0x9d, 0x79, 0x3e, 0x23, 0x3b, 0x0f, 0x3c, 0x89, 0xd4, 0x92, 0xbd, 0xce, 0x21, 0x0c, 0xbf, 0x6f, 0x29, 0xc2, 0xbe, 0x61, 0x53, 0xae, 0xbe, 0x0b, 0x03, 0x2e, 0xbf, 0xc1, 0x6d, 0xb2, 0xbe, 0x93, 0x5d, 0xf0, 0xbe, 0x02, 0xb7, 0x67, 0xbe, 0x7a, 0x04, 0x2d, 0x3e, 0x06, 0x57, 0xbf, 0xbe, 0x34, 0xe2, 0x62, 0xbe, 0x6c, 0xe4, 0x01, 0xbf, 0x86, 0xe1, 0xbc, 0x3d, 0x11, 0xd4, 0x71, 0xbe, 0x96, 0xf3, 0xa2, 0x3c, 0x74, 0xfa, 0xf2, 0xbc, 0xc3, 0x40, 0x72, 0x3e, 0x68, 0x52, 0x1e, 0xbe, 0x1e, 0xc7, 0x86, 0xbe, 0x80, 0xe2, 0x93, 0xbe, 0xd3, 0x9d, 0x44, 0xbc, 0xd1, 0x5d, 0x13, 0x3e, 0x09, 0x77, 0xe6, 0xbd, 0xa0, 0x38, 0x9c, 0xbd, 0xc4, 0x8f, 0xee, 0x3d, 0x37, 0xb3, 0xa2, 0xbc, 0xdd, 0x17, 0x84, 0xbe, 0xfa, 0x42, 0x29, 0xbe, 0x6d, 0x55, 0x8d, 0x3e, 0xa0, 0xd2, 0xb3, 0xbe, 0xa4, 0xd8, 0x8a, 0xbe, 0xb5, 0x2b, 0x3e, 0xbf, 0x6f, 0xdf, 0xf2, 0xbe, 0x76, 0xd8, 0x22, 0xbf, 0x3c, 0x68, 0xb3, 0xbe, 0xff, 0x46, 0x22, 0xbc, 0x9b, 0xf7, 0x0b, 0xbf, 0x59, 0xdd, 0xe6, 0x3d, 0xc8, 0xb4, 0xc5, 0xbd, 0xce, 0x75, 0x9e, 0xbd, 0xff, 0x4b, 0xa6, 0x3e, 0xdd, 0xa4, 0x32, 0x3f, 0x84, 0x40, 0x21, 0x3e, 0xf5, 0x6e, 0x1a, 0xbe, 0x2b, 0xc2, 0x3a, 0x3d, 0xff, 0x9b, 0x53, 0xbe, 0x30, 0x5c, 0xb4, 0x3d, 0x3e, 0x38, 0x9b, 0xbe, 0x32, 0x20, 0xee, 0x3d, 0x59, 0x33, 0x31, 0xbe, 0x60, 0x6e, 0xcb, 0xbe, 0x36, 0x76, 0x4b, 0x3d, 0xf3, 0x79, 0x0a, 0x3e, 0x07, 0x0b, 0xde, 0x3d, 0xe2, 0x98, 0xac, 0xbc, 0x9e, 0x3e, 0x7d, 0x3e, 0xce, 0x2e, 0x43, 0xbe, 0xa9, 0x57, 0xdc, 0x3e, 0xf8, 0x51, 0x4e, 0xbc, 0x85, 0xbd, 0xb0, 0x3d, 0x1f, 0x05, 0xd7, 0x3e, 0x90, 0xc7, 0x91, 0xbe, 0xf6, 0xcc, 0x0a, 0xbf, 0xd6, 0xa7, 0x3e, 0xbf, 0xaa, 0x2a, 0x21, 0xbf, 0x1d, 0xef, 0x76, 0xbf, 0x12, 0x58, 0x0b, 0xbf, 0x98, 0xfb, 0x8f, 0x3d, 0x70, 0xec, 0x0a, 0xbf, 0x16, 0x8b, 0x28, 0x3d, 0xe7, 0x79, 0x18, 0xbe, 0x3f, 0xa2, 0x7e, 0x3e, 0xcd, 0x5d, 0x19, 0x3e, 0xc9, 0x7c, 0xd7, 0x3e, 0xdf, 0xe2, 0x19, 0x3e, 0x06, 0x5f, 0xfa, 0xbd, 0x4b, 0x60, 0x10, 0x3d, 0x0d, 0x18, 0x8b, 0xbe, 0xfa, 0x9a, 0xe3, 0x3d, 0x17, 0xfb, 0x7d, 0x3d, 0xc6, 0xc9, 0xd8, 0x3d, 0x8c, 0x69, 0x80, 0xbe, 0x7d, 0xf8, 0xd2, 0x3c, 0xcc, 0x31, 0xa1, 0xbe, 0x2e, 0xf4, 0x53, 0x3c, 0x91, 0x07, 0xc5, 0x3e, 0x66, 0xb9, 0x50, 0x3e, 0xe6, 0x9f, 0x91, 0x3e, 0x27, 0xb2, 0x23, 0x3f, 0x8b, 0x69, 0xad, 0xbe, 0x24, 0x48, 0x3d, 0xbf, 0xba, 0x2d, 0xe1, 0xbe, 0xb8, 0xb5, 0xf9, 0x3c, 0x97, 0x65, 0x75, 0xbe, 0x0e, 0x19, 0x78, 0x3d, 0x42, 0x6a, 0x0b, 0x3d, 0x98, 0x30, 0x58, 0xbd, 0x2c, 0xc4, 0xf0, 0x3e, 0x40, 0x49, 0xf0, 0x3e, 0x8a, 0x19, 0x02, 0x3e, 0x82, 0xa7, 0x7e, 0x3d, 0x58, 0xee, 0x95, 0x3e, 0x32, 0xc0, 0x12, 0x3d, 0xf9, 0xc1, 0x86, 0x3c, 0xbc, 0x44, 0xa2, 0x3e, 0x2b, 0x04, 0x0e, 0x3f, 0x4e, 0x5c, 0x84, 0xbe, 0xce, 0x2e, 0x49, 0xbe, 0x95, 0x52, 0x8a, 0xbe, 0x5b, 0xcd, 0x75, 0xbe, 0xad, 0xbc, 0x10, 0xbe, 0xa9, 0x72, 0x29, 0xbe, 0x53, 0x93, 0x32, 0xbe, 0x6c, 0x1b, 0xc9, 0x3e, 0x08, 0x4c, 0x02, 0xbe, 0x16, 0x38, 0x90, 0xbe, 0x06, 0xfe, 0xff, 0xff, 0x10, 0x00, 0x00, 0x00, 0x05, 0x00, 0x00, 0x00, 0x14, 0x00, 0x00, 0x00, 0x34, 0x00, 0x00, 0x00, 0x02, 0x00, 0x00, 0x00, 0x20, 0x00, 0x00, 0x00, 0x20, 0x00, 0x00, 0x00, 0x1d, 0x00, 0x00, 0x00, 0x53, 0x65, 0x71, 0x75, 0x65, 0x6e, 0x74, 0x69, 0x61, 0x6c, 0x2d, 0x4e, 0x4e, 0x2f, 0x64, 0x65, 0x6e, 0x73, 0x65, 0x5f, 0x35, 0x34, 0x2f, 0x4d, 0x61, 0x74, 0x4d, 0x75, 0x6c, 0x00, 0x00, 0x00, 0x84, 0xfd, 0xff, 0xff, 0xe2, 0xfe, 0xff, 0xff, 0x04, 0x00, 0x00, 0x00, 0x0c, 0x00, 0x00, 0x00, 0x09, 0x28, 0xba, 0x3d, 0x10, 0x64, 0xa1, 0xbe, 0x31, 0x53, 0x7a, 0x3e, 0x66, 0xfe, 0xff, 0xff, 0x10, 0x00, 0x00, 0x00, 0x04, 0x00, 0x00, 0x00, 0x10, 0x00, 0x00, 0x00, 0x48, 0x00, 0x00, 0x00, 0x01, 0x00, 0x00, 0x00, 0x03, 0x00, 0x00, 0x00, 0x36, 0x00, 0x00, 0x00, 0x53, 0x65, 0x71, 0x75, 0x65, 0x6e, 0x74, 0x69, 0x61, 0x6c, 0x2d, 0x4e, 0x4e, 0x2f, 0x64, 0x65, 0x6e, 0x73, 0x65, 0x5f, 0x35, 0x36, 0x2f, 0x42, 0x69, 0x61, 0x73, 0x41, 0x64, 0x64, 0x2f, 0x52, 0x65, 0x61, 0x64, 0x56, 0x61, 0x72, 0x69, 0x61, 0x62, 0x6c, 0x65, 0x4f, 0x70, 0x2f, 0x72, 0x65, 0x73, 0x6f, 0x75, 0x72, 0x63, 0x65, 0x00, 0x00, 0xf8, 0xfd, 0xff, 0xff, 0x56, 0xff, 0xff, 0xff, 0x04, 0x00, 0x00, 0x00, 0x3c, 0x00, 0x00, 0x00, 0x68, 0xc5, 0xc0, 0xbd, 0xad, 0x69, 0xbe, 0xbe, 0xa4, 0xc0, 0xa7, 0x3e, 0x39, 0x40, 0xed, 0x3d, 0x1c, 0x45, 0x77, 0x3e, 0x49, 0xc8, 0xc0, 0x3d, 0xb0, 0x66, 0x7e, 0x3e, 0x7e, 0x53, 0xd4, 0xbe, 0x42, 0x7f, 0x40, 0xbe, 0x14, 0x85, 0xab, 0x3e, 0x2e, 0x6f, 0x13, 0x3d, 0xa5, 0x17, 0x38, 0x3e, 0xed, 0x83, 0x8c, 0x3e, 0xde, 0xb7, 0xec, 0x3e, 0x38, 0xea, 0xf8, 0x3e, 0x0a, 0xff, 0xff, 0xff, 0x10, 0x00, 0x00, 0x00, 0x03, 0x00, 0x00, 0x00, 0x10, 0x00, 0x00, 0x00, 0x4c, 0x00, 0x00, 0x00, 0x01, 0x00, 0x00, 0x00, 0x0f, 0x00, 0x00, 0x00, 0x36, 0x00, 0x00, 0x00, 0x53, 0x65, 0x71, 0x75, 0x65, 0x6e, 0x74, 0x69, 0x61, 0x6c, 0x2d, 0x4e, 0x4e, 0x2f, 0x64, 0x65, 0x6e, 0x73, 0x65, 0x5f, 0x35, 0x35, 0x2f, 0x42, 0x69, 0x61, 0x73, 0x41, 0x64, 0x64, 0x2f, 0x52, 0x65, 0x61, 0x64, 0x56, 0x61, 0x72, 0x69, 0x61, 0x62, 0x6c, 0x65, 0x4f, 0x70, 0x2f, 0x72, 0x65, 0x73, 0x6f, 0x75, 0x72, 0x63, 0x65, 0x00, 0x00, 0x04, 0x00, 0x06, 0x00, 0x04, 0x00, 0x00, 0x00, 0x00, 0x00, 0x06, 0x00, 0x08, 0x00, 0x04, 0x00, 0x06, 0x00, 0x00, 0x00, 0x04, 0x00, 0x00, 0x00, 0x80, 0x00, 0x00, 0x00, 0x94, 0x5f, 0x0f, 0x3f, 0x6f, 0xe6, 0x82, 0x3d, 0x2b, 0xd7, 0x73, 0xbd, 0x6c, 0xb8, 0xa4, 0x3e, 0x4d, 0x0b, 0x72, 0x3c, 0x62, 0xc6, 0x5d, 0xbd, 0xa5, 0xae, 0xe1, 0x3e, 0xdd, 0x3a, 0x04, 0x3f, 0xd6, 0x19, 0xee, 0x3e, 0x4f, 0x8c, 0x02, 0x3e, 0xad, 0x9e, 0xf5, 0x3d, 0xcf, 0xc6, 0x6e, 0x3e, 0xad, 0xae, 0xc3, 0xbe, 0x68, 0xb8, 0xa2, 0x3d, 0x87, 0x94, 0x7c, 0x3e, 0x93, 0x5d, 0x94, 0xbe, 0xce, 0x53, 0x68, 0xbd, 0x5f, 0x16, 0x67, 0x3d, 0x7c, 0x04, 0x96, 0x3d, 0x8a, 0x96, 0x6e, 0x3e, 0xc1, 0x20, 0x16, 0x3e, 0x85, 0x2c, 0xee, 0x3e, 0x27, 0x22, 0xbb, 0x3d, 0x29, 0xc5, 0x72, 0xbe, 0x76, 0xba, 0x90, 0x3e, 0x14, 0x69, 0xa8, 0x3d, 0x62, 0xf8, 0x68, 0xbc, 0xb7, 0xf6, 0x72, 0x3d, 0xaf, 0x17, 0x8b, 0x3c, 0x2a, 0x8c, 0x17, 0x3d, 0x0c, 0x23, 0x8b, 0x3e, 0xff, 0x5a, 0x7b, 0xbe, 0x00, 0x00, 0x0e, 0x00, 0x14, 0x00, 0x04, 0x00, 0x00, 0x00, 0x08, 0x00, 0x0c, 0x00, 0x10, 0x00, 0x0e, 0x00, 0x00, 0x00, 0x10, 0x00, 0x00, 0x00, 0x02, 0x00, 0x00, 0x00, 0x10, 0x00, 0x00, 0x00, 0x48, 0x00, 0x00, 0x00, 0x01, 0x00, 0x00, 0x00, 0x20, 0x00, 0x00, 0x00, 0x36, 0x00, 0x00, 0x00, 0x53, 0x65, 0x71, 0x75, 0x65, 0x6e, 0x74, 0x69, 0x61, 0x6c, 0x2d, 0x4e, 0x4e, 0x2f, 0x64, 0x65, 0x6e, 0x73, 0x65, 0x5f, 0x35, 0x34, 0x2f, 0x42, 0x69, 0x61, 0x73, 0x41, 0x64, 0x64, 0x2f, 0x52, 0x65, 0x61, 0x64, 0x56, 0x61, 0x72, 0x69, 0x61, 0x62, 0x6c, 0x65, 0x4f, 0x70, 0x2f, 0x72, 0x65, 0x73, 0x6f, 0x75, 0x72, 0x63, 0x65, 0x00, 0x00, 0xa0, 0xff, 0xff, 0xff, 0x14, 0x00, 0x18, 0x00, 0x04, 0x00, 0x00, 0x00, 0x08, 0x00, 0x0c, 0x00, 0x10, 0x00, 0x00, 0x00, 0x00, 0x00, 0x14, 0x00, 0x14, 0x00, 0x00, 0x00, 0x14, 0x00, 0x00, 0x00, 0x01, 0x00, 0x00, 0x00, 0x24, 0x00, 0x00, 0x00, 0x34, 0x00, 0x00, 0x00, 0x10, 0x00, 0x00, 0x00, 0x02, 0x00, 0x00, 0x00, 0x01, 0x00, 0x00, 0x00, 0x20, 0x00, 0x00, 0x00, 0x02, 0x00, 0x00, 0x00, 0xff, 0xff, 0xff, 0xff, 0x20, 0x00, 0x00, 0x00, 0x0e, 0x00, 0x00, 0x00, 0x64, 0x65, 0x6e, 0x73, 0x65, 0x5f, 0x35, 0x34, 0x5f, 0x69, 0x6e, 0x70, 0x75, 0x74, 0x00, 0x00, 0xfc, 0xff, 0xff, 0xff, 0x04, 0x00, 0x04, 0x00, 0x04, 0x00, 0x00, 0x00};
const int model_data_len = 8132;