
#ifdef __has_attribute
#define HAVE_ATTRIBUTE(x) __has_attribute(x)
#else
#define HAVE_ATTRIBUTE(x) 0
#endif
#if HAVE_ATTRIBUTE(aligned) || (defined(__GNUC__) && !defined(__clang__))
#define DATA_ALIGN_ATTRIBUTE __attribute__((aligned(4)))
#else
#define DATA_ALIGN_ATTRIBUTE
#endif

const unsigned char model_data[] DATA_ALIGN_ATTRIBUTE = {0x1c, 0x00, 0x00, 0x00, 0x54, 0x46, 0x4c, 0x33, 0x00, 0x00, 0x12, 0x00, 0x1c, 0x00, 0x04, 0x00, 0x08, 0x00, 0x0c, 0x00, 0x10, 0x00, 0x14, 0x00, 0x00, 0x00, 0x18, 0x00, 0x12, 0x00, 0x00, 0x00, 0x03, 0x00, 0x00, 0x00, 0x14, 0x00, 0x00, 0x00, 0x1c, 0x00, 0x00, 0x00, 0xa8, 0x00, 0x00, 0x00, 0x1c, 0x00, 0x00, 0x00, 0x50, 0x00, 0x00, 0x00, 0x02, 0x00, 0x00, 0x00, 0x58, 0x03, 0x00, 0x00, 0x6c, 0x01, 0x00, 0x00, 0x01, 0x00, 0x00, 0x00, 0xb0, 0x00, 0x00, 0x00, 0x0d, 0x00, 0x00, 0x00, 0xfc, 0x39, 0x00, 0x00, 0xf8, 0x39, 0x00, 0x00, 0x9c, 0x38, 0x00, 0x00, 0x24, 0x37, 0x00, 0x00, 0xb0, 0x36, 0x00, 0x00, 0x58, 0x26, 0x00, 0x00, 0x00, 0x06, 0x00, 0x00, 0xa8, 0x03, 0x00, 0x00, 0xdc, 0x39, 0x00, 0x00, 0xd8, 0x39, 0x00, 0x00, 0xd4, 0x39, 0x00, 0x00, 0xd0, 0x39, 0x00, 0x00, 0x38, 0x00, 0x00, 0x00, 0x01, 0x00, 0x00, 0x00, 0x0c, 0x00, 0x00, 0x00, 0x08, 0x00, 0x0c, 0x00, 0x04, 0x00, 0x08, 0x00, 0x08, 0x00, 0x00, 0x00, 0x08, 0x00, 0x00, 0x00, 0x0c, 0x00, 0x00, 0x00, 0x13, 0x00, 0x00, 0x00, 0x6d, 0x69, 0x6e, 0x5f, 0x72, 0x75, 0x6e, 0x74, 0x69, 0x6d, 0x65, 0x5f, 0x76, 0x65, 0x72, 0x73, 0x69, 0x6f, 0x6e, 0x00, 0xca, 0xc7, 0xff, 0xff, 0x04, 0x00, 0x00, 0x00, 0x10, 0x00, 0x00, 0x00, 0x31, 0x2e, 0x35, 0x2e, 0x30, 0x00, 0x00, 0x00, 0x00, 0x00, 0x00, 0x00, 0x00, 0x00, 0x00, 0x00, 0x0f, 0x00, 0x00, 0x00, 0x4d, 0x4c, 0x49, 0x52, 0x20, 0x43, 0x6f, 0x6e, 0x76, 0x65, 0x72, 0x74, 0x65, 0x64, 0x2e, 0x00, 0x00, 0x00, 0x0e, 0x00, 0x18, 0x00, 0x04, 0x00, 0x08, 0x00, 0x0c, 0x00, 0x10, 0x00, 0x14, 0x00, 0x0e, 0x00, 0x00, 0x00, 0x14, 0x00, 0x00, 0x00, 0x40, 0x00, 0x00, 0x00, 0x44, 0x00, 0x00, 0x00, 0x48, 0x00, 0x00, 0x00, 0x58, 0x00, 0x00, 0x00, 0x0b, 0x00, 0x00, 0x00, 0xec, 0x38, 0x00, 0x00, 0x78, 0x38, 0x00, 0x00, 0x70, 0x37, 0x00, 0x00, 0x04, 0x36, 0x00, 0x00, 0xa4, 0x35, 0x00, 0x00, 0x4c, 0x25, 0x00, 0x00, 0xf4, 0x04, 0x00, 0x00, 0x70, 0x02, 0x00, 0x00, 0x94, 0x01, 0x00, 0x00, 0xf4, 0x00, 0x00, 0x00, 0x7c, 0x00, 0x00, 0x00, 0x01, 0x00, 0x00, 0x00, 0x00, 0x00, 0x00, 0x00, 0x01, 0x00, 0x00, 0x00, 0x0a, 0x00, 0x00, 0x00, 0x04, 0x00, 0x00, 0x00, 0xf8, 0x01, 0x00, 0x00, 0x3c, 0x01, 0x00, 0x00, 0xa0, 0x00, 0x00, 0x00, 0x1c, 0x00, 0x00, 0x00, 0x04, 0x00, 0x00, 0x00, 0x6d, 0x61, 0x69, 0x6e, 0x00, 0x00, 0x0e, 0x00, 0x18, 0x00, 0x08, 0x00, 0x0c, 0x00, 0x10, 0x00, 0x07, 0x00, 0x14, 0x00, 0x0e, 0x00, 0x00, 0x00, 0x00, 0x00, 0x00, 0x09, 0x01, 0x00, 0x00, 0x00, 0x1c, 0x00, 0x00, 0x00, 0x10, 0x00, 0x00, 0x00, 0x04, 0x00, 0x00, 0x00, 0xa6, 0xc8, 0xff, 0xff, 0x00, 0x00, 0x80, 0x3f, 0x01, 0x00, 0x00, 0x00, 0x0a, 0x00, 0x00, 0x00, 0x01, 0x00, 0x00, 0x00, 0x09, 0x00, 0x00, 0x00, 0x22, 0xfe, 0xff, 0xff, 0x00, 0x00, 0x00, 0x19, 0x01, 0x00, 0x00, 0x00, 0xcc, 0xc7, 0xff, 0xff, 0x14, 0x00, 0x00, 0x00, 0x0b, 0x00, 0x00, 0x00, 0x18, 0x00, 0x00, 0x00, 0x30, 0x00, 0x00, 0x00, 0x20, 0x00, 0x00, 0x00, 0x02, 0x00, 0x00, 0x00, 0x01, 0x00, 0x00, 0x00, 0x02, 0x00, 0x00, 0x00, 0x08, 0x00, 0x00, 0x00, 0x49, 0x64, 0x65, 0x6e, 0x74, 0x69, 0x74, 0x79, 0x00, 0x00, 0x00, 0x00, 0x02, 0x00, 0x00, 0x00, 0xff, 0xff, 0xff, 0xff, 0x02, 0x00, 0x00, 0x00, 0xb0, 0xc7, 0xff, 0xff, 0x76, 0xff, 0xff, 0xff, 0x00, 0x00, 0x00, 0x08, 0x18, 0x00, 0x00, 0x00, 0x0c, 0x00, 0x00, 0x00, 0x04, 0x00, 0x00, 0x00, 0xc8, 0xc7, 0xff, 0xff, 0x01, 0x00, 0x00, 0x00, 0x09, 0x00, 0x00, 0x00, 0x03, 0x00, 0x00, 0x00, 0x08, 0x00, 0x00, 0x00, 0x06, 0x00, 0x00, 0x00, 0x03, 0x00, 0x00, 0x00, 0x40, 0xc8, 0xff, 0xff, 0x14, 0x00, 0x00, 0x00, 0x0a, 0x00, 0x00, 0x00, 0x18, 0x00, 0x00, 0x00, 0x44, 0x00, 0x00, 0x00, 0x34, 0x00, 0x00, 0x00, 0x02, 0x00, 0x00, 0x00, 0x01, 0x00, 0x00, 0x00, 0x02, 0x00, 0x00, 0x00, 0x1e, 0x00, 0x00, 0x00, 0x53, 0x65, 0x71, 0x75, 0x65, 0x6e, 0x74, 0x69, 0x61, 0x6c, 0x2d, 0x4e, 0x4e, 0x2f, 0x64, 0x65, 0x6e, 0x73, 0x65, 0x5f, 0x31, 0x34, 0x2f, 0x42, 0x69, 0x61, 0x73, 0x41, 0x64, 0x64, 0x00, 0x00, 0x02, 0x00, 0x00, 0x00, 0xff, 0xff, 0xff, 0xff, 0x02, 0x00, 0x00, 0x00, 0x9c, 0xc9, 0xff, 0xff, 0x00, 0x00, 0x0e, 0x00, 0x14, 0x00, 0x00, 0x00, 0x08, 0x00, 0x0c, 0x00, 0x07, 0x00, 0x10, 0x00, 0x0e, 0x00, 0x00, 0x00, 0x00, 0x00, 0x00, 0x08, 0x1c, 0x00, 0x00, 0x00, 0x10, 0x00, 0x00, 0x00, 0x04, 0x00, 0x00, 0x00, 0x46, 0xff, 0xff, 0xff, 0x00, 0x00, 0x00, 0x01, 0x01, 0x00, 0x00, 0x00, 0x08, 0x00, 0x00, 0x00, 0x03, 0x00, 0x00, 0x00, 0x07, 0x00, 0x00, 0x00, 0x05, 0x00, 0x00, 0x00, 0x02, 0x00, 0x00, 0x00, 0xdc, 0xc8, 0xff, 0xff, 0x14, 0x00, 0x00, 0x00, 0x09, 0x00, 0x00, 0x00, 0x18, 0x00, 0x00, 0x00, 0x60, 0x00, 0x00, 0x00, 0x50, 0x00, 0x00, 0x00, 0x02, 0x00, 0x00, 0x00, 0x01, 0x00, 0x00, 0x00, 0x40, 0x00, 0x00, 0x00, 0x3a, 0x00, 0x00, 0x00, 0x53, 0x65, 0x71, 0x75, 0x65, 0x6e, 0x74, 0x69, 0x61, 0x6c, 0x2d, 0x4e, 0x4e, 0x2f, 0x64, 0x65, 0x6e, 0x73, 0x65, 0x5f, 0x31, 0x33, 0x2f, 0x52, 0x65, 0x6c, 0x75, 0x3b, 0x53, 0x65, 0x71, 0x75, 0x65, 0x6e, 0x74, 0x69, 0x61, 0x6c, 0x2d, 0x4e, 0x4e, 0x2f, 0x64, 0x65, 0x6e, 0x73, 0x65, 0x5f, 0x31, 0x33, 0x2f, 0x42, 0x69, 0x61, 0x73, 0x41, 0x64, 0x64, 0x00, 0x00, 0x02, 0x00, 0x00, 0x00, 0xff, 0xff, 0xff, 0xff, 0x40, 0x00, 0x00, 0x00, 0x54, 0xca, 0xff, 0xff, 0x00, 0x00, 0x0e, 0x00, 0x16, 0x00, 0x00, 0x00, 0x08, 0x00, 0x0c, 0x00, 0x07, 0x00, 0x10, 0x00, 0x0e, 0x00, 0x00, 0x00, 0x00, 0x00, 0x00, 0x08, 0x24, 0x00, 0x00, 0x00, 0x18, 0x00, 0x00, 0x00, 0x0c, 0x00, 0x00, 0x00, 0x00, 0x00, 0x06, 0x00, 0x08, 0x00, 0x07, 0x00, 0x06, 0x00, 0x00, 0x00, 0x00, 0x00, 0x00, 0x01, 0x01, 0x00, 0x00, 0x00, 0x07, 0x00, 0x00, 0x00, 0x03, 0x00, 0x00, 0x00, 0x00, 0x00, 0x00, 0x00, 0x04, 0x00, 0x00, 0x00, 0x01, 0x00, 0x00, 0x00, 0x00, 0x00, 0x0a, 0x00, 0x0c, 0x00, 0x07, 0x00, 0x00, 0x00, 0x08, 0x00, 0x0a, 0x00, 0x00, 0x00, 0x00, 0x00, 0x00, 0x09, 0x01, 0x00, 0x00, 0x00, 0xb4, 0xc9, 0xff, 0xff, 0x14, 0x00, 0x00, 0x00, 0x08, 0x00, 0x00, 0x00, 0x18, 0x00, 0x00, 0x00, 0x60, 0x00, 0x00, 0x00, 0x50, 0x00, 0x00, 0x00, 0x02, 0x00, 0x00, 0x00, 0x01, 0x00, 0x00, 0x00, 0x20, 0x00, 0x00, 0x00, 0x3a, 0x00, 0x00, 0x00, 0x53, 0x65, 0x71, 0x75, 0x65, 0x6e, 0x74, 0x69, 0x61, 0x6c, 0x2d, 0x4e, 0x4e, 0x2f, 0x64, 0x65, 0x6e, 0x73, 0x65, 0x5f, 0x31, 0x32, 0x2f, 0x52, 0x65, 0x6c, 0x75, 0x3b, 0x53, 0x65, 0x71, 0x75, 0x65, 0x6e, 0x74, 0x69, 0x61, 0x6c, 0x2d, 0x4e, 0x4e, 0x2f, 0x64, 0x65, 0x6e, 0x73, 0x65, 0x5f, 0x31, 0x32, 0x2f, 0x42, 0x69, 0x61, 0x73, 0x41, 0x64, 0x64, 0x00, 0x00, 0x02, 0x00, 0x00, 0x00, 0xff, 0xff, 0xff, 0xff, 0x20, 0x00, 0x00, 0x00, 0xc8, 0xc9, 0xff, 0xff, 0x26, 0xcb, 0xff, 0xff, 0x04, 0x00, 0x00, 0x00, 0x00, 0x02, 0x00, 0x00, 0x7c, 0x8c, 0x5a, 0x3e, 0x3a, 0x5d, 0x62, 0xbe, 0x21, 0x40, 0x0d, 0xbe, 0x6e, 0xf9, 0x6b, 0xbe, 0x06, 0x82, 0xa7, 0xbc, 0x6c, 0x7a, 0x8d, 0xbe, 0x33, 0xc1, 0x56, 0x3e, 0xc7, 0x6c, 0xd1, 0x3d, 0x2c, 0x53, 0x88, 0x3e, 0x47, 0xcc, 0xc5, 0x3e, 0x73, 0xef, 0x8d, 0xbe, 0x9d, 0xab, 0xaa, 0x3e, 0x35, 0xcd, 0x98, 0x3d, 0xb6, 0xcc, 0xe4, 0xbd, 0xa0, 0x08, 0x2f, 0xbe, 0x0d, 0x08, 0x00, 0xbe, 0xb1, 0x80, 0xa2, 0x3d, 0x4c, 0x15, 0xb2, 0x3d, 0x77, 0x3f, 0x13, 0x3d, 0xfd, 0xdc, 0x4d, 0x3c, 0xd2, 0xf3, 0x55, 0xbe, 0xea, 0xdd, 0x86, 0x3d, 0x78, 0xbf, 0x06, 0x3e, 0x3c, 0x19, 0x12, 0xbe, 0x31, 0x12, 0xaa, 0xbe, 0x21, 0x15, 0x9b, 0xbe, 0xe0, 0xe2, 0xf1, 0x3d, 0xd4, 0x02, 0x87, 0xbd, 0xe0, 0x31, 0xa0, 0x3e, 0x3c, 0x4f, 0xde, 0x3d, 0x32, 0xc7, 0x3f, 0xbe, 0x8e, 0xa6, 0xaf, 0xbe, 0x18, 0x8f, 0xe3, 0x3e, 0x7b, 0x1c, 0x13, 0xbe, 0x4b, 0x43, 0xbe, 0xbd, 0x10, 0xfd, 0x87, 0xbc, 0xe0, 0x8e, 0x19, 0xbc, 0xbc, 0x46, 0x4b, 0x3e, 0xcc, 0x56, 0xcb, 0x3e, 0x78, 0x88, 0x9c, 0xbe, 0xf0, 0x3b, 0x98, 0x3d, 0x40, 0x34, 0x94, 0x3e, 0xa5, 0x15, 0x99, 0xbd, 0xa0, 0xbb, 0xa3, 0x3e, 0x17, 0x95, 0xed, 0x3b, 0xbb, 0xf4, 0xa8, 0xbe, 0xab, 0xba, 0xe3, 0x3d, 0xda, 0x43, 0x3c, 0xbe, 0x61, 0x8d, 0xbf, 0xbe, 0x57, 0x0a, 0xa1, 0xbc, 0x58, 0xb8, 0xa5, 0x3e, 0x0f, 0xbf, 0x99, 0xbe, 0xb3, 0x66, 0x1a, 0xbe, 0x71, 0x43, 0x9e, 0x3e, 0xa2, 0x89, 0xa9, 0xbe, 0x98, 0xab, 0x70, 0x3e, 0x57, 0xec, 0xa1, 0x3e, 0xe0, 0x7c, 0x3d, 0xbe, 0x65, 0xa7, 0x1c, 0xbd, 0xdd, 0x14, 0x87, 0x3e, 0xbc, 0xa5, 0xe7, 0xbd, 0x07, 0x0c, 0x99, 0x3e, 0xa7, 0xb7, 0xaf, 0xbe, 0x37, 0x68, 0xd5, 0x3d, 0xa5, 0xab, 0x6b, 0xbe, 0x5d, 0x05, 0x10, 0x3e, 0x10, 0x9b, 0x28, 0x3e, 0x7b, 0xaa, 0x87, 0x3e, 0xbb, 0xe6, 0x52, 0x3e, 0xc8, 0x4a, 0x40, 0x3d, 0x41, 0x84, 0x2f, 0x3d, 0x8d, 0xc9, 0xa6, 0x3e, 0xeb, 0x68, 0xdd, 0xbe, 0x46, 0x66, 0xc4, 0xbe, 0xee, 0x63, 0x42, 0x3e, 0xdd, 0x56, 0x07, 0x3c, 0x4d, 0xaa, 0x0c, 0xbe, 0x8c, 0x97, 0x83, 0x3e, 0x5b, 0xbd, 0xb5, 0x3d, 0xfc, 0xd3, 0x95, 0x3e, 0x0e, 0x10, 0xab, 0xbe, 0x15, 0x61, 0x26, 0xbe, 0x24, 0xd5, 0xff, 0xbc, 0xa8, 0x8d, 0xbb, 0xbe, 0xa1, 0xd1, 0xd4, 0xbc, 0xb7, 0x72, 0x97, 0x3e, 0x0d, 0xb7, 0x89, 0x3e, 0x32, 0x38, 0xad, 0x3d, 0xef, 0xc8, 0xa9, 0x3d, 0xf9, 0xc8, 0x11, 0x3e, 0xf8, 0x31, 0x25, 0x3d, 0x54, 0x76, 0xea, 0x3d, 0x21, 0x10, 0xc1, 0x3c, 0xba, 0x2e, 0x9e, 0x3e, 0x9d, 0xf3, 0x26, 0xbc, 0x61, 0x84, 0xc7, 0xbd, 0xd9, 0xb0, 0xed, 0xbe, 0x7d, 0xc6, 0xcc, 0x3e, 0x8b, 0xc6, 0xc6, 0x3d, 0x22, 0x5c, 0x87, 0xbe, 0x63, 0x72, 0x23, 0xbe, 0x52, 0x03, 0x52, 0xbe, 0x03, 0xc9, 0xcb, 0xbe, 0xfd, 0xc3, 0x41, 0x3e, 0xa5, 0xf6, 0x8a, 0xbe, 0x00, 0x0e, 0xd7, 0xbd, 0xa6, 0x69, 0x75, 0x3e, 0x7a, 0x3b, 0x31, 0x3e, 0x84, 0x54, 0x8c, 0x3e, 0x37, 0x8f, 0xd3, 0x3e, 0x8a, 0x34, 0xab, 0xbc, 0x0a, 0xb2, 0xcf, 0x3e, 0xe9, 0xef, 0xb4, 0xbd, 0xbc, 0xe7, 0xad, 0x3e, 0x63, 0x7c, 0x8a, 0xbe, 0x8a, 0xa2, 0x5e, 0x3c, 0x05, 0x24, 0x88, 0x3e, 0xb2, 0xed, 0x9c, 0xbe, 0x57, 0x37, 0xcb, 0x3d, 0x7e, 0x9c, 0xba, 0xbc, 0x65, 0x8c, 0xc7, 0xbe, 0x43, 0xe5, 0x52, 0x3e, 0x42, 0xfe, 0x48, 0xbe, 0x8d, 0x43, 0xb9, 0xbe, 0x89, 0x1d, 0xd2, 0xbe, 0x85, 0xe3, 0x0c, 0xbe, 0x64, 0x51, 0x92, 0x3e, 0x30, 0xe3, 0x83, 0x3e, 0x9e, 0xcc, 0xff, 0xff, 0x10, 0x00, 0x00, 0x00, 0x07, 0x00, 0x00, 0x00, 0x14, 0x00, 0x00, 0x00, 0x34, 0x00, 0x00, 0x00, 0x02, 0x00, 0x00, 0x00, 0x02, 0x00, 0x00, 0x00, 0x40, 0x00, 0x00, 0x00, 0x1d, 0x00, 0x00, 0x00, 0x53, 0x65, 0x71, 0x75, 0x65, 0x6e, 0x74, 0x69, 0x61, 0x6c, 0x2d, 0x4e, 0x4e, 0x2f, 0x64, 0x65, 0x6e, 0x73, 0x65, 0x5f, 0x31, 0x34, 0x2f, 0x4d, 0x61, 0x74, 0x4d, 0x75, 0x6c, 0x00, 0x00, 0x00, 0x1c, 0xcc, 0xff, 0xff, 0x7a, 0xcd, 0xff, 0xff, 0x04, 0x00, 0x00, 0x00, 0x00, 0x20, 0x00, 0x00, 0xd4, 0xa4, 0xce, 0x3c, 0xc6, 0x9c, 0x15, 0x3e, 0xd1, 0xe2, 0x14, 0x3d, 0xb4, 0x44, 0x13, 0xbe, 0x7d, 0x37, 0xb9, 0xbc, 0xb3, 0x03, 0xc3, 0xbd, 0x2f, 0xbd, 0x3f, 0xbe, 0x80, 0x08, 0xff, 0xbd, 0xbd, 0xd3, 0x57, 0xbd, 0xb5, 0x71, 0xff, 0x3e, 0x4f, 0x61, 0xb5, 0xbd, 0xe7, 0xfd, 0x8f, 0xbe, 0x37, 0xc9, 0x3f, 0xbc, 0x4a, 0x5c, 0x16, 0xbe, 0xb0, 0xe6, 0x6e, 0x3d, 0xd8, 0x07, 0x66, 0x3e, 0xc3, 0xa9, 0x0f, 0x3d, 0x89, 0x3c, 0xe6, 0xbc, 0xcf, 0xed, 0xd4, 0xbc, 0x9a, 0x22, 0x97, 0xbd, 0xc9, 0x22, 0x0a, 0x3d, 0x5c, 0x10, 0xd9, 0xbd, 0x62, 0x17, 0x79, 0x3e, 0x77, 0xe6, 0x01, 0x3e, 0x03, 0x48, 0xa6, 0x3e, 0x56, 0x6d, 0x94, 0xbd, 0xb2, 0xab, 0x76, 0xbe, 0x63, 0x58, 0x19, 0xbe, 0xb8, 0xb5, 0xa6, 0xbb, 0x63, 0xd6, 0x28, 0x3e, 0xbc, 0x35, 0x39, 0x3d, 0x7f, 0x82, 0x5c, 0x3e, 0xb2, 0x31, 0xa9, 0xbd, 0x15, 0xd1, 0x26, 0x3e, 0xb0, 0xc3, 0xb0, 0xbe, 0x79, 0x66, 0x12, 0xbd, 0xe9, 0xba, 0xf7, 0x3d, 0x04, 0x8e, 0x5e, 0x3e, 0x79, 0xb6, 0xea, 0xb8, 0x10, 0x0d, 0x4c, 0x3e, 0x29, 0x2b, 0x06, 0xbe, 0x6e, 0x66, 0x92, 0xbe, 0x01, 0xc1, 0x90, 0xbe, 0x2a, 0x2b, 0x1c, 0x3e, 0x6b, 0xcc, 0x22, 0xbe, 0x11, 0xec, 0x43, 0xbd, 0x15, 0x1c, 0x9a, 0x3e, 0x0b, 0xed, 0x95, 0xbe, 0x7b, 0x14, 0x10, 0xbd, 0x46, 0x99, 0x4b, 0xbd, 0x75, 0x37, 0x65, 0x3c, 0x46, 0x54, 0x2a, 0xbe, 0xba, 0x01, 0xdc, 0x3b, 0x2f, 0xd2, 0x24, 0x3d, 0x17, 0xd7, 0xcb, 0x3c, 0xd9, 0x09, 0xa5, 0x3c, 0x23, 0x48, 0x37, 0xbe, 0xb3, 0x99, 0x03, 0xbd, 0xce, 0x00, 0xb5, 0xbd, 0x78, 0xd0, 0x8b, 0x3e, 0xbb, 0x72, 0x47, 0x3e, 0x68, 0x0b, 0x4d, 0x3e, 0x0c, 0x27, 0x46, 0x3e, 0xd1, 0x4c, 0x26, 0xbe, 0xf4, 0x02, 0x0c, 0x3e, 0xed, 0xd2, 0x6a, 0xbe, 0x9e, 0x71, 0x57, 0x3b, 0x10, 0x94, 0xa9, 0xbd, 0x7c, 0x7e, 0x08, 0xbe, 0x18, 0xd6, 0x31, 0x3e, 0x57, 0x23, 0x60, 0xbe, 0x32, 0x99, 0x47, 0x3e, 0xae, 0x83, 0x23, 0xbe, 0x9c, 0x1b, 0x26, 0xbe, 0xef, 0xe4, 0x7f, 0x3d, 0xcb, 0x6c, 0x5d, 0x3e, 0xbf, 0xba, 0x98, 0xbd, 0xbc, 0x5e, 0x82, 0xbb, 0x26, 0x9a, 0xf6, 0x3d, 0xc2, 0xa8, 0x40, 0xbe, 0xb1, 0x32, 0x69, 0xbd, 0xc5, 0x00, 0xc4, 0x3d, 0x2f, 0xd5, 0x3b, 0x3e, 0x52, 0xe0, 0x90, 0xbe, 0x42, 0xa2, 0x2f, 0x3d, 0x10, 0x9e, 0x48, 0x3e, 0x21, 0x4a, 0x2a, 0xbd, 0x2b, 0x74, 0x8a, 0x3e, 0xfa, 0x2c, 0xf8, 0x3c, 0xb4, 0x69, 0x70, 0xbd, 0x37, 0x74, 0x94, 0xbe, 0xe7, 0x52, 0xf2, 0x3d, 0xca, 0x01, 0xda, 0xbc, 0xcd, 0x5b, 0x6d, 0x3e, 0xb8, 0xd0, 0x0d, 0xbd, 0xab, 0xa2, 0x3f, 0x3d, 0xcf, 0xbd, 0xae, 0xbb, 0x04, 0x5e, 0xf4, 0x3d, 0x22, 0xc9, 0xfb, 0x3d, 0x89, 0x85, 0x5d, 0xbe, 0xa5, 0x51, 0x44, 0xbe, 0xd9, 0xf5, 0x89, 0xbe, 0x9f, 0xbb, 0x58, 0xbe, 0x48, 0x80, 0xe0, 0xbd, 0x13, 0xe3, 0xaa, 0x3d, 0x19, 0xb1, 0xee, 0x3c, 0x60, 0x69, 0x01, 0x3e, 0xb8, 0x2e, 0xa8, 0x3d, 0xc9, 0xb7, 0x1e, 0x3e, 0xbe, 0x56, 0x61, 0xbc, 0x58, 0x36, 0x14, 0xbe, 0x0d, 0x28, 0xec, 0xbd, 0x40, 0x43, 0x21, 0xbc, 0xa2, 0x01, 0x17, 0x3e, 0xe6, 0x77, 0xc4, 0xbd, 0x20, 0xe8, 0xa3, 0xbe, 0x9b, 0xfb, 0xe6, 0x3d, 0x18, 0x09, 0x3b, 0x3d, 0x9f, 0x10, 0x9b, 0xbe, 0x6e, 0x5e, 0xb0, 0x3d, 0x7e, 0x4e, 0x52, 0xbe, 0x4a, 0x19, 0x5d, 0x3e, 0x21, 0x00, 0x63, 0xbd, 0xcd, 0xe0, 0xf2, 0xbd, 0x29, 0xf5, 0x26, 0x3e, 0xbc, 0x0a, 0xc4, 0xbd, 0x72, 0xea, 0xfe, 0xbd, 0xbf, 0x99, 0xef, 0x3d, 0x3b, 0xc5, 0xae, 0xbd, 0xc9, 0x7a, 0x58, 0xbe, 0xa8, 0x8e, 0xba, 0xbd, 0xbc, 0x26, 0x5a, 0x3e, 0xa1, 0x67, 0xba, 0xbd, 0x67, 0x19, 0x58, 0xbe, 0xd2, 0x3b, 0x0f, 0xbe, 0xe7, 0xd6, 0xfb, 0xbc, 0x6c, 0xa2, 0x50, 0x3e, 0x3b, 0x97, 0x33, 0xbd, 0x3e, 0x1e, 0x40, 0x3e, 0xc4, 0xc1, 0x45, 0x3d, 0x6c, 0x19, 0x48, 0x3d, 0x16, 0x5e, 0xcf, 0x3d, 0x2a, 0xf4, 0xed, 0xbc, 0xc2, 0xae, 0x8c, 0x3d, 0x8e, 0x7d, 0xb6, 0x3d, 0x1a, 0xfe, 0x10, 0x3e, 0xf1, 0x09, 0x59, 0xbe, 0x75, 0x60, 0xb8, 0x3d, 0x1a, 0x24, 0x92, 0x3e, 0xb1, 0x8c, 0xe2, 0xbd, 0x71, 0xe6, 0x8f, 0xbc, 0x36, 0x52, 0x99, 0x3d, 0x71, 0x11, 0x78, 0xbe, 0x60, 0x03, 0x8e, 0xbd, 0x81, 0x93, 0x8e, 0xbe, 0xe1, 0x83, 0x67, 0xbe, 0x73, 0x9b, 0xb3, 0xbd, 0x41, 0x02, 0x83, 0x3d, 0xec, 0xcb, 0x30, 0x3e, 0x59, 0x44, 0x17, 0xbe, 0x24, 0xe1, 0xd9, 0xbd, 0xb1, 0xf6, 0x70, 0xbe, 0xc4, 0x39, 0x08, 0xbe, 0x1e, 0x7e, 0x46, 0xbe, 0xa1, 0x80, 0x96, 0x3d, 0xd4, 0x88, 0xdb, 0xbd, 0x24, 0x39, 0x87, 0x3e, 0x05, 0x44, 0x35, 0xbe, 0x8b, 0x9a, 0x5b, 0xbe, 0x35, 0x1d, 0xbd, 0x3c, 0x35, 0x68, 0x1b, 0xbe, 0xdd, 0xc8, 0xa7, 0xbd, 0xbc, 0xdf, 0x71, 0xbe, 0xca, 0x72, 0x72, 0x3e, 0x54, 0xa1, 0x89, 0xbd, 0xd9, 0xff, 0x83, 0xbd, 0x93, 0xd1, 0x7d, 0xbe, 0x68, 0x17, 0x1a, 0xbe, 0x9e, 0xe6, 0x39, 0xbe, 0x38, 0x2a, 0x20, 0x3c, 0xf7, 0x5f, 0x27, 0xbb, 0x94, 0xf9, 0xea, 0xbd, 0xc3, 0x94, 0xe8, 0x3d, 0x2e, 0xa2, 0xf9, 0x3d, 0x08, 0x1c, 0xf7, 0xbd, 0x5d, 0x6f, 0x1c, 0x3d, 0x48, 0x77, 0xe2, 0xbd, 0xe9, 0xe3, 0x57, 0x3e, 0x9e, 0x09, 0x23, 0x3e, 0xaf, 0xbb, 0x46, 0x3e, 0x2e, 0x69, 0xba, 0xbc, 0x3b, 0xad, 0x28, 0x3e, 0xb9, 0xc0, 0x81, 0x3e, 0x3e, 0x51, 0x47, 0x3d, 0x10, 0x0e, 0x8b, 0x3c, 0x11, 0x31, 0x73, 0x3e, 0xeb, 0x62, 0x3b, 0xbe, 0xfc, 0x6c, 0xb2, 0x3c, 0x7f, 0xa6, 0x7b, 0x3d, 0xd5, 0xc7, 0x4d, 0xbe, 0xb9, 0x89, 0x8f, 0xbe, 0x49, 0xdf, 0x1d, 0x3e, 0x8e, 0xc1, 0x0c, 0x3e, 0x0d, 0x90, 0x73, 0x3c, 0xe3, 0x70, 0x2e, 0xbe, 0xde, 0x9f, 0xdb, 0x3d, 0x3f, 0x3c, 0x3a, 0x3d, 0x1f, 0x3e, 0x32, 0xbe, 0xc7, 0x47, 0xc5, 0x3d, 0xa1, 0x9f, 0xac, 0x3d, 0x1a, 0x12, 0x1e, 0xbe, 0x50, 0xcb, 0xc0, 0x3e, 0x13, 0x63, 0x28, 0x3d, 0x46, 0x5f, 0xde, 0xbd, 0x41, 0x15, 0x3a, 0xbe, 0xf0, 0x09, 0xea, 0x3c, 0x00, 0x4e, 0x2f, 0x3e, 0x70, 0x53, 0x56, 0xbe, 0x08, 0x43, 0xfd, 0x3d, 0xa4, 0x23, 0x32, 0x3c, 0x73, 0x3e, 0xc0, 0x3c, 0xd2, 0xe6, 0x72, 0xbd, 0x8b, 0x33, 0x8c, 0xbd, 0x7f, 0x5d, 0x08, 0x3e, 0x63, 0x69, 0x0b, 0xbe, 0xbc, 0x8d, 0x64, 0x3e, 0x54, 0x51, 0xdb, 0x3d, 0xb7, 0x8d, 0x42, 0x3e, 0x42, 0x04, 0x53, 0x3b, 0xd7, 0xe5, 0xca, 0xbd, 0xe8, 0xe3, 0x8b, 0xbe, 0x10, 0x70, 0xe8, 0xbc, 0xb9, 0x0b, 0x1e, 0x3c, 0x66, 0x35, 0x8e, 0xbe, 0x60, 0x25, 0x9d, 0xbe, 0x5c, 0x6a, 0x68, 0xbe, 0xf5, 0x58, 0x71, 0xbe, 0x99, 0x3a, 0xe1, 0x3d, 0xa8, 0xfe, 0xe3, 0x3d, 0xd4, 0x81, 0x0a, 0x3e, 0x3f, 0x61, 0x2a, 0xbe, 0xa1, 0xe8, 0x2a, 0xbe, 0x29, 0xfc, 0x80, 0x3e, 0x56, 0x14, 0x5b, 0xbe, 0x3b, 0xc8, 0x39, 0xbe, 0x90, 0xcb, 0x5f, 0x3e, 0x93, 0x8b, 0x4f, 0xbc, 0x76, 0xf2, 0xdd, 0x3d, 0x91, 0xb2, 0x59, 0x3d, 0x5f, 0x9d, 0x9e, 0x3d, 0x24, 0x6b, 0xa3, 0xbd, 0xe2, 0x4e, 0x61, 0xbe, 0x0f, 0xae, 0x1e, 0xbe, 0xc8, 0x40, 0x86, 0xbe, 0xb7, 0x05, 0x99, 0xbe, 0xf8, 0x34, 0xc4, 0xbd, 0x85, 0xc9, 0x45, 0xbe, 0x3b, 0x75, 0x45, 0x3e, 0x9b, 0x29, 0x68, 0xbd, 0x59, 0xe4, 0x43, 0xbe, 0x61, 0x61, 0xe4, 0x3d, 0xee, 0x52, 0x8a, 0xbe, 0x39, 0xfc, 0xf0, 0x3d, 0x50, 0x5c, 0x78, 0xbd, 0x8a, 0x45, 0x2e, 0xbe, 0x44, 0x1a, 0x8f, 0x3e, 0x34, 0xcf, 0x68, 0x3c, 0x16, 0x49, 0x56, 0x3e, 0x75, 0xc0, 0x43, 0x3d, 0xe7, 0x8e, 0xda, 0x3d, 0x48, 0xcd, 0xb4, 0x3d, 0xd4, 0xf1, 0x28, 0xbe, 0x63, 0xb6, 0x11, 0xbe, 0x2a, 0xd7, 0xb7, 0xbd, 0x7b, 0xca, 0x5e, 0x3e, 0xef, 0x39, 0xd1, 0x3d, 0x6a, 0xe4, 0x08, 0xbe, 0x73, 0x85, 0x78, 0xbe, 0x34, 0xf5, 0xa9, 0x3d, 0x1f, 0x54, 0x46, 0xbc, 0x1a, 0xbf, 0x9b, 0x3e, 0x69, 0x19, 0x35, 0xbe, 0x30, 0xcc, 0x73, 0xbd, 0x56, 0xa3, 0x46, 0x3c, 0xae, 0x2c, 0x90, 0x3c, 0x6b, 0xe7, 0x9c, 0xbd, 0x6a, 0xe1, 0xbe, 0x3e, 0xab, 0xa2, 0x8e, 0xbd, 0x81, 0x31, 0x6f, 0xbe, 0xfe, 0x3d, 0xe7, 0x3d, 0x5c, 0xbe, 0x86, 0x3e, 0xd0, 0x69, 0x0b, 0xbe, 0x19, 0x6c, 0x0c, 0x3e, 0xff, 0x0c, 0x99, 0xbe, 0x32, 0x8f, 0xa7, 0xbd, 0x07, 0xe9, 0xcf, 0xbc, 0x0e, 0x35, 0x00, 0x3d, 0xcd, 0x92, 0xcb, 0x3e, 0x69, 0x7f, 0xaa, 0x3d, 0x50, 0xc3, 0x6e, 0xbe, 0x6d, 0xa6, 0xb2, 0x3d, 0xfc, 0x9f, 0xa5, 0x3b, 0x10, 0xba, 0x2c, 0xbe, 0x2d, 0x9e, 0x60, 0x3e, 0x72, 0xfb, 0x57, 0xbd, 0x14, 0x9b, 0xd8, 0xbd, 0xa9, 0xc8, 0xa8, 0x3a, 0x20, 0x5b, 0x89, 0x3c, 0x13, 0x63, 0x99, 0xbe, 0x61, 0xd7, 0xab, 0x3d, 0x30, 0x76, 0x9b, 0x3d, 0x61, 0xe6, 0x26, 0x3e, 0xd0, 0x70, 0x18, 0x3e, 0x4a, 0xc3, 0x4c, 0xbc, 0x10, 0xa0, 0x13, 0xbe, 0x80, 0xd7, 0xe3, 0x3d, 0x70, 0xf1, 0xc8, 0xbd, 0x1c, 0x2e, 0x1c, 0xbe, 0xaf, 0xb4, 0xc3, 0x3d, 0xba, 0x38, 0xaf, 0x3e, 0xe7, 0xc6, 0xfb, 0x3d, 0x28, 0x26, 0x0c, 0x3e, 0xd0, 0x83, 0x48, 0xbe, 0x72, 0xb0, 0xcb, 0x3d, 0x09, 0x97, 0x43, 0x3e, 0xc1, 0xf4, 0x67, 0x3c, 0x07, 0x4d, 0xf7, 0x3d, 0xa3, 0x57, 0xcd, 0x3d, 0x5e, 0x19, 0x97, 0x3b, 0x2b, 0x23, 0x51, 0xbe, 0x34, 0x6f, 0x86, 0xbe, 0xfb, 0x5d, 0xd1, 0xbd, 0x4e, 0x8c, 0x49, 0xbe, 0x7c, 0x17, 0xdb, 0x3d, 0x78, 0x19, 0x37, 0x3e, 0x69, 0x72, 0x77, 0xbe, 0xfb, 0x91, 0x0b, 0xbd, 0xf2, 0x45, 0x07, 0x3e, 0xfe, 0xef, 0xa6, 0x3c, 0xf7, 0x5a, 0x64, 0xbe, 0xa9, 0x0c, 0x74, 0xbe, 0xd6, 0x26, 0x89, 0xbd, 0xa3, 0x83, 0xeb, 0xbc, 0xeb, 0x83, 0x4c, 0x3e, 0x65, 0xca, 0x1e, 0x3e, 0xcb, 0x58, 0x53, 0xbe, 0xe7, 0xc4, 0xbf, 0xbd, 0x8b, 0xa9, 0x9a, 0x3e, 0xaf, 0x1e, 0xd4, 0x3d, 0xea, 0x66, 0x27, 0xbd, 0xb5, 0x93, 0x79, 0x3d, 0x60, 0x7f, 0xfb, 0xbd, 0xce, 0x62, 0x07, 0x3e, 0xe7, 0x2c, 0x0f, 0x3d, 0x25, 0xa8, 0xf1, 0x3d, 0xed, 0x5f, 0x60, 0x3d, 0xd7, 0x9c, 0x4d, 0xbe, 0x75, 0x52, 0xad, 0xbd, 0xc8, 0x82, 0x2b, 0xbe, 0xc3, 0xa2, 0x1f, 0x3e, 0xbf, 0x89, 0x4e, 0xbe, 0x8d, 0x0c, 0xfb, 0x3e, 0x3e, 0xc5, 0x75, 0x3e, 0x9c, 0x0a, 0x4b, 0x3e, 0x7b, 0x4f, 0xe8, 0x3e, 0xdc, 0x2a, 0x9e, 0x3e, 0x7e, 0xb5, 0x63, 0x3d, 0x83, 0xa4, 0x80, 0x3e, 0xff, 0x97, 0x37, 0x3e, 0x51, 0xa4, 0x70, 0xbe, 0x86, 0x08, 0x98, 0x3e, 0x98, 0xe3, 0x2a, 0x3e, 0x6d, 0xf7, 0x40, 0x3d, 0x71, 0xaf, 0x2b, 0xbd, 0xad, 0x1f, 0xbc, 0xbb, 0x6b, 0x63, 0x5d, 0xbe, 0x51, 0xb9, 0x13, 0x3e, 0xd1, 0xd5, 0x16, 0x3e, 0x57, 0xa2, 0x12, 0xbe, 0xe1, 0x62, 0x16, 0xbe, 0xef, 0x94, 0xd2, 0xbd, 0x57, 0x84, 0x42, 0xbe, 0xfe, 0x75, 0x8b, 0x3c, 0x98, 0x2f, 0x06, 0x3e, 0x85, 0x7b, 0x86, 0xbe, 0xdc, 0x7f, 0x75, 0x3d, 0xa6, 0x5b, 0x89, 0x3e, 0xe6, 0x60, 0x23, 0x3e, 0xcd, 0x1f, 0xf5, 0xbd, 0xca, 0xdc, 0xc8, 0xbc, 0x27, 0x62, 0x5a, 0xbe, 0xa7, 0x57, 0x4f, 0xbd, 0x2f, 0xf5, 0x4c, 0xbd, 0x33, 0x3a, 0xc7, 0x3e, 0x40, 0x4c, 0xa5, 0xbd, 0x5d, 0x63, 0x30, 0x3c, 0x3a, 0x02, 0xb7, 0x3e, 0xce, 0xff, 0xa4, 0x3d, 0x2b, 0x1f, 0x4d, 0x3e, 0xb9, 0x7d, 0x89, 0xbe, 0x07, 0x5f, 0xe6, 0xbd, 0x65, 0xb5, 0x91, 0x3d, 0x8d, 0xb0, 0x72, 0x3e, 0x17, 0xe8, 0x26, 0x3e, 0x52, 0x54, 0xf4, 0x3d, 0x9b, 0xa5, 0x8c, 0xbe, 0xd4, 0x73, 0x3a, 0xbe, 0x5c, 0x87, 0x72, 0xbe, 0x3e, 0x56, 0x5e, 0x3d, 0xbf, 0x90, 0x35, 0xbe, 0xe7, 0xf5, 0xc6, 0x3d, 0x50, 0xf5, 0x16, 0x3e, 0x52, 0xa5, 0x21, 0xbe, 0x22, 0x55, 0x8c, 0xbd, 0x08, 0xf7, 0x30, 0x3c, 0x1f, 0xca, 0x1f, 0xbd, 0x92, 0xf4, 0x58, 0x3d, 0xc1, 0x7e, 0xe6, 0x3c, 0xa0, 0xd5, 0x28, 0x3e, 0xde, 0xfd, 0x8d, 0x3d, 0x88, 0x6e, 0x90, 0x3d, 0x5b, 0x4c, 0xc6, 0xbd, 0x0e, 0x07, 0xa2, 0xbd, 0x79, 0x46, 0x96, 0xbe, 0x93, 0xd8, 0x58, 0x3e, 0x24, 0x68, 0x74, 0x3d, 0xf2, 0xa3, 0x6f, 0xbe, 0xe9, 0x6e, 0x2d, 0xbd, 0x55, 0xf5, 0x33, 0xbe, 0xe1, 0xca, 0x43, 0x3e, 0x63, 0x26, 0x30, 0xba, 0xb9, 0x0a, 0xec, 0x3d, 0x8c, 0x42, 0x30, 0xbe, 0x37, 0x9c, 0x47, 0x3e, 0xd2, 0x77, 0x3a, 0xbe, 0x2e, 0x61, 0x69, 0xbe, 0xb3, 0x28, 0x0b, 0xbe, 0x5c, 0xf0, 0xdb, 0x3d, 0x93, 0x7f, 0x19, 0xbe, 0xf5, 0x48, 0x99, 0x3e, 0xb8, 0xb0, 0xc2, 0x3a, 0x81, 0xc4, 0xa8, 0x3d, 0x90, 0x4b, 0x82, 0xbe, 0x88, 0xfa, 0x79, 0xbd, 0x88, 0x2f, 0x8a, 0x3e, 0x38, 0x2c, 0xc4, 0xbd, 0xbd, 0x3b, 0x3a, 0x3d, 0xe2, 0x57, 0x17, 0xbe, 0xc2, 0xae, 0x86, 0x3c, 0x5c, 0xdb, 0x16, 0xbe, 0x61, 0xea, 0x46, 0xbd, 0x50, 0xc8, 0x8f, 0xbe, 0x22, 0x99, 0x3c, 0x3e, 0x80, 0xcb, 0x54, 0xbe, 0x2c, 0xce, 0x2b, 0x3e, 0xec, 0x4d, 0xd3, 0x3d, 0xb6, 0x85, 0x68, 0x3e, 0x05, 0xc2, 0xdb, 0xbb, 0x78, 0xb4, 0x59, 0x3e, 0xd7, 0xea, 0xb7, 0xbd, 0x6a, 0x6c, 0xab, 0x3d, 0xda, 0xf1, 0x96, 0x3c, 0x94, 0xa6, 0xa0, 0xbd, 0x31, 0xc2, 0x0a, 0x3e, 0xd3, 0xe5, 0x43, 0xbe, 0x69, 0x47, 0x98, 0x3d, 0x87, 0xde, 0x66, 0xbe, 0x1b, 0x4f, 0xa8, 0xbe, 0xd5, 0xb7, 0x8e, 0x3e, 0x21, 0x9a, 0x27, 0xbe, 0xe9, 0xff, 0x0c, 0xbe, 0x81, 0x39, 0xa2, 0xbd, 0x5e, 0x6e, 0x82, 0xbe, 0x5c, 0x89, 0x72, 0xbd, 0x07, 0x66, 0x72, 0x3d, 0x08, 0x64, 0x84, 0xbd, 0x7c, 0x72, 0x3a, 0xbb, 0xe4, 0xd3, 0x99, 0xbe, 0x20, 0x25, 0xdb, 0x3d, 0xc6, 0xba, 0x2b, 0x3e, 0x47, 0x9d, 0x57, 0xbe, 0x3e, 0xbe, 0x06, 0xbc, 0x4a, 0x83, 0x70, 0xbe, 0x99, 0x6f, 0x36, 0x3e, 0xd0, 0xec, 0x43, 0x3d, 0xa4, 0x1f, 0x16, 0xbe, 0x3e, 0x43, 0xe8, 0xbd, 0xc2, 0x22, 0x2b, 0x3e, 0x45, 0x63, 0xcc, 0xbd, 0x05, 0xdd, 0x96, 0xbe, 0x09, 0x8c, 0x97, 0x3d, 0x35, 0xab, 0xbb, 0xbd, 0x57, 0x2e, 0xa8, 0x3d, 0x7c, 0xd4, 0x20, 0xbe, 0x6d, 0x23, 0x1f, 0x3e, 0x3c, 0xf8, 0x25, 0xba, 0x9f, 0x30, 0x0c, 0xbe, 0x7a, 0xef, 0x25, 0x3e, 0x40, 0x76, 0x0c, 0xbe, 0x65, 0xc2, 0x7d, 0x3d, 0xc6, 0x30, 0x71, 0x3e, 0x2c, 0x48, 0x86, 0x3d, 0x50, 0xe7, 0xdc, 0xbd, 0x22, 0x7a, 0x97, 0x3e, 0xc3, 0x1e, 0x26, 0xbd, 0x1b, 0x34, 0x0f, 0x3d, 0xa1, 0x9d, 0x04, 0x3b, 0x2a, 0x26, 0x65, 0xbe, 0x4e, 0x22, 0xe0, 0x3d, 0x07, 0x41, 0x65, 0xbe, 0x17, 0x84, 0x38, 0xbd, 0xd4, 0x7a, 0x57, 0xbc, 0x8f, 0xea, 0x13, 0xbe, 0x51, 0x8d, 0xb3, 0x3d, 0x10, 0xa6, 0x49, 0x3e, 0x50, 0xc3, 0x7c, 0x3d, 0xcb, 0x0b, 0xf2, 0xbd, 0x94, 0xc2, 0xe2, 0xbd, 0x96, 0xb0, 0x87, 0x3a, 0x1c, 0xe8, 0xc6, 0x3d, 0x5c, 0x80, 0x7e, 0xbe, 0x89, 0xde, 0xa9, 0x3e, 0x06, 0xeb, 0xc1, 0x3d, 0xc6, 0x4d, 0x3e, 0x3d, 0xf1, 0x79, 0x7e, 0x3e, 0xb2, 0x8e, 0x52, 0xbd, 0xf7, 0x2b, 0x04, 0x3d, 0x6a, 0x91, 0x11, 0xbd, 0x89, 0x8b, 0x27, 0x3e, 0xc0, 0xbf, 0x1f, 0x3e, 0x72, 0xdf, 0x62, 0x3d, 0xc0, 0x48, 0x6c, 0x3e, 0x1e, 0x19, 0xc9, 0xbd, 0xe5, 0xe6, 0xeb, 0x3c, 0xec, 0xef, 0xac, 0x3e, 0x1b, 0xf3, 0x36, 0xbe, 0x06, 0xb3, 0xd6, 0x3d, 0x73, 0xd4, 0x43, 0x3e, 0x24, 0x55, 0x49, 0xbc, 0x59, 0xd4, 0xdb, 0xbd, 0x3c, 0xcd, 0xcc, 0xbd, 0x3b, 0x26, 0x92, 0xbc, 0x3b, 0x7b, 0xa6, 0x3e, 0x56, 0x6e, 0x22, 0x3e, 0xc7, 0x05, 0xe2, 0xbd, 0x31, 0xb9, 0x0e, 0xbe, 0x26, 0xaa, 0x37, 0x3e, 0x6d, 0x1c, 0xf0, 0x3b, 0x06, 0xc2, 0xd0, 0xbc, 0x63, 0xfa, 0x6e, 0x3d, 0x0d, 0x05, 0x9b, 0xbc, 0x9e, 0xa1, 0x84, 0xbd, 0x53, 0x51, 0x1b, 0xbd, 0x42, 0x57, 0x01, 0x3f, 0xdb, 0x09, 0x80, 0x3e, 0xd9, 0xd8, 0xc4, 0xbd, 0xfd, 0xab, 0x98, 0x3e, 0xa1, 0x0d, 0xbd, 0x3d, 0x23, 0x69, 0x4e, 0x3e, 0x30, 0xa6, 0x23, 0xbe, 0x1a, 0xa3, 0x28, 0x3e, 0x18, 0xe0, 0x9f, 0xbd, 0x67, 0x19, 0x69, 0x3e, 0x0b, 0x66, 0x0b, 0x3c, 0xb2, 0xec, 0x30, 0x3e, 0xe4, 0xe4, 0x1b, 0x3e, 0xc0, 0xaf, 0x48, 0xbd, 0x25, 0xa4, 0x2c, 0xbc, 0x4c, 0x07, 0xa0, 0x3d, 0xe6, 0x77, 0xb4, 0x3d, 0x9f, 0x8c, 0x29, 0xbe, 0x9a, 0xa0, 0x1d, 0xbe, 0x4a, 0x60, 0xba, 0x3d, 0x66, 0xca, 0xc4, 0x3d, 0xf5, 0xcb, 0x67, 0x3e, 0x91, 0xd0, 0x16, 0x3e, 0x17, 0x5d, 0x8f, 0x3d, 0x00, 0x74, 0x5c, 0xbe, 0xc9, 0x8e, 0x5e, 0x3e, 0x6c, 0x44, 0x1c, 0xbe, 0xb0, 0x63, 0x27, 0x3e, 0x56, 0x15, 0x84, 0x3d, 0x6a, 0x47, 0x1d, 0x3e, 0x50, 0x0b, 0x3d, 0xbe, 0x85, 0xa4, 0xbf, 0xbb, 0xbf, 0x71, 0x3d, 0x3e, 0xb8, 0xf5, 0x9a, 0x3c, 0x66, 0x1d, 0x70, 0x3e, 0x25, 0x28, 0x44, 0x3e, 0x1f, 0xf4, 0x19, 0x3e, 0xcf, 0x78, 0xc5, 0xbd, 0xfa, 0x18, 0xa4, 0xbd, 0x17, 0x65, 0x36, 0x3e, 0x7d, 0xc9, 0x9a, 0x3d, 0xff, 0x52, 0x41, 0x3d, 0xac, 0xc7, 0xc3, 0xbc, 0x74, 0x86, 0x47, 0xbe, 0x64, 0x9b, 0x81, 0x3e, 0x42, 0x09, 0x72, 0xbd, 0xad, 0xc4, 0x05, 0x3d, 0x91, 0x70, 0x6c, 0xbc, 0xb5, 0x7e, 0x19, 0xbe, 0xc5, 0xfe, 0x56, 0xbe, 0xed, 0x86, 0x82, 0xbd, 0xe9, 0x68, 0x7f, 0xbe, 0xf9, 0x64, 0xdc, 0xbc, 0xc0, 0x4d, 0xaa, 0x3c, 0x6d, 0xe7, 0x43, 0xbe, 0x97, 0x1d, 0x80, 0xbe, 0x57, 0x97, 0x53, 0xbb, 0x4a, 0x39, 0xb5, 0x3e, 0xaa, 0xb4, 0x59, 0xbc, 0xce, 0x45, 0xa1, 0xbd, 0xa7, 0xf8, 0x02, 0x3d, 0xca, 0x79, 0x70, 0xbe, 0xda, 0x6c, 0x80, 0x3e, 0x6d, 0x7a, 0x55, 0x3d, 0xf7, 0x55, 0x46, 0x3e, 0xcf, 0xfe, 0xe5, 0xbc, 0x8d, 0xd3, 0xbf, 0xbd, 0x61, 0xd1, 0x94, 0x3e, 0x57, 0xcd, 0x61, 0xbd, 0x99, 0xfa, 0x1f, 0xbe, 0x48, 0x1c, 0x81, 0x3e, 0xa9, 0xe3, 0xbd, 0xbd, 0x07, 0x68, 0xd7, 0x3d, 0xb1, 0x39, 0x7f, 0xbc, 0x23, 0x43, 0x52, 0x3d, 0x32, 0x63, 0x57, 0xbe, 0x83, 0x52, 0xa1, 0xbe, 0xa1, 0xa4, 0xe9, 0x3b, 0x88, 0x84, 0x60, 0xbd, 0x4e, 0xd3, 0xa3, 0x3e, 0x71, 0x0a, 0x63, 0x3c, 0xff, 0x4c, 0x2d, 0xbe, 0xa6, 0xe8, 0x71, 0x3d, 0x8e, 0x71, 0x10, 0x3e, 0x21, 0x7f, 0xca, 0x3c, 0x14, 0x30, 0x81, 0x3e, 0xd2, 0x03, 0x77, 0x3e, 0xef, 0x66, 0x9c, 0x3d, 0x91, 0x03, 0x0b, 0x3e, 0x1a, 0x85, 0xfe, 0xbd, 0x6c, 0xce, 0x12, 0x3d, 0x64, 0xaf, 0x78, 0x3e, 0x2b, 0x17, 0x7c, 0xbe, 0x7b, 0xab, 0x2e, 0xbe, 0x30, 0x18, 0xf6, 0xbd, 0x81, 0x3a, 0x7f, 0x3e, 0x4a, 0x21, 0x21, 0xbe, 0x18, 0x72, 0x1b, 0x3e, 0xed, 0x03, 0x1e, 0x3e, 0xff, 0x98, 0x7b, 0x3c, 0xe3, 0xd8, 0x52, 0xbe, 0x01, 0xc4, 0xf6, 0x3d, 0xcf, 0xbe, 0xef, 0x3d, 0xff, 0x11, 0x41, 0x3e, 0x05, 0x1c, 0x82, 0x3e, 0x5d, 0x56, 0x06, 0xbd, 0x36, 0x40, 0x75, 0x3d, 0x48, 0x5a, 0x3f, 0x3e, 0x1e, 0xf7, 0x3f, 0xbe, 0xe3, 0xb4, 0xc1, 0xbe, 0xff, 0xad, 0x28, 0x3e, 0x00, 0x5a, 0xd7, 0xbd, 0x79, 0xc1, 0x86, 0x3c, 0x05, 0x56, 0xdc, 0x3d, 0x38, 0x44, 0x80, 0x3c, 0x73, 0x5b, 0xe5, 0xbc, 0xc5, 0x9c, 0x1a, 0x3e, 0x27, 0xf2, 0xa4, 0x3d, 0x08, 0xb6, 0x17, 0xbd, 0x03, 0xd8, 0xa4, 0xbd, 0xab, 0xd8, 0x23, 0x3e, 0x20, 0x04, 0x53, 0xbe, 0xb1, 0xff, 0xec, 0xbd, 0x5e, 0x68, 0xbd, 0xbd, 0x7f, 0xeb, 0x45, 0x3e, 0x44, 0xa7, 0xad, 0x3d, 0x68, 0x05, 0x10, 0xbe, 0x98, 0x2a, 0x9a, 0x3e, 0x25, 0x09, 0x56, 0x3d, 0xf6, 0xf8, 0xa5, 0xbe, 0xd0, 0xd4, 0x47, 0x3d, 0x77, 0x5d, 0x70, 0xbe, 0x18, 0xb3, 0xc4, 0x3d, 0x69, 0xca, 0x6a, 0x3d, 0x3f, 0x1c, 0x20, 0x3e, 0xc5, 0xba, 0x17, 0xbe, 0x46, 0xe6, 0x91, 0xbe, 0x4b, 0xa2, 0x5d, 0xbe, 0x67, 0x12, 0x87, 0x3c, 0x84, 0xb9, 0x75, 0xbd, 0xfb, 0x50, 0xc0, 0x3d, 0xee, 0x93, 0xec, 0x3d, 0x8a, 0x4d, 0xf7, 0x3d, 0x17, 0xd6, 0x56, 0x3d, 0xa8, 0xa4, 0x2d, 0xbe, 0xde, 0x54, 0xe3, 0x3d, 0x41, 0x0d, 0x8f, 0x3e, 0x3d, 0xf4, 0xeb, 0x3d, 0x1b, 0x9c, 0x60, 0x3e, 0x42, 0xc9, 0xca, 0xbb, 0xc6, 0xdc, 0x1f, 0xbe, 0xfc, 0xf0, 0x91, 0x3c, 0x20, 0x1e, 0x7e, 0xbe, 0xbc, 0x25, 0x1d, 0x3d, 0x49, 0x16, 0x9a, 0x3d, 0xe0, 0xaa, 0x86, 0xbd, 0x15, 0x4f, 0xc4, 0x3d, 0x80, 0x22, 0x74, 0x3e, 0xb4, 0x35, 0x51, 0xbd, 0xd5, 0xca, 0x1a, 0x3e, 0xb7, 0x4c, 0x56, 0xbe, 0x67, 0xca, 0x77, 0x3d, 0xb3, 0xf7, 0x5f, 0xbe, 0x40, 0xb3, 0xca, 0x3d, 0x8a, 0xf5, 0xda, 0x3c, 0x1c, 0x19, 0x01, 0xbe, 0x49, 0x00, 0x23, 0x3e, 0x93, 0x5f, 0x1c, 0x3e, 0x89, 0x3f, 0x72, 0xbd, 0x1a, 0x80, 0x0f, 0x3e, 0x5d, 0xf9, 0x82, 0xbd, 0x59, 0x52, 0xdc, 0xbc, 0x62, 0xf7, 0x1a, 0xbe, 0x26, 0x6b, 0x05, 0xbe, 0x3f, 0x29, 0x88, 0xbd, 0xc3, 0x7f, 0xcc, 0xbc, 0xc2, 0x9f, 0x72, 0xbe, 0x1f, 0xaa, 0x3d, 0xbd, 0x05, 0x20, 0xd9, 0xbd, 0x4f, 0xd2, 0xc4, 0xbd, 0x3c, 0xa0, 0x2d, 0xbd, 0x94, 0xd9, 0x39, 0xbe, 0xea, 0xf7, 0x5e, 0xbc, 0xa3, 0xf0, 0x38, 0xbe, 0xc7, 0xc9, 0x43, 0xbe, 0xa3, 0x43, 0x1e, 0x3e, 0xfd, 0x23, 0x18, 0x3d, 0x5e, 0x75, 0x8c, 0x3e, 0x5e, 0x97, 0xd5, 0x3d, 0x0e, 0xb8, 0x5a, 0x3e, 0xc7, 0xce, 0x2b, 0xbe, 0x79, 0x30, 0xc1, 0xbd, 0x2e, 0xea, 0x1c, 0xbd, 0xe7, 0x61, 0x07, 0xbd, 0x0d, 0xad, 0x1d, 0xbe, 0x1f, 0x55, 0x6b, 0xbe, 0x1e, 0x1e, 0x10, 0xbe, 0x33, 0x9b, 0xf1, 0xbd, 0xf2, 0xb6, 0xc5, 0xbc, 0xa4, 0x39, 0x72, 0x3d, 0x4d, 0x1c, 0x66, 0x3d, 0x10, 0x23, 0x8b, 0xbe, 0xdb, 0x14, 0x7f, 0x3d, 0x1f, 0x42, 0x45, 0xbe, 0x5b, 0x74, 0xb2, 0x37, 0xbd, 0x6c, 0xec, 0xbd, 0xf1, 0x59, 0xaa, 0xbd, 0xbc, 0x7b, 0xa9, 0xbc, 0x2b, 0x30, 0x78, 0xbe, 0x88, 0x02, 0xc6, 0x3b, 0x7c, 0xea, 0xe5, 0x3d, 0xde, 0x18, 0x6c, 0x3e, 0x45, 0xab, 0xcc, 0x3d, 0xd2, 0xd4, 0x18, 0xbe, 0xbe, 0x69, 0x0a, 0x3e, 0x49, 0x0d, 0x00, 0xbe, 0xb0, 0xee, 0x05, 0x3d, 0xc6, 0xae, 0xdb, 0x3c, 0x65, 0x99, 0x11, 0xbd, 0x41, 0x32, 0x97, 0xbe, 0xa1, 0x0a, 0x69, 0xbe, 0xa6, 0x3a, 0x2f, 0xbd, 0xb2, 0x76, 0xae, 0x3d, 0x4b, 0x0c, 0xfd, 0xbd, 0x93, 0xb4, 0x55, 0xbe, 0x0f, 0xfa, 0x18, 0x3e, 0x83, 0x3a, 0x8f, 0x3d, 0x94, 0x51, 0x2b, 0x3d, 0xc2, 0x32, 0xe2, 0xbd, 0x59, 0x08, 0xe1, 0xbc, 0x2b, 0x1c, 0xea, 0xbd, 0xdd, 0x74, 0x1d, 0x3e, 0xee, 0xb5, 0x71, 0x3e, 0x8a, 0xd0, 0x35, 0xbe, 0xfc, 0xa2, 0xc7, 0x3c, 0x9e, 0xc6, 0x1c, 0xbe, 0xb7, 0x7b, 0x18, 0xbc, 0x7e, 0xee, 0x9b, 0xbe, 0x79, 0x72, 0x5f, 0x3c, 0x8f, 0x62, 0x35, 0xbe, 0x5d, 0xd2, 0xef, 0x3d, 0xdd, 0x4a, 0xd2, 0xbd, 0x24, 0x3d, 0x11, 0xbc, 0xbe, 0xb7, 0x4d, 0xbe, 0xd4, 0xa3, 0x0e, 0x3e, 0x2b, 0x07, 0x1c, 0xbe, 0x46, 0x84, 0x27, 0xbe, 0x66, 0x46, 0x4a, 0xbd, 0x58, 0x92, 0x5a, 0x3b, 0xa0, 0xb8, 0x0a, 0xbd, 0x9b, 0x65, 0x0c, 0x3e, 0x56, 0xf1, 0xe8, 0xbd, 0x86, 0x65, 0x8c, 0x3d, 0x09, 0xbc, 0x72, 0xbe, 0xa8, 0xea, 0xd2, 0x3d, 0x26, 0xfc, 0x05, 0x3c, 0xe5, 0xa0, 0x42, 0xbe, 0x40, 0x80, 0x18, 0xbe, 0xa9, 0x32, 0x4d, 0xbe, 0x67, 0x91, 0x50, 0xbe, 0x1a, 0x55, 0x5c, 0x3c, 0x5b, 0x35, 0x0d, 0xbe, 0x9c, 0x3f, 0x05, 0xbd, 0x6e, 0x1c, 0x19, 0x3e, 0x0d, 0x9a, 0x92, 0xbe, 0x57, 0xee, 0x49, 0x3e, 0x23, 0x14, 0x7c, 0xbe, 0x82, 0xbb, 0xbd, 0x3c, 0x66, 0x19, 0x8b, 0x3d, 0x3e, 0x1b, 0x5f, 0xbd, 0x32, 0xec, 0x89, 0xbd, 0x5a, 0x61, 0x36, 0xbe, 0x01, 0x23, 0x4a, 0x3e, 0xe0, 0xbf, 0x15, 0xbe, 0xa9, 0x93, 0x1f, 0x3e, 0xa8, 0x0a, 0xba, 0xbd, 0x6d, 0x34, 0x9e, 0xbe, 0xab, 0x53, 0xdd, 0xbd, 0x20, 0x4e, 0x40, 0xbe, 0xd8, 0xf1, 0x0e, 0xbe, 0xcc, 0x14, 0x84, 0x3e, 0x99, 0x90, 0x2b, 0x3d, 0x88, 0x42, 0x63, 0x3e, 0x08, 0x8d, 0x87, 0xbc, 0x23, 0x3f, 0xaf, 0x3d, 0x1d, 0x01, 0x3a, 0xbe, 0xef, 0x8e, 0x12, 0x3d, 0x0e, 0xa1, 0x02, 0x3d, 0x9c, 0x1c, 0x68, 0x3e, 0xe1, 0x3b, 0x2b, 0xbd, 0xd5, 0x21, 0xe1, 0x3d, 0xf1, 0xaf, 0x71, 0x3e, 0xbb, 0x1a, 0x9c, 0x3e, 0xc4, 0xf7, 0xb1, 0xbc, 0xbc, 0x0c, 0xd9, 0xbc, 0xf0, 0x68, 0x41, 0x3d, 0xe9, 0x88, 0xcd, 0xbd, 0x16, 0xc1, 0xc2, 0x3d, 0xc7, 0xe1, 0x5c, 0x3d, 0x76, 0xb7, 0xf6, 0xbd, 0x58, 0x31, 0x08, 0x3e, 0xcd, 0x9b, 0x7c, 0x3e, 0x7d, 0x1d, 0x1a, 0xbe, 0x50, 0x30, 0x3e, 0xbd, 0x60, 0x67, 0x1a, 0x3d, 0x89, 0xf8, 0xc8, 0x3d, 0xb1, 0x24, 0x4c, 0xbe, 0xe7, 0x93, 0x0b, 0xbe, 0xd5, 0x0a, 0x02, 0x3e, 0xc1, 0xfa, 0xbc, 0xbd, 0xb3, 0x13, 0xc1, 0x3e, 0xd7, 0xc5, 0x8f, 0xbc, 0x4d, 0x5e, 0xf7, 0xbd, 0xb4, 0x71, 0x11, 0x3b, 0x65, 0xa8, 0x71, 0xbe, 0x98, 0x16, 0xfc, 0xba, 0xdf, 0x7a, 0xee, 0xbd, 0x6b, 0x7e, 0x79, 0x3e, 0x2c, 0xf2, 0x38, 0x3e, 0xc0, 0xc6, 0x92, 0x3e, 0xdc, 0x0f, 0xe1, 0xbd, 0xd9, 0x2a, 0x51, 0x3d, 0x75, 0xbc, 0x25, 0x3c, 0x88, 0x75, 0x7a, 0xbe, 0x2d, 0x35, 0x15, 0x3c, 0xf9, 0xd6, 0x68, 0x3e, 0xf4, 0xe0, 0xdf, 0x3d, 0x6d, 0x53, 0xdb, 0x3d, 0xdb, 0xdc, 0xb9, 0xbd, 0x23, 0x05, 0xbb, 0xbd, 0xb6, 0x09, 0x93, 0xbc, 0x95, 0xf4, 0x3c, 0xbd, 0x22, 0x04, 0x18, 0xbe, 0x90, 0x6e, 0x86, 0xbe, 0x5f, 0xe2, 0x63, 0x3e, 0x9e, 0xa4, 0x9a, 0xbd, 0x82, 0x6f, 0x0a, 0xbe, 0xda, 0xeb, 0x3c, 0x3e, 0xd3, 0xbb, 0xb5, 0xbd, 0xd5, 0x12, 0x8a, 0x3e, 0xec, 0x02, 0xcf, 0xbd, 0xfe, 0x7c, 0x1a, 0x3d, 0xc5, 0x86, 0xa4, 0x3d, 0xbd, 0xfb, 0x41, 0xbe, 0x66, 0x0e, 0xe1, 0xbd, 0x96, 0x92, 0xbf, 0x3d, 0x78, 0x9d, 0x85, 0x3c, 0x6a, 0x04, 0x1d, 0xbe, 0xf3, 0x8f, 0x11, 0x3e, 0x44, 0xa7, 0x29, 0x3e, 0x3a, 0x84, 0x3c, 0x3e, 0x49, 0x11, 0xa4, 0xbe, 0x93, 0x06, 0x82, 0x3e, 0xb7, 0x15, 0x5f, 0x3d, 0x71, 0x0d, 0x7a, 0x3e, 0x9e, 0x2b, 0x46, 0x3e, 0x82, 0x26, 0x74, 0x3e, 0xdd, 0x89, 0x3e, 0x3d, 0x63, 0xe4, 0x1b, 0x3e, 0x02, 0x25, 0xa8, 0x3d, 0xaf, 0xcf, 0x9d, 0x3d, 0xb3, 0x67, 0x8f, 0x3d, 0x7b, 0x31, 0xab, 0xbd, 0xce, 0xda, 0x06, 0x3e, 0x5a, 0x72, 0xc9, 0x3c, 0xbf, 0x6c, 0xea, 0xbd, 0x85, 0xcc, 0xf1, 0xbb, 0xac, 0xf5, 0x13, 0xbd, 0x3a, 0x7e, 0x34, 0x3c, 0xd6, 0x46, 0xaf, 0xbd, 0xd4, 0xf0, 0xae, 0x3d, 0x2e, 0xf4, 0x63, 0xbe, 0x70, 0x29, 0x47, 0x3e, 0xa5, 0xb0, 0xae, 0x3e, 0x77, 0xe8, 0x48, 0x3d, 0x7a, 0xba, 0x14, 0xbe, 0xc3, 0xc6, 0x2f, 0xbe, 0xd9, 0x58, 0x07, 0x3e, 0xa6, 0x81, 0xc2, 0x3c, 0xf9, 0x1d, 0x38, 0xbe, 0x0f, 0xc8, 0x3a, 0xbe, 0xc3, 0xc0, 0x36, 0xbe, 0xb7, 0xdc, 0x9e, 0x3d, 0x48, 0xb3, 0xb1, 0x3d, 0x29, 0xe2, 0x4b, 0xbe, 0xfd, 0x08, 0x96, 0x3d, 0xcb, 0x6c, 0xf0, 0xbd, 0xcc, 0x9b, 0x20, 0xbe, 0x41, 0xa4, 0xd2, 0xbd, 0xb4, 0x93, 0xe3, 0xbd, 0xd5, 0xe0, 0x26, 0xbd, 0x58, 0x23, 0x31, 0x3d, 0x67, 0x4f, 0x8c, 0x3e, 0x0c, 0x9f, 0xe3, 0xbd, 0x75, 0x9f, 0x33, 0xbd, 0x59, 0x8c, 0xb6, 0xbd, 0x3e, 0xfd, 0x2f, 0x3e, 0x8f, 0x64, 0x26, 0xbe, 0xcc, 0x3d, 0x84, 0xbd, 0x19, 0xbe, 0xab, 0xbd, 0xba, 0x51, 0xff, 0xbd, 0x01, 0x46, 0xd8, 0x3d, 0x27, 0x66, 0x9e, 0x3e, 0x62, 0x60, 0x97, 0x3e, 0x62, 0xd3, 0xac, 0xbd, 0x44, 0x07, 0xb2, 0x3d, 0x46, 0xc2, 0x6c, 0x3d, 0x93, 0x56, 0x5c, 0x3d, 0xeb, 0x32, 0xc5, 0x3d, 0x66, 0x3e, 0x38, 0xbd, 0x53, 0x9f, 0x5d, 0xbe, 0x1e, 0x2f, 0x1f, 0x3e, 0x51, 0xbc, 0x1b, 0xbe, 0xb4, 0xcd, 0xd1, 0x3d, 0xe7, 0x19, 0x8d, 0xbe, 0xaf, 0x1f, 0x17, 0x3e, 0x4d, 0x28, 0xc4, 0xbe, 0x27, 0x02, 0x9f, 0x3d, 0x1f, 0x69, 0x6b, 0x3e, 0x27, 0x69, 0x08, 0x3d, 0x01, 0x4e, 0xc5, 0xbc, 0x74, 0x90, 0x23, 0x3e, 0x1e, 0x9e, 0xb2, 0x3d, 0xd8, 0x16, 0x14, 0xbe, 0x71, 0xec, 0x19, 0xbc, 0x3e, 0xd1, 0x67, 0xbc, 0x80, 0x45, 0xd9, 0xbd, 0xe4, 0x97, 0x5d, 0x3e, 0x7e, 0xa7, 0xda, 0xbd, 0xe9, 0xa3, 0xf0, 0x3c, 0x57, 0x3f, 0x53, 0x3e, 0x23, 0xfc, 0xa8, 0xbe, 0x59, 0xdc, 0x24, 0x3e, 0x23, 0x7b, 0x94, 0xbe, 0x51, 0x13, 0xe6, 0xbd, 0xea, 0xe3, 0xa1, 0x3e, 0x3f, 0x1d, 0x86, 0x3d, 0x9e, 0xcf, 0x0e, 0xbe, 0x39, 0x21, 0x5c, 0xbb, 0x71, 0xa1, 0x3c, 0x3d, 0x6c, 0x3d, 0x10, 0x3e, 0x44, 0x7e, 0x6f, 0xbe, 0x79, 0x52, 0xa1, 0x3d, 0xbe, 0x2d, 0x9e, 0x3d, 0xed, 0x9b, 0xa5, 0xbd, 0x38, 0xe4, 0x0e, 0xbe, 0x67, 0xd4, 0x2d, 0xbe, 0xaf, 0x8d, 0xbc, 0x3d, 0xcf, 0xff, 0x9e, 0xbd, 0x07, 0xf5, 0x84, 0xbe, 0x12, 0x51, 0xd5, 0xbc, 0x10, 0x24, 0x86, 0x3d, 0x89, 0xfb, 0xa5, 0xbd, 0x2a, 0xf1, 0x21, 0x3e, 0x15, 0x72, 0x42, 0xbe, 0x90, 0x6d, 0x50, 0xbd, 0x81, 0x0a, 0x6c, 0xbe, 0xf2, 0x27, 0xea, 0x3a, 0xc4, 0xfe, 0x04, 0x3d, 0x2a, 0xb8, 0x57, 0xbe, 0xa3, 0xe1, 0xc6, 0xbd, 0x88, 0xb9, 0x3e, 0xbe, 0x30, 0xda, 0x0d, 0x3e, 0xd6, 0xa0, 0xf0, 0x3c, 0x88, 0x1a, 0x4b, 0x3e, 0xda, 0xda, 0x78, 0x3e, 0x0a, 0x12, 0x58, 0x3e, 0x0f, 0x9a, 0x63, 0xbe, 0x77, 0xb3, 0x91, 0x3e, 0x6d, 0x6b, 0x22, 0xbd, 0xd3, 0x02, 0xc5, 0xbd, 0x81, 0xa5, 0x9b, 0xbb, 0xf6, 0x7e, 0x01, 0x3d, 0xcd, 0x7a, 0x58, 0x3e, 0x3c, 0x76, 0x68, 0xbe, 0xb3, 0x4b, 0x29, 0xbe, 0x2d, 0x62, 0x31, 0x3d, 0x7c, 0xfa, 0xef, 0xbc, 0x06, 0x0b, 0xeb, 0x3d, 0xd9, 0xb3, 0x27, 0xbe, 0x42, 0x68, 0x7e, 0x3e, 0x23, 0x83, 0x88, 0x3e, 0x0d, 0x9b, 0x95, 0x3d, 0x09, 0x1d, 0xa4, 0x3e, 0xab, 0xc7, 0x91, 0x3a, 0x3d, 0x9e, 0xa7, 0xbd, 0x6a, 0xe3, 0xde, 0xbd, 0x84, 0x5b, 0x2a, 0xbd, 0xf8, 0xa9, 0x7f, 0xbe, 0x75, 0x80, 0x78, 0x3e, 0x76, 0x3d, 0x94, 0x3e, 0x7f, 0xd4, 0x13, 0xbe, 0xcb, 0x38, 0x1e, 0xbe, 0xf4, 0x85, 0xcc, 0x3d, 0xc4, 0x88, 0xba, 0x3d, 0x24, 0x16, 0x6c, 0x3d, 0x70, 0x8b, 0xb4, 0xbd, 0x53, 0x06, 0x40, 0xbd, 0x24, 0xf7, 0xfc, 0xbc, 0xec, 0x24, 0x9b, 0x3c, 0x42, 0x7d, 0x16, 0xbe, 0x8e, 0xca, 0x34, 0x3e, 0x2b, 0x1d, 0x40, 0xbb, 0x20, 0x29, 0x16, 0x3e, 0xcd, 0xda, 0xef, 0xbb, 0x95, 0xfe, 0xea, 0x3c, 0x4d, 0x40, 0xcf, 0x3c, 0xf2, 0x48, 0xa8, 0xbc, 0xad, 0xa7, 0x78, 0xbe, 0x1b, 0xd8, 0x54, 0xbe, 0x13, 0xbf, 0x33, 0xbe, 0xd7, 0xc4, 0x49, 0x3e, 0x6a, 0xca, 0x3a, 0xbe, 0x83, 0xec, 0x63, 0xbe, 0xc7, 0x5f, 0xd1, 0xbd, 0xdc, 0xd3, 0x80, 0xbb, 0x82, 0xb6, 0x50, 0xbe, 0xd5, 0x17, 0x89, 0x3d, 0x19, 0x2c, 0xf2, 0xbc, 0x77, 0xe3, 0x16, 0x3e, 0x51, 0x57, 0x89, 0x3e, 0xd7, 0x88, 0x0e, 0xbc, 0xb7, 0x8b, 0xf5, 0x3d, 0xd2, 0x5c, 0x72, 0x3e, 0x2c, 0xad, 0x76, 0xbd, 0xbe, 0x50, 0xa3, 0xbe, 0x9a, 0xbd, 0x54, 0x3e, 0x92, 0x00, 0x89, 0xbc, 0x9c, 0x84, 0x4f, 0xbb, 0x6c, 0xfe, 0xcf, 0xbd, 0xcd, 0x22, 0x91, 0x3e, 0xe3, 0xcf, 0xd8, 0xbd, 0x5d, 0x86, 0x20, 0xbe, 0xcc, 0xef, 0x6a, 0xbb, 0xcb, 0xbd, 0xef, 0x3c, 0xcb, 0x27, 0x75, 0xbe, 0xfc, 0xea, 0xa4, 0xbd, 0x9f, 0x98, 0x2f, 0xbd, 0xa1, 0x2d, 0x59, 0xbd, 0x75, 0xcf, 0xc3, 0xbd, 0x19, 0x1f, 0xe4, 0x3a, 0xf0, 0x65, 0x7d, 0xbe, 0x44, 0x60, 0x63, 0xbe, 0x2e, 0x2c, 0xc8, 0x3d, 0x87, 0x02, 0x94, 0xbd, 0x1a, 0x43, 0x04, 0x3d, 0x42, 0xc7, 0x4e, 0xbe, 0x70, 0xfe, 0x1d, 0xbd, 0x3e, 0x10, 0x26, 0xbe, 0xf4, 0xb8, 0x4f, 0xbe, 0x04, 0x28, 0x20, 0xbc, 0xa0, 0x8c, 0xbd, 0xbd, 0x58, 0xeb, 0xf1, 0x3d, 0x6d, 0xf0, 0x21, 0xbe, 0xfb, 0x94, 0xf4, 0x3d, 0x78, 0x14, 0x7c, 0xbd, 0xd1, 0x99, 0x0c, 0xbe, 0xd2, 0x13, 0xcf, 0x3d, 0x52, 0x1b, 0x20, 0xbd, 0xd0, 0xe4, 0xbd, 0x3d, 0xcb, 0x2c, 0x2d, 0xbe, 0x71, 0x50, 0xa4, 0x3e, 0x72, 0x6c, 0xa1, 0x3c, 0x85, 0x08, 0x5b, 0x3d, 0xc4, 0xed, 0xdf, 0xbd, 0x3c, 0xd4, 0x1a, 0x3c, 0xe0, 0x8d, 0xcf, 0x3d, 0x18, 0xe2, 0x9a, 0xbd, 0xde, 0x59, 0x6e, 0x3e, 0x3b, 0x36, 0xcf, 0x3d, 0xd6, 0x48, 0x6f, 0x3c, 0xaf, 0x7a, 0x60, 0xbb, 0xc9, 0xd7, 0xa3, 0xbd, 0xa4, 0x84, 0xc9, 0xbd, 0xc9, 0x71, 0x4d, 0x3d, 0xf5, 0x22, 0x5b, 0xbd, 0x6b, 0x02, 0x8e, 0x3e, 0x7b, 0xc3, 0x99, 0xbd, 0xc4, 0x27, 0xe2, 0xbc, 0x46, 0x02, 0xad, 0x3e, 0xa4, 0xcf, 0x22, 0x3d, 0xf5, 0x5e, 0x7a, 0xbe, 0xf7, 0x5a, 0xa6, 0x3c, 0x88, 0x4a, 0x56, 0x3d, 0x64, 0xa0, 0x38, 0x3e, 0x27, 0x92, 0xa4, 0x3d, 0x0a, 0x61, 0x89, 0x3e, 0x28, 0x23, 0xe6, 0x3d, 0x52, 0x74, 0x78, 0xbe, 0xd8, 0xf5, 0xb8, 0x3e, 0xe1, 0x4f, 0x5b, 0xbe, 0x07, 0xcb, 0x48, 0x3e, 0x81, 0x78, 0x7b, 0x3e, 0x41, 0xd7, 0x36, 0xbd, 0x1d, 0x54, 0x99, 0xbd, 0xf6, 0x6a, 0x07, 0xbd, 0x92, 0x33, 0xb2, 0x3d, 0x64, 0xcd, 0x73, 0x3d, 0xc7, 0x51, 0x90, 0x3e, 0x0d, 0xa9, 0x88, 0x3d, 0xb6, 0x66, 0x49, 0xbd, 0xfa, 0x8b, 0x90, 0x3e, 0x68, 0x56, 0xee, 0xbd, 0xb1, 0xc7, 0xd1, 0xbd, 0x6f, 0x7c, 0x2b, 0x3e, 0x32, 0xc5, 0xfe, 0x3d, 0x80, 0xbb, 0x5b, 0xbd, 0x1b, 0x5e, 0x3d, 0xbe, 0x4e, 0xf4, 0x10, 0x3e, 0x9a, 0xef, 0xcf, 0x3d, 0x81, 0x9c, 0xc1, 0xbc, 0x64, 0xe9, 0x8d, 0xbe, 0xa5, 0x68, 0x78, 0x3e, 0xf8, 0x1d, 0xc3, 0xbd, 0xbe, 0x87, 0x12, 0xbe, 0x83, 0x95, 0xda, 0x3d, 0x80, 0xa0, 0xe4, 0xbd, 0x03, 0x68, 0x09, 0xbe, 0xf7, 0x61, 0x5e, 0x3e, 0xb9, 0x70, 0xc3, 0xbd, 0xfe, 0x1b, 0x88, 0x3e, 0xdf, 0x14, 0x05, 0x3e, 0x92, 0x31, 0xf4, 0xbd, 0x60, 0xd6, 0x5c, 0x3e, 0xca, 0xfc, 0x2a, 0x3d, 0x29, 0xed, 0xae, 0x3d, 0xa9, 0x53, 0x85, 0xbe, 0xe1, 0x7e, 0xc2, 0x3d, 0xf0, 0x30, 0x35, 0xbc, 0x0a, 0x42, 0x1c, 0x3d, 0x4f, 0xd1, 0x82, 0x3e, 0x9e, 0x55, 0x87, 0x3e, 0xba, 0xc5, 0x6e, 0xbe, 0x44, 0x90, 0xea, 0xbd, 0x9d, 0x11, 0x8a, 0xbd, 0x4e, 0x13, 0xb5, 0xbc, 0xbb, 0xa6, 0x23, 0x3e, 0xfc, 0x92, 0xef, 0x3d, 0x2f, 0xaa, 0x76, 0xbc, 0x0d, 0x7c, 0x29, 0x3e, 0xef, 0xa6, 0x04, 0xbe, 0x0f, 0xf0, 0x2d, 0x3e, 0xcd, 0xd6, 0x56, 0x3e, 0xf1, 0x03, 0x37, 0xbe, 0x77, 0x7a, 0x19, 0x3e, 0xd1, 0x16, 0x57, 0xbe, 0x3d, 0x80, 0x92, 0x3d, 0xe4, 0x47, 0x5f, 0xbe, 0x11, 0x4c, 0x6d, 0xbe, 0xf7, 0x00, 0x34, 0x3d, 0x52, 0xd0, 0x14, 0x3e, 0xd2, 0x63, 0xd1, 0x3d, 0xb5, 0x3a, 0x52, 0x3d, 0x71, 0xe1, 0x22, 0xbe, 0xdc, 0xca, 0x9a, 0x3c, 0x9d, 0x2c, 0x07, 0x3e, 0xed, 0xbb, 0x85, 0xbe, 0x20, 0x1a, 0x6f, 0x3c, 0x6b, 0xa5, 0xec, 0xbd, 0xdd, 0x67, 0x65, 0xbe, 0xb8, 0x93, 0x17, 0xbe, 0xc6, 0x33, 0x20, 0xbe, 0xc4, 0xc7, 0xde, 0xbd, 0x0b, 0x8c, 0x46, 0x3e, 0xdb, 0xde, 0x07, 0x3e, 0x3d, 0xfa, 0xd5, 0xbc, 0x04, 0x91, 0xb3, 0xbe, 0x90, 0xb8, 0x96, 0xbd, 0xe3, 0xb1, 0x30, 0x3b, 0x73, 0xbf, 0xf1, 0xbc, 0xe2, 0x64, 0xfe, 0xbd, 0x90, 0x1f, 0xee, 0xbd, 0x7d, 0x54, 0x41, 0x3e, 0x32, 0xdc, 0x14, 0x3e, 0x38, 0xac, 0x81, 0x3d, 0x16, 0xae, 0x24, 0xbd, 0x68, 0x32, 0x2d, 0x3e, 0xf9, 0x88, 0xac, 0xbc, 0x96, 0x5b, 0x19, 0xbd, 0xfe, 0x11, 0xcd, 0x3d, 0xd9, 0x46, 0x0d, 0xbe, 0xc2, 0xdf, 0x40, 0x3e, 0x6b, 0x55, 0x2b, 0x3e, 0xc8, 0x55, 0x2c, 0xbe, 0x3a, 0xfe, 0x0f, 0xbe, 0xb0, 0x86, 0xad, 0x3e, 0x86, 0x2c, 0xa1, 0x3d, 0x67, 0xce, 0xaf, 0x3e, 0x3a, 0xfd, 0x57, 0xbc, 0xd9, 0x0f, 0x21, 0xbe, 0x1d, 0x9a, 0x51, 0xbe, 0x23, 0xbe, 0x84, 0x3d, 0xbc, 0x80, 0x51, 0xbe, 0xde, 0xa1, 0xa2, 0x3d, 0x17, 0x6b, 0xa1, 0x3e, 0x2b, 0xf4, 0x11, 0xbe, 0x3a, 0x61, 0x81, 0xbe, 0x65, 0x0d, 0x70, 0xbe, 0x07, 0xad, 0x12, 0x3e, 0xc3, 0x58, 0xfb, 0x3c, 0x7e, 0xf3, 0x6d, 0xbe, 0xe7, 0xe5, 0x20, 0xbe, 0x19, 0xff, 0xf8, 0x3d, 0x7e, 0xc1, 0x4c, 0xbe, 0x72, 0x2d, 0x56, 0xbe, 0x53, 0xa8, 0x0e, 0x3e, 0xbb, 0x01, 0xa8, 0xbe, 0x98, 0xb1, 0x5b, 0x3c, 0x30, 0x6c, 0x85, 0xbd, 0x5f, 0xa5, 0x00, 0x3c, 0x18, 0x1d, 0x19, 0xbc, 0x11, 0x55, 0x5c, 0xbc, 0x23, 0x95, 0xb9, 0xb9, 0xda, 0x1e, 0xbb, 0x3d, 0xd5, 0x73, 0x0a, 0xbc, 0x23, 0x08, 0x48, 0x3e, 0x69, 0xde, 0x08, 0xbe, 0xd4, 0x49, 0x40, 0x3c, 0x36, 0xd8, 0xb9, 0xbd, 0xc6, 0x8c, 0xee, 0x3d, 0x2c, 0xe7, 0xad, 0x3d, 0x68, 0x0c, 0x04, 0x3e, 0xb5, 0xaf, 0xaa, 0xbd, 0x90, 0xe2, 0xb0, 0x3d, 0xb5, 0x1d, 0x8b, 0xbe, 0x05, 0xe6, 0x1a, 0xbe, 0x4e, 0xdd, 0xb6, 0x3c, 0xfa, 0xa3, 0x49, 0x3e, 0xbb, 0x72, 0x7b, 0x3d, 0x3a, 0xd2, 0xb5, 0x3d, 0xe3, 0x13, 0x05, 0xbd, 0xd7, 0xc2, 0x64, 0xbe, 0x92, 0x8e, 0x1d, 0xbe, 0xe0, 0x97, 0x30, 0x3d, 0x9c, 0xf1, 0x78, 0xbe, 0xf4, 0xd4, 0x5d, 0xbd, 0xfe, 0x9a, 0x65, 0x3e, 0x66, 0x87, 0xac, 0x3c, 0x9f, 0x53, 0x8c, 0x3e, 0x3a, 0xbb, 0x14, 0x3b, 0xc1, 0xc5, 0xb1, 0x3e, 0xd1, 0x9c, 0x02, 0x3e, 0x0f, 0xb5, 0x99, 0x3e, 0x6b, 0x37, 0x17, 0x3e, 0xed, 0x39, 0x43, 0xbe, 0xda, 0x77, 0xad, 0xbd, 0x62, 0xba, 0xba, 0x3e, 0x39, 0x4e, 0x33, 0x3e, 0x43, 0x40, 0x29, 0x3e, 0x03, 0x74, 0xba, 0x3e, 0x53, 0xcc, 0x0a, 0xbe, 0x0a, 0xd2, 0x9b, 0x3e, 0x95, 0xe4, 0xe2, 0x3a, 0x40, 0xfa, 0x0c, 0xbe, 0xd3, 0xcd, 0xa1, 0x3d, 0x3a, 0x90, 0x2b, 0xbd, 0x61, 0x44, 0x8f, 0xbe, 0x17, 0x8e, 0xa8, 0xbd, 0x9c, 0x55, 0x19, 0x3e, 0x6b, 0xb5, 0x28, 0x3e, 0xa5, 0x54, 0x66, 0x3e, 0x8f, 0x51, 0x06, 0xbe, 0x2f, 0x08, 0x6d, 0xbd, 0x21, 0x24, 0xec, 0xbd, 0x98, 0x25, 0x17, 0xba, 0x07, 0x76, 0x8c, 0x3d, 0x6b, 0x1c, 0x52, 0x3e, 0xba, 0x83, 0x0c, 0xbe, 0x97, 0x08, 0x02, 0x3f, 0x38, 0xeb, 0x88, 0xbd, 0x08, 0xd5, 0x8b, 0x3d, 0x11, 0x44, 0x38, 0x3d, 0x13, 0x5b, 0x97, 0xbd, 0x1d, 0xa6, 0xde, 0xbc, 0x1f, 0x56, 0x7f, 0x3e, 0xb9, 0xf7, 0x5b, 0x3d, 0x31, 0x71, 0x63, 0x3d, 0x43, 0x38, 0xd9, 0x3d, 0xc7, 0x98, 0xbb, 0xbd, 0xc3, 0xe8, 0xb3, 0xbd, 0x3f, 0xdb, 0xca, 0xbe, 0xe4, 0x0f, 0xaa, 0x3e, 0x82, 0x3f, 0x0c, 0x3e, 0x26, 0x14, 0x83, 0x3e, 0xfd, 0xee, 0x36, 0xbe, 0x46, 0x1d, 0xb9, 0xbd, 0x8f, 0x8e, 0x93, 0xbe, 0x6c, 0xcc, 0xdc, 0xbc, 0xb3, 0x50, 0x8d, 0x3e, 0x92, 0x28, 0x82, 0x3e, 0x12, 0xd0, 0x5e, 0xbd, 0x0d, 0x5c, 0x12, 0x3e, 0xdd, 0xda, 0x51, 0x3d, 0x29, 0xb3, 0xa1, 0xbe, 0x5b, 0xa8, 0x41, 0x3e, 0x35, 0xed, 0x04, 0xbe, 0xd8, 0xb5, 0xf5, 0xbc, 0xc2, 0x1b, 0x7c, 0x3d, 0x75, 0xfa, 0xf8, 0xbd, 0xb6, 0x6b, 0x6c, 0x3e, 0x56, 0xb1, 0xa8, 0xbe, 0xdf, 0x0a, 0xf8, 0xbd, 0x12, 0xd4, 0x7e, 0x3e, 0x44, 0x14, 0xe7, 0xbd, 0xfd, 0xfd, 0xce, 0xbd, 0x6b, 0x2c, 0x66, 0x3e, 0x8d, 0xf3, 0x13, 0xbe, 0x08, 0x4a, 0x05, 0x3e, 0x64, 0xfa, 0xb9, 0xbd, 0x98, 0x39, 0x0c, 0xbe, 0x9d, 0x0f, 0x9f, 0xbd, 0x9a, 0x34, 0x56, 0xbe, 0x0e, 0xf9, 0xf7, 0xbc, 0x7b, 0x86, 0x42, 0xbe, 0x7f, 0x42, 0x76, 0x3e, 0x4f, 0x4a, 0x52, 0xbe, 0x29, 0xa1, 0x27, 0x3d, 0x36, 0x49, 0xd9, 0xbc, 0x94, 0x19, 0x49, 0x3e, 0x5e, 0xe5, 0xe5, 0x3d, 0xb9, 0x56, 0x0e, 0x3e, 0xde, 0x56, 0x3a, 0x3e, 0x07, 0x01, 0xdb, 0x3d, 0x4d, 0x0d, 0x00, 0x3d, 0x1d, 0x0b, 0x7a, 0x3d, 0xe3, 0xfa, 0x83, 0xbd, 0x98, 0xc5, 0x86, 0x3d, 0xca, 0x8d, 0x7a, 0xbd, 0x85, 0x3a, 0x00, 0x3d, 0x95, 0xe4, 0x36, 0x3e, 0x1f, 0xa9, 0x22, 0x3b, 0x5a, 0x25, 0x52, 0x3e, 0xa6, 0xe1, 0xfc, 0x3d, 0x42, 0xe0, 0x78, 0xbe, 0xd4, 0x9e, 0x6c, 0xbe, 0x51, 0x9d, 0x3b, 0xbc, 0xcc, 0xe2, 0x93, 0xbd, 0x2f, 0xc1, 0x33, 0xbe, 0x1d, 0x16, 0x81, 0x3e, 0x7c, 0x88, 0x6c, 0x3d, 0xfa, 0xf7, 0x83, 0xbe, 0xdd, 0x01, 0x2c, 0xbc, 0x55, 0x84, 0xa1, 0xbd, 0x3c, 0x2d, 0x0f, 0xbe, 0x38, 0xb8, 0x61, 0xbd, 0xc5, 0x40, 0x70, 0xbd, 0xa2, 0x40, 0xea, 0x3d, 0x6f, 0xc9, 0x52, 0xbe, 0x77, 0x1a, 0x82, 0x3d, 0xa4, 0x81, 0x96, 0xbe, 0x22, 0x9c, 0x54, 0xbe, 0x45, 0x7a, 0x31, 0xbd, 0x9f, 0x2d, 0xcb, 0xbd, 0x57, 0x62, 0x90, 0x3e, 0xcd, 0x4d, 0xa1, 0x3e, 0xdb, 0xc2, 0x5b, 0xbe, 0x96, 0x17, 0xe5, 0x3d, 0x0a, 0x6b, 0xff, 0xbd, 0x00, 0x24, 0x1f, 0x3e, 0x74, 0x35, 0x53, 0xbe, 0x6a, 0x9e, 0x05, 0xbe, 0x25, 0x33, 0x6b, 0x3e, 0x2f, 0xf4, 0x90, 0x3e, 0x1c, 0x13, 0x10, 0xbd, 0xef, 0x6b, 0x25, 0xbe, 0x91, 0xbc, 0xdb, 0xbd, 0xf5, 0x58, 0xfd, 0xbd, 0xe0, 0x10, 0x87, 0xbe, 0x49, 0x14, 0xd1, 0xbd, 0xfe, 0x72, 0x49, 0x3e, 0x26, 0xa9, 0x16, 0xbe, 0x8a, 0xf2, 0x38, 0xbe, 0x3d, 0x4c, 0xfc, 0x3b, 0x3e, 0xbb, 0x2f, 0xbe, 0x22, 0x24, 0x43, 0xbc, 0x28, 0xe0, 0x0b, 0x3e, 0x2a, 0x65, 0x14, 0x3e, 0xc5, 0x04, 0xe7, 0x3d, 0x0e, 0x9c, 0x82, 0x3e, 0x9b, 0x9b, 0x86, 0xbe, 0x7c, 0xef, 0xc7, 0xbd, 0x8f, 0xf3, 0x42, 0x3e, 0xde, 0x1f, 0x0d, 0xbe, 0x4c, 0x87, 0xa2, 0x3e, 0xec, 0x33, 0x96, 0xbe, 0x0d, 0x93, 0xa7, 0xbd, 0xb3, 0xb9, 0x02, 0x3e, 0x36, 0xa8, 0xfc, 0xbd, 0xb0, 0xd3, 0x85, 0xbc, 0xa2, 0xd1, 0x05, 0xbe, 0xc5, 0x8c, 0x96, 0xbd, 0xe5, 0xa0, 0x82, 0x3a, 0xcf, 0x2d, 0x26, 0xbe, 0x44, 0x81, 0x3a, 0x3d, 0x15, 0x02, 0x9f, 0x3d, 0x67, 0x0e, 0x9e, 0x3e, 0xb1, 0xb4, 0x58, 0xbe, 0x22, 0x2e, 0x80, 0x3e, 0xca, 0x67, 0x8d, 0xbe, 0x02, 0xa2, 0x3d, 0x3d, 0x9a, 0x9d, 0x1a, 0xbe, 0x63, 0x8e, 0x83, 0xbd, 0x1d, 0xbe, 0x9e, 0xbc, 0xcc, 0xda, 0x2f, 0xbd, 0x67, 0x3e, 0x49, 0xbe, 0x46, 0x6d, 0x8b, 0xbd, 0xf4, 0x07, 0x72, 0xbd, 0x47, 0xa3, 0x66, 0x3e, 0xfa, 0x91, 0xae, 0xbd, 0x02, 0x6d, 0x51, 0xbd, 0x2e, 0x2a, 0xba, 0xbc, 0xaa, 0xae, 0x77, 0xbe, 0xb4, 0x10, 0x6e, 0xbd, 0x65, 0xdf, 0x66, 0x3e, 0x9d, 0x5f, 0x5c, 0xbe, 0x74, 0xa5, 0x4b, 0x3e, 0x2f, 0x21, 0x4b, 0xbe, 0xcb, 0x98, 0xc9, 0xbd, 0x82, 0x3c, 0xd6, 0x3d, 0x16, 0x4f, 0xd6, 0xbd, 0x54, 0x06, 0x12, 0x3e, 0x36, 0x5e, 0x80, 0x3e, 0xac, 0x24, 0x49, 0x3e, 0x08, 0x1a, 0x4f, 0x3e, 0x90, 0xe6, 0x1a, 0xbe, 0xda, 0x25, 0x3e, 0x3e, 0x05, 0x30, 0xf9, 0x3d, 0xbf, 0x8d, 0x54, 0xbe, 0x06, 0x3e, 0xb3, 0x3d, 0x7c, 0x5a, 0x24, 0xbe, 0xce, 0x16, 0x1a, 0x3c, 0x87, 0x11, 0x84, 0x3e, 0x90, 0xbd, 0x25, 0xbe, 0xd1, 0x1b, 0x0a, 0x3e, 0x4b, 0x5b, 0x82, 0x3d, 0x4f, 0x0f, 0xd0, 0x3d, 0x3e, 0x71, 0xca, 0x3b, 0xc0, 0xf9, 0x7a, 0x3e, 0x23, 0xd3, 0x8a, 0xbe, 0x6c, 0xdf, 0xb3, 0xbd, 0x34, 0x5b, 0xca, 0xbe, 0x98, 0x84, 0x3d, 0x3d, 0x38, 0x49, 0x3b, 0xbe, 0x38, 0xff, 0xfe, 0xbc, 0x77, 0x70, 0xa3, 0xbd, 0xe6, 0x48, 0x8b, 0xbd, 0x1e, 0x11, 0x9a, 0x3d, 0x4b, 0xdc, 0x39, 0xbe, 0x50, 0xbe, 0x52, 0x3e, 0xc2, 0x17, 0x74, 0xbd, 0x99, 0x84, 0x64, 0x3e, 0x26, 0x1b, 0x4a, 0xbe, 0x18, 0x17, 0x89, 0xbe, 0xf9, 0x23, 0x28, 0xbe, 0xd2, 0x85, 0x4d, 0x3d, 0x41, 0xa9, 0x77, 0x3e, 0x44, 0x54, 0xf0, 0xbd, 0x26, 0x02, 0x8f, 0x3e, 0x4c, 0xf1, 0xc8, 0x3d, 0xb0, 0x01, 0x87, 0x3e, 0x6a, 0xf2, 0x8d, 0xbe, 0x61, 0x2d, 0x10, 0x3e, 0x3c, 0xad, 0xc6, 0x3d, 0x22, 0xc0, 0x1b, 0xbe, 0xfa, 0xfc, 0xe7, 0x3d, 0xa7, 0x3a, 0x63, 0x3e, 0x20, 0x99, 0xbc, 0x3d, 0x4f, 0xb5, 0x8f, 0xbe, 0x8f, 0xde, 0x4b, 0x3e, 0xf2, 0xdc, 0x08, 0xbd, 0xf9, 0xa9, 0x15, 0xbe, 0x75, 0x01, 0xe3, 0xbc, 0x1b, 0x6a, 0x40, 0xbd, 0x59, 0x04, 0x4d, 0x3e, 0xa2, 0x16, 0x79, 0xbd, 0xd2, 0xfe, 0x86, 0xbe, 0xd2, 0x93, 0x6b, 0xbe, 0x5f, 0x3e, 0x80, 0xbd, 0x13, 0x89, 0x43, 0xbe, 0xb1, 0x01, 0x55, 0xbd, 0x77, 0x4f, 0x31, 0x3e, 0xb1, 0x51, 0x13, 0xbe, 0xdc, 0xa9, 0xd6, 0x3d, 0x75, 0x45, 0x33, 0x3e, 0x98, 0xbd, 0x4e, 0xbe, 0x2e, 0x99, 0x0c, 0x3e, 0xd8, 0xae, 0xaf, 0x3c, 0x6f, 0xb9, 0xd7, 0xbd, 0x9f, 0x42, 0x6e, 0xbe, 0xca, 0x18, 0x89, 0x3e, 0x9f, 0xda, 0xaf, 0x3d, 0xc7, 0x75, 0x38, 0x3e, 0x8f, 0x1b, 0xf4, 0xbd, 0x1c, 0x20, 0xc9, 0xbc, 0xe7, 0x8f, 0x7f, 0x3e, 0xed, 0x60, 0xef, 0x3c, 0x91, 0xbf, 0x2a, 0xbe, 0x24, 0xbd, 0x9f, 0x3d, 0x57, 0x04, 0x60, 0x3c, 0xbb, 0xcb, 0x29, 0xbe, 0xfe, 0x3b, 0x38, 0x3e, 0x53, 0x7d, 0x33, 0xbe, 0x1b, 0xea, 0xc6, 0xbc, 0x3d, 0x0b, 0xe7, 0xbd, 0x6a, 0xcb, 0xf8, 0xbd, 0xeb, 0xc1, 0x7a, 0xbe, 0xd0, 0x6f, 0x97, 0x3e, 0xe0, 0xa9, 0x81, 0xbe, 0x92, 0xf8, 0x90, 0xbd, 0xec, 0x7b, 0x82, 0x3d, 0xde, 0x1f, 0x86, 0xbd, 0x3e, 0x67, 0x9b, 0x3e, 0xce, 0x20, 0x7c, 0x3e, 0x3f, 0x3f, 0xa6, 0xbd, 0x9d, 0xbd, 0x38, 0x3d, 0x44, 0x50, 0x4a, 0xbe, 0xfd, 0x57, 0x3a, 0xbe, 0x01, 0xf9, 0x2a, 0x3e, 0xe9, 0x31, 0xd7, 0xbd, 0x97, 0x21, 0x12, 0x3c, 0xef, 0x2a, 0x02, 0x3e, 0x16, 0x8b, 0x0a, 0x3e, 0x41, 0x94, 0xac, 0x3d, 0x39, 0xdf, 0xee, 0x3d, 0xcf, 0x74, 0x8a, 0x3c, 0x5a, 0x4e, 0x1a, 0xbe, 0x28, 0x82, 0x7a, 0x3c, 0x99, 0x70, 0x38, 0x3a, 0xcb, 0xed, 0xcb, 0xbb, 0x07, 0x9e, 0x7d, 0x3d, 0xb9, 0x80, 0x81, 0x3e, 0x0f, 0xb4, 0xa8, 0xbe, 0xf4, 0x5b, 0xb0, 0xbc, 0xe8, 0x13, 0x4b, 0xbe, 0xdd, 0xd2, 0x02, 0x3c, 0xff, 0x1c, 0x05, 0x3d, 0xa7, 0x26, 0x78, 0xbd, 0x14, 0x56, 0x0c, 0x3e, 0x58, 0x58, 0x0f, 0xbe, 0x55, 0x6e, 0x48, 0xbd, 0xc5, 0x0e, 0x2e, 0xbe, 0xde, 0xd1, 0x8d, 0x3e, 0x54, 0x84, 0x50, 0xbe, 0xec, 0xa5, 0x7d, 0xbc, 0x5e, 0xde, 0xb3, 0xbc, 0x8e, 0x25, 0x8a, 0xbe, 0x3b, 0x98, 0x53, 0x3e, 0x85, 0x7a, 0xab, 0x3d, 0x9b, 0x28, 0x06, 0xbd, 0xbd, 0x37, 0xa3, 0xbc, 0xa2, 0x02, 0x67, 0x3b, 0x78, 0x32, 0xd9, 0xbd, 0xa5, 0xed, 0x38, 0x3e, 0x59, 0xbe, 0x8e, 0xbd, 0xe7, 0xd5, 0x8d, 0xbe, 0x77, 0xfe, 0x25, 0xbd, 0x08, 0x39, 0x52, 0xbe, 0x03, 0xcb, 0x09, 0x3e, 0x23, 0xf1, 0x2f, 0xbe, 0xf3, 0x89, 0x2e, 0xbe, 0xf2, 0xc0, 0x3f, 0x3e, 0x9f, 0x80, 0x53, 0xbe, 0x0d, 0x5e, 0x5a, 0xbe, 0x07, 0x75, 0xaf, 0xbd, 0x6f, 0x82, 0x09, 0x3e, 0x44, 0x8a, 0x94, 0x3d, 0xb0, 0x7d, 0xc7, 0xbc, 0x78, 0x78, 0xa2, 0xbd, 0x80, 0xe1, 0x85, 0x3e, 0x88, 0xd6, 0x8d, 0xbe, 0xc6, 0x4c, 0x1b, 0xbe, 0x87, 0xc5, 0x73, 0xbd, 0xe2, 0x66, 0xa1, 0x3c, 0x50, 0x06, 0x72, 0x3d, 0x5a, 0x3d, 0x59, 0xbe, 0x84, 0x62, 0x8e, 0x3c, 0x06, 0xbf, 0xba, 0xbd, 0xe7, 0x7c, 0xbe, 0x3d, 0x38, 0x1f, 0x3b, 0x3e, 0x56, 0x56, 0x17, 0x3e, 0x38, 0x18, 0x8e, 0x3d, 0x77, 0x0a, 0x92, 0xbe, 0xf0, 0xb8, 0xd1, 0xbd, 0xa3, 0x97, 0xe7, 0x3d, 0x67, 0x03, 0x0b, 0x3e, 0x38, 0x0e, 0xa0, 0xbd, 0xac, 0x00, 0x45, 0x3e, 0x83, 0x08, 0xaa, 0x3d, 0x36, 0x1e, 0xd7, 0xbd, 0x1b, 0x2e, 0x20, 0xbe, 0x2d, 0x6c, 0x7b, 0x3e, 0xa0, 0x7a, 0xd7, 0x3d, 0xa4, 0x76, 0x72, 0xbe, 0x33, 0xc5, 0x02, 0xbe, 0x7f, 0x4a, 0x00, 0xbe, 0x22, 0xf3, 0x66, 0x3e, 0x68, 0xb8, 0xb8, 0xbe, 0xb0, 0x93, 0xa6, 0xbe, 0xd4, 0x07, 0x6f, 0xbd, 0xf1, 0x97, 0x41, 0xbe, 0x19, 0x7d, 0x0d, 0x3e, 0xcd, 0x41, 0x37, 0x3d, 0x93, 0x0b, 0x17, 0xbd, 0xb3, 0xbc, 0x33, 0xbb, 0x8e, 0x71, 0x8c, 0xbe, 0x1e, 0x1d, 0xe4, 0x3d, 0xd2, 0x15, 0x90, 0xbc, 0xde, 0x59, 0xa0, 0xbe, 0xe6, 0xc8, 0x56, 0x3e, 0xf4, 0x7f, 0x38, 0xbd, 0x1f, 0xd4, 0xa8, 0x3d, 0x8e, 0x77, 0x08, 0xbe, 0x4b, 0x66, 0x26, 0xbe, 0x61, 0x81, 0x89, 0xbe, 0xa0, 0x66, 0x0c, 0x3e, 0xcb, 0xfa, 0x27, 0xbe, 0x1a, 0x70, 0xa7, 0xbd, 0x2d, 0x7c, 0xbc, 0x3d, 0xc0, 0x35, 0x1e, 0x3d, 0x29, 0xf2, 0x00, 0x3d, 0x6d, 0xe1, 0xf0, 0xbd, 0x51, 0xae, 0xc7, 0xbd, 0xa2, 0xf3, 0xc2, 0x3d, 0x97, 0x97, 0x34, 0xbe, 0xbf, 0xf5, 0xb2, 0x3c, 0x85, 0x3b, 0x45, 0x3e, 0x95, 0x6c, 0xff, 0xbd, 0xa3, 0xdd, 0xb5, 0xbc, 0xb7, 0xd0, 0x01, 0x3e, 0xdb, 0x76, 0x94, 0xbd, 0xae, 0x61, 0x46, 0xbe, 0xde, 0xed, 0x34, 0x3d, 0x2c, 0x15, 0xa4, 0x3b, 0x4d, 0xf9, 0xe2, 0x3c, 0xc5, 0xf4, 0x15, 0xbd, 0x58, 0xd2, 0x35, 0xbe, 0x52, 0xfd, 0x99, 0xbc, 0xbf, 0xad, 0x57, 0x3e, 0x39, 0x04, 0x8e, 0x3e, 0x63, 0x64, 0x24, 0x3e, 0xfb, 0x22, 0x7c, 0xbe, 0xf1, 0x43, 0x6f, 0xbd, 0x28, 0xc4, 0x9c, 0x3d, 0x67, 0x36, 0x25, 0xbd, 0x08, 0xa9, 0xce, 0x3d, 0x83, 0x46, 0xae, 0xbd, 0x0b, 0x11, 0xc2, 0xbd, 0xda, 0x54, 0xc1, 0x3d, 0x16, 0x73, 0x21, 0xbe, 0x0a, 0xaa, 0x0f, 0x3e, 0x9c, 0x68, 0xbb, 0xbd, 0xc8, 0x6a, 0x72, 0xbd, 0xdd, 0x0c, 0x48, 0x3e, 0x67, 0xcd, 0x09, 0xbb, 0x32, 0x17, 0x76, 0x3e, 0xfb, 0x71, 0x16, 0x3e, 0x29, 0x7b, 0x08, 0x3e, 0xa3, 0x6b, 0x25, 0x3d, 0xcf, 0xc1, 0x27, 0xbe, 0x91, 0xdb, 0xd3, 0x3c, 0x5c, 0xcd, 0x8c, 0xbe, 0xec, 0x89, 0xa2, 0xbd, 0xe5, 0x56, 0x8e, 0x3e, 0xc3, 0xb6, 0x10, 0x3e, 0xbe, 0xa3, 0x92, 0xbe, 0x3d, 0x61, 0x9e, 0x3e, 0x6a, 0xf8, 0xba, 0x3d, 0x0b, 0x71, 0x74, 0xbd, 0xb6, 0xdb, 0x12, 0xbe, 0x08, 0xf9, 0xff, 0xbd, 0xde, 0xcb, 0xef, 0x3d, 0xb1, 0x7f, 0x85, 0xbe, 0x5d, 0x68, 0x0e, 0xbe, 0x15, 0x78, 0xea, 0xbd, 0x22, 0x22, 0x2a, 0xbe, 0xbd, 0xa3, 0xc2, 0x3c, 0x52, 0xf7, 0x59, 0x3e, 0x78, 0x22, 0xaa, 0xbe, 0x54, 0xac, 0x50, 0x3e, 0x00, 0xc1, 0x3f, 0x3e, 0xef, 0x78, 0x6d, 0x3e, 0x0f, 0x44, 0x56, 0xbe, 0x49, 0x4a, 0x43, 0x3e, 0x82, 0x30, 0x39, 0x3e, 0x01, 0x22, 0x93, 0xbe, 0x05, 0x31, 0x8c, 0xbe, 0x9d, 0x9b, 0xfd, 0xbd, 0xd3, 0x4a, 0x8b, 0xbe, 0xa8, 0x57, 0xe6, 0xbd, 0x36, 0x5a, 0x44, 0xbe, 0xe3, 0x2c, 0x08, 0xbe, 0x4d, 0x1f, 0x0f, 0xbe, 0xf0, 0x86, 0xc9, 0xbd, 0x09, 0x41, 0x00, 0x3e, 0xf6, 0x2f, 0xf8, 0xbd, 0xbd, 0x62, 0x78, 0xbe, 0x37, 0x6b, 0x0a, 0xbe, 0xc5, 0x85, 0xec, 0xbd, 0xf7, 0x4e, 0xe6, 0xbd, 0x5e, 0x6f, 0xf8, 0x3d, 0xa0, 0xa5, 0xc9, 0xbd, 0x7b, 0xfa, 0x1b, 0xbc, 0x5e, 0x95, 0x6a, 0x3e, 0x3b, 0xd0, 0xe8, 0x3d, 0x6a, 0x91, 0x38, 0x3e, 0x82, 0x61, 0x2c, 0x3e, 0x46, 0x84, 0x13, 0xbd, 0x89, 0x0f, 0x92, 0xbe, 0xcf, 0x92, 0x66, 0x3d, 0xcb, 0xbc, 0xd7, 0x3d, 0xe1, 0xed, 0x4b, 0x3e, 0x04, 0x50, 0xc7, 0x3d, 0xc3, 0x34, 0x4c, 0xbd, 0x6e, 0x3a, 0x07, 0xbe, 0x63, 0x23, 0x1a, 0x3e, 0x88, 0xb2, 0x8a, 0xbe, 0xa7, 0x87, 0xd0, 0x3e, 0x4b, 0x47, 0xd0, 0x3d, 0x58, 0x1d, 0xa7, 0x3e, 0xc5, 0x86, 0xbe, 0x3e, 0x5e, 0x4f, 0x59, 0x3e, 0x90, 0x60, 0xb4, 0xbd, 0x6f, 0x86, 0x8f, 0xbd, 0x71, 0xb2, 0x4c, 0x3e, 0x85, 0x28, 0xbd, 0xbc, 0xb2, 0x52, 0xc4, 0xbd, 0x16, 0x4a, 0xc4, 0x3e, 0xc8, 0xea, 0x49, 0x3e, 0xd3, 0x43, 0x66, 0xbe, 0x0e, 0xc4, 0x8b, 0x3e, 0x41, 0x41, 0x2c, 0xbe, 0xbf, 0xb4, 0x88, 0x3e, 0x71, 0xb2, 0xbc, 0x3d, 0x9b, 0xba, 0xf8, 0x3c, 0xc7, 0x8d, 0xd0, 0xbd, 0x87, 0xdf, 0x17, 0xbe, 0x56, 0xd3, 0xaa, 0xbd, 0x8b, 0x33, 0x98, 0x3d, 0xd7, 0x4c, 0xd1, 0x3e, 0x99, 0x41, 0x23, 0x3e, 0x0f, 0x51, 0x83, 0xbd, 0x7e, 0x8e, 0x14, 0x3e, 0xa1, 0x1c, 0x7a, 0xbc, 0x34, 0x58, 0x70, 0xbe, 0x5f, 0x6d, 0xd9, 0xbc, 0xb7, 0x37, 0x28, 0xbc, 0x4a, 0x9a, 0xb0, 0xbe, 0x5b, 0x47, 0x4f, 0xbd, 0xf5, 0xa4, 0x60, 0xbe, 0xde, 0x9a, 0x44, 0x3d, 0x7f, 0x42, 0x06, 0x3e, 0x03, 0x94, 0xb6, 0x3d, 0x9b, 0xb1, 0xb2, 0xbd, 0x67, 0x4e, 0x4d, 0xbe, 0x74, 0x01, 0x75, 0xbe, 0x25, 0xe6, 0x80, 0xbe, 0xea, 0x74, 0xc5, 0x3c, 0x4f, 0x5a, 0x11, 0xbd, 0x09, 0x07, 0x33, 0x3d, 0xf3, 0xdd, 0x5d, 0x3c, 0x6b, 0xa4, 0x98, 0x3e, 0x47, 0xb6, 0xfb, 0xbd, 0x60, 0x5c, 0x31, 0x3d, 0xfb, 0x85, 0x7c, 0x3e, 0x8a, 0xad, 0xef, 0xbd, 0x9d, 0xbe, 0x75, 0x3d, 0x86, 0x78, 0x4c, 0xbe, 0x03, 0x21, 0x0f, 0xbe, 0xdb, 0xf5, 0xa6, 0xbe, 0x72, 0x8e, 0x85, 0x3d, 0x25, 0xdf, 0xd1, 0xbd, 0x78, 0xfc, 0x53, 0xbe, 0xbc, 0xce, 0x49, 0xbd, 0xcd, 0x98, 0x47, 0xbd, 0x7c, 0x4b, 0x55, 0xbe, 0x0e, 0x30, 0x80, 0xbe, 0x96, 0xed, 0xcb, 0xbd, 0xfb, 0xd4, 0x55, 0x3e, 0xc4, 0xe6, 0xf1, 0xbd, 0xc5, 0x16, 0x0b, 0x3d, 0x83, 0x04, 0xa4, 0xbe, 0xb1, 0xb2, 0x21, 0xbd, 0xf0, 0xac, 0xd1, 0xbb, 0x36, 0xe2, 0x04, 0xbd, 0x21, 0x37, 0x0e, 0x3e, 0x8d, 0x65, 0x9c, 0xbc, 0xcc, 0x16, 0x33, 0xbe, 0xfe, 0xcb, 0xf5, 0xbd, 0x0f, 0x17, 0x8d, 0xbd, 0xbf, 0x11, 0x50, 0x3e, 0xf9, 0x17, 0x8e, 0xbe, 0x9e, 0xeb, 0x45, 0x3e, 0x98, 0x78, 0x64, 0x3d, 0x03, 0x37, 0xb4, 0xbb, 0x7a, 0x2e, 0x3a, 0x3e, 0xc6, 0x92, 0x39, 0xbe, 0x89, 0x0c, 0x68, 0x3e, 0x85, 0xc3, 0xdd, 0x3d, 0x2f, 0x8c, 0x1a, 0x3e, 0xe9, 0x36, 0x26, 0x3e, 0xf0, 0xbf, 0x19, 0xbe, 0x09, 0xcf, 0x6b, 0x3d, 0xa2, 0x94, 0xf5, 0xbd, 0x23, 0x8e, 0x88, 0x3e, 0x0e, 0x88, 0x7c, 0xbe, 0x57, 0x79, 0x3e, 0xbd, 0xe5, 0xdd, 0x57, 0x3e, 0x44, 0xe4, 0xe8, 0x3d, 0x09, 0x29, 0x6d, 0x3e, 0x8c, 0x9a, 0x05, 0x3e, 0xa1, 0xaf, 0x0c, 0xbe, 0x1a, 0xa2, 0x6f, 0x3c, 0x64, 0x6e, 0x7f, 0x3d, 0xff, 0x79, 0xca, 0xbc, 0xb1, 0x83, 0x29, 0x3e, 0xe7, 0xb3, 0x0f, 0x3e, 0x3a, 0x97, 0x57, 0xbd, 0xe1, 0x7e, 0x84, 0xbe, 0xaa, 0xf5, 0x0e, 0xbe, 0xdf, 0xce, 0x64, 0x3d, 0x5f, 0xda, 0x06, 0xbc, 0x18, 0x61, 0x86, 0x3d, 0xd9, 0x2b, 0x1a, 0x3e, 0x4b, 0x41, 0x30, 0x3d, 0x92, 0xe7, 0x86, 0x3c, 0x66, 0xab, 0x8a, 0xbe, 0x21, 0x98, 0xbb, 0xbb, 0x77, 0x84, 0x6d, 0xbd, 0x1c, 0x6c, 0x58, 0x3e, 0xa8, 0x08, 0xa3, 0xbd, 0xb1, 0xac, 0x3f, 0xbe, 0x1a, 0x25, 0xbd, 0x3d, 0x59, 0xc7, 0x09, 0xbd, 0x47, 0xf6, 0x76, 0x3e, 0x51, 0xc1, 0x91, 0x3d, 0x42, 0x6e, 0x58, 0xbe, 0x16, 0xec, 0x53, 0x3d, 0x1e, 0x24, 0x8b, 0x3e, 0x28, 0x7c, 0xe1, 0x3d, 0xc0, 0x03, 0x22, 0xbe, 0x66, 0x48, 0x11, 0x3e, 0xc2, 0xdc, 0x2b, 0xbe, 0xba, 0x7d, 0x54, 0xbe, 0x72, 0x5f, 0x84, 0xbe, 0x6a, 0x26, 0xb9, 0x3e, 0x80, 0xad, 0x0e, 0x3e, 0x8e, 0xff, 0x57, 0x3e, 0x81, 0x6e, 0xa5, 0x3e, 0x87, 0x6c, 0xcc, 0x3d, 0xc4, 0x42, 0xa3, 0xbd, 0xf2, 0x03, 0xc9, 0xbd, 0xfc, 0x3b, 0x86, 0xbe, 0xfa, 0x8b, 0x93, 0xbc, 0x5d, 0xf2, 0x3a, 0x3e, 0xcd, 0x7f, 0x0d, 0x3d, 0xe5, 0x91, 0x3d, 0xbd, 0x7d, 0x14, 0x22, 0x3e, 0xf7, 0x74, 0x6c, 0xbe, 0x08, 0xb6, 0x39, 0xbe, 0x23, 0x55, 0xfc, 0xbb, 0xeb, 0xa2, 0xe6, 0xbd, 0xcf, 0xfb, 0x6e, 0xbd, 0x32, 0x21, 0xbf, 0x3d, 0x70, 0xf8, 0xd3, 0x3d, 0x6f, 0x62, 0x29, 0xbe, 0xaf, 0x33, 0x70, 0x3e, 0x20, 0x3e, 0x1b, 0x3d, 0x57, 0x33, 0x86, 0xbe, 0xbd, 0x5c, 0x88, 0x3a, 0x14, 0xf0, 0xa8, 0x3e, 0x80, 0x3f, 0x02, 0xbd, 0xea, 0x75, 0xe8, 0x3d, 0xe1, 0xc7, 0xfd, 0xbc, 0x5a, 0x7b, 0xa9, 0xbd, 0x8e, 0x4a, 0x5e, 0xbe, 0xf2, 0x8b, 0xa1, 0x3c, 0x7e, 0x69, 0xa0, 0x3d, 0x11, 0x96, 0x00, 0x3d, 0x09, 0xbf, 0xaa, 0x3e, 0xe1, 0xe1, 0x94, 0x3d, 0x0a, 0xe2, 0x94, 0x3e, 0x49, 0x97, 0xbd, 0xbd, 0x9e, 0x57, 0x1d, 0x3e, 0x53, 0x32, 0x85, 0x3e, 0x99, 0x2b, 0x89, 0x3c, 0x59, 0xf7, 0x04, 0x3e, 0x14, 0xb3, 0xf3, 0x3d, 0x4a, 0x51, 0x1b, 0xbd, 0x6e, 0xf3, 0x8d, 0x3d, 0x44, 0x89, 0x95, 0x3e, 0xf1, 0x33, 0x60, 0xbd, 0x0f, 0xa2, 0xc0, 0x3e, 0xb3, 0x45, 0x01, 0xbe, 0x49, 0xf9, 0x1d, 0x3e, 0xab, 0x8b, 0x65, 0xbe, 0xbd, 0xf2, 0x1c, 0xbe, 0x45, 0x45, 0x47, 0x3b, 0x8b, 0x8e, 0xd9, 0x3d, 0x3c, 0x08, 0x5c, 0x3e, 0xd5, 0xe9, 0x2e, 0xbe, 0xe7, 0x28, 0x20, 0xbe, 0x11, 0xd7, 0x77, 0x3e, 0x82, 0x4b, 0x65, 0xbe, 0xde, 0x72, 0x25, 0xbe, 0xd9, 0x42, 0x9f, 0x3d, 0x5f, 0x46, 0xbd, 0x3d, 0xf2, 0xda, 0xe5, 0xbd, 0x07, 0xaa, 0x83, 0x3d, 0x7e, 0xf9, 0xdc, 0xbd, 0x1a, 0xba, 0x81, 0x3e, 0xff, 0xc9, 0xc8, 0x3c, 0x2a, 0x9b, 0xaa, 0x3e, 0x60, 0x66, 0x69, 0xbd, 0xb1, 0x59, 0x70, 0x3a, 0x24, 0x42, 0xa2, 0xbe, 0x6b, 0x4f, 0x45, 0xbe, 0xa0, 0x1d, 0x8f, 0xbe, 0xc7, 0x7f, 0x81, 0x3c, 0x92, 0x0f, 0xa3, 0x3e, 0xf7, 0x8a, 0xce, 0x3d, 0x15, 0x77, 0x9d, 0x3e, 0xfc, 0xc8, 0x4a, 0xbe, 0x60, 0x8e, 0x98, 0x3c, 0x15, 0x47, 0x07, 0x3e, 0xe8, 0x36, 0xc8, 0x3c, 0x54, 0xee, 0xd5, 0x3c, 0x79, 0xc0, 0xae, 0x3d, 0x6d, 0xf7, 0x1a, 0xbe, 0xff, 0xc0, 0x1f, 0xbe, 0x33, 0xe6, 0x5c, 0xbd, 0x01, 0x3f, 0x83, 0xbe, 0x85, 0xc9, 0xa5, 0xbd, 0x64, 0x37, 0x0b, 0x3d, 0x21, 0xce, 0x0c, 0xbe, 0xc5, 0x6b, 0xd0, 0x3d, 0x88, 0xc9, 0xd2, 0xbd, 0xf8, 0x54, 0x72, 0xbe, 0x2b, 0xbc, 0x0e, 0xbe, 0xed, 0xf5, 0x24, 0xbe, 0xca, 0xc4, 0x3c, 0x3e, 0x26, 0x9f, 0x8c, 0xbe, 0xcc, 0xaa, 0x27, 0x3e, 0xac, 0xd2, 0xd5, 0x3d, 0x25, 0x4f, 0x63, 0xbe, 0x67, 0xd7, 0x09, 0xbb, 0x14, 0x44, 0x58, 0x3d, 0x44, 0x34, 0x0b, 0x3d, 0xa1, 0xfc, 0x0d, 0xbe, 0xeb, 0xad, 0x0d, 0xbe, 0x63, 0x2c, 0xe4, 0x3d, 0xa7, 0xc4, 0x80, 0xbe, 0x68, 0x76, 0x91, 0x3e, 0x44, 0xf7, 0xd3, 0xbb, 0x66, 0xec, 0xbf, 0xbd, 0x51, 0x5d, 0x71, 0x3e, 0xb6, 0x76, 0x58, 0xbe, 0xdc, 0x63, 0x0b, 0xbe, 0x02, 0x1f, 0x35, 0x3e, 0x71, 0x08, 0x33, 0x3d, 0xbc, 0x9b, 0x26, 0xbd, 0x70, 0xe5, 0x42, 0x3e, 0x98, 0xeb, 0x14, 0xbe, 0xf4, 0xb5, 0x0c, 0x3e, 0xad, 0x26, 0x18, 0xbe, 0x8a, 0x58, 0x35, 0xbe, 0x48, 0x61, 0x1c, 0x3e, 0x0c, 0x93, 0xca, 0xbd, 0xda, 0xdd, 0x37, 0x3e, 0xe4, 0xa3, 0xf5, 0x3c, 0x61, 0x8f, 0x20, 0x3e, 0x4c, 0x95, 0x00, 0xbe, 0x41, 0x25, 0xf1, 0x3d, 0x1e, 0x06, 0x6f, 0xbd, 0x57, 0x76, 0x32, 0xbe, 0xd7, 0x28, 0x71, 0x3e, 0x2f, 0x18, 0x8c, 0xbe, 0xad, 0x33, 0xf5, 0xbd, 0x00, 0xe6, 0x90, 0x3e, 0xb3, 0x9e, 0xc9, 0x3d, 0x1d, 0x2b, 0x42, 0x3e, 0x87, 0x57, 0xe9, 0x3d, 0x7e, 0x3a, 0xf0, 0x3d, 0xf6, 0x9b, 0xa1, 0xbe, 0xe7, 0x95, 0x45, 0xbe, 0x0a, 0x69, 0x0f, 0x3e, 0x0b, 0x5a, 0x37, 0xbe, 0x63, 0x27, 0x23, 0x3e, 0x2f, 0x31, 0xb0, 0xbd, 0x3e, 0xa3, 0x41, 0x3e, 0x2c, 0xcb, 0x25, 0x3e, 0x89, 0xd3, 0x08, 0xbe, 0x3d, 0x4a, 0xb9, 0xbc, 0xe5, 0x68, 0x31, 0x3e, 0xda, 0x78, 0x99, 0xbd, 0xbb, 0x8d, 0xc5, 0x3d, 0xf2, 0xec, 0xff, 0xff, 0x10, 0x00, 0x00, 0x00, 0x06, 0x00, 0x00, 0x00, 0x14, 0x00, 0x00, 0x00, 0x34, 0x00, 0x00, 0x00, 0x02, 0x00, 0x00, 0x00, 0x40, 0x00, 0x00, 0x00, 0x20, 0x00, 0x00, 0x00, 0x1d, 0x00, 0x00, 0x00, 0x53, 0x65, 0x71, 0x75, 0x65, 0x6e, 0x74, 0x69, 0x61, 0x6c, 0x2d, 0x4e, 0x4e, 0x2f, 0x64, 0x65, 0x6e, 0x73, 0x65, 0x5f, 0x31, 0x33, 0x2f, 0x4d, 0x61, 0x74, 0x4d, 0x75, 0x6c, 0x00, 0x00, 0x00, 0x70, 0xec, 0xff, 0xff, 0xce, 0xed, 0xff, 0xff, 0x04, 0x00, 0x00, 0x00, 0x00, 0x10, 0x00, 0x00, 0xfe, 0xc8, 0x75, 0x3d, 0x88, 0x93, 0x11, 0xbe, 0x64, 0x07, 0x0e, 0xbe, 0x08, 0x82, 0xb3, 0x3d, 0x73, 0x08, 0x7e, 0xbe, 0x5a, 0x45, 0x50, 0xbe, 0x3c, 0x54, 0x94, 0xbe, 0xbe, 0x24, 0x21, 0x3d, 0xa7, 0x62, 0xd2, 0xbe, 0x6c, 0xd8, 0xec, 0x3d, 0x18, 0x49, 0x29, 0xbe, 0xd4, 0xa9, 0xc7, 0xbe, 0xb1, 0xde, 0x09, 0xbe, 0xfb, 0x68, 0x85, 0xbe, 0x45, 0x15, 0x55, 0xbe, 0xab, 0x6a, 0x35, 0x3e, 0x49, 0xca, 0xd8, 0x3d, 0x88, 0xe4, 0x21, 0xbe, 0x4e, 0x50, 0x7a, 0x3e, 0x8c, 0x0d, 0xff, 0xbd, 0x1e, 0xbf, 0x82, 0x3e, 0x4c, 0x93, 0x0e, 0xbe, 0xd2, 0x9b, 0x2c, 0x3d, 0x52, 0x74, 0x99, 0xbe, 0x81, 0x85, 0xc5, 0x3d, 0x28, 0x7f, 0x86, 0xbd, 0xff, 0xde, 0x04, 0xbe, 0x4e, 0x11, 0xcc, 0x3d, 0xc8, 0x73, 0xf3, 0x3c, 0xdf, 0x4d, 0x34, 0xbe, 0x54, 0x7c, 0x5c, 0xbd, 0x5e, 0x6a, 0x83, 0xbe, 0x9d, 0xb8, 0x90, 0xbe, 0xd9, 0xd3, 0xc6, 0xbd, 0x9d, 0xec, 0x2a, 0x3e, 0xe9, 0x2a, 0xc4, 0xbe, 0x64, 0x64, 0xe0, 0x3c, 0x6a, 0x68, 0x95, 0x3d, 0x0b, 0x6c, 0x4e, 0xbe, 0x99, 0x71, 0xc3, 0x3e, 0xe6, 0x75, 0x86, 0x3d, 0x17, 0x50, 0x0a, 0x3e, 0x74, 0x60, 0x29, 0x3e, 0x53, 0xf4, 0xaa, 0x3e, 0xdf, 0xbd, 0x7a, 0xbe, 0x10, 0x15, 0x4e, 0x3e, 0xbf, 0x27, 0x39, 0x3e, 0xbd, 0x19, 0x86, 0x3e, 0x0a, 0x47, 0x0d, 0xbe, 0xe7, 0xba, 0x5e, 0x3d, 0x97, 0x03, 0x42, 0xbe, 0xbc, 0x42, 0x9e, 0xbc, 0xc9, 0xa0, 0x81, 0xbe, 0x85, 0x05, 0x25, 0xbe, 0x36, 0x28, 0x4f, 0x3e, 0x75, 0x8d, 0x9e, 0x3d, 0x75, 0x5b, 0x88, 0x3d, 0x6c, 0x99, 0xb5, 0x3d, 0xe6, 0xa8, 0x9e, 0xbe, 0x33, 0x0a, 0x4a, 0x3e, 0x26, 0xf9, 0xe3, 0x3d, 0x08, 0x3c, 0xef, 0x3d, 0x3f, 0x0c, 0x45, 0xbe, 0x71, 0x68, 0x7e, 0x3e, 0x8e, 0x4e, 0xc2, 0xbb, 0x13, 0xfa, 0x13, 0x3d, 0x65, 0x76, 0x87, 0x3e, 0x6f, 0x5d, 0xd7, 0xbd, 0x7f, 0x4f, 0x9b, 0xbe, 0x79, 0x9b, 0x40, 0xbe, 0xb0, 0x0a, 0xb7, 0x3e, 0xf4, 0x2b, 0x04, 0x3e, 0xf2, 0xc4, 0x5e, 0x3e, 0x12, 0xa5, 0xb1, 0x3d, 0x9b, 0x68, 0x53, 0x3e, 0x34, 0x7e, 0x6d, 0xbe, 0x0d, 0x03, 0x59, 0xbe, 0xd4, 0x05, 0x0e, 0xbe, 0x50, 0x80, 0xd5, 0x3d, 0x81, 0x48, 0xa8, 0xbe, 0x48, 0xb3, 0x37, 0xbe, 0x5f, 0x5b, 0x44, 0x3e, 0x10, 0x70, 0x89, 0xbd, 0x3e, 0xde, 0x33, 0x3d, 0xb3, 0xff, 0x1a, 0xbc, 0x85, 0xe5, 0x45, 0x3e, 0x1c, 0x9d, 0x06, 0x3d, 0xd2, 0xc4, 0x0b, 0xbe, 0x65, 0x39, 0xee, 0x3d, 0x1d, 0x02, 0x99, 0x3d, 0x55, 0x52, 0x35, 0x3d, 0xc4, 0x56, 0x47, 0xbe, 0x70, 0x96, 0x01, 0x3d, 0x1d, 0x83, 0xed, 0x3d, 0x4d, 0x78, 0x86, 0x3d, 0x0f, 0xa2, 0x7c, 0x3d, 0x7c, 0x35, 0x36, 0xbe, 0x75, 0xc8, 0x1f, 0x3d, 0x89, 0xab, 0xad, 0xbe, 0xc8, 0xf3, 0x97, 0xbe, 0xda, 0x84, 0x2f, 0xbe, 0xb7, 0x8f, 0x9b, 0x3d, 0xd0, 0xb5, 0xa3, 0x3d, 0x26, 0x9a, 0xbb, 0xbe, 0xfb, 0x36, 0x8c, 0xbe, 0x1b, 0x35, 0x90, 0x3e, 0x05, 0xbf, 0x4e, 0xbc, 0xf8, 0x1b, 0x88, 0x3d, 0x15, 0x55, 0x21, 0xbe, 0x41, 0xcf, 0x96, 0x3d, 0xf1, 0xfc, 0xe7, 0xbd, 0x55, 0x36, 0x52, 0x3e, 0x3d, 0x00, 0x2a, 0x3e, 0x7a, 0x0c, 0xa4, 0x3c, 0x32, 0xf1, 0x5c, 0x3c, 0xf3, 0xb7, 0x27, 0xbe, 0x89, 0xff, 0x98, 0xbd, 0xf5, 0xfb, 0x0f, 0xbd, 0x70, 0x1e, 0x2d, 0xbe, 0xb7, 0x53, 0xb0, 0x3c, 0x5e, 0x06, 0xc8, 0x3d, 0xe6, 0x2e, 0xb2, 0x3d, 0xc6, 0x9c, 0xb5, 0x3d, 0xe9, 0x2d, 0x44, 0x3e, 0xb4, 0xfa, 0x2f, 0x3e, 0x49, 0xb9, 0x2e, 0xbe, 0x33, 0xa6, 0x19, 0x3e, 0x3e, 0x92, 0x7e, 0xbd, 0x2f, 0xbc, 0x7d, 0xbd, 0xaa, 0x36, 0xb0, 0xbe, 0x32, 0xfc, 0xbb, 0xbe, 0x38, 0x59, 0x86, 0xbd, 0x77, 0xdb, 0x89, 0xbe, 0x22, 0x2c, 0x07, 0x3e, 0xb8, 0x16, 0x17, 0x3a, 0x91, 0x9d, 0x1f, 0x3e, 0x5e, 0x0c, 0x06, 0xbe, 0x8d, 0x9b, 0xc8, 0x3d, 0x08, 0xd4, 0x55, 0x3e, 0x93, 0xfa, 0x90, 0xbb, 0xf0, 0xd0, 0x24, 0x3d, 0x6a, 0xb8, 0x0f, 0xbe, 0x2c, 0x27, 0x38, 0xbe, 0x3a, 0xe7, 0x98, 0x3d, 0x28, 0xae, 0x9a, 0x3b, 0x08, 0xe7, 0x86, 0x3d, 0xa7, 0x55, 0xef, 0xbb, 0xc7, 0x12, 0xcf, 0xbb, 0x98, 0xbf, 0x88, 0x3d, 0xd9, 0xd2, 0xf9, 0x3d, 0x11, 0x4a, 0x01, 0xbe, 0x2d, 0x67, 0x95, 0xbe, 0xd8, 0x11, 0x5d, 0x3e, 0xbd, 0xb3, 0x53, 0xbe, 0x71, 0xb3, 0x81, 0x3e, 0x67, 0x8c, 0xf5, 0x3c, 0xa0, 0xca, 0x96, 0xbe, 0xfa, 0x04, 0x86, 0xbd, 0xda, 0x55, 0xa2, 0x3d, 0xe1, 0xba, 0x3e, 0x3e, 0xa4, 0x6d, 0x19, 0xbd, 0x43, 0xdd, 0x14, 0xbe, 0x20, 0x19, 0x18, 0x3e, 0x94, 0x44, 0x36, 0xbe, 0x89, 0x80, 0xa8, 0xbe, 0x61, 0x22, 0xbd, 0xbe, 0x41, 0xfc, 0x4b, 0xbd, 0x8f, 0x8d, 0x5a, 0xbe, 0xa5, 0xc8, 0xe2, 0x3d, 0xf1, 0x30, 0x2e, 0x3e, 0x21, 0xac, 0x13, 0xbe, 0x47, 0xe9, 0x50, 0x3e, 0x51, 0xa8, 0x7d, 0xbe, 0x7e, 0x2e, 0x35, 0xbe, 0x38, 0xf3, 0xc9, 0x3d, 0xb1, 0x0e, 0xe2, 0xbc, 0xef, 0x3c, 0xad, 0x3d, 0x02, 0x6e, 0xef, 0xbd, 0x0b, 0x17, 0x20, 0xbe, 0xde, 0x87, 0x33, 0x3e, 0xa7, 0x5f, 0x54, 0xbe, 0x64, 0xe4, 0x92, 0x3e, 0xf9, 0x30, 0xa8, 0xbc, 0xbb, 0xe2, 0x9a, 0x3b, 0x07, 0x5c, 0xaa, 0x3d, 0x61, 0xb3, 0xce, 0x3d, 0x6e, 0xbe, 0x92, 0xbe, 0x64, 0x6e, 0x81, 0xbe, 0x9c, 0x21, 0x98, 0x3e, 0x21, 0x0f, 0x72, 0x3e, 0x42, 0x5b, 0x95, 0x3e, 0x16, 0xed, 0x4a, 0xbe, 0xe4, 0x5a, 0xbf, 0x3e, 0x03, 0x17, 0x9f, 0x3d, 0x70, 0x45, 0xb5, 0x3e, 0x01, 0xbb, 0x99, 0xbd, 0xec, 0x35, 0x3a, 0x3e, 0x32, 0x66, 0xfe, 0xbd, 0xc0, 0x44, 0x05, 0x3e, 0xb8, 0xbb, 0xb8, 0x3d, 0xa4, 0x3b, 0xe2, 0xbc, 0x09, 0x44, 0x24, 0x3e, 0xd6, 0xc6, 0xd3, 0xbd, 0xa9, 0xc6, 0x93, 0xbe, 0x27, 0xe5, 0x92, 0xbc, 0xce, 0x2e, 0xd1, 0xbd, 0x85, 0x5e, 0x57, 0x3e, 0x4d, 0xa1, 0x89, 0x3d, 0xfe, 0x8b, 0x31, 0x3e, 0x95, 0xee, 0x24, 0x3e, 0xd9, 0x35, 0x39, 0x3e, 0xa2, 0xf3, 0x7a, 0xbe, 0x44, 0x36, 0x3a, 0xbe, 0xb9, 0x08, 0xbf, 0x3d, 0x03, 0xab, 0x83, 0xbe, 0x70, 0x83, 0xf1, 0xbd, 0xb0, 0xf8, 0x8b, 0xbd, 0x3d, 0x4b, 0x32, 0xbd, 0x9f, 0x4c, 0x82, 0x3d, 0x96, 0xcf, 0x3f, 0xbe, 0xf2, 0xd2, 0x4e, 0xbb, 0xb0, 0xea, 0x7f, 0x3e, 0x3e, 0x18, 0xe4, 0x3d, 0x5c, 0x80, 0xdf, 0x3d, 0xec, 0x0c, 0xf8, 0x3d, 0xb1, 0xc0, 0x1d, 0xbe, 0x33, 0x92, 0x52, 0xbe, 0xe5, 0xe1, 0x9e, 0xbc, 0x9d, 0x84, 0x23, 0xbc, 0x04, 0x03, 0xf9, 0x3d, 0x58, 0xb3, 0x12, 0x3e, 0x41, 0xd1, 0x25, 0xbe, 0x88, 0x9a, 0xce, 0x3d, 0x9d, 0x68, 0xbe, 0xbd, 0xe6, 0x62, 0xf5, 0x3d, 0xce, 0xcf, 0x95, 0x3e, 0x46, 0xec, 0x5c, 0x3d, 0x85, 0x6e, 0x2c, 0xbe, 0x75, 0xc2, 0x84, 0x3e, 0x65, 0xa7, 0x1b, 0x3e, 0xf3, 0x6b, 0x93, 0xbe, 0x61, 0x5e, 0x83, 0x3e, 0xfb, 0x3a, 0x78, 0xbe, 0x22, 0x59, 0x8d, 0xbe, 0xed, 0xc0, 0x85, 0xbe, 0x92, 0x55, 0x6f, 0xbe, 0x70, 0x42, 0x77, 0xbe, 0x9c, 0xfc, 0x5c, 0xbd, 0x3f, 0xab, 0x4f, 0xbd, 0xf8, 0x2b, 0x8c, 0x3e, 0x66, 0xce, 0x4b, 0x3e, 0xa3, 0x44, 0x6f, 0xbe, 0xe7, 0xc7, 0x2b, 0x3e, 0x1c, 0x09, 0xd6, 0xbd, 0xb5, 0x2b, 0x1d, 0xbe, 0xa2, 0xc6, 0x6a, 0xbe, 0xbf, 0x47, 0x03, 0xbe, 0x09, 0xbe, 0x8b, 0xbe, 0x4c, 0x7c, 0x5b, 0xbe, 0x1a, 0xd8, 0xb7, 0xbe, 0x86, 0xd8, 0x12, 0xbd, 0x98, 0x57, 0x7b, 0x3e, 0x22, 0x30, 0x5e, 0xbe, 0x8d, 0x40, 0x14, 0xbe, 0x02, 0x00, 0xd7, 0x3b, 0xff, 0xe0, 0x95, 0xbd, 0x48, 0x11, 0x8f, 0xbd, 0x94, 0x48, 0x85, 0xbd, 0x2a, 0x9a, 0x08, 0x3e, 0xba, 0x9d, 0x00, 0xbe, 0x7e, 0x94, 0x44, 0xba, 0xbb, 0xc9, 0xf8, 0xbd, 0x4a, 0xd8, 0x52, 0x3e, 0xc4, 0x20, 0x16, 0xbc, 0x07, 0xc3, 0x34, 0x3e, 0x23, 0x34, 0x5f, 0xbe, 0xf0, 0x37, 0x66, 0xbe, 0x6c, 0x6a, 0x14, 0xbc, 0xf6, 0x4f, 0xde, 0xbd, 0x34, 0x4d, 0xb1, 0x3d, 0x7d, 0x65, 0x36, 0xbe, 0x95, 0xdf, 0x1a, 0x3e, 0x11, 0x1c, 0xff, 0x3d, 0xae, 0x6a, 0xaa, 0x3d, 0xc6, 0x4f, 0x0d, 0x3e, 0x3c, 0x61, 0x6d, 0xbe, 0xd1, 0x40, 0x4e, 0xbd, 0x79, 0x04, 0x88, 0xbd, 0xc9, 0xee, 0x57, 0xbe, 0x7c, 0xcf, 0x0d, 0x3e, 0x21, 0x69, 0x22, 0x3e, 0x01, 0xbe, 0x96, 0x3d, 0x36, 0x3d, 0x80, 0xbe, 0x3b, 0x9e, 0x20, 0x3e, 0x0b, 0xa3, 0xcc, 0x3e, 0x64, 0x31, 0xc6, 0x3d, 0xe0, 0x84, 0x16, 0x3e, 0x92, 0x4a, 0xff, 0x3c, 0x1f, 0xa5, 0x29, 0xbe, 0xbe, 0x2c, 0x0b, 0x3d, 0xd2, 0xe8, 0xe2, 0x3c, 0x97, 0x89, 0x3f, 0x3e, 0x87, 0x53, 0x4d, 0xbe, 0xcc, 0xab, 0x65, 0x3d, 0x4e, 0xac, 0x69, 0xbe, 0xa8, 0xb2, 0xd0, 0xbd, 0x97, 0x58, 0x07, 0xbe, 0xf4, 0x4a, 0xf9, 0xbd, 0x27, 0x4d, 0x3e, 0xbe, 0x81, 0x31, 0x22, 0xbe, 0x42, 0x83, 0x25, 0xbc, 0xb3, 0x24, 0xfc, 0x3d, 0x41, 0xcc, 0x50, 0xbd, 0xe6, 0xa0, 0x20, 0x3e, 0x6d, 0x85, 0x16, 0xbe, 0x68, 0x1e, 0x54, 0x3e, 0xc9, 0x42, 0xc1, 0xbd, 0xdc, 0x5d, 0x62, 0x3e, 0xeb, 0xaa, 0xf3, 0xbd, 0xc2, 0x54, 0x10, 0xbe, 0xcd, 0x01, 0x95, 0x3d, 0xc8, 0x5b, 0x45, 0xbd, 0x72, 0x4c, 0x32, 0x3d, 0x5a, 0xbd, 0xb0, 0x3b, 0x4d, 0x93, 0x99, 0x3d, 0x03, 0x88, 0x88, 0x3d, 0x53, 0x95, 0x83, 0x3e, 0x62, 0xd2, 0x0e, 0xbe, 0xce, 0xa0, 0x90, 0xbb, 0x39, 0xa0, 0x12, 0x3e, 0xdb, 0xe2, 0x2e, 0xbe, 0xf9, 0xe5, 0x8c, 0xbe, 0x8b, 0xe2, 0x21, 0x3e, 0x67, 0xb0, 0x62, 0xbe, 0x7b, 0x33, 0x75, 0xbe, 0xae, 0xce, 0xa2, 0xbe, 0xc7, 0x61, 0xbf, 0x3b, 0xc2, 0x38, 0x76, 0xbe, 0x7e, 0x82, 0x9a, 0xbe, 0xc8, 0x28, 0xb6, 0xbc, 0x79, 0xef, 0x8a, 0xbd, 0xfd, 0x27, 0x99, 0x3e, 0xfa, 0x45, 0xa0, 0x3e, 0xb0, 0xfa, 0x53, 0xbe, 0x56, 0x0a, 0x23, 0x3e, 0x5d, 0xb5, 0x58, 0x3e, 0x6c, 0x94, 0x7a, 0x3e, 0xfd, 0x57, 0x0b, 0x3e, 0xb5, 0x34, 0x94, 0xbd, 0x5e, 0x4d, 0x31, 0xbe, 0x8b, 0xe8, 0x49, 0x3c, 0xe8, 0x39, 0x04, 0xbd, 0xcb, 0xab, 0x02, 0xbe, 0xec, 0x3c, 0x16, 0xbe, 0xd7, 0x50, 0x32, 0x3e, 0xa8, 0x66, 0x99, 0x3d, 0x9f, 0xf2, 0x9d, 0x3e, 0x11, 0x5b, 0x88, 0x3e, 0x0f, 0xe1, 0x94, 0x3d, 0x72, 0x96, 0x73, 0x3e, 0xfc, 0xff, 0x4d, 0xbe, 0x9b, 0x51, 0xc1, 0xbd, 0xef, 0xbb, 0x94, 0xbe, 0x49, 0x09, 0x1a, 0xbe, 0xe5, 0xf5, 0x5e, 0xbe, 0x4e, 0x19, 0x12, 0xbe, 0x0c, 0x07, 0x8a, 0xbe, 0x8b, 0xeb, 0x22, 0xbd, 0x59, 0x52, 0xf1, 0xbe, 0xcf, 0x5b, 0xa9, 0x3d, 0x18, 0xb1, 0x2b, 0x3e, 0xe1, 0x1c, 0x95, 0xbe, 0xa9, 0x06, 0xcc, 0x3d, 0x64, 0x95, 0xa9, 0xbd, 0x9e, 0xb8, 0xb4, 0x3e, 0x55, 0x6c, 0x31, 0xbe, 0x11, 0xf6, 0x22, 0xbe, 0xf2, 0x6b, 0x91, 0x3e, 0x84, 0x8f, 0x31, 0xbe, 0x13, 0xcf, 0x31, 0x3e, 0xed, 0x98, 0x5e, 0xbe, 0x4c, 0xd1, 0x6f, 0x3e, 0x29, 0xaf, 0xa4, 0xbd, 0x15, 0xa9, 0x4c, 0x3d, 0x3c, 0xc3, 0xe6, 0x3d, 0x62, 0xbf, 0x26, 0xbe, 0x41, 0x7d, 0xc6, 0x3d, 0x44, 0xbd, 0x95, 0xbe, 0x24, 0xd6, 0x9a, 0x3d, 0x11, 0x2b, 0x83, 0x3d, 0xf2, 0xf2, 0xfe, 0x3d, 0x1b, 0x35, 0xca, 0x3e, 0x0a, 0x1a, 0x66, 0x3e, 0x96, 0xed, 0xcd, 0xbc, 0xd8, 0xe7, 0x2c, 0xbe, 0x94, 0x28, 0x80, 0x3e, 0x30, 0x26, 0xd9, 0xbb, 0x96, 0x31, 0xa4, 0xbe, 0x65, 0xa0, 0x84, 0xbe, 0xc5, 0x7f, 0x45, 0xbe, 0xa0, 0x60, 0x01, 0x3e, 0x2d, 0xfc, 0x17, 0xbe, 0x2c, 0x5d, 0x87, 0xbe, 0xf2, 0xb1, 0x9d, 0x3e, 0xd7, 0x64, 0x89, 0xbb, 0x04, 0x21, 0x81, 0x3e, 0x13, 0x72, 0x29, 0xbe, 0x7e, 0xe0, 0x44, 0xbd, 0xe6, 0x43, 0x35, 0x3e, 0x67, 0xb5, 0x49, 0xbe, 0x9f, 0x65, 0x6d, 0x3e, 0x84, 0xb3, 0x9e, 0xbe, 0x96, 0x47, 0x90, 0x3e, 0x80, 0x3a, 0xbf, 0xbd, 0x49, 0xa3, 0x88, 0x3d, 0x1e, 0xe8, 0xbb, 0x3a, 0x29, 0x2c, 0x06, 0x3e, 0xbb, 0xf4, 0x46, 0xbe, 0x3e, 0xbc, 0x75, 0x3e, 0x6c, 0x4f, 0x82, 0xbe, 0x36, 0x28, 0x50, 0x3e, 0xbe, 0x21, 0x95, 0xb9, 0x54, 0x1d, 0x8b, 0x3e, 0x66, 0x19, 0x3f, 0xbe, 0x56, 0x2c, 0x20, 0xbe, 0x2e, 0x60, 0x9f, 0xbe, 0x48, 0x4b, 0x18, 0x3c, 0xce, 0x2a, 0x1a, 0xbe, 0xcb, 0x39, 0x66, 0xbe, 0x72, 0x1b, 0x69, 0x3e, 0x7f, 0x6e, 0x8c, 0x3e, 0x87, 0x55, 0xa2, 0xbd, 0xe5, 0x1f, 0x14, 0xbe, 0x15, 0x1c, 0x8e, 0xbe, 0xdc, 0xbf, 0x14, 0xbe, 0x13, 0x18, 0x11, 0x3e, 0x26, 0x02, 0xa8, 0x3b, 0x50, 0x93, 0xf8, 0x3d, 0x07, 0x85, 0x49, 0x3e, 0xac, 0x98, 0x76, 0x3e, 0x93, 0xbc, 0x69, 0x3e, 0x21, 0x50, 0x05, 0x3d, 0x79, 0x63, 0xa3, 0xbe, 0xd9, 0xd6, 0x48, 0xbe, 0x8f, 0xcf, 0x9b, 0x3b, 0xa6, 0x8e, 0x16, 0x3d, 0xe3, 0x03, 0x74, 0x3e, 0x76, 0x17, 0x5a, 0x3c, 0x81, 0x8d, 0xc7, 0x3d, 0x05, 0xa3, 0xd3, 0xbd, 0xba, 0xd3, 0x3b, 0xbd, 0x7e, 0xdd, 0x5a, 0xbd, 0xb0, 0xc9, 0x92, 0x3e, 0x37, 0xaa, 0xcd, 0xbc, 0x16, 0x87, 0xb2, 0xbd, 0xff, 0x59, 0x93, 0xbe, 0x83, 0xce, 0x0d, 0xbd, 0x6a, 0xff, 0x31, 0x3e, 0x8a, 0xf2, 0xf1, 0x3d, 0x1e, 0xc4, 0x4b, 0x3e, 0x32, 0x52, 0x4b, 0xbd, 0xc8, 0x21, 0x80, 0xbe, 0x18, 0x1a, 0x1e, 0x3e, 0x26, 0x84, 0x57, 0xbe, 0x6f, 0x98, 0x90, 0xbe, 0xfc, 0xb4, 0x8e, 0xbe, 0x59, 0xac, 0xb2, 0x3d, 0x87, 0x38, 0x9b, 0xbe, 0x02, 0x2b, 0x79, 0x3e, 0x28, 0x2f, 0x86, 0x3e, 0x15, 0xf3, 0x2b, 0x3e, 0x50, 0xa5, 0xd4, 0x3d, 0xa3, 0xae, 0x85, 0x3e, 0x95, 0xc5, 0x77, 0xbe, 0x1d, 0x12, 0x68, 0xbd, 0xcf, 0x78, 0xa5, 0x3e, 0xa3, 0x99, 0x9b, 0xbe, 0x83, 0x61, 0x8c, 0xbe, 0xdf, 0x88, 0x84, 0x3e, 0xee, 0x30, 0x86, 0xbe, 0x3a, 0xd2, 0xe7, 0xbc, 0x6d, 0xf0, 0x72, 0x3e, 0xd2, 0x15, 0x9a, 0x3d, 0x97, 0xe7, 0x7b, 0xbd, 0xae, 0xa6, 0xf1, 0x3c, 0xa8, 0x91, 0x13, 0xbe, 0x64, 0xc1, 0x07, 0x3e, 0xd1, 0xf1, 0x87, 0x3d, 0x62, 0xbe, 0x5e, 0x3d, 0x47, 0xad, 0x33, 0x3d, 0x44, 0x65, 0x82, 0xbd, 0xd9, 0xe6, 0x0e, 0x3e, 0x44, 0x31, 0x95, 0x3d, 0xde, 0xe1, 0x93, 0x3e, 0xdb, 0x30, 0x62, 0xbd, 0x48, 0x56, 0x7e, 0x3e, 0x42, 0xc8, 0x8d, 0xbd, 0xdb, 0xda, 0x00, 0x3e, 0x1a, 0x2a, 0x5b, 0x3e, 0x47, 0x01, 0xe1, 0xbd, 0x7e, 0xea, 0xcf, 0x3d, 0x0b, 0x39, 0x1f, 0xbd, 0x28, 0xa4, 0x55, 0xbe, 0xf3, 0x5e, 0x5b, 0xbe, 0xc8, 0x87, 0x42, 0xbc, 0x6d, 0x83, 0x43, 0xbd, 0xa8, 0x14, 0x00, 0xbe, 0x93, 0xbe, 0x7a, 0xbe, 0x62, 0x19, 0x22, 0x3e, 0x73, 0x1c, 0xec, 0xbd, 0xe2, 0xf3, 0x31, 0xbe, 0xeb, 0xa4, 0x70, 0x3e, 0xa3, 0x44, 0xe6, 0xbd, 0x75, 0x9e, 0xbe, 0x3d, 0xf0, 0xe4, 0x50, 0xbd, 0x7c, 0x79, 0x0d, 0xbe, 0x9c, 0xd2, 0x8e, 0xbe, 0x86, 0x6f, 0xe2, 0x3d, 0x48, 0x4b, 0xcf, 0x3e, 0x73, 0x60, 0x2d, 0xbe, 0x25, 0x51, 0xad, 0xbb, 0x61, 0x1d, 0xa2, 0x3c, 0x8e, 0xf6, 0x2d, 0x3e, 0xfd, 0xa3, 0xad, 0x3e, 0x85, 0x15, 0x55, 0x3e, 0x6b, 0x92, 0x6b, 0xbe, 0x4f, 0xbe, 0x30, 0x3e, 0xda, 0xa3, 0x24, 0x3e, 0xb8, 0xa9, 0x08, 0x3e, 0xb6, 0x89, 0x7f, 0x3d, 0xdd, 0xd3, 0x28, 0xbd, 0xa4, 0x87, 0x05, 0xbe, 0xd9, 0x32, 0x86, 0x3e, 0xf5, 0x94, 0xfc, 0xbd, 0x29, 0x43, 0x56, 0xbe, 0x23, 0xce, 0x99, 0xbd, 0xc1, 0xc6, 0xbb, 0xbb, 0xe2, 0x49, 0x06, 0xbc, 0x52, 0x70, 0x91, 0x3d, 0xd9, 0xf5, 0x5e, 0x3e, 0x9b, 0x39, 0x84, 0xbe, 0x79, 0x4f, 0x10, 0x3e, 0x88, 0x56, 0xf6, 0xbd, 0xc5, 0x62, 0x46, 0x3e, 0xa8, 0x98, 0x4e, 0xbe, 0xfd, 0x7f, 0x82, 0x3e, 0x3c, 0x1c, 0xbc, 0x3e, 0x5e, 0x6d, 0xcb, 0x3e, 0x21, 0xd5, 0xa3, 0xbd, 0xbb, 0xd2, 0x7d, 0x3e, 0x02, 0x8d, 0x8f, 0x3b, 0xef, 0x8e, 0x46, 0x3e, 0x91, 0x53, 0xc5, 0xbd, 0xef, 0x8a, 0x0e, 0xbe, 0xa6, 0x85, 0x39, 0x3c, 0xde, 0xd6, 0xf1, 0xbd, 0x0c, 0xb8, 0x0b, 0x3d, 0x3f, 0x83, 0x10, 0x3e, 0xb4, 0x69, 0x33, 0xbe, 0xd2, 0x34, 0x88, 0x3e, 0x92, 0xd0, 0x83, 0xbe, 0xb1, 0xbe, 0x32, 0x3d, 0x5b, 0x97, 0x29, 0x3e, 0xc6, 0xfb, 0xa7, 0xbc, 0x40, 0x0d, 0x61, 0x3e, 0x2e, 0xf7, 0x9f, 0x3d, 0x99, 0xcc, 0x1b, 0xbe, 0x54, 0xad, 0xf8, 0x3c, 0xaa, 0xca, 0x5d, 0x3e, 0xf3, 0xf9, 0x29, 0x3e, 0x45, 0xdd, 0x87, 0x3e, 0xd0, 0x91, 0x7b, 0xbc, 0x7d, 0xf3, 0x7e, 0xbe, 0xfd, 0x9a, 0x37, 0xbe, 0x48, 0x5b, 0xd5, 0x3c, 0x69, 0x46, 0x1e, 0xbe, 0xf3, 0xa9, 0xd6, 0xbd, 0xc4, 0xa8, 0x4f, 0xbd, 0x6b, 0x6c, 0x60, 0x3e, 0x13, 0x41, 0xe2, 0x3d, 0x53, 0x5f, 0xe9, 0x3d, 0xe3, 0xc8, 0xad, 0x3d, 0x7b, 0x73, 0x85, 0x3d, 0x37, 0xda, 0xb2, 0xbd, 0x11, 0xc8, 0x7f, 0x3e, 0xa6, 0x9d, 0xff, 0x3d, 0x06, 0x60, 0xf3, 0xbc, 0x42, 0xfa, 0xe6, 0x3d, 0x86, 0x1b, 0x1e, 0x3e, 0x7a, 0xc1, 0xb4, 0xbd, 0x34, 0xc2, 0x28, 0xbe, 0x63, 0x6f, 0x72, 0x3c, 0xbe, 0x16, 0xe6, 0x3d, 0x9d, 0x99, 0x91, 0xbe, 0xab, 0x17, 0xb6, 0xbe, 0x50, 0xa3, 0x5e, 0xbd, 0x8c, 0x3a, 0xba, 0xbd, 0x01, 0xba, 0xc1, 0xbd, 0xed, 0x43, 0xac, 0xbd, 0x7d, 0x95, 0x09, 0xbe, 0x8b, 0x45, 0x71, 0xbe, 0x8e, 0x2d, 0x32, 0xbd, 0x71, 0x9f, 0x4b, 0xbe, 0x76, 0x97, 0xbb, 0x3c, 0xb8, 0x40, 0x2c, 0x3d, 0x8c, 0x49, 0x13, 0x3c, 0x3f, 0xb4, 0xba, 0x3d, 0xb9, 0xfa, 0x43, 0xbd, 0x27, 0x96, 0x37, 0xbd, 0x25, 0xb1, 0x32, 0xbd, 0x77, 0xa6, 0x94, 0x3e, 0x9a, 0xc2, 0x95, 0x3d, 0xcd, 0xba, 0x28, 0x3d, 0x64, 0x70, 0x4d, 0xbe, 0x75, 0xbe, 0x3f, 0x3e, 0x12, 0xd4, 0xe3, 0xbc, 0x9f, 0x04, 0x45, 0xbe, 0x5f, 0x66, 0x41, 0xbb, 0xfb, 0x3a, 0xc4, 0xbe, 0xa5, 0x5b, 0x3f, 0x3a, 0x72, 0x43, 0xde, 0xbe, 0xec, 0xdc, 0xd6, 0xbd, 0x08, 0x13, 0x84, 0xbe, 0xb3, 0xb5, 0x1c, 0x3e, 0x5b, 0x0c, 0x48, 0xbd, 0x6b, 0x86, 0x8c, 0xbe, 0xf4, 0x69, 0x03, 0xbe, 0x97, 0x5f, 0x26, 0x3e, 0xd6, 0xfd, 0xcb, 0x3d, 0x9f, 0x3f, 0x2d, 0xbe, 0x04, 0xb6, 0x99, 0x3e, 0x1b, 0xff, 0x25, 0x3d, 0xec, 0xd7, 0xa5, 0x38, 0xc6, 0x10, 0x95, 0xbe, 0xe0, 0x3e, 0x4b, 0xbe, 0xed, 0x6f, 0x1f, 0x3d, 0x10, 0x52, 0xbd, 0xbc, 0x04, 0xb3, 0x35, 0xbd, 0xff, 0xe6, 0xa2, 0x3e, 0x3b, 0x4c, 0xac, 0x3d, 0x47, 0x60, 0x5e, 0x3d, 0x71, 0x9f, 0x00, 0x3e, 0xa0, 0x13, 0xbe, 0x3e, 0x81, 0x44, 0x9a, 0x3e, 0x6f, 0xe8, 0xdc, 0xbc, 0xc5, 0x42, 0x03, 0x3e, 0x26, 0x39, 0x9e, 0xbd, 0x6d, 0x72, 0x04, 0xbe, 0xa4, 0x24, 0x9a, 0x3e, 0x1b, 0x9b, 0x44, 0xbb, 0xae, 0xed, 0x1c, 0xbe, 0x38, 0x09, 0x84, 0xbe, 0xb0, 0xe6, 0x15, 0xbe, 0xac, 0xfa, 0x20, 0xbe, 0x02, 0x02, 0x50, 0x3e, 0x28, 0xea, 0x37, 0xbe, 0xbd, 0x35, 0x6f, 0x3d, 0xb7, 0xb9, 0xda, 0x3c, 0x72, 0xe5, 0x81, 0x3e, 0xaa, 0xc1, 0x21, 0x3e, 0x91, 0x0b, 0x6a, 0x3e, 0xac, 0x5f, 0x0c, 0xbe, 0x15, 0xee, 0x87, 0xbe, 0x5d, 0x5f, 0xa3, 0xbe, 0x4c, 0x71, 0x7e, 0x3e, 0xf9, 0xc3, 0x51, 0xbd, 0x30, 0x53, 0x7a, 0x3e, 0x94, 0x34, 0xc0, 0x3d, 0x10, 0x07, 0x0a, 0xbe, 0xe9, 0xb7, 0xb0, 0xbd, 0x99, 0x11, 0x3f, 0x3e, 0x21, 0xed, 0xed, 0xbb, 0x51, 0x9a, 0x0c, 0x3e, 0x95, 0x11, 0x23, 0xbe, 0x80, 0x40, 0xe9, 0xbd, 0x2a, 0x08, 0x49, 0xbc, 0xc4, 0xdc, 0x8a, 0xbe, 0xae, 0x63, 0xc4, 0xbe, 0xcf, 0xd3, 0x35, 0xbe, 0xf4, 0xd7, 0xa3, 0xbe, 0x2c, 0x35, 0x0a, 0x3e, 0x2c, 0x80, 0x93, 0xbe, 0x17, 0x02, 0x7c, 0xbe, 0x9e, 0x0e, 0x6c, 0x3e, 0x71, 0xa0, 0x95, 0xbe, 0xde, 0xcb, 0x03, 0xbc, 0x03, 0xe0, 0x2d, 0x3d, 0x0f, 0xfe, 0xb5, 0xbd, 0xc6, 0x78, 0x0b, 0x3d, 0x92, 0x62, 0x67, 0xbd, 0x98, 0x2c, 0x1f, 0xbe, 0x29, 0x53, 0x83, 0xbe, 0xe0, 0xdf, 0x85, 0xbe, 0xc0, 0xda, 0x37, 0x3e, 0x81, 0x69, 0x67, 0x3e, 0x7f, 0x9e, 0xfd, 0xbd, 0x5e, 0x5a, 0x9e, 0xbc, 0x6c, 0x19, 0x77, 0x3e, 0xb7, 0x87, 0xdb, 0x3d, 0xe1, 0x8c, 0xb8, 0xbe, 0xd2, 0xd0, 0xb7, 0xbe, 0x9b, 0xe8, 0x6f, 0x3e, 0x6f, 0x54, 0x22, 0xbe, 0xfb, 0x22, 0xdf, 0x3d, 0xc4, 0x51, 0x8c, 0xbe, 0xa3, 0x78, 0x95, 0x3e, 0xf5, 0xff, 0x32, 0x3e, 0x6b, 0x9a, 0xa0, 0xba, 0x30, 0x76, 0x17, 0xbe, 0xba, 0x73, 0x5a, 0xbe, 0x4f, 0x8e, 0xa8, 0x3c, 0x99, 0xca, 0xa6, 0x3e, 0x1a, 0x8a, 0x67, 0xbe, 0xaa, 0xf0, 0x9f, 0x3d, 0x5e, 0x35, 0xa1, 0x3e, 0xf2, 0x08, 0x78, 0x3e, 0xcd, 0xb7, 0x81, 0x3e, 0xe4, 0xd4, 0x88, 0x3d, 0xa0, 0xfd, 0x93, 0x3d, 0xa4, 0x3d, 0x70, 0xbe, 0x83, 0x7a, 0x89, 0xbe, 0x71, 0xbc, 0xdf, 0x3c, 0x61, 0x44, 0x8f, 0xbc, 0x2e, 0xeb, 0xc3, 0x3c, 0xe2, 0xa0, 0x69, 0xbe, 0x61, 0x2c, 0xdb, 0x3d, 0xa8, 0x0b, 0x5c, 0xbe, 0xbc, 0xe0, 0x66, 0x3e, 0x92, 0xbc, 0x90, 0xbe, 0x87, 0xd8, 0xb7, 0xbb, 0xbc, 0xc4, 0x84, 0x3e, 0xf1, 0x0b, 0x09, 0xbd, 0x29, 0xd0, 0xb4, 0xbe, 0xed, 0x1a, 0x14, 0xbe, 0xe8, 0xd7, 0x91, 0xbc, 0x44, 0xb9, 0x8a, 0xbe, 0xe5, 0x0e, 0x99, 0xbe, 0x55, 0xc0, 0x40, 0xbe, 0xdc, 0xb2, 0x7e, 0xbd, 0xc3, 0x2c, 0xe3, 0x3e, 0x70, 0x9d, 0xa5, 0x3e, 0x0f, 0x78, 0x17, 0x3e, 0xee, 0x1f, 0x68, 0xbc, 0x43, 0xef, 0xa8, 0xbe, 0x02, 0x07, 0x2b, 0xbd, 0xe4, 0x54, 0x5f, 0x3e, 0x4f, 0xb6, 0xf8, 0x3d, 0x3b, 0xde, 0x2d, 0x3e, 0x4a, 0xf8, 0x63, 0x3a, 0xf0, 0x73, 0x11, 0xbe, 0xbc, 0xa3, 0x41, 0x3e, 0x8c, 0x5d, 0xa2, 0xbd, 0x86, 0x70, 0xff, 0xbd, 0x3e, 0xfc, 0x1b, 0xbe, 0xa1, 0x92, 0x01, 0x3e, 0x7e, 0x22, 0x09, 0xbe, 0x8a, 0x61, 0x49, 0x3e, 0x5e, 0x4d, 0x6a, 0x3e, 0x39, 0x77, 0x76, 0xbb, 0x1e, 0xaf, 0x3a, 0x3c, 0x5d, 0x05, 0x96, 0x3b, 0xce, 0xe6, 0x4f, 0xbe, 0x3e, 0x34, 0xe3, 0xbc, 0x00, 0xe2, 0x83, 0x3e, 0xee, 0xe0, 0x93, 0xbe, 0x82, 0xac, 0xf4, 0xbb, 0x49, 0xb3, 0x77, 0x3e, 0x0d, 0xf3, 0xb0, 0xbd, 0xef, 0xeb, 0x21, 0xbe, 0xe3, 0xa6, 0xe5, 0x3d, 0x7b, 0x41, 0xb0, 0x3e, 0x4e, 0x6f, 0x01, 0xbe, 0xb5, 0x71, 0x4e, 0xbb, 0x4a, 0x23, 0x15, 0x3d, 0x21, 0xdd, 0xc4, 0x3e, 0x51, 0xd2, 0x00, 0xbd, 0xeb, 0x66, 0x9d, 0x3e, 0xa9, 0x1e, 0xdc, 0x3c, 0xca, 0xfe, 0x4d, 0xbe, 0xdc, 0x1c, 0xea, 0xbe, 0x20, 0x70, 0x06, 0xbe, 0x6c, 0x47, 0x2c, 0xbe, 0x21, 0xb8, 0x65, 0xbe, 0x0f, 0x84, 0xb4, 0xbe, 0x0b, 0x38, 0xcf, 0xbd, 0x5f, 0xbe, 0x9d, 0xbe, 0x89, 0x28, 0x13, 0xbe, 0x5d, 0x10, 0x28, 0xbe, 0xec, 0xe9, 0xdd, 0xbd, 0x7f, 0xd0, 0x0e, 0xbe, 0xf2, 0xf8, 0xb0, 0xbd, 0x20, 0x8c, 0xb5, 0x3e, 0xb2, 0x3f, 0xf4, 0x3d, 0x58, 0x7b, 0xa7, 0x3d, 0x82, 0x8c, 0xcf, 0x3d, 0xa0, 0x23, 0x97, 0xbd, 0xf5, 0x6f, 0xe2, 0xbd, 0xb5, 0x19, 0xcf, 0xbd, 0x50, 0x51, 0xc7, 0x3e, 0x65, 0x10, 0xd5, 0xbd, 0x64, 0x33, 0x7c, 0xbe, 0x29, 0x8b, 0x5f, 0xbe, 0x0b, 0x59, 0xb7, 0x3e, 0x42, 0x45, 0x1e, 0x3d, 0xe2, 0x19, 0xd4, 0xbd, 0x3e, 0x28, 0x7b, 0x3e, 0xc0, 0xe4, 0x4a, 0xbe, 0x2a, 0x9f, 0x54, 0x3e, 0x19, 0x67, 0xe2, 0xbd, 0x52, 0xc5, 0xb5, 0x3d, 0x7d, 0xc5, 0x1a, 0x3d, 0x16, 0xf8, 0x96, 0x3c, 0x48, 0x53, 0x96, 0x3e, 0xc7, 0xee, 0x46, 0x3e, 0x6c, 0x7e, 0xa4, 0xbd, 0x99, 0x56, 0x12, 0x3e, 0x52, 0x08, 0xab, 0xbd, 0x2e, 0x50, 0x04, 0xbe, 0x40, 0x7a, 0x35, 0x3e, 0x5d, 0x4a, 0x5c, 0xbd, 0xa9, 0x94, 0x74, 0x3e, 0x31, 0xec, 0x2a, 0x3d, 0xe8, 0xb5, 0x5d, 0x3d, 0x61, 0x21, 0xd9, 0x3d, 0x38, 0x4d, 0xac, 0xbb, 0x29, 0xe5, 0x6f, 0xbd, 0xa4, 0x1e, 0x21, 0xbe, 0xad, 0xe1, 0x25, 0x3e, 0xda, 0x19, 0x4c, 0x3e, 0x8f, 0x5a, 0xd6, 0xbb, 0xc9, 0x78, 0xfb, 0xbc, 0x4f, 0x5e, 0xa4, 0xbd, 0x4d, 0xb5, 0xae, 0x3e, 0x7e, 0x1d, 0xf5, 0x3d, 0xa7, 0x82, 0x82, 0xbe, 0x66, 0x7f, 0x1d, 0x3c, 0xfe, 0x58, 0xab, 0x3d, 0xa2, 0x11, 0x7f, 0x3e, 0x17, 0xd0, 0x16, 0xbe, 0xde, 0xa2, 0x39, 0xbe, 0x0d, 0x0c, 0x2c, 0xbe, 0x42, 0xcf, 0x4b, 0x3d, 0x39, 0xbc, 0xc6, 0xbd, 0x0a, 0x62, 0x80, 0x3d, 0x48, 0x69, 0x04, 0x3d, 0xa5, 0x89, 0x3d, 0x3d, 0xda, 0x0c, 0x7f, 0xbe, 0x5d, 0x59, 0x54, 0x3e, 0x7c, 0xde, 0x2f, 0xbd, 0x55, 0x32, 0xa6, 0xbd, 0x3e, 0x28, 0x9a, 0x3d, 0xca, 0xf2, 0x88, 0x3d, 0x2d, 0x4d, 0x3a, 0x3e, 0xb3, 0x8b, 0xa2, 0xbe, 0x26, 0xa1, 0x55, 0xbd, 0x53, 0xbb, 0xc4, 0x3d, 0xa5, 0x26, 0x3e, 0xbe, 0x99, 0x7d, 0x5f, 0x3e, 0x3b, 0x85, 0x3d, 0x3c, 0xf1, 0x9a, 0x44, 0xbe, 0xe5, 0x57, 0x3d, 0x3e, 0xef, 0x2d, 0x5e, 0x3c, 0x15, 0x54, 0x29, 0x3e, 0x8e, 0xb1, 0x5a, 0xbe, 0xe9, 0x2a, 0x56, 0xbe, 0x03, 0x0e, 0xe1, 0xbe, 0x65, 0x31, 0xba, 0xbe, 0x40, 0x3a, 0x2d, 0xbe, 0xda, 0xf4, 0x02, 0x3e, 0x3b, 0xd0, 0x42, 0x3e, 0x5a, 0x00, 0x7a, 0x3e, 0x2e, 0x29, 0x54, 0xbe, 0x95, 0x33, 0x1c, 0xbd, 0xbd, 0xa4, 0x0e, 0x3e, 0xc9, 0x75, 0xf7, 0xbd, 0xcb, 0x26, 0x88, 0x3e, 0x96, 0xa1, 0x2e, 0xbe, 0xd6, 0x94, 0x05, 0x3c, 0x01, 0x7c, 0x31, 0xbe, 0xa7, 0x67, 0xb8, 0xbd, 0x86, 0xf2, 0x54, 0xbe, 0x15, 0x9f, 0xe8, 0x3c, 0xa2, 0x3c, 0x30, 0x3e, 0x90, 0x64, 0x81, 0x3e, 0x52, 0x94, 0x04, 0xbe, 0x9e, 0x35, 0x76, 0xbe, 0x14, 0x2a, 0x99, 0x3c, 0x9a, 0xc1, 0xdb, 0x3d, 0x5b, 0x6a, 0x5f, 0x3e, 0x2b, 0xa6, 0x36, 0x3e, 0x53, 0x22, 0xa4, 0xbe, 0xd9, 0xca, 0x87, 0x3e, 0x58, 0x39, 0x67, 0xba, 0x1b, 0xec, 0x99, 0xbe, 0x21, 0xaf, 0x09, 0x3e, 0xab, 0x28, 0x66, 0xbd, 0x95, 0x5c, 0x95, 0x3e, 0xd9, 0x56, 0x2c, 0x3e, 0x8f, 0x30, 0x42, 0x3b, 0x1f, 0x00, 0xb3, 0x3e, 0x7c, 0x6e, 0x01, 0x3e, 0xa1, 0x47, 0xff, 0x3a, 0x14, 0x2d, 0x7d, 0x3e, 0x13, 0xf6, 0x07, 0x3c, 0x7f, 0x32, 0x3b, 0xbc, 0x4f, 0x72, 0x9a, 0x3e, 0xba, 0xeb, 0x60, 0x3e, 0xdb, 0x9c, 0x03, 0xbe, 0x9c, 0xea, 0x4f, 0xbe, 0x67, 0x76, 0x69, 0xbe, 0x4c, 0xc8, 0x45, 0x3e, 0xd1, 0x82, 0x01, 0x3e, 0xae, 0x87, 0x36, 0xbe, 0x98, 0x0e, 0x85, 0x3e, 0x78, 0x72, 0x8b, 0x3e, 0x18, 0x85, 0x86, 0xbe, 0x64, 0x29, 0x1e, 0xbe, 0xc3, 0x2e, 0xae, 0xbd, 0x7c, 0x3a, 0x8b, 0xbe, 0xbb, 0x0e, 0x4e, 0xbe, 0xba, 0x05, 0x86, 0x3e, 0x41, 0x59, 0xaa, 0x3e, 0x13, 0x2a, 0x88, 0x3d, 0xed, 0xb5, 0xfc, 0x3c, 0x66, 0xba, 0xc2, 0xbd, 0x7e, 0xe9, 0x41, 0xbd, 0x80, 0xcd, 0x53, 0xbd, 0x6b, 0x00, 0x63, 0xbe, 0x11, 0xbc, 0x71, 0xbe, 0xa9, 0xa4, 0x0c, 0xbe, 0x21, 0x7a, 0x95, 0xbe, 0x5e, 0x42, 0x79, 0x3e, 0xee, 0xac, 0x62, 0xbe, 0x93, 0xdc, 0xf0, 0xbb, 0x38, 0xac, 0x0d, 0x3e, 0xb9, 0x49, 0xc0, 0x3d, 0x2f, 0x08, 0xce, 0xbd, 0x52, 0x42, 0x87, 0xbe, 0xb6, 0x08, 0x15, 0x3e, 0x22, 0x46, 0x06, 0x3e, 0x08, 0x61, 0xd7, 0xbd, 0x4c, 0x7a, 0xb6, 0xbe, 0x16, 0x2b, 0x2f, 0x3e, 0x21, 0x9d, 0xe5, 0xbd, 0x4b, 0x16, 0xec, 0x3d, 0x7e, 0x16, 0xb0, 0x3d, 0xaf, 0xc7, 0xcc, 0xbc, 0x90, 0xd3, 0x27, 0x3e, 0x97, 0xf5, 0x90, 0xbe, 0x64, 0xab, 0xae, 0x3d, 0x7d, 0x8f, 0x99, 0xbc, 0x3b, 0x5e, 0x63, 0x3e, 0xdf, 0x19, 0x49, 0xbe, 0x7c, 0x45, 0x73, 0x3e, 0xe7, 0xce, 0x13, 0x3e, 0xce, 0x68, 0x0e, 0x3e, 0x10, 0x38, 0xc8, 0xb9, 0x58, 0x4b, 0x94, 0xbe, 0x5a, 0x09, 0x46, 0xbe, 0xf8, 0xf9, 0x8c, 0xbe, 0x5c, 0xc4, 0xed, 0xbc, 0x61, 0xdd, 0x58, 0x3e, 0xe3, 0xa9, 0x84, 0xbe, 0xec, 0xbb, 0xd6, 0x3c, 0x05, 0x2d, 0x06, 0x3e, 0xd6, 0x15, 0x5a, 0x3c, 0x55, 0x55, 0xc2, 0x3e, 0xcc, 0x34, 0xb3, 0x3e, 0x3b, 0x84, 0x3d, 0xbe, 0x8e, 0xe4, 0x87, 0xbb, 0x26, 0xf9, 0xa8, 0x3d, 0x53, 0xd7, 0x09, 0x3d, 0x24, 0x24, 0xa3, 0xbe, 0xc6, 0x10, 0xe4, 0xbe, 0xc3, 0xfb, 0x22, 0xbe, 0x96, 0x28, 0xa1, 0xbe, 0xa3, 0x39, 0x9c, 0x3d, 0x73, 0x07, 0xd6, 0xbe, 0xc9, 0x60, 0xaa, 0x3d, 0x93, 0xa9, 0x57, 0xbe, 0xeb, 0x77, 0xc6, 0xbd, 0x9c, 0x2a, 0x90, 0x3d, 0x2a, 0x32, 0x40, 0xbe, 0xf2, 0x4a, 0xbd, 0x3d, 0xb1, 0xb7, 0x02, 0x3e, 0xcf, 0x89, 0xed, 0xbd, 0xb9, 0x34, 0x88, 0x3d, 0x98, 0x96, 0x1b, 0xbe, 0x5e, 0xb9, 0x8e, 0x3d, 0x0c, 0xdb, 0xd6, 0xbd, 0x72, 0x5c, 0x16, 0x3e, 0xa3, 0x97, 0xe2, 0x3c, 0x3c, 0xee, 0x66, 0xbe, 0x5c, 0x55, 0x8b, 0x3e, 0x6b, 0xf7, 0x1a, 0x3e, 0x52, 0x79, 0x1f, 0xbd, 0xf6, 0x5a, 0xcd, 0x3d, 0x09, 0xe7, 0xd4, 0xbd, 0x21, 0x33, 0x2e, 0x3c, 0x84, 0xc0, 0x09, 0x3e, 0xf7, 0x18, 0x8c, 0xbd, 0xbf, 0x11, 0x95, 0x3e, 0x8b, 0xce, 0xa2, 0x3e, 0x6a, 0x01, 0x45, 0x3e, 0xf8, 0x48, 0x01, 0x3e, 0x13, 0x87, 0xbd, 0x3c, 0xbc, 0x86, 0xef, 0xbd, 0xc1, 0x97, 0x7e, 0x3c, 0xb3, 0x3d, 0x19, 0xbd, 0xf2, 0xed, 0x29, 0xbe, 0xe5, 0xc4, 0x7b, 0xbe, 0x16, 0xf6, 0xe6, 0xbd, 0xd8, 0x9a, 0x2c, 0x3e, 0xeb, 0xa1, 0xa3, 0xbd, 0x05, 0x84, 0x82, 0xbd, 0x50, 0x18, 0x45, 0xbe, 0xdf, 0xc0, 0x9e, 0x3d, 0xdf, 0x4e, 0xdd, 0xbd, 0x96, 0x1f, 0x89, 0x3e, 0x2d, 0x4b, 0x98, 0xbe, 0xed, 0xef, 0x65, 0xbe, 0xa6, 0x55, 0x82, 0xbe, 0x1f, 0x78, 0x1a, 0x3e, 0xc6, 0xd0, 0x6e, 0xbe, 0x46, 0xfd, 0xff, 0xff, 0x10, 0x00, 0x00, 0x00, 0x05, 0x00, 0x00, 0x00, 0x14, 0x00, 0x00, 0x00, 0x34, 0x00, 0x00, 0x00, 0x02, 0x00, 0x00, 0x00, 0x20, 0x00, 0x00, 0x00, 0x20, 0x00, 0x00, 0x00, 0x1d, 0x00, 0x00, 0x00, 0x53, 0x65, 0x71, 0x75, 0x65, 0x6e, 0x74, 0x69, 0x61, 0x6c, 0x2d, 0x4e, 0x4e, 0x2f, 0x64, 0x65, 0x6e, 0x73, 0x65, 0x5f, 0x31, 0x32, 0x2f, 0x4d, 0x61, 0x74, 0x4d, 0x75, 0x6c, 0x00, 0x00, 0x00, 0xc4, 0xfc, 0xff, 0xff, 0x22, 0xfe, 0xff, 0xff, 0x04, 0x00, 0x00, 0x00, 0x08, 0x00, 0x00, 0x00, 0x3b, 0xe4, 0x76, 0xbd, 0x3b, 0xe4, 0x76, 0x3d, 0xa2, 0xfd, 0xff, 0xff, 0x10, 0x00, 0x00, 0x00, 0x04, 0x00, 0x00, 0x00, 0x10, 0x00, 0x00, 0x00, 0x48, 0x00, 0x00, 0x00, 0x01, 0x00, 0x00, 0x00, 0x02, 0x00, 0x00, 0x00, 0x36, 0x00, 0x00, 0x00, 0x53, 0x65, 0x71, 0x75, 0x65, 0x6e, 0x74, 0x69, 0x61, 0x6c, 0x2d, 0x4e, 0x4e, 0x2f, 0x64, 0x65, 0x6e, 0x73, 0x65, 0x5f, 0x31, 0x34, 0x2f, 0x42, 0x69, 0x61, 0x73, 0x41, 0x64, 0x64, 0x2f, 0x52, 0x65, 0x61, 0x64, 0x56, 0x61, 0x72, 0x69, 0x61, 0x62, 0x6c, 0x65, 0x4f, 0x70, 0x2f, 0x72, 0x65, 0x73, 0x6f, 0x75, 0x72, 0x63, 0x65, 0x00, 0x00, 0x34, 0xfd, 0xff, 0xff, 0x92, 0xfe, 0xff, 0xff, 0x04, 0x00, 0x00, 0x00, 0x00, 0x01, 0x00, 0x00, 0x30, 0xb2, 0x19, 0x3d, 0xdd, 0x92, 0x09, 0x3e, 0x0c, 0x4b, 0x89, 0xbb, 0xfe, 0x70, 0x73, 0xbd, 0xf6, 0x17, 0xd7, 0x3c, 0xff, 0x68, 0x74, 0x3d, 0x2a, 0x53, 0x2d, 0xbd, 0xfb, 0xb4, 0xa2, 0x3d, 0xa4, 0x9f, 0x27, 0x3d, 0x6e, 0x0c, 0x41, 0x3d, 0x79, 0x49, 0xc4, 0x3d, 0xd4, 0x3b, 0x96, 0x3d, 0x7f, 0x25, 0xd2, 0xbb, 0xb9, 0x21, 0x58, 0x3d, 0x5b, 0x50, 0x4b, 0x3d, 0xe1, 0x3f, 0x8b, 0x3d, 0x62, 0x1e, 0x3e, 0x3c, 0xc1, 0x6a, 0x9c, 0xbc, 0xc5, 0xf6, 0x4d, 0xbd, 0xea, 0x7f, 0x62, 0x3d, 0x0e, 0x45, 0xe1, 0x3b, 0x77, 0x68, 0x9f, 0x3d, 0xce, 0xbb, 0xf1, 0x3d, 0x21, 0xda, 0xd5, 0x3d, 0xd1, 0x95, 0x48, 0xbd, 0x65, 0x1b, 0x14, 0x3e, 0xed, 0xde, 0x76, 0xbd, 0xff, 0x15, 0xb0, 0xbc, 0x8a, 0xe2, 0x05, 0xbd, 0xb2, 0xe7, 0x88, 0x3d, 0x0b, 0x57, 0x11, 0x3c, 0x71, 0xd1, 0xea, 0x3d, 0xc3, 0x94, 0x11, 0x3e, 0x44, 0xf5, 0x80, 0x3d, 0x04, 0x9c, 0x8a, 0xbb, 0xfb, 0x4b, 0x7e, 0x3c, 0xfd, 0xbc, 0xcc, 0xbc, 0x96, 0xeb, 0xb2, 0xbd, 0x82, 0xcc, 0x3d, 0x3d, 0xb9, 0x3d, 0x45, 0x3d, 0x26, 0x5f, 0xe6, 0xbb, 0x2a, 0x01, 0x2d, 0x3d, 0xe6, 0x1f, 0xa5, 0x3d, 0x1c, 0xcd, 0x86, 0xbd, 0xc9, 0x5c, 0xd7, 0x3d, 0x1c, 0xf7, 0xe8, 0x3d, 0x0f, 0x8f, 0x58, 0xbc, 0x85, 0xe4, 0x1c, 0x3e, 0x5b, 0xcf, 0x55, 0x3d, 0x2d, 0x27, 0xe7, 0x3c, 0x07, 0xc9, 0xa7, 0xbc, 0x4e, 0x24, 0x90, 0x3d, 0x6e, 0xe6, 0x1d, 0x3e, 0x91, 0xe3, 0x68, 0xbc, 0x36, 0xf6, 0xfd, 0x3d, 0xc1, 0x0c, 0x45, 0xbc, 0xee, 0x69, 0x41, 0x3c, 0x87, 0x32, 0x28, 0x3d, 0x8e, 0x65, 0xc3, 0xbd, 0xea, 0xba, 0xf7, 0xbb, 0x6c, 0x25, 0x81, 0x3c, 0x75, 0x2a, 0xc6, 0xbc, 0xd4, 0x2c, 0x07, 0x3e, 0x0b, 0x54, 0x41, 0x3d, 0x0a, 0xff, 0xff, 0xff, 0x10, 0x00, 0x00, 0x00, 0x03, 0x00, 0x00, 0x00, 0x10, 0x00, 0x00, 0x00, 0x4c, 0x00, 0x00, 0x00, 0x01, 0x00, 0x00, 0x00, 0x40, 0x00, 0x00, 0x00, 0x36, 0x00, 0x00, 0x00, 0x53, 0x65, 0x71, 0x75, 0x65, 0x6e, 0x74, 0x69, 0x61, 0x6c, 0x2d, 0x4e, 0x4e, 0x2f, 0x64, 0x65, 0x6e, 0x73, 0x65, 0x5f, 0x31, 0x33, 0x2f, 0x42, 0x69, 0x61, 0x73, 0x41, 0x64, 0x64, 0x2f, 0x52, 0x65, 0x61, 0x64, 0x56, 0x61, 0x72, 0x69, 0x61, 0x62, 0x6c, 0x65, 0x4f, 0x70, 0x2f, 0x72, 0x65, 0x73, 0x6f, 0x75, 0x72, 0x63, 0x65, 0x00, 0x00, 0x04, 0x00, 0x06, 0x00, 0x04, 0x00, 0x00, 0x00, 0x00, 0x00, 0x06, 0x00, 0x08, 0x00, 0x04, 0x00, 0x06, 0x00, 0x00, 0x00, 0x04, 0x00, 0x00, 0x00, 0x80, 0x00, 0x00, 0x00, 0xa9, 0x46, 0xca, 0xbc, 0x8d, 0xd7, 0xf2, 0x3c, 0xf9, 0x08, 0xac, 0xbb, 0xaf, 0xce, 0x46, 0x3d, 0x21, 0x59, 0xc0, 0xbc, 0xbd, 0xd7, 0xcc, 0xbb, 0x8c, 0x59, 0x20, 0xbc, 0x5b, 0x8b, 0x83, 0xbc, 0xd5, 0x19, 0x7a, 0x3d, 0x89, 0x96, 0x14, 0x3d, 0x49, 0xaa, 0x04, 0xbe, 0x23, 0x5f, 0x07, 0x3d, 0x3b, 0x93, 0x65, 0xbd, 0xfc, 0x0d, 0xbe, 0xbd, 0x6a, 0x32, 0x99, 0x3c, 0x43, 0x97, 0x5d, 0xbd, 0xc3, 0xdb, 0x16, 0xbd, 0x8a, 0x25, 0xf5, 0xbd, 0x6b, 0x12, 0xc4, 0xbd, 0xfc, 0x22, 0x13, 0xbd, 0x6c, 0x46, 0x37, 0x3a, 0x71, 0xbd, 0x2c, 0xbd, 0xf3, 0x56, 0x78, 0xbd, 0x25, 0x5d, 0x35, 0xbd, 0x9d, 0xf4, 0xe4, 0xbc, 0x2f, 0x25, 0x2b, 0xbe, 0x20, 0xce, 0x12, 0x3d, 0x69, 0xc7, 0xdd, 0x3d, 0x37, 0xd2, 0xa5, 0xbd, 0x9a, 0x6d, 0xee, 0x3c, 0xc5, 0xc1, 0xb8, 0x3d, 0x6b, 0xc6, 0x54, 0x3d, 0x00, 0x00, 0x0e, 0x00, 0x14, 0x00, 0x04, 0x00, 0x00, 0x00, 0x08, 0x00, 0x0c, 0x00, 0x10, 0x00, 0x0e, 0x00, 0x00, 0x00, 0x10, 0x00, 0x00, 0x00, 0x02, 0x00, 0x00, 0x00, 0x10, 0x00, 0x00, 0x00, 0x48, 0x00, 0x00, 0x00, 0x01, 0x00, 0x00, 0x00, 0x20, 0x00, 0x00, 0x00, 0x36, 0x00, 0x00, 0x00, 0x53, 0x65, 0x71, 0x75, 0x65, 0x6e, 0x74, 0x69, 0x61, 0x6c, 0x2d, 0x4e, 0x4e, 0x2f, 0x64, 0x65, 0x6e, 0x73, 0x65, 0x5f, 0x31, 0x32, 0x2f, 0x42, 0x69, 0x61, 0x73, 0x41, 0x64, 0x64, 0x2f, 0x52, 0x65, 0x61, 0x64, 0x56, 0x61, 0x72, 0x69, 0x61, 0x62, 0x6c, 0x65, 0x4f, 0x70, 0x2f, 0x72, 0x65, 0x73, 0x6f, 0x75, 0x72, 0x63, 0x65, 0x00, 0x00, 0xa0, 0xff, 0xff, 0xff, 0x14, 0x00, 0x18, 0x00, 0x04, 0x00, 0x00, 0x00, 0x08, 0x00, 0x0c, 0x00, 0x10, 0x00, 0x00, 0x00, 0x00, 0x00, 0x14, 0x00, 0x14, 0x00, 0x00, 0x00, 0x14, 0x00, 0x00, 0x00, 0x01, 0x00, 0x00, 0x00, 0x18, 0x00, 0x00, 0x00, 0x34, 0x00, 0x00, 0x00, 0x24, 0x00, 0x00, 0x00, 0x02, 0x00, 0x00, 0x00, 0x01, 0x00, 0x00, 0x00, 0x20, 0x00, 0x00, 0x00, 0x0e, 0x00, 0x00, 0x00, 0x64, 0x65, 0x6e, 0x73, 0x65, 0x5f, 0x31, 0x32, 0x5f, 0x69, 0x6e, 0x70, 0x75, 0x74, 0x00, 0x00, 0x02, 0x00, 0x00, 0x00, 0xff, 0xff, 0xff, 0xff, 0x20, 0x00, 0x00, 0x00, 0xfc, 0xff, 0xff, 0xff, 0x04, 0x00, 0x04, 0x00, 0x04, 0x00, 0x00, 0x00};
const int model_data_len = 14928;