
#ifdef __has_attribute
#define HAVE_ATTRIBUTE(x) __has_attribute(x)
#else
#define HAVE_ATTRIBUTE(x) 0
#endif
#if HAVE_ATTRIBUTE(aligned) || (defined(__GNUC__) && !defined(__clang__))
#define DATA_ALIGN_ATTRIBUTE __attribute__((aligned(4)))
#else
#define DATA_ALIGN_ATTRIBUTE
#endif

const unsigned char model_data[] DATA_ALIGN_ATTRIBUTE = {0x1c, 0x00, 0x00, 0x00, 0x54, 0x46, 0x4c, 0x33, 0x00, 0x00, 0x12, 0x00, 0x1c, 0x00, 0x04, 0x00, 0x08, 0x00, 0x0c, 0x00, 0x10, 0x00, 0x14, 0x00, 0x00, 0x00, 0x18, 0x00, 0x12, 0x00, 0x00, 0x00, 0x03, 0x00, 0x00, 0x00, 0x14, 0x00, 0x00, 0x00, 0x1c, 0x00, 0x00, 0x00, 0xa8, 0x00, 0x00, 0x00, 0x1c, 0x00, 0x00, 0x00, 0x50, 0x00, 0x00, 0x00, 0x02, 0x00, 0x00, 0x00, 0x58, 0x03, 0x00, 0x00, 0x6c, 0x01, 0x00, 0x00, 0x01, 0x00, 0x00, 0x00, 0xb0, 0x00, 0x00, 0x00, 0x0d, 0x00, 0x00, 0x00, 0x6c, 0x45, 0x00, 0x00, 0x68, 0x45, 0x00, 0x00, 0x80, 0x44, 0x00, 0x00, 0xc8, 0x3d, 0x00, 0x00, 0x4c, 0x3d, 0x00, 0x00, 0x94, 0x3c, 0x00, 0x00, 0xfc, 0x1c, 0x00, 0x00, 0xa4, 0x03, 0x00, 0x00, 0x4c, 0x45, 0x00, 0x00, 0x48, 0x45, 0x00, 0x00, 0x44, 0x45, 0x00, 0x00, 0x40, 0x45, 0x00, 0x00, 0x38, 0x00, 0x00, 0x00, 0x01, 0x00, 0x00, 0x00, 0x0c, 0x00, 0x00, 0x00, 0x08, 0x00, 0x0c, 0x00, 0x04, 0x00, 0x08, 0x00, 0x08, 0x00, 0x00, 0x00, 0x08, 0x00, 0x00, 0x00, 0x0c, 0x00, 0x00, 0x00, 0x13, 0x00, 0x00, 0x00, 0x6d, 0x69, 0x6e, 0x5f, 0x72, 0x75, 0x6e, 0x74, 0x69, 0x6d, 0x65, 0x5f, 0x76, 0x65, 0x72, 0x73, 0x69, 0x6f, 0x6e, 0x00, 0xe6, 0xbb, 0xff, 0xff, 0x04, 0x00, 0x00, 0x00, 0x10, 0x00, 0x00, 0x00, 0x31, 0x2e, 0x35, 0x2e, 0x30, 0x00, 0x00, 0x00, 0x00, 0x00, 0x00, 0x00, 0x00, 0x00, 0x00, 0x00, 0x0f, 0x00, 0x00, 0x00, 0x4d, 0x4c, 0x49, 0x52, 0x20, 0x43, 0x6f, 0x6e, 0x76, 0x65, 0x72, 0x74, 0x65, 0x64, 0x2e, 0x00, 0x00, 0x00, 0x0e, 0x00, 0x18, 0x00, 0x04, 0x00, 0x08, 0x00, 0x0c, 0x00, 0x10, 0x00, 0x14, 0x00, 0x0e, 0x00, 0x00, 0x00, 0x14, 0x00, 0x00, 0x00, 0x40, 0x00, 0x00, 0x00, 0x44, 0x00, 0x00, 0x00, 0x48, 0x00, 0x00, 0x00, 0x58, 0x00, 0x00, 0x00, 0x0b, 0x00, 0x00, 0x00, 0x60, 0x44, 0x00, 0x00, 0xf0, 0x43, 0x00, 0x00, 0x54, 0x43, 0x00, 0x00, 0xa8, 0x3c, 0x00, 0x00, 0x44, 0x3c, 0x00, 0x00, 0x88, 0x3b, 0x00, 0x00, 0xf0, 0x1b, 0x00, 0x00, 0x70, 0x02, 0x00, 0x00, 0x94, 0x01, 0x00, 0x00, 0xf4, 0x00, 0x00, 0x00, 0x7c, 0x00, 0x00, 0x00, 0x01, 0x00, 0x00, 0x00, 0x00, 0x00, 0x00, 0x00, 0x01, 0x00, 0x00, 0x00, 0x0a, 0x00, 0x00, 0x00, 0x04, 0x00, 0x00, 0x00, 0xf8, 0x01, 0x00, 0x00, 0x3c, 0x01, 0x00, 0x00, 0xa0, 0x00, 0x00, 0x00, 0x1c, 0x00, 0x00, 0x00, 0x04, 0x00, 0x00, 0x00, 0x6d, 0x61, 0x69, 0x6e, 0x00, 0x00, 0x0e, 0x00, 0x18, 0x00, 0x08, 0x00, 0x0c, 0x00, 0x10, 0x00, 0x07, 0x00, 0x14, 0x00, 0x0e, 0x00, 0x00, 0x00, 0x00, 0x00, 0x00, 0x09, 0x01, 0x00, 0x00, 0x00, 0x1c, 0x00, 0x00, 0x00, 0x10, 0x00, 0x00, 0x00, 0x04, 0x00, 0x00, 0x00, 0xc2, 0xbc, 0xff, 0xff, 0x00, 0x00, 0x80, 0x3f, 0x01, 0x00, 0x00, 0x00, 0x0a, 0x00, 0x00, 0x00, 0x01, 0x00, 0x00, 0x00, 0x09, 0x00, 0x00, 0x00, 0x22, 0xfe, 0xff, 0xff, 0x00, 0x00, 0x00, 0x19, 0x01, 0x00, 0x00, 0x00, 0x58, 0xbc, 0xff, 0xff, 0x14, 0x00, 0x00, 0x00, 0x0b, 0x00, 0x00, 0x00, 0x18, 0x00, 0x00, 0x00, 0x30, 0x00, 0x00, 0x00, 0x20, 0x00, 0x00, 0x00, 0x02, 0x00, 0x00, 0x00, 0x01, 0x00, 0x00, 0x00, 0x04, 0x00, 0x00, 0x00, 0x08, 0x00, 0x00, 0x00, 0x49, 0x64, 0x65, 0x6e, 0x74, 0x69, 0x74, 0x79, 0x00, 0x00, 0x00, 0x00, 0x02, 0x00, 0x00, 0x00, 0xff, 0xff, 0xff, 0xff, 0x04, 0x00, 0x00, 0x00, 0x40, 0xbc, 0xff, 0xff, 0x76, 0xff, 0xff, 0xff, 0x00, 0x00, 0x00, 0x08, 0x18, 0x00, 0x00, 0x00, 0x0c, 0x00, 0x00, 0x00, 0x04, 0x00, 0x00, 0x00, 0x58, 0xbc, 0xff, 0xff, 0x01, 0x00, 0x00, 0x00, 0x09, 0x00, 0x00, 0x00, 0x03, 0x00, 0x00, 0x00, 0x08, 0x00, 0x00, 0x00, 0x06, 0x00, 0x00, 0x00, 0x03, 0x00, 0x00, 0x00, 0xcc, 0xbc, 0xff, 0xff, 0x14, 0x00, 0x00, 0x00, 0x0a, 0x00, 0x00, 0x00, 0x18, 0x00, 0x00, 0x00, 0x44, 0x00, 0x00, 0x00, 0x34, 0x00, 0x00, 0x00, 0x02, 0x00, 0x00, 0x00, 0x01, 0x00, 0x00, 0x00, 0x04, 0x00, 0x00, 0x00, 0x1d, 0x00, 0x00, 0x00, 0x53, 0x65, 0x71, 0x75, 0x65, 0x6e, 0x74, 0x69, 0x61, 0x6c, 0x2d, 0x4e, 0x4e, 0x2f, 0x64, 0x65, 0x6e, 0x73, 0x65, 0x5f, 0x32, 0x2f, 0x42, 0x69, 0x61, 0x73, 0x41, 0x64, 0x64, 0x00, 0x00, 0x00, 0x02, 0x00, 0x00, 0x00, 0xff, 0xff, 0xff, 0xff, 0x04, 0x00, 0x00, 0x00, 0xb8, 0xbd, 0xff, 0xff, 0x00, 0x00, 0x0e, 0x00, 0x14, 0x00, 0x00, 0x00, 0x08, 0x00, 0x0c, 0x00, 0x07, 0x00, 0x10, 0x00, 0x0e, 0x00, 0x00, 0x00, 0x00, 0x00, 0x00, 0x08, 0x1c, 0x00, 0x00, 0x00, 0x10, 0x00, 0x00, 0x00, 0x04, 0x00, 0x00, 0x00, 0x46, 0xff, 0xff, 0xff, 0x00, 0x00, 0x00, 0x01, 0x01, 0x00, 0x00, 0x00, 0x08, 0x00, 0x00, 0x00, 0x03, 0x00, 0x00, 0x00, 0x07, 0x00, 0x00, 0x00, 0x05, 0x00, 0x00, 0x00, 0x02, 0x00, 0x00, 0x00, 0x68, 0xbd, 0xff, 0xff, 0x14, 0x00, 0x00, 0x00, 0x09, 0x00, 0x00, 0x00, 0x18, 0x00, 0x00, 0x00, 0x60, 0x00, 0x00, 0x00, 0x50, 0x00, 0x00, 0x00, 0x02, 0x00, 0x00, 0x00, 0x01, 0x00, 0x00, 0x00, 0x90, 0x01, 0x00, 0x00, 0x38, 0x00, 0x00, 0x00, 0x53, 0x65, 0x71, 0x75, 0x65, 0x6e, 0x74, 0x69, 0x61, 0x6c, 0x2d, 0x4e, 0x4e, 0x2f, 0x64, 0x65, 0x6e, 0x73, 0x65, 0x5f, 0x31, 0x2f, 0x52, 0x65, 0x6c, 0x75, 0x3b, 0x53, 0x65, 0x71, 0x75, 0x65, 0x6e, 0x74, 0x69, 0x61, 0x6c, 0x2d, 0x4e, 0x4e, 0x2f, 0x64, 0x65, 0x6e, 0x73, 0x65, 0x5f, 0x31, 0x2f, 0x42, 0x69, 0x61, 0x73, 0x41, 0x64, 0x64, 0x00, 0x00, 0x00, 0x00, 0x02, 0x00, 0x00, 0x00, 0xff, 0xff, 0xff, 0xff, 0x90, 0x01, 0x00, 0x00, 0x70, 0xbe, 0xff, 0xff, 0x00, 0x00, 0x0e, 0x00, 0x16, 0x00, 0x00, 0x00, 0x08, 0x00, 0x0c, 0x00, 0x07, 0x00, 0x10, 0x00, 0x0e, 0x00, 0x00, 0x00, 0x00, 0x00, 0x00, 0x08, 0x24, 0x00, 0x00, 0x00, 0x18, 0x00, 0x00, 0x00, 0x0c, 0x00, 0x00, 0x00, 0x00, 0x00, 0x06, 0x00, 0x08, 0x00, 0x07, 0x00, 0x06, 0x00, 0x00, 0x00, 0x00, 0x00, 0x00, 0x01, 0x01, 0x00, 0x00, 0x00, 0x07, 0x00, 0x00, 0x00, 0x03, 0x00, 0x00, 0x00, 0x00, 0x00, 0x00, 0x00, 0x04, 0x00, 0x00, 0x00, 0x01, 0x00, 0x00, 0x00, 0x00, 0x00, 0x0a, 0x00, 0x0c, 0x00, 0x07, 0x00, 0x00, 0x00, 0x08, 0x00, 0x0a, 0x00, 0x00, 0x00, 0x00, 0x00, 0x00, 0x09, 0x01, 0x00, 0x00, 0x00, 0x40, 0xbe, 0xff, 0xff, 0x14, 0x00, 0x00, 0x00, 0x08, 0x00, 0x00, 0x00, 0x18, 0x00, 0x00, 0x00, 0x5c, 0x00, 0x00, 0x00, 0x4c, 0x00, 0x00, 0x00, 0x02, 0x00, 0x00, 0x00, 0x01, 0x00, 0x00, 0x00, 0x05, 0x00, 0x00, 0x00, 0x34, 0x00, 0x00, 0x00, 0x53, 0x65, 0x71, 0x75, 0x65, 0x6e, 0x74, 0x69, 0x61, 0x6c, 0x2d, 0x4e, 0x4e, 0x2f, 0x64, 0x65, 0x6e, 0x73, 0x65, 0x2f, 0x52, 0x65, 0x6c, 0x75, 0x3b, 0x53, 0x65, 0x71, 0x75, 0x65, 0x6e, 0x74, 0x69, 0x61, 0x6c, 0x2d, 0x4e, 0x4e, 0x2f, 0x64, 0x65, 0x6e, 0x73, 0x65, 0x2f, 0x42, 0x69, 0x61, 0x73, 0x41, 0x64, 0x64, 0x00, 0x00, 0x00, 0x00, 0x02, 0x00, 0x00, 0x00, 0xff, 0xff, 0xff, 0xff, 0x05, 0x00, 0x00, 0x00, 0x54, 0xbe, 0xff, 0xff, 0x3e, 0xbf, 0xff, 0xff, 0x04, 0x00, 0x00, 0x00, 0x00, 0x19, 0x00, 0x00, 0xf0, 0x51, 0x33, 0x3e, 0xb2, 0xec, 0x32, 0x3e, 0xd6, 0x30, 0x22, 0xbd, 0x87, 0xc3, 0xb2, 0x3d, 0x65, 0xa9, 0x05, 0x3e, 0x19, 0x0f, 0x13, 0xbd, 0x68, 0x83, 0xab, 0xbc, 0x93, 0x98, 0x76, 0xbd, 0x5a, 0xff, 0x6f, 0x3c, 0xbf, 0x0d, 0x99, 0xbd, 0xf0, 0x41, 0x7c, 0xbd, 0x33, 0x36, 0xdc, 0xbc, 0x8b, 0xc4, 0xd0, 0xbe, 0x87, 0x22, 0x01, 0xbe, 0x76, 0xba, 0x04, 0xbc, 0x97, 0xfd, 0x07, 0xbf, 0x40, 0x93, 0x3c, 0xbc, 0x55, 0x01, 0x6b, 0x3e, 0x9e, 0x13, 0xf5, 0x3d, 0x42, 0x83, 0x3b, 0x3d, 0xbb, 0x5e, 0x39, 0x3d, 0x40, 0x3a, 0x20, 0x3c, 0xb3, 0xaf, 0x75, 0xbd, 0xa4, 0x2d, 0xbf, 0xbd, 0x53, 0xa9, 0x39, 0x3d, 0x61, 0xce, 0xc3, 0xbd, 0x14, 0xc4, 0xce, 0xbc, 0xfa, 0x41, 0x95, 0xbb, 0xf2, 0x8f, 0x8d, 0x3d, 0x99, 0xf6, 0x77, 0x3d, 0x80, 0x6a, 0x5d, 0x3c, 0x3c, 0x64, 0x30, 0x3d, 0xa5, 0x54, 0xb3, 0x3e, 0x78, 0x6a, 0xba, 0x3d, 0x59, 0x19, 0xe0, 0xbd, 0x30, 0x5c, 0x13, 0x3d, 0x4e, 0x20, 0xd1, 0xbd, 0xbc, 0x4f, 0x7f, 0xbe, 0x5e, 0xbf, 0xa1, 0x3e, 0xda, 0x88, 0xd0, 0xbc, 0x9d, 0xc9, 0xa4, 0x3e, 0xcd, 0xac, 0xb0, 0xbd, 0x89, 0x9b, 0xe3, 0xbd, 0xa6, 0x24, 0xa9, 0xbe, 0xe1, 0x21, 0x13, 0x3e, 0x56, 0x61, 0xc8, 0xbe, 0x06, 0x39, 0xa2, 0x3e, 0x2e, 0xee, 0xe6, 0xbd, 0x59, 0xec, 0xaf, 0x3d, 0x53, 0x96, 0x14, 0xbd, 0xfb, 0x0d, 0x32, 0x3e, 0xdc, 0x4c, 0x9e, 0xbc, 0x95, 0x6c, 0x3d, 0x3e, 0xea, 0x62, 0x2f, 0x3c, 0x2c, 0x3e, 0xaa, 0x3e, 0x14, 0xe1, 0x2b, 0x3e, 0xc7, 0x83, 0x6d, 0xbe, 0x83, 0x8d, 0x7e, 0xbd, 0x8a, 0x04, 0x26, 0x3d, 0xd8, 0x84, 0x95, 0x3d, 0x7e, 0x1b, 0x76, 0x3e, 0xff, 0xd5, 0xc2, 0xbc, 0x5e, 0x24, 0xbd, 0x3e, 0x75, 0x31, 0x40, 0x3d, 0x1b, 0x47, 0xb5, 0xbe, 0xdf, 0x1e, 0x1b, 0x3e, 0x02, 0x9d, 0x5f, 0xbd, 0x6d, 0x85, 0x42, 0xbd, 0xd0, 0xc7, 0xae, 0x3c, 0xd1, 0xaf, 0x4c, 0xbd, 0x7f, 0xe7, 0x06, 0x3d, 0x4a, 0x62, 0x7e, 0xbe, 0x25, 0x67, 0xf9, 0xbd, 0x28, 0x41, 0x29, 0x3e, 0x7f, 0x87, 0x5b, 0x3f, 0xf1, 0xc0, 0x8b, 0xbe, 0xfc, 0xd6, 0x3d, 0x3d, 0xcd, 0xc2, 0x23, 0xbd, 0xd0, 0x81, 0x5d, 0xbe, 0x97, 0xa8, 0x58, 0xbe, 0xb8, 0x56, 0xc2, 0xbd, 0x0a, 0x2a, 0x98, 0xbd, 0x48, 0x42, 0x63, 0x3e, 0x26, 0xcb, 0xaa, 0xbe, 0xaa, 0x45, 0x46, 0xbc, 0xc1, 0xd1, 0xa3, 0x3e, 0xe6, 0xbe, 0xa0, 0x3e, 0x34, 0xa1, 0x30, 0x3d, 0x49, 0x86, 0x15, 0x3f, 0xad, 0xf2, 0x84, 0x3f, 0x0f, 0x6a, 0x06, 0xbe, 0x52, 0x17, 0xaa, 0xbd, 0x3e, 0x0c, 0xd1, 0x3c, 0x3f, 0x75, 0x19, 0x3d, 0x5d, 0x15, 0x96, 0xbd, 0x3a, 0x72, 0x0b, 0x40, 0x93, 0x50, 0x93, 0x3e, 0x09, 0x64, 0x30, 0x3e, 0x9f, 0x94, 0xa8, 0x3e, 0x42, 0x9a, 0x99, 0xbd, 0x3b, 0x96, 0x0b, 0xbd, 0x15, 0x39, 0x72, 0xbe, 0xa8, 0x20, 0x90, 0xbc, 0x82, 0x94, 0xcc, 0x3e, 0x62, 0xd4, 0x3f, 0xbe, 0xbe, 0xc4, 0x01, 0x3e, 0x52, 0x85, 0xbf, 0x3e, 0x2e, 0xf9, 0xc5, 0x3d, 0xac, 0xcd, 0x01, 0xbe, 0x17, 0x79, 0xef, 0xbd, 0xbf, 0x1c, 0x5f, 0x3d, 0xc9, 0xea, 0xfb, 0xbe, 0xb8, 0x88, 0xda, 0x3c, 0x4b, 0xd7, 0xe5, 0xbd, 0x31, 0x1d, 0xe8, 0x3d, 0xaa, 0x74, 0x49, 0xbe, 0x1e, 0xfd, 0x1b, 0xbd, 0xdc, 0xf5, 0x18, 0x3e, 0x49, 0x82, 0x83, 0xbc, 0x44, 0x6f, 0x9d, 0x3d, 0x4b, 0xd9, 0x05, 0xbf, 0xa6, 0xe1, 0x1a, 0xbe, 0xcb, 0xf9, 0xdf, 0xbc, 0x74, 0xa1, 0x58, 0x3e, 0xc1, 0x16, 0x7d, 0xbe, 0xa2, 0x84, 0x7a, 0x3f, 0x2a, 0x43, 0x57, 0xbe, 0xb2, 0x67, 0xd7, 0xbe, 0x06, 0xfb, 0xcc, 0xbd, 0x53, 0xda, 0x86, 0x3c, 0xa3, 0x62, 0x13, 0xbe, 0x29, 0x13, 0xde, 0x3c, 0xe8, 0x4c, 0x5b, 0xbd, 0xc6, 0x73, 0x1f, 0xbe, 0xd2, 0x57, 0xdb, 0xbb, 0x19, 0x47, 0x3e, 0xbd, 0xce, 0xb0, 0x2e, 0xbd, 0xba, 0xe4, 0x18, 0x3e, 0xa8, 0x62, 0x8e, 0xbe, 0x19, 0x10, 0x85, 0xbc, 0x28, 0x2c, 0x90, 0x3e, 0xe2, 0x2f, 0xee, 0xbc, 0x01, 0x9f, 0x89, 0xbe, 0xd7, 0x8b, 0x1f, 0x3f, 0xac, 0x87, 0x9a, 0xbd, 0x88, 0xc8, 0x10, 0xbe, 0xd8, 0x4c, 0xaf, 0xbd, 0xe0, 0xb6, 0x84, 0xbd, 0x25, 0x2e, 0x81, 0x3e, 0x2b, 0x7a, 0x6f, 0x3e, 0xcb, 0x66, 0x44, 0x3d, 0xd6, 0x72, 0x99, 0x3d, 0x96, 0x7a, 0x99, 0x3e, 0x2e, 0x2e, 0xc2, 0x3c, 0x24, 0xf2, 0xef, 0xbc, 0x04, 0x9a, 0xa3, 0xbd, 0x34, 0xbb, 0xc9, 0xbc, 0xae, 0x1d, 0x59, 0xbd, 0x63, 0x19, 0x96, 0xbc, 0x40, 0x79, 0x75, 0x3e, 0x1b, 0xdf, 0xb3, 0xbd, 0xf8, 0xf7, 0x03, 0x3e, 0xd8, 0xe6, 0x7a, 0x3c, 0xd3, 0x55, 0xf0, 0xbc, 0xff, 0xaf, 0x59, 0xbd, 0x80, 0xff, 0x74, 0xbd, 0xa9, 0xe9, 0xfe, 0xbb, 0x16, 0x5c, 0x60, 0x3b, 0xce, 0xd7, 0xe7, 0x3d, 0xc1, 0xf0, 0x36, 0xbe, 0xcb, 0xcf, 0xe4, 0x3d, 0xa3, 0x4c, 0x16, 0xbe, 0x82, 0x12, 0xa9, 0x3e, 0x94, 0xa0, 0x0f, 0x3c, 0xa6, 0x78, 0x78, 0xbd, 0x30, 0x77, 0xf8, 0x3d, 0xc3, 0xae, 0x3f, 0xbd, 0xa6, 0x26, 0xa8, 0xbe, 0xc6, 0x47, 0xac, 0x3e, 0xd7, 0xd8, 0x3b, 0xbe, 0x26, 0x02, 0x06, 0xbd, 0x8e, 0x9d, 0x67, 0x3d, 0x8c, 0xfe, 0x33, 0xbd, 0x2c, 0xb2, 0x87, 0xbe, 0xe3, 0x50, 0x87, 0x3e, 0xf6, 0xd6, 0x80, 0xbe, 0x93, 0x3a, 0xca, 0x3c, 0xe0, 0x01, 0x46, 0xbd, 0x6b, 0x4d, 0x56, 0xbe, 0xf4, 0x1f, 0x3f, 0xbe, 0xf9, 0xa3, 0x63, 0xbe, 0x81, 0xd3, 0xd8, 0x3d, 0x43, 0x63, 0x06, 0x3d, 0x4f, 0x49, 0x40, 0xbe, 0x58, 0x79, 0x54, 0x3e, 0xde, 0x13, 0xfd, 0x3d, 0x46, 0x8b, 0x8f, 0xbd, 0x88, 0x85, 0x13, 0x3e, 0xda, 0x17, 0x32, 0x3d, 0x75, 0x52, 0x22, 0x3e, 0xcf, 0xfe, 0x2f, 0xbd, 0xe9, 0x98, 0x9e, 0xbe, 0x9d, 0x8a, 0x26, 0x3e, 0xe3, 0x01, 0x76, 0xc0, 0x0e, 0x2e, 0xbb, 0x3d, 0x46, 0x0e, 0x90, 0xbd, 0xb5, 0xfb, 0x66, 0xbe, 0x8b, 0x6e, 0x1a, 0x3d, 0xaa, 0x74, 0xa9, 0xbe, 0x14, 0x73, 0x7a, 0xbc, 0x26, 0x1e, 0xd3, 0x3e, 0x5a, 0xc2, 0x23, 0xbd, 0xe9, 0xc3, 0x61, 0x3d, 0x0c, 0x3e, 0x5d, 0xbd, 0x67, 0x09, 0xa7, 0xbd, 0x36, 0x8f, 0xc3, 0x3d, 0xe1, 0x8f, 0x04, 0xbe, 0x67, 0x5c, 0x6e, 0x3e, 0x46, 0x10, 0xa7, 0x3c, 0x33, 0x77, 0x38, 0x3e, 0xac, 0xf1, 0x78, 0x3d, 0x70, 0xb3, 0x69, 0xbd, 0x23, 0x2c, 0xa2, 0x3e, 0xbf, 0x42, 0xc7, 0x3d, 0x22, 0x1e, 0xc4, 0xbd, 0x7a, 0x5d, 0x26, 0xbe, 0x82, 0x04, 0x07, 0x3e, 0x44, 0xb1, 0x0f, 0xc0, 0x53, 0xf6, 0x38, 0xbd, 0xd3, 0x84, 0x4f, 0x3f, 0x5d, 0x6b, 0xe4, 0xbd, 0x2a, 0x76, 0x58, 0xbe, 0x9a, 0x8a, 0xa9, 0x3b, 0xb8, 0xa9, 0x93, 0x3d, 0x9d, 0xf7, 0x3e, 0x3e, 0x01, 0x7d, 0xd3, 0xbd, 0xa3, 0x99, 0x7a, 0x3f, 0x5b, 0xb8, 0xcd, 0xbd, 0xe8, 0xd1, 0xda, 0xbd, 0x15, 0x49, 0x30, 0x3d, 0xde, 0x5b, 0x55, 0x3e, 0x05, 0xb1, 0x67, 0x3e, 0x67, 0xfb, 0xff, 0xbd, 0x19, 0x39, 0x03, 0x3e, 0x0c, 0x32, 0x7d, 0xbd, 0x65, 0x18, 0x7c, 0x3d, 0xcc, 0x02, 0x74, 0x3e, 0x15, 0x8b, 0x16, 0xbd, 0x6c, 0xb5, 0x02, 0xbf, 0xe7, 0x93, 0x43, 0x3d, 0x99, 0xb1, 0xcb, 0x3d, 0x0e, 0x97, 0x76, 0x3f, 0xe0, 0xa5, 0xea, 0x3c, 0x52, 0x86, 0x55, 0xbc, 0x6b, 0x70, 0xdb, 0xbd, 0x76, 0x3f, 0xa2, 0x3e, 0xb5, 0x01, 0x8f, 0x3e, 0xc7, 0xe5, 0x0c, 0xbd, 0x4e, 0x2d, 0x86, 0x3c, 0xfb, 0xad, 0xc3, 0xbb, 0x8e, 0xc4, 0x8c, 0xbd, 0x15, 0x34, 0x40, 0xbe, 0x18, 0xa5, 0xb9, 0x3f, 0x70, 0x60, 0xae, 0xbd, 0xf3, 0xb4, 0xf9, 0xbd, 0xaf, 0x32, 0xf0, 0x3d, 0x7d, 0x93, 0xa5, 0x3d, 0x62, 0xe4, 0x48, 0xbd, 0x6d, 0x87, 0xbe, 0xbd, 0x9b, 0x7f, 0xdc, 0xbe, 0x6c, 0x17, 0x0d, 0xbd, 0x02, 0x0b, 0x91, 0x3e, 0xa2, 0x86, 0x1c, 0xbd, 0x1c, 0xc1, 0xb2, 0x3d, 0x3c, 0x0a, 0x1a, 0xbe, 0x2e, 0xb7, 0xc1, 0x3d, 0xbf, 0x98, 0x18, 0x3d, 0x8b, 0xa7, 0xd2, 0x3c, 0xe0, 0x05, 0x80, 0x3e, 0x71, 0x48, 0xde, 0xbd, 0x47, 0x4c, 0x93, 0x3d, 0x71, 0xff, 0xeb, 0x3f, 0xb6, 0x45, 0x8e, 0x3d, 0x7a, 0x7f, 0xb8, 0x3a, 0xe2, 0xc0, 0x76, 0x3e, 0x24, 0xbf, 0x82, 0xbd, 0xe3, 0xd8, 0x83, 0xbd, 0x3b, 0xf4, 0x71, 0x3e, 0x5a, 0x0c, 0x29, 0x3d, 0x92, 0x99, 0xca, 0xbd, 0xb1, 0x64, 0x39, 0x3e, 0x35, 0xa6, 0x97, 0xbd, 0x93, 0xf5, 0xb5, 0xbb, 0x8f, 0x5b, 0xcd, 0xbd, 0x33, 0x04, 0x6f, 0xbe, 0xd5, 0xb3, 0x1c, 0x3e, 0x5f, 0xa3, 0x9e, 0xba, 0x83, 0x59, 0xb5, 0xbe, 0x63, 0x4f, 0x4b, 0xbd, 0xef, 0x75, 0x29, 0x3f, 0x80, 0x4f, 0x49, 0xbd, 0xca, 0x34, 0xa9, 0x3e, 0xa3, 0x06, 0xab, 0xbd, 0x5a, 0x92, 0x16, 0x3d, 0x5f, 0x15, 0x0a, 0xbe, 0xac, 0x9a, 0x2e, 0x3d, 0x05, 0x28, 0xdb, 0x3e, 0x7d, 0xde, 0x14, 0xbe, 0x57, 0x28, 0x20, 0x3e, 0x03, 0x2e, 0xfe, 0xbb, 0x35, 0x54, 0x7c, 0xbd, 0x60, 0x28, 0x9a, 0x3c, 0x57, 0x00, 0xb8, 0x3d, 0x1c, 0x00, 0x3d, 0x3e, 0x60, 0x83, 0x8f, 0xbe, 0xd8, 0x4d, 0x30, 0x3e, 0x14, 0x80, 0x14, 0xbd, 0xb6, 0xf9, 0x67, 0xbd, 0xaa, 0x13, 0xaf, 0xbd, 0xc5, 0xfa, 0x25, 0x3e, 0xd0, 0xb8, 0xb4, 0x3e, 0xec, 0xcb, 0x96, 0x3e, 0xfb, 0xf7, 0x32, 0xbc, 0x94, 0x77, 0xf1, 0xbd, 0x08, 0xc1, 0x53, 0x3e, 0xf5, 0xd8, 0xf2, 0x3b, 0x94, 0x75, 0xab, 0x3e, 0x54, 0x8e, 0xbe, 0x3d, 0x68, 0x9f, 0x83, 0x3d, 0xf9, 0x7f, 0xae, 0xbd, 0x76, 0xf6, 0xd7, 0xbc, 0x28, 0x50, 0x80, 0xbd, 0x4f, 0xaf, 0xb9, 0xbd, 0xda, 0x68, 0x03, 0x3e, 0x8c, 0x32, 0x09, 0x3c, 0xc7, 0x32, 0xe6, 0x3d, 0x9f, 0x0b, 0xfc, 0xbd, 0xad, 0x8d, 0x94, 0x3d, 0x45, 0xd4, 0x86, 0xbe, 0xcf, 0x2e, 0x0b, 0xbd, 0x88, 0x53, 0xa9, 0x3c, 0x95, 0xb7, 0x78, 0x3e, 0xd6, 0x6f, 0x11, 0x3e, 0xe0, 0xa0, 0xad, 0x3e, 0x12, 0x81, 0x0f, 0x3e, 0x69, 0xf6, 0xa2, 0x3e, 0xc8, 0x45, 0xba, 0x3e, 0x97, 0xc7, 0xf6, 0xbe, 0x30, 0x12, 0xdc, 0xbd, 0xb6, 0x24, 0x17, 0x3e, 0x1d, 0x4e, 0xd4, 0xbd, 0x57, 0x9d, 0xfe, 0x3c, 0xa7, 0x9f, 0x14, 0x3e, 0x19, 0x52, 0x67, 0x3d, 0xc9, 0xb2, 0x07, 0x3d, 0x59, 0xf7, 0x50, 0xbd, 0x03, 0x2f, 0xbe, 0x3e, 0xac, 0x64, 0x85, 0xbd, 0x28, 0xbf, 0xb7, 0x3d, 0xc0, 0x18, 0xff, 0x3c, 0x49, 0xa7, 0x51, 0x3d, 0x35, 0x91, 0x31, 0x3c, 0x21, 0x4a, 0xdf, 0x3d, 0xc8, 0xa6, 0xd9, 0xbd, 0xbd, 0x27, 0xed, 0xbe, 0x4a, 0x14, 0xd4, 0xbc, 0x80, 0x1a, 0x1a, 0xbe, 0x3a, 0x6a, 0x71, 0x3e, 0x14, 0x46, 0x06, 0x3e, 0x02, 0xe4, 0x28, 0x3e, 0x13, 0xc3, 0x85, 0x3c, 0xd2, 0x7d, 0x4e, 0x3e, 0x08, 0x58, 0x77, 0x3e, 0xb4, 0x1d, 0x9e, 0xbf, 0x70, 0xcd, 0xa0, 0x3d, 0x8e, 0xb5, 0xa3, 0x3e, 0xc5, 0x9b, 0xbc, 0xbd, 0xf2, 0xe2, 0xb8, 0x3d, 0x55, 0x37, 0xb2, 0x3d, 0xdf, 0x4a, 0xea, 0x3d, 0x2a, 0x17, 0x4f, 0xbc, 0xb2, 0x00, 0x10, 0xbe, 0x2f, 0x8d, 0xdb, 0xbd, 0x97, 0xa4, 0x0e, 0xbe, 0x24, 0x6d, 0x2f, 0xbc, 0x95, 0x2b, 0x2f, 0x3c, 0x9f, 0x30, 0x91, 0x3e, 0xd7, 0x2f, 0xa1, 0xbc, 0x3b, 0x2c, 0x75, 0xbd, 0x48, 0x50, 0x18, 0xbd, 0x40, 0x4a, 0xc5, 0x3c, 0x34, 0x68, 0xf6, 0x3d, 0x00, 0xda, 0xb2, 0xbd, 0x0c, 0x34, 0x6c, 0xbd, 0x90, 0x1c, 0x17, 0xbd, 0x15, 0x55, 0x4c, 0x3e, 0x87, 0x17, 0x64, 0x3e, 0x6e, 0x33, 0x85, 0x3d, 0x7e, 0xb1, 0x18, 0x3d, 0x19, 0xf9, 0xf6, 0xbd, 0x8b, 0x66, 0xce, 0x3d, 0x8e, 0xcf, 0x64, 0x3e, 0x9f, 0xf0, 0xfd, 0xbc, 0x71, 0x2c, 0x79, 0xbf, 0x62, 0x56, 0xbe, 0x3d, 0x20, 0x34, 0x36, 0xbd, 0x09, 0x3e, 0x91, 0xbc, 0xb8, 0xad, 0x53, 0xbd, 0x85, 0xaa, 0xc3, 0x3c, 0x26, 0x0c, 0x30, 0xbd, 0xd1, 0x2c, 0x91, 0xbd, 0x3f, 0xd8, 0x84, 0x3d, 0xfd, 0x2a, 0xd4, 0xbe, 0xc9, 0xaf, 0x03, 0xbe, 0x47, 0x88, 0x14, 0xbf, 0x4f, 0xb0, 0x10, 0xc1, 0xf7, 0x20, 0x2c, 0xbc, 0x3f, 0xf8, 0x5c, 0x3d, 0x00, 0xc2, 0xdb, 0x3d, 0x6c, 0x9e, 0xb4, 0x3b, 0x08, 0x54, 0x30, 0xbe, 0x10, 0xc5, 0x6b, 0xbd, 0x05, 0xdd, 0x55, 0xbe, 0xa7, 0x3d, 0xc1, 0xbd, 0xa0, 0x22, 0x09, 0x3d, 0x4e, 0xcc, 0xf3, 0xbc, 0x6d, 0x23, 0x97, 0x3d, 0x78, 0x30, 0xb6, 0xbb, 0x22, 0xa2, 0x17, 0x3e, 0x00, 0xb3, 0x41, 0x3d, 0xdb, 0xca, 0xb7, 0x3d, 0x93, 0xd0, 0x5b, 0x3d, 0x47, 0x0b, 0x14, 0x3e, 0x27, 0x6a, 0x69, 0x3d, 0x4f, 0xbd, 0xdf, 0xbd, 0x97, 0x3d, 0xb8, 0xbc, 0x9c, 0x1e, 0x97, 0x3d, 0x2e, 0x46, 0x80, 0xbe, 0xd3, 0x22, 0xae, 0xbc, 0x08, 0x02, 0xd9, 0xbc, 0x87, 0x9a, 0xa1, 0x3e, 0x14, 0x59, 0xb8, 0xbd, 0xad, 0x71, 0x87, 0xbd, 0x09, 0x5c, 0xa5, 0xbe, 0x48, 0xa6, 0xda, 0xbe, 0x92, 0x9e, 0x4d, 0xc0, 0xd7, 0xed, 0x08, 0x3f, 0x07, 0x63, 0xe8, 0xbd, 0xaf, 0x55, 0xa8, 0x3d, 0x76, 0xe8, 0xbd, 0x3c, 0xdf, 0x9d, 0xc1, 0x3d, 0x23, 0x09, 0xb1, 0xbb, 0x72, 0x2e, 0x0f, 0x3e, 0xf7, 0xd5, 0x52, 0x3c, 0xb8, 0x95, 0x94, 0x3e, 0x92, 0xb5, 0x86, 0x3e, 0x71, 0x0c, 0x6d, 0xbe, 0xae, 0x49, 0x35, 0xbd, 0x32, 0x37, 0x00, 0x3e, 0x9c, 0x3c, 0xbe, 0x3d, 0xab, 0xb2, 0x8a, 0x3d, 0x20, 0xab, 0xe0, 0x3c, 0x7e, 0xb8, 0x35, 0x3c, 0x68, 0xd5, 0xa2, 0x3d, 0x12, 0xd7, 0xb5, 0xbe, 0x49, 0x30, 0x5e, 0x3d, 0xaa, 0xd7, 0x71, 0xbd, 0x39, 0x37, 0x06, 0xbb, 0xd3, 0x33, 0x5e, 0x3e, 0x8a, 0x2c, 0x7c, 0xbd, 0xdc, 0xc5, 0x3e, 0xbd, 0xf8, 0x9e, 0x86, 0xbd, 0x46, 0x4e, 0xfd, 0xbd, 0x9d, 0x3a, 0x32, 0xbe, 0xe4, 0xf0, 0x02, 0xbd, 0xbd, 0xa1, 0x8b, 0xbe, 0x60, 0x53, 0x0d, 0x3c, 0xaa, 0x75, 0xe8, 0xbe, 0xc6, 0x28, 0x64, 0xbe, 0x43, 0x21, 0x57, 0xbe, 0x50, 0x50, 0xe0, 0xbb, 0x84, 0xab, 0xb2, 0xbd, 0xe2, 0x9d, 0xff, 0xbb, 0x7a, 0xd2, 0xe4, 0xc0, 0xa1, 0x97, 0x9b, 0x3d, 0x6c, 0x4e, 0x84, 0x3d, 0x57, 0xb4, 0x0d, 0xbc, 0x36, 0x88, 0x8e, 0x3d, 0x7f, 0x70, 0x4c, 0x3e, 0xad, 0x5f, 0x63, 0x3c, 0x8f, 0xc9, 0x08, 0xbe, 0xd3, 0x48, 0xfc, 0x3d, 0x74, 0x54, 0xd6, 0x3c, 0xdc, 0xc8, 0xa1, 0xbd, 0xf0, 0x46, 0xd9, 0xbc, 0xb6, 0x49, 0xca, 0xbd, 0x49, 0xf0, 0xb2, 0x3e, 0xaf, 0x6e, 0x86, 0x3e, 0x93, 0x2e, 0x82, 0x3e, 0x05, 0xbe, 0xa9, 0xbd, 0x54, 0x5c, 0x0d, 0xbd, 0xdb, 0xdd, 0x04, 0xbe, 0x28, 0xee, 0x95, 0x3d, 0x1a, 0x19, 0xc6, 0x3e, 0x3c, 0xb0, 0x42, 0xbe, 0xdb, 0x18, 0x52, 0x3e, 0x60, 0xcd, 0x03, 0xc0, 0x1e, 0xe3, 0xe6, 0x3d, 0x0a, 0x43, 0xcf, 0xbc, 0x62, 0xc9, 0x8a, 0xbd, 0xb4, 0xda, 0x17, 0x3e, 0x7f, 0xdd, 0xee, 0xbe, 0xf6, 0x54, 0xf7, 0x3d, 0x33, 0xed, 0xec, 0xbd, 0x8e, 0x0d, 0x92, 0x3e, 0x20, 0xcd, 0x41, 0xbe, 0x4e, 0x47, 0x90, 0x3d, 0x15, 0x20, 0x4f, 0x3e, 0x0e, 0x91, 0xe1, 0x3b, 0x67, 0x31, 0x68, 0x3e, 0x8b, 0x4b, 0xb6, 0xbc, 0x5a, 0xe7, 0x34, 0xbf, 0x5c, 0x02, 0x30, 0xbc, 0x09, 0x22, 0x98, 0x3e, 0xb9, 0x3b, 0x8e, 0xbc, 0x0a, 0xec, 0xb2, 0xbd, 0xb0, 0x6e, 0x57, 0x3c, 0x2e, 0x80, 0x85, 0xbf, 0x29, 0x31, 0xb9, 0xbd, 0x24, 0x6b, 0xb1, 0x3a, 0x70, 0x38, 0x17, 0xbe, 0xb3, 0x3b, 0x9d, 0x3d, 0x1f, 0xc2, 0x99, 0x3b, 0xca, 0x4b, 0x21, 0xbe, 0xd9, 0x7c, 0x0d, 0xbd, 0x58, 0xe0, 0x29, 0xbd, 0x54, 0x58, 0xf8, 0xbb, 0x19, 0x7b, 0x36, 0x3d, 0xae, 0x1d, 0x60, 0x3e, 0xf2, 0x0c, 0x86, 0xba, 0x12, 0x21, 0xc1, 0xbf, 0xec, 0x9d, 0xfb, 0xbc, 0x25, 0x37, 0x77, 0xbe, 0x5e, 0x59, 0xd5, 0x3e, 0x86, 0x22, 0xb6, 0xbd, 0x1c, 0x54, 0x71, 0xbf, 0xcf, 0x11, 0x02, 0xbb, 0x94, 0x31, 0x79, 0xbd, 0x31, 0x55, 0xc9, 0x3d, 0xbd, 0x8f, 0x9d, 0x3e, 0x7f, 0x65, 0xab, 0x3d, 0x2e, 0x44, 0xdd, 0x3d, 0x4b, 0xef, 0x87, 0x3e, 0x1b, 0xd7, 0x58, 0x3c, 0x59, 0x34, 0x4b, 0xbc, 0x51, 0x81, 0xa3, 0xbd, 0x68, 0x2b, 0x95, 0x3c, 0xa1, 0xf6, 0x42, 0x3c, 0xb3, 0xdd, 0xa7, 0xbc, 0x4b, 0x44, 0x14, 0xbd, 0x39, 0x0d, 0xea, 0x3c, 0xdd, 0x33, 0x14, 0x3e, 0x0c, 0x00, 0xf6, 0x3c, 0x37, 0x90, 0xbc, 0xbc, 0xc1, 0x9a, 0x25, 0xbd, 0x7a, 0x50, 0xc4, 0xbb, 0x7a, 0x5a, 0xde, 0xbb, 0x78, 0x64, 0x47, 0x3c, 0x13, 0xc7, 0x3d, 0xbf, 0x59, 0x24, 0x0d, 0xbe, 0xb8, 0x62, 0x14, 0x3e, 0x4c, 0xe5, 0x12, 0xbe, 0x56, 0x60, 0xcf, 0xbf, 0x02, 0x54, 0xc1, 0xba, 0x6c, 0x4d, 0x42, 0x3c, 0x0f, 0xb7, 0x4b, 0x3e, 0xbd, 0x9b, 0xc6, 0xbd, 0x72, 0xca, 0xa8, 0xbe, 0xcd, 0xf8, 0xcb, 0xbf, 0xa8, 0x16, 0x39, 0xbf, 0xd8, 0x1d, 0x87, 0x3b, 0xf0, 0x8f, 0xc4, 0x3d, 0x4f, 0xcd, 0x8b, 0xbd, 0xab, 0x75, 0x0c, 0xbb, 0x33, 0x46, 0x5f, 0x3e, 0x12, 0x6e, 0x80, 0xbe, 0x1f, 0xc4, 0x2a, 0x3d, 0xca, 0x27, 0x56, 0x3c, 0xab, 0x88, 0x11, 0xbe, 0xc7, 0xdd, 0x28, 0xbf, 0x20, 0xb1, 0x6b, 0xbd, 0x0b, 0xb8, 0x78, 0xbf, 0x74, 0xfc, 0x48, 0x3d, 0x98, 0x26, 0x8d, 0x3e, 0x94, 0xdc, 0x17, 0x3e, 0x75, 0xec, 0x96, 0x3d, 0x6a, 0x0c, 0x47, 0xbd, 0x9d, 0xd4, 0x7d, 0x3e, 0x82, 0x7d, 0xb5, 0x3d, 0x55, 0xe2, 0x2e, 0x3e, 0x60, 0x2b, 0x27, 0xbd, 0x2f, 0xae, 0x89, 0x3d, 0xa8, 0xb1, 0x49, 0x3e, 0x0b, 0x6a, 0x22, 0x3e, 0xe2, 0x81, 0x93, 0x3d, 0x05, 0xf1, 0x89, 0xbd, 0x77, 0xad, 0x3d, 0xbd, 0x28, 0xe7, 0x39, 0x3e, 0x89, 0x28, 0x67, 0xbd, 0xd5, 0xf9, 0x51, 0x3d, 0x20, 0x2c, 0x62, 0x3e, 0xca, 0x0b, 0x32, 0xbd, 0xe3, 0x6a, 0x40, 0xbc, 0x23, 0x43, 0x43, 0xbd, 0x66, 0xda, 0xac, 0xbd, 0xaa, 0x72, 0xbb, 0x3d, 0xf2, 0x42, 0x09, 0xbe, 0xfb, 0x9a, 0x11, 0x3e, 0x55, 0xd1, 0x9a, 0x3c, 0x1e, 0xc9, 0xa4, 0x3d, 0x34, 0x3d, 0x4d, 0x3d, 0x69, 0xe3, 0x42, 0xbd, 0x77, 0x2c, 0xf7, 0xbd, 0xb7, 0x23, 0xb8, 0xbc, 0x20, 0x2a, 0xbb, 0xbd, 0x62, 0xd3, 0xe0, 0xc0, 0x5c, 0xe7, 0x81, 0x3e, 0x2d, 0xa5, 0xe7, 0xbe, 0xdf, 0x8a, 0x4a, 0xbd, 0x8e, 0x8f, 0x89, 0xbd, 0xeb, 0xc9, 0xe7, 0xbd, 0xe4, 0xe8, 0x87, 0x3d, 0x59, 0x82, 0x0d, 0x3d, 0x70, 0xa5, 0xba, 0xbd, 0x7b, 0x70, 0x0f, 0x3e, 0x0e, 0x81, 0x44, 0x3d, 0xeb, 0xdd, 0xa2, 0x3b, 0x00, 0xa0, 0xd7, 0xbd, 0x99, 0xa0, 0x7c, 0xbd, 0x54, 0xd5, 0x3f, 0xbc, 0xe6, 0x31, 0x9c, 0x3e, 0x2d, 0x87, 0x5f, 0x3e, 0xc8, 0x81, 0x01, 0xbe, 0x7a, 0x59, 0xe8, 0x3d, 0x3b, 0xbc, 0x61, 0xbd, 0x73, 0xb1, 0x1c, 0xbd, 0x02, 0xa3, 0xc3, 0x3e, 0x06, 0x69, 0x67, 0xbf, 0x39, 0xe0, 0x32, 0xbd, 0xd1, 0x01, 0x38, 0x3d, 0x11, 0xff, 0x3f, 0x3e, 0x8f, 0x96, 0x81, 0x3d, 0x14, 0x41, 0x59, 0x3c, 0x87, 0x42, 0xaa, 0x3d, 0xb7, 0x61, 0xa8, 0x3d, 0x93, 0xb7, 0xf6, 0x3e, 0x81, 0xb4, 0xe7, 0x3e, 0xbe, 0xe3, 0x97, 0x3c, 0xe1, 0x5c, 0x07, 0x3e, 0x1e, 0x62, 0x18, 0xbd, 0x16, 0x9a, 0xb8, 0x3d, 0x2c, 0xeb, 0x41, 0xbe, 0xac, 0xf6, 0x04, 0x3d, 0x51, 0x77, 0x03, 0x3d, 0x98, 0x32, 0xf2, 0xbe, 0x23, 0x08, 0x13, 0x3e, 0x16, 0x92, 0xde, 0x3a, 0x4e, 0xae, 0x48, 0xbd, 0x84, 0x92, 0xbd, 0xbd, 0x12, 0xd6, 0x90, 0xbf, 0x36, 0x13, 0xc2, 0x3d, 0xc0, 0x48, 0x6f, 0xbf, 0x52, 0xb4, 0x34, 0xbd, 0xcb, 0xa1, 0xc9, 0x3d, 0x5e, 0x3e, 0x1a, 0xbe, 0xbd, 0xfd, 0x50, 0x3e, 0x52, 0xd3, 0x16, 0x3d, 0xec, 0x84, 0x16, 0xbf, 0x7b, 0x0e, 0x64, 0xbf, 0xd9, 0xe2, 0xe1, 0xbd, 0xf7, 0x41, 0xf1, 0x3d, 0xe6, 0x5a, 0x14, 0xbe, 0x2c, 0xd2, 0x9f, 0xbc, 0xdf, 0x92, 0x56, 0xbc, 0xfd, 0xa2, 0xa1, 0x3e, 0xf3, 0xb0, 0xfd, 0x3b, 0xa4, 0x13, 0x95, 0xbd, 0x23, 0x9a, 0x80, 0x3e, 0xf1, 0xb4, 0xd8, 0x3d, 0xef, 0x21, 0xd0, 0xbd, 0xfe, 0x96, 0x22, 0xbd, 0xf6, 0x76, 0x3c, 0xbd, 0x84, 0xdd, 0xd9, 0x3d, 0xc1, 0xcf, 0x91, 0xbd, 0x54, 0xd4, 0x6e, 0xbe, 0x18, 0x26, 0x36, 0xbf, 0x89, 0xe2, 0x9b, 0x3d, 0x14, 0x85, 0xb2, 0xbe, 0xd6, 0x58, 0xa9, 0xbd, 0x6b, 0xba, 0xe3, 0xbc, 0xce, 0xbe, 0x50, 0xbd, 0x8f, 0x0a, 0x01, 0x3e, 0x7f, 0x6d, 0x8e, 0xbd, 0x07, 0x00, 0x18, 0x3e, 0x90, 0xb0, 0x5c, 0xbe, 0x42, 0xa2, 0xa0, 0x39, 0x09, 0x69, 0x7d, 0x3d, 0x95, 0xbf, 0xa5, 0xb9, 0x78, 0xac, 0xf2, 0x3d, 0xd6, 0x09, 0x6a, 0xbe, 0x01, 0x4c, 0x30, 0xbe, 0x4f, 0xa8, 0x8c, 0x3c, 0xd7, 0x96, 0x18, 0x3e, 0x92, 0x45, 0xa5, 0x3e, 0x4e, 0xe9, 0x71, 0x3d, 0x77, 0xdc, 0xaa, 0x3e, 0x5b, 0x65, 0x0d, 0x3c, 0x01, 0x79, 0x54, 0xbe, 0xa0, 0xef, 0xe4, 0xbc, 0xa9, 0xd8, 0xe4, 0x3c, 0x55, 0x7d, 0x70, 0x3e, 0x95, 0x48, 0x69, 0x3e, 0xca, 0x4a, 0x59, 0xbc, 0xd0, 0x42, 0xe4, 0xbd, 0xde, 0xa7, 0xa0, 0x3d, 0x19, 0x3b, 0x08, 0x3d, 0xb9, 0x6e, 0x0b, 0x3d, 0x7e, 0x20, 0x8d, 0x3e, 0xde, 0x4a, 0xbf, 0x3d, 0x1e, 0x09, 0xb9, 0xbd, 0x16, 0xe9, 0x00, 0xbd, 0x70, 0x01, 0x81, 0x3c, 0x75, 0x9d, 0x96, 0xbd, 0xe7, 0xf8, 0x87, 0x3e, 0x11, 0x6e, 0x26, 0x3e, 0x8a, 0x2c, 0x1b, 0x3e, 0xf8, 0x46, 0xbd, 0xc0, 0x16, 0x7f, 0x43, 0x3e, 0x8d, 0x59, 0x10, 0x3c, 0x34, 0x09, 0x16, 0xbd, 0x9d, 0x4e, 0x93, 0x3c, 0xff, 0xfc, 0x85, 0xbd, 0xc9, 0xe9, 0x60, 0x3e, 0xd9, 0x3d, 0xaa, 0xc0, 0x66, 0x23, 0xd3, 0x3e, 0x7b, 0x4b, 0xe0, 0xba, 0x4f, 0xa1, 0xab, 0x3d, 0x5e, 0x71, 0x2a, 0xbf, 0x1a, 0xaa, 0x12, 0xbf, 0x8c, 0x24, 0x6e, 0x3e, 0x68, 0x3b, 0x98, 0xbd, 0x5d, 0x63, 0xb0, 0x3d, 0xfe, 0x37, 0x9b, 0x3d, 0x08, 0x26, 0x4e, 0x3d, 0x52, 0x3f, 0x1f, 0x3e, 0x1d, 0x2e, 0x32, 0xbd, 0x9e, 0x85, 0x0c, 0x3e, 0x5e, 0xdd, 0xa4, 0xbd, 0x0b, 0xd1, 0xbe, 0x3d, 0x14, 0x33, 0x2f, 0x3d, 0x6f, 0xcb, 0x8a, 0xbc, 0xfe, 0x3b, 0x97, 0xbc, 0x46, 0x44, 0x30, 0x3d, 0x35, 0xb3, 0x1f, 0xbc, 0xbb, 0x3b, 0xeb, 0xbe, 0xc8, 0x11, 0x9d, 0xbd, 0x37, 0xbe, 0xf1, 0xc0, 0x45, 0x1a, 0x65, 0x3e, 0xaa, 0xfa, 0xdd, 0x3e, 0x6e, 0x03, 0x90, 0x3e, 0x24, 0x3a, 0x0c, 0x3d, 0x61, 0x2d, 0xee, 0xbc, 0x76, 0x6a, 0xe3, 0x3c, 0x24, 0x5c, 0xee, 0x3d, 0xe0, 0x74, 0x0e, 0xbd, 0x8b, 0xac, 0xa4, 0x3e, 0xdb, 0x8f, 0xd6, 0x3c, 0xfb, 0xbc, 0x31, 0xc0, 0x1e, 0xcc, 0x1b, 0x3e, 0x83, 0xdc, 0x3c, 0x3e, 0xc0, 0x9c, 0x55, 0xbc, 0xfd, 0xff, 0xac, 0x3c, 0x49, 0x4c, 0x1b, 0xbd, 0x81, 0x6d, 0x0e, 0xbe, 0xc1, 0x51, 0x42, 0xbd, 0x96, 0x46, 0xc4, 0x3d, 0x60, 0xac, 0x0c, 0x3f, 0x31, 0x51, 0xbe, 0xbc, 0xbb, 0x8d, 0x32, 0xbf, 0xab, 0x6a, 0x3b, 0xc0, 0x86, 0x59, 0x80, 0x3d, 0x3a, 0x72, 0xd6, 0x3d, 0x59, 0x5c, 0xa2, 0xbd, 0x80, 0x4f, 0x20, 0xbd, 0x6b, 0x4c, 0xed, 0x3e, 0xaa, 0x71, 0x81, 0xbf, 0xcc, 0x79, 0xc4, 0x3c, 0x1b, 0x81, 0x02, 0x3e, 0xee, 0x32, 0x0e, 0x3d, 0x8c, 0xe9, 0xbe, 0x3c, 0x79, 0x54, 0x80, 0xbe, 0xd4, 0x9e, 0x8f, 0xbe, 0x99, 0x19, 0x19, 0x3d, 0x78, 0x13, 0x83, 0x3e, 0x2d, 0x1a, 0x16, 0xbe, 0xdf, 0x3f, 0x86, 0x3e, 0xdb, 0xa7, 0x25, 0x3e, 0x8d, 0x77, 0x88, 0xbd, 0x45, 0x31, 0xc8, 0x3d, 0x75, 0xf7, 0x6b, 0x3e, 0xc6, 0x62, 0x8d, 0xbd, 0xb4, 0x65, 0xd5, 0x3c, 0xea, 0x18, 0x9f, 0x3e, 0xed, 0x8e, 0x2c, 0x3e, 0xab, 0x76, 0x25, 0x3e, 0x4c, 0x34, 0x09, 0x3e, 0xd5, 0x26, 0x98, 0x3d, 0xa5, 0x7a, 0x2f, 0xbf, 0x8c, 0x72, 0x8d, 0xbd, 0x3e, 0xe1, 0x8c, 0xbd, 0x90, 0xdc, 0x86, 0x3e, 0x80, 0xd5, 0xc2, 0xba, 0x02, 0x09, 0x18, 0x3e, 0x35, 0x7e, 0x22, 0xbd, 0xe1, 0xb6, 0x7f, 0x3d, 0x94, 0x40, 0x3c, 0xbd, 0xaf, 0x1f, 0x84, 0xbd, 0x14, 0x30, 0x66, 0x3e, 0x2a, 0xb8, 0x7c, 0x3d, 0xb1, 0x7c, 0x71, 0xbc, 0x7a, 0x22, 0x49, 0xbd, 0x75, 0x45, 0x64, 0x3d, 0x5f, 0xfc, 0xeb, 0xbe, 0xc7, 0x31, 0x9b, 0xbe, 0x59, 0x5e, 0x14, 0x3e, 0xcd, 0x83, 0x07, 0xbd, 0xd8, 0xed, 0x82, 0x3c, 0x91, 0x5c, 0x5f, 0x3e, 0x5c, 0x0f, 0x4b, 0xbe, 0x34, 0xc8, 0x85, 0x3d, 0x38, 0x0e, 0x2b, 0xbf, 0x3b, 0x8e, 0x5a, 0x3e, 0xe7, 0xe4, 0x1e, 0x3e, 0x73, 0x86, 0x80, 0x3e, 0xf4, 0x8f, 0xa3, 0x3d, 0x31, 0xdc, 0x1b, 0x3e, 0xe3, 0xa3, 0xc6, 0xbf, 0x57, 0xd4, 0xfb, 0x3d, 0xab, 0x00, 0xfa, 0xbe, 0xf0, 0x5c, 0x30, 0x3e, 0x0d, 0x3e, 0x96, 0xbe, 0xab, 0x71, 0xe5, 0x3d, 0x0a, 0xab, 0xf0, 0xbe, 0xc8, 0x54, 0x96, 0x3b, 0xd2, 0x16, 0x2f, 0xbe, 0x91, 0xad, 0x32, 0xbf, 0xf7, 0x1b, 0x35, 0x3e, 0x54, 0xbd, 0x3e, 0x3d, 0xf9, 0x42, 0x34, 0xbe, 0x37, 0xd0, 0xb9, 0x3d, 0x88, 0x5e, 0x95, 0xbe, 0xce, 0x37, 0xcb, 0xbd, 0x8d, 0x27, 0x6f, 0xbf, 0x78, 0xb0, 0x9b, 0xbc, 0x8b, 0x18, 0x8e, 0x3e, 0x08, 0xe3, 0xa5, 0x3a, 0x7c, 0x1f, 0xa9, 0x3c, 0xae, 0xb1, 0x17, 0xbc, 0x67, 0x2d, 0x40, 0x3e, 0x30, 0xf2, 0xa8, 0x3d, 0xfa, 0x61, 0x38, 0xbf, 0xe3, 0x62, 0x62, 0x3e, 0xea, 0xf2, 0x09, 0x3e, 0x07, 0xf7, 0x57, 0xbe, 0xed, 0x65, 0x92, 0xbf, 0x59, 0x1e, 0x95, 0x3e, 0x14, 0x3b, 0x3d, 0xbe, 0x28, 0x7b, 0x4c, 0x3e, 0x9b, 0xf0, 0x5a, 0x3e, 0xde, 0x01, 0xa8, 0x3e, 0xae, 0x51, 0x1c, 0xbd, 0x86, 0x6e, 0xc9, 0x3d, 0x4d, 0x8d, 0xd6, 0xbd, 0x33, 0x5f, 0xd5, 0x3d, 0xe0, 0x15, 0x73, 0x3c, 0xe1, 0xdb, 0xcd, 0xbe, 0x31, 0x3e, 0xb4, 0xbe, 0xe8, 0xd7, 0xda, 0xbd, 0xbb, 0x7f, 0x14, 0xbf, 0xa5, 0xb6, 0xa0, 0xbf, 0x7f, 0x51, 0xe3, 0x3d, 0x42, 0x03, 0x0b, 0x3e, 0x7c, 0xf9, 0xc1, 0xbd, 0x75, 0x30, 0x12, 0xbd, 0x54, 0x3f, 0x8b, 0x3d, 0x0c, 0xef, 0x67, 0xc0, 0x16, 0x1e, 0xc1, 0xbf, 0x1e, 0x26, 0x9f, 0xbb, 0xf6, 0x66, 0x29, 0xbe, 0xfe, 0x04, 0x4d, 0x3e, 0x57, 0x26, 0x4f, 0x3e, 0xec, 0x67, 0x06, 0x3e, 0x70, 0xff, 0x08, 0x3d, 0xbb, 0xec, 0x28, 0xbf, 0xd1, 0xc7, 0x2f, 0x3e, 0x7f, 0xaf, 0xb5, 0xbc, 0xf5, 0xe1, 0xc4, 0xbc, 0xbb, 0x03, 0xf5, 0x3d, 0x65, 0x6c, 0x14, 0xbd, 0x50, 0x86, 0x95, 0xbc, 0xc3, 0xa0, 0x29, 0x3d, 0x4a, 0x3e, 0x95, 0x3e, 0xce, 0xdd, 0x6e, 0xbd, 0x66, 0x82, 0xc3, 0x3d, 0xe5, 0xf8, 0x87, 0x3b, 0x0e, 0x7c, 0xae, 0x3e, 0x40, 0x8e, 0xab, 0x3c, 0x5c, 0x2d, 0x96, 0x3d, 0x9b, 0x0a, 0xca, 0x3b, 0x28, 0xea, 0x18, 0x3c, 0x26, 0x22, 0xc9, 0x3e, 0x7e, 0x82, 0xb3, 0x3d, 0xa1, 0x7c, 0x30, 0xc0, 0xa7, 0x58, 0x22, 0xbf, 0xca, 0x35, 0x08, 0x3c, 0x3a, 0xc8, 0xc3, 0xbf, 0xa2, 0x48, 0x01, 0xbe, 0xd3, 0x29, 0x9f, 0x3e, 0xa9, 0xc3, 0xe0, 0x3e, 0x3c, 0x4b, 0xcc, 0x3d, 0xf5, 0xd7, 0x8c, 0x3e, 0x50, 0xa2, 0xd9, 0x3c, 0x49, 0xd3, 0xc3, 0xbd, 0x7d, 0x2b, 0x3d, 0x3e, 0x3f, 0x41, 0x99, 0x3d, 0x8e, 0x81, 0xe7, 0x3a, 0x44, 0x49, 0x01, 0x3f, 0x2f, 0x66, 0xa3, 0xbd, 0xc5, 0xb4, 0xce, 0x3d, 0xd2, 0xf0, 0xaa, 0x3d, 0x58, 0xbd, 0x95, 0x3d, 0x75, 0xd0, 0x92, 0xbd, 0xe3, 0x0c, 0xe6, 0x3d, 0x13, 0xe0, 0x96, 0xbf, 0x39, 0xc2, 0xb1, 0xbd, 0x0a, 0x57, 0x66, 0x3e, 0x01, 0x99, 0xa1, 0x3e, 0x34, 0x5c, 0x91, 0x3e, 0x4b, 0x8d, 0x84, 0xbf, 0xbb, 0x5a, 0xb9, 0xbe, 0x0c, 0xc0, 0xd8, 0xbd, 0x3c, 0x4c, 0x99, 0xbe, 0xba, 0x84, 0xfe, 0xbe, 0x7c, 0x44, 0x22, 0xbe, 0x52, 0x3f, 0x38, 0x3e, 0x57, 0x5d, 0x65, 0x3d, 0x7c, 0x81, 0x76, 0x3d, 0x00, 0xca, 0x24, 0x3e, 0x09, 0x47, 0xa7, 0x3e, 0xf9, 0x46, 0x30, 0xbe, 0x2e, 0x83, 0x21, 0xbd, 0xd9, 0xb0, 0x85, 0xbe, 0x3f, 0x05, 0xd9, 0xbd, 0x21, 0x21, 0x72, 0xbe, 0xeb, 0x28, 0x29, 0xbd, 0xaa, 0xac, 0x8f, 0x3e, 0x20, 0x51, 0x81, 0x3d, 0x4b, 0xe5, 0xc6, 0xbd, 0xfc, 0xb3, 0x54, 0x3e, 0x45, 0x0a, 0x46, 0x3e, 0xc5, 0x6a, 0x90, 0xbe, 0xc5, 0xbb, 0xaa, 0x3e, 0x4c, 0x21, 0xee, 0x3c, 0x09, 0x96, 0x10, 0xbe, 0x57, 0x95, 0xcd, 0x3d, 0x2d, 0x10, 0xd2, 0x3c, 0xa7, 0xd2, 0x3e, 0x3e, 0xa6, 0xa7, 0x8f, 0x3e, 0xf8, 0x3e, 0x52, 0xbe, 0xcb, 0x9b, 0x1c, 0x3e, 0x84, 0x9a, 0xc2, 0x3d, 0xe2, 0x17, 0x70, 0xbc, 0x3b, 0xef, 0xbc, 0xbd, 0x82, 0x91, 0x1e, 0xbd, 0x00, 0x0f, 0x83, 0xbe, 0x3c, 0x35, 0xc9, 0x3e, 0xa9, 0xc4, 0x8d, 0xbf, 0xa9, 0x12, 0x13, 0x3e, 0x63, 0xf1, 0x58, 0x3e, 0xf2, 0xe5, 0xc6, 0x3d, 0xd2, 0x91, 0x52, 0x3e, 0x0d, 0xf3, 0x0b, 0x3e, 0x6c, 0x26, 0x13, 0x3e, 0xdf, 0x64, 0x95, 0x3e, 0xdc, 0xb2, 0xdd, 0xbd, 0xc2, 0x10, 0xd4, 0xbc, 0x8b, 0x0c, 0x0d, 0x3e, 0xd0, 0x42, 0x74, 0xbe, 0x99, 0xe8, 0x1a, 0xbe, 0xab, 0xba, 0x88, 0xbe, 0xd4, 0x3d, 0xa4, 0x3e, 0x8f, 0x38, 0x8a, 0x3e, 0x46, 0xf0, 0x8b, 0x3a, 0xaf, 0x79, 0x8a, 0x3e, 0xf2, 0x06, 0x23, 0xbd, 0x06, 0x24, 0x98, 0x3e, 0xcc, 0xc0, 0x88, 0x3e, 0x14, 0x3d, 0x8e, 0xbd, 0x1d, 0x12, 0xe0, 0x3e, 0xcb, 0xc6, 0xbf, 0x3d, 0x3b, 0x36, 0x00, 0xbf, 0xde, 0x88, 0xa0, 0x3d, 0xb7, 0x51, 0x86, 0xbd, 0xa1, 0x4e, 0x9a, 0xbe, 0x94, 0xe5, 0x0c, 0x3e, 0x2c, 0x54, 0xe5, 0x3d, 0xb0, 0x65, 0x93, 0x3d, 0x35, 0x2c, 0x88, 0xbe, 0x19, 0xd0, 0x87, 0x3d, 0xce, 0x21, 0x96, 0xbd, 0x7b, 0x8f, 0x49, 0x3d, 0xa1, 0xa9, 0x81, 0x3e, 0x39, 0x51, 0xd7, 0xbe, 0x67, 0x39, 0x6e, 0xbe, 0x51, 0x6c, 0x67, 0x3e, 0x4d, 0xf8, 0xc4, 0x3c, 0x57, 0x23, 0x26, 0x3d, 0x0f, 0x66, 0x78, 0x3f, 0x12, 0xcb, 0xd7, 0x3d, 0xdc, 0xce, 0x84, 0xbf, 0x86, 0xf3, 0x4f, 0x3e, 0x99, 0x86, 0x59, 0xbd, 0xfe, 0xae, 0x06, 0xbd, 0xd4, 0x6e, 0x82, 0x3d, 0x9c, 0x11, 0x46, 0xbe, 0xdf, 0xa7, 0x73, 0xbd, 0xf4, 0x60, 0x84, 0xbf, 0xe7, 0x90, 0x50, 0x3e, 0x8f, 0x0f, 0xe1, 0x3e, 0xc6, 0xc3, 0xf5, 0xbc, 0x9d, 0x65, 0xdd, 0xbe, 0x4a, 0x0c, 0x9e, 0xbe, 0x20, 0x73, 0x87, 0x3e, 0x07, 0x1c, 0x75, 0xbe, 0xd4, 0x4c, 0x89, 0xbd, 0x99, 0xf0, 0x8e, 0xc0, 0x85, 0xb0, 0x25, 0xbf, 0xa7, 0x54, 0x4d, 0x3e, 0x05, 0x2c, 0xa5, 0x3d, 0x90, 0x8c, 0x84, 0xc0, 0x08, 0x02, 0xb8, 0xbd, 0x2f, 0x26, 0xce, 0xbf, 0x94, 0x72, 0xd6, 0xbd, 0x4e, 0xff, 0x6d, 0x3d, 0x81, 0x23, 0x91, 0xbb, 0xbe, 0xd8, 0x74, 0xbe, 0x66, 0x1d, 0x21, 0x3d, 0xad, 0x0e, 0x3d, 0xbd, 0x88, 0x7e, 0x24, 0xbb, 0xf9, 0xdb, 0x11, 0xbf, 0x6e, 0x0c, 0xab, 0x3d, 0x16, 0xd5, 0x92, 0x3e, 0x28, 0x0e, 0x47, 0xc0, 0x45, 0xfd, 0xde, 0xbd, 0x50, 0x09, 0x27, 0xbd, 0x78, 0xce, 0x24, 0xbe, 0x9f, 0x5d, 0x1b, 0xbd, 0x50, 0x65, 0xfc, 0x3d, 0xc7, 0x28, 0x56, 0x3e, 0x5f, 0x06, 0xad, 0x3e, 0xe8, 0x88, 0x14, 0x3d, 0x38, 0x3f, 0xa2, 0x3d, 0x82, 0x82, 0xe1, 0x3d, 0xd3, 0xc4, 0xb8, 0x3d, 0xa9, 0x6b, 0x8d, 0x3e, 0xd6, 0xc4, 0xb1, 0xbe, 0x89, 0x36, 0xcc, 0xbe, 0x8b, 0x9e, 0x4b, 0x3d, 0x33, 0x0c, 0x48, 0xbe, 0xaf, 0xec, 0x7b, 0x3e, 0x84, 0x85, 0xd4, 0x3d, 0x9f, 0xb9, 0x5a, 0xc0, 0xa0, 0x5e, 0x5e, 0x3c, 0x4c, 0xa0, 0x96, 0xbc, 0x1a, 0x18, 0xd0, 0xbd, 0x3b, 0x9a, 0x19, 0x3e, 0x5c, 0x38, 0x06, 0x3e, 0x5f, 0xc7, 0xba, 0xbe, 0x97, 0x61, 0xfb, 0x3c, 0x15, 0x9a, 0x22, 0x3e, 0xf3, 0xb8, 0x3d, 0xbe, 0xfc, 0x62, 0xf4, 0x3c, 0x54, 0x01, 0x13, 0xbe, 0xa9, 0xe7, 0xb3, 0x3d, 0xc5, 0x2d, 0x65, 0x3e, 0x1e, 0x66, 0xe1, 0xbe, 0x66, 0xca, 0xec, 0x3c, 0xa3, 0xc3, 0x5d, 0x3e, 0x62, 0x42, 0xd7, 0x3d, 0xc3, 0xaf, 0x78, 0xbf, 0x04, 0x00, 0x2d, 0x3e, 0x04, 0xcb, 0x6c, 0xbe, 0x2c, 0xef, 0xdf, 0x3d, 0xf3, 0x4d, 0x88, 0xbd, 0x0e, 0x21, 0x2c, 0x3e, 0xae, 0x28, 0x9c, 0xbe, 0x5b, 0x08, 0xda, 0xbf, 0x9c, 0x1e, 0x87, 0xbd, 0x56, 0xf8, 0x4c, 0xbf, 0x2a, 0x85, 0xeb, 0x3d, 0x88, 0x82, 0x18, 0x3e, 0xcd, 0x73, 0x04, 0xc1, 0x1f, 0x47, 0x9e, 0x3c, 0xe3, 0xcd, 0xa8, 0xbe, 0x84, 0xb8, 0x38, 0x3b, 0x82, 0xed, 0xda, 0x3c, 0x6f, 0x8d, 0x93, 0x3b, 0xc6, 0xa7, 0xd2, 0x3d, 0x74, 0x51, 0xc1, 0x3e, 0x84, 0x8b, 0x05, 0xc0, 0xf0, 0x55, 0x10, 0xbf, 0x3d, 0x3c, 0x30, 0xbe, 0x62, 0x0b, 0x7f, 0x3d, 0x2b, 0x13, 0x28, 0x3e, 0x5b, 0x12, 0xf0, 0xbc, 0x4e, 0x00, 0x19, 0x3e, 0x95, 0xdd, 0x35, 0xbe, 0x61, 0xe2, 0x85, 0xbd, 0x31, 0xef, 0x28, 0x3e, 0x75, 0xe6, 0x36, 0x3e, 0xbb, 0x50, 0x0f, 0xbe, 0x70, 0x65, 0x42, 0xbe, 0xbf, 0xb3, 0x29, 0x3e, 0xf0, 0xf7, 0x4c, 0xbd, 0xe6, 0xb0, 0x3b, 0xbe, 0xb3, 0x82, 0xbd, 0xbd, 0x2e, 0xef, 0xab, 0xbc, 0x87, 0x29, 0x86, 0xbe, 0xf7, 0x15, 0x9d, 0x3e, 0x37, 0x0c, 0x7c, 0x3e, 0xc0, 0x4a, 0x7e, 0x3e, 0x5c, 0x53, 0x5f, 0xbf, 0x01, 0x05, 0x83, 0xbe, 0x59, 0xcb, 0x4f, 0xbd, 0x07, 0x6a, 0x2b, 0xbf, 0x54, 0x5d, 0x12, 0xbe, 0x49, 0xf5, 0x63, 0xbf, 0x19, 0x43, 0x75, 0x3e, 0xd3, 0x6f, 0x0f, 0xbd, 0xc2, 0x98, 0x32, 0xbe, 0xa4, 0xac, 0xe4, 0x3d, 0xf7, 0x0b, 0xbb, 0xbf, 0xf2, 0x56, 0x7b, 0xbe, 0x1c, 0xfd, 0x7b, 0xba, 0x1a, 0xe8, 0x9e, 0xbc, 0x92, 0x94, 0x80, 0x3e, 0xe6, 0x55, 0x1f, 0xbf, 0xb6, 0x55, 0x95, 0x3d, 0x1b, 0x66, 0xeb, 0x3d, 0xb8, 0xa5, 0xb0, 0xbd, 0x83, 0xe3, 0x30, 0x3d, 0xd3, 0x77, 0x0b, 0x3e, 0xc3, 0x11, 0x56, 0xbe, 0x24, 0x6c, 0x95, 0xbd, 0x0a, 0xe3, 0x1e, 0x3f, 0x19, 0x44, 0x0f, 0xbe, 0x92, 0xfb, 0x0d, 0xbf, 0xf3, 0x63, 0x9f, 0xbe, 0x37, 0x24, 0xec, 0xbe, 0xd2, 0x8b, 0xeb, 0xbe, 0x79, 0xf6, 0x90, 0x3e, 0x6d, 0x70, 0x60, 0xbe, 0x1a, 0xbb, 0x5f, 0xbe, 0x0f, 0xe2, 0xff, 0x3d, 0x4b, 0xe2, 0xb7, 0xbd, 0x4c, 0xe3, 0xcd, 0xbe, 0x62, 0x61, 0x85, 0xbd, 0x5f, 0xd7, 0xab, 0x3d, 0x85, 0x61, 0x03, 0xc0, 0x22, 0x6b, 0x5f, 0x3d, 0xc6, 0x49, 0x54, 0x3c, 0x44, 0x3b, 0x10, 0x3e, 0x9c, 0x4e, 0x5c, 0x3d, 0x72, 0x08, 0x84, 0x3e, 0xb2, 0xce, 0x81, 0x3d, 0xbf, 0x59, 0x16, 0xbd, 0x33, 0x4c, 0x1a, 0xbe, 0xe1, 0xca, 0xa2, 0x3e, 0x42, 0x59, 0x90, 0xbd, 0x0a, 0xcc, 0x86, 0x3d, 0x3a, 0xf0, 0x92, 0xbd, 0x1e, 0x0b, 0x16, 0xbf, 0x10, 0x56, 0xf3, 0x3c, 0x1b, 0xf9, 0x8c, 0xbd, 0xe1, 0xca, 0x07, 0xbe, 0x69, 0xea, 0xab, 0x3d, 0x57, 0x2d, 0xf6, 0xbf, 0x2b, 0x77, 0x0c, 0xc0, 0xc1, 0x4b, 0x92, 0x3e, 0x18, 0x80, 0x6f, 0xbc, 0x0c, 0x63, 0x84, 0xbd, 0x2d, 0xe9, 0xa5, 0xbe, 0x04, 0x65, 0x4b, 0x3c, 0x26, 0xcb, 0xe6, 0xbc, 0x60, 0xbd, 0x95, 0xbd, 0x66, 0xb2, 0x9d, 0xbd, 0x24, 0xe4, 0x62, 0xbe, 0x99, 0x8a, 0x99, 0xbd, 0xe6, 0x84, 0x00, 0x3e, 0x7d, 0xe3, 0xff, 0xbc, 0x2d, 0x9f, 0x8c, 0xbd, 0xb5, 0x8e, 0xf3, 0xbc, 0x91, 0xdb, 0x1e, 0x3e, 0xeb, 0x61, 0xdf, 0x3d, 0xad, 0x19, 0x2c, 0xbd, 0xa5, 0xe1, 0xd1, 0x3e, 0x38, 0xfc, 0xbf, 0xbd, 0x8b, 0x35, 0xfd, 0x3e, 0xc4, 0x01, 0x56, 0x3d, 0x09, 0x91, 0x11, 0x3d, 0xf4, 0x72, 0x43, 0xba, 0xc0, 0x7e, 0x66, 0x3b, 0xd0, 0x2f, 0x25, 0x3e, 0xc0, 0x70, 0x77, 0x3e, 0xf3, 0xd3, 0x86, 0x3d, 0x98, 0xdf, 0xe3, 0x3d, 0xee, 0x75, 0x6c, 0xbd, 0x85, 0x6b, 0x13, 0x3e, 0xc6, 0x57, 0x9e, 0x3d, 0x27, 0xa7, 0xb2, 0xbe, 0x2b, 0x08, 0x37, 0x3d, 0x2b, 0xf7, 0x72, 0x3c, 0x9c, 0x4f, 0x17, 0xbf, 0x01, 0x19, 0x21, 0xbf, 0xd4, 0x7f, 0x37, 0x3d, 0xe4, 0x54, 0x8e, 0xbd, 0x27, 0x4d, 0xf0, 0xbd, 0x06, 0x0b, 0x5d, 0x3d, 0x29, 0x53, 0xea, 0xbd, 0x7f, 0x83, 0x86, 0xbc, 0x26, 0xe4, 0x0f, 0xbe, 0xab, 0x06, 0x8a, 0xbc, 0x52, 0x2a, 0xe7, 0xbc, 0x95, 0x35, 0x85, 0x3e, 0xca, 0xda, 0x8e, 0xbd, 0xa9, 0x45, 0x67, 0x3e, 0x84, 0x2d, 0x69, 0xbe, 0x8d, 0x52, 0x54, 0xbb, 0x18, 0x7c, 0xa3, 0xbc, 0x8e, 0xd3, 0x61, 0x3d, 0x76, 0xc2, 0xde, 0xbd, 0xc3, 0x62, 0x07, 0x3e, 0x22, 0x43, 0x55, 0x3c, 0xd0, 0x5b, 0x39, 0x3d, 0xaa, 0xf8, 0x7e, 0xbe, 0x23, 0x80, 0x70, 0xbf, 0x2c, 0x51, 0x66, 0xbc, 0x85, 0x8e, 0x78, 0xba, 0xdf, 0xea, 0x70, 0xbe, 0xe3, 0x6a, 0xce, 0xbd, 0x83, 0xf0, 0x26, 0xbe, 0xf1, 0x4b, 0x19, 0x3c, 0x83, 0x16, 0x89, 0x3e, 0xc7, 0x27, 0xa3, 0x3d, 0xf9, 0x30, 0xb7, 0x3d, 0x91, 0xcc, 0x42, 0x3d, 0x23, 0xac, 0x31, 0xbe, 0x99, 0x7f, 0xca, 0x3d, 0xcf, 0x02, 0x00, 0xc0, 0x75, 0x55, 0x68, 0xbd, 0xa6, 0x5f, 0x03, 0x3f, 0x83, 0xef, 0xfd, 0x3c, 0x4e, 0xa6, 0x3c, 0xbd, 0x6c, 0x7a, 0x09, 0xbf, 0x1b, 0x28, 0x34, 0x3e, 0xa7, 0xa2, 0x75, 0x3e, 0x55, 0xac, 0xe8, 0xbd, 0x65, 0x97, 0x32, 0x3d, 0x3a, 0xb1, 0x25, 0x3e, 0x63, 0x9d, 0x04, 0x3e, 0xb4, 0xc6, 0x07, 0xbc, 0x53, 0x68, 0xf1, 0x3c, 0xfd, 0x27, 0x49, 0x3d, 0x8b, 0x7e, 0xaf, 0x3e, 0x61, 0xeb, 0x24, 0xbe, 0x95, 0xdc, 0xe2, 0xbe, 0x51, 0x21, 0x55, 0x3d, 0xc6, 0xe1, 0xdc, 0x3d, 0xc8, 0xed, 0x38, 0xbf, 0x39, 0xd6, 0x19, 0x3e, 0xdc, 0x36, 0x0f, 0x3b, 0x42, 0xb9, 0xa8, 0xbf, 0x0b, 0x30, 0x51, 0xbc, 0xbb, 0x91, 0x55, 0xbc, 0x36, 0x2f, 0x12, 0xbd, 0x27, 0x58, 0x97, 0xbe, 0xf1, 0x73, 0x9b, 0xbf, 0x6f, 0xf6, 0x95, 0xbe, 0x80, 0x7d, 0xcb, 0xbd, 0x68, 0x57, 0x83, 0x3d, 0x17, 0x27, 0x9b, 0x3c, 0xf0, 0x4b, 0x30, 0x3d, 0xeb, 0x74, 0xab, 0xbd, 0x92, 0xad, 0x5d, 0xbf, 0x07, 0xfa, 0x94, 0xbd, 0x17, 0xd1, 0x2c, 0xbe, 0xb0, 0x9b, 0x41, 0xbd, 0xc6, 0x97, 0x8a, 0x3d, 0xc3, 0x1e, 0x51, 0x3d, 0xd8, 0xb7, 0x07, 0xc0, 0x7a, 0xc7, 0xd1, 0xbc, 0x48, 0x59, 0x7c, 0x3e, 0x84, 0x12, 0xc9, 0x3d, 0xd3, 0xe1, 0xf5, 0xbc, 0x1a, 0x65, 0x8c, 0xbf, 0x1f, 0xac, 0x2e, 0x3d, 0x78, 0xb9, 0xe7, 0x3d, 0x68, 0xb3, 0x6b, 0xbf, 0xae, 0xae, 0x57, 0x3d, 0x5d, 0x48, 0x83, 0xbd, 0x58, 0x47, 0x17, 0x3e, 0x7f, 0xc7, 0x33, 0x3e, 0x68, 0xb1, 0x84, 0xbf, 0x98, 0x2e, 0x74, 0xbf, 0x8e, 0x38, 0xf9, 0x3c, 0x15, 0xd4, 0x23, 0xbd, 0xda, 0xb0, 0x04, 0x3e, 0xa7, 0xdf, 0x39, 0x3e, 0xc8, 0xde, 0x2e, 0x3e, 0x4a, 0xbc, 0x28, 0xbe, 0xb0, 0xa2, 0xd1, 0x3d, 0xa8, 0x53, 0x13, 0x3b, 0x2e, 0x67, 0x82, 0x3d, 0x63, 0xc9, 0xde, 0x3d, 0xf5, 0x94, 0x13, 0x3c, 0x24, 0xe7, 0xba, 0xbd, 0x83, 0xf0, 0x00, 0xbf, 0xec, 0x28, 0xbb, 0xbd, 0x88, 0xe4, 0x00, 0xc0, 0xee, 0x3b, 0xa4, 0x3d, 0xe1, 0x5f, 0x3b, 0xbe, 0x27, 0x99, 0xf0, 0xbc, 0x43, 0x2b, 0x42, 0x3e, 0x44, 0xda, 0x9e, 0xbf, 0xd5, 0x29, 0x98, 0x3d, 0x80, 0xb4, 0x7e, 0x3e, 0x01, 0xd6, 0xf8, 0x3d, 0x28, 0xa0, 0x5e, 0xbe, 0xfb, 0x4b, 0xc4, 0xbf, 0xa2, 0x52, 0x8d, 0xbe, 0xe5, 0xd0, 0x96, 0xbd, 0x1f, 0xf6, 0x81, 0xbe, 0xa8, 0xcd, 0x07, 0xbe, 0x06, 0x83, 0x37, 0xbe, 0x0a, 0xdb, 0x04, 0x3e, 0xbe, 0x38, 0x88, 0x3b, 0x0c, 0xde, 0x24, 0x3d, 0xc2, 0x2e, 0xd0, 0xbf, 0xf9, 0x58, 0x0e, 0x3e, 0x44, 0x4f, 0x9e, 0xbd, 0x52, 0x8c, 0xc3, 0xbe, 0xba, 0xe0, 0x49, 0xbe, 0xfd, 0x1a, 0xe5, 0xbd, 0xab, 0xaa, 0x93, 0x3e, 0x8f, 0x61, 0xdc, 0xbd, 0x55, 0x19, 0x2a, 0x3e, 0x4d, 0x01, 0x92, 0xbd, 0x85, 0x22, 0x7d, 0x3d, 0xbc, 0xb8, 0x8e, 0xbd, 0x73, 0x55, 0xf4, 0x3c, 0x9f, 0xee, 0xa4, 0xbe, 0xc1, 0xc3, 0x23, 0x3d, 0x69, 0x9d, 0x4e, 0xbe, 0x38, 0xca, 0x1c, 0xbe, 0x5c, 0x78, 0xc6, 0xbc, 0x8e, 0xe5, 0xa0, 0xbe, 0x21, 0xd2, 0xb1, 0xbd, 0x6b, 0x5d, 0x8e, 0x3d, 0x16, 0x06, 0x26, 0xbe, 0x17, 0xea, 0xec, 0x3d, 0x53, 0x48, 0xd8, 0x3c, 0x53, 0xc5, 0x40, 0x3d, 0xca, 0x4b, 0x8d, 0x3c, 0xce, 0x05, 0xdd, 0x3c, 0xa0, 0x91, 0x8e, 0xbd, 0xcb, 0x6d, 0x03, 0x3e, 0xac, 0xd5, 0xe7, 0xbe, 0xc7, 0x2e, 0xb9, 0xbe, 0x69, 0x07, 0x61, 0x3d, 0x40, 0xd9, 0x35, 0xbd, 0xee, 0x9c, 0x53, 0x3d, 0x93, 0x53, 0x99, 0xbd, 0x32, 0xa3, 0x70, 0xbc, 0xfb, 0x09, 0x4c, 0xc0, 0x60, 0x8d, 0x11, 0xbe, 0xbe, 0x83, 0x6b, 0x3c, 0xd0, 0xae, 0x18, 0xbe, 0xb1, 0xa1, 0xd9, 0xbd, 0x03, 0x95, 0x65, 0xbb, 0xe9, 0x84, 0xaf, 0x3c, 0xd8, 0xf3, 0x5e, 0x3d, 0x35, 0xc5, 0xad, 0xbd, 0x81, 0xe5, 0x80, 0xbd, 0x08, 0xba, 0xa5, 0xbf, 0xf0, 0x47, 0x53, 0x3c, 0xd5, 0x33, 0x24, 0x3d, 0x5b, 0x63, 0x68, 0xbe, 0x1b, 0xa1, 0x1b, 0xbd, 0xdc, 0x4e, 0xd3, 0x3d, 0x75, 0x65, 0x33, 0x3d, 0x90, 0x8f, 0xca, 0xbd, 0xdd, 0x67, 0x0c, 0x3d, 0x91, 0xc9, 0x2c, 0x3d, 0x81, 0xb3, 0xd7, 0xbd, 0xcf, 0x9d, 0xbc, 0xbd, 0x24, 0x32, 0xb6, 0xbd, 0xf6, 0x4d, 0x87, 0xbb, 0x25, 0x59, 0x87, 0xbd, 0x9e, 0x8a, 0xd2, 0x3c, 0xc3, 0x2c, 0x5f, 0x3d, 0xd7, 0x09, 0x7d, 0x3d, 0x7c, 0xcc, 0xaf, 0x3d, 0x85, 0x07, 0xe7, 0x3c, 0x8b, 0xe2, 0x99, 0x3c, 0x44, 0x16, 0x88, 0x3d, 0x42, 0x40, 0x29, 0x3e, 0x44, 0x70, 0x4e, 0xbe, 0x6d, 0xce, 0x93, 0x3e, 0xc0, 0x3b, 0x1c, 0xbe, 0x5c, 0x2e, 0xd9, 0x3d, 0xef, 0x47, 0x3e, 0x3c, 0x75, 0xd8, 0x7c, 0x3e, 0x41, 0x83, 0x23, 0xbe, 0x78, 0x95, 0xb7, 0xbd, 0x29, 0x23, 0x43, 0xbe, 0xba, 0xa6, 0x5e, 0x3c, 0xed, 0x0d, 0x89, 0xbe, 0xb2, 0x9a, 0x43, 0x3e, 0x94, 0x32, 0x27, 0x3e, 0x60, 0xab, 0xfb, 0xbd, 0x69, 0xc5, 0x1b, 0xbe, 0xf2, 0xba, 0x2e, 0xbe, 0x53, 0xae, 0x21, 0x3e, 0x8b, 0xe6, 0x84, 0xbd, 0x62, 0xea, 0x38, 0xbd, 0x2c, 0x3f, 0xce, 0xc0, 0x66, 0x85, 0xeb, 0xbd, 0x2f, 0x9c, 0xb3, 0xbd, 0x73, 0xd7, 0x25, 0xbc, 0x7c, 0xcd, 0x8c, 0xc0, 0x0a, 0xa4, 0x86, 0xbe, 0xf4, 0x83, 0xa5, 0x3d, 0xce, 0x10, 0xde, 0x3c, 0x61, 0x77, 0xda, 0x3d, 0x33, 0x45, 0xaa, 0x3d, 0x92, 0x6e, 0x47, 0xbf, 0xf8, 0xef, 0x99, 0xbe, 0xf7, 0xe6, 0x73, 0xbf, 0x21, 0xd6, 0xf4, 0xbd, 0x48, 0x44, 0x01, 0xbe, 0x2c, 0x6b, 0x34, 0x3d, 0xe7, 0x59, 0x90, 0x3d, 0x8d, 0x09, 0xe8, 0xbe, 0xb1, 0x07, 0x63, 0xbd, 0xff, 0x43, 0x47, 0x3d, 0x69, 0x72, 0x01, 0xbc, 0xf8, 0xbc, 0xd9, 0xbd, 0x74, 0x73, 0x64, 0xbd, 0x7d, 0xb4, 0x12, 0x3e, 0x9b, 0xd9, 0x84, 0x3e, 0x16, 0x36, 0x92, 0x3d, 0xe6, 0xfa, 0x37, 0xbd, 0xe7, 0xfc, 0x89, 0x3d, 0x34, 0xec, 0x89, 0xbf, 0x79, 0x23, 0x3b, 0x3e, 0x0e, 0x26, 0xe7, 0xbd, 0x9b, 0x0e, 0x76, 0xbf, 0x53, 0xe3, 0xe9, 0x3d, 0x06, 0x8a, 0xcb, 0xbd, 0xae, 0xa3, 0x29, 0x3d, 0xfb, 0x52, 0x05, 0xbe, 0xb7, 0x4f, 0xf1, 0xbe, 0xd1, 0xaa, 0xca, 0xbd, 0x03, 0x96, 0xf6, 0xbb, 0xe3, 0xf8, 0xcb, 0xbe, 0x8d, 0x52, 0xdc, 0x3d, 0x34, 0x7d, 0x65, 0x3b, 0xb8, 0x59, 0x6b, 0xbd, 0x55, 0xb7, 0xbd, 0xbd, 0x2d, 0x54, 0x57, 0x3d, 0xe2, 0x1b, 0x79, 0xbd, 0xcf, 0x85, 0xef, 0x3d, 0x46, 0x28, 0xf7, 0x3d, 0xb5, 0xd9, 0x31, 0x3d, 0xce, 0x10, 0xac, 0x3d, 0x2b, 0x4f, 0xa3, 0x3e, 0xe1, 0x24, 0x28, 0xbe, 0xfd, 0xbb, 0x7a, 0x3d, 0xc8, 0x7e, 0xd0, 0x3c, 0x29, 0x4d, 0x75, 0x3e, 0x44, 0x88, 0x05, 0x3d, 0xe1, 0xef, 0x28, 0xbe, 0x87, 0xc1, 0x65, 0x3d, 0x04, 0x19, 0x3c, 0xbe, 0x29, 0xfb, 0x21, 0x3e, 0x6f, 0xcf, 0x52, 0xbb, 0x13, 0x47, 0x95, 0xbf, 0x11, 0x3e, 0x85, 0xbd, 0xa4, 0x7c, 0xd6, 0x3e, 0xcc, 0x5f, 0x45, 0x3d, 0x72, 0x71, 0xa3, 0x3d, 0x08, 0x46, 0x9c, 0xc0, 0x33, 0x06, 0x17, 0xbe, 0xbf, 0x05, 0x46, 0xbe, 0x69, 0x3c, 0xb8, 0x3d, 0x5d, 0xb7, 0x9b, 0xbe, 0x7c, 0x48, 0x08, 0xbf, 0xfd, 0x1f, 0x4e, 0xbd, 0xe0, 0x33, 0x55, 0x3d, 0xae, 0xb9, 0x65, 0xbf, 0x29, 0x1e, 0x47, 0xbf, 0x8c, 0xc1, 0x44, 0xbe, 0x40, 0x84, 0x06, 0xbc, 0x2d, 0x7a, 0xea, 0xbc, 0x2a, 0xec, 0x3f, 0xbe, 0xfa, 0x4f, 0xda, 0x3d, 0x5f, 0x4d, 0xca, 0xbd, 0xe5, 0x73, 0x01, 0xbf, 0xdc, 0xe9, 0x4c, 0xbe, 0x9c, 0xdb, 0xce, 0x3d, 0x5c, 0xc6, 0xd0, 0xbd, 0x61, 0x45, 0x6e, 0xbe, 0x58, 0xee, 0x10, 0x3e, 0xd3, 0xde, 0xc7, 0xbe, 0x4d, 0x7a, 0xe6, 0xbc, 0xf8, 0x28, 0x9c, 0xbd, 0x1f, 0x48, 0x91, 0x3e, 0x3e, 0x76, 0xd8, 0xbd, 0x92, 0xa5, 0x9b, 0x3d, 0xcb, 0xf2, 0x7a, 0xbc, 0x54, 0xa1, 0xe4, 0xbd, 0xfb, 0x2a, 0x1a, 0xbf, 0x6a, 0x23, 0x76, 0xbe, 0xb1, 0x4c, 0x52, 0xbe, 0x81, 0x62, 0x94, 0xbb, 0x96, 0xf3, 0xbe, 0x3c, 0x1f, 0x68, 0x11, 0xbf, 0x3d, 0x5b, 0x8d, 0x3e, 0x6b, 0x74, 0xaf, 0x3c, 0x40, 0xea, 0x39, 0xbe, 0xfc, 0x35, 0x8c, 0x3d, 0x13, 0x73, 0xd5, 0xbd, 0x92, 0x1b, 0x14, 0xbe, 0x3c, 0x3d, 0x48, 0x3d, 0x21, 0xca, 0xd6, 0xbe, 0xf8, 0x42, 0xcc, 0xbb, 0x73, 0xd0, 0x4b, 0xbf, 0x88, 0xc8, 0xb8, 0xbd, 0x9d, 0x0f, 0xfe, 0xbe, 0x48, 0x73, 0x80, 0x3c, 0xa7, 0x59, 0x80, 0x3d, 0x01, 0x12, 0x10, 0x3e, 0xfc, 0x13, 0xf1, 0x3c, 0x34, 0x37, 0x11, 0x3e, 0x92, 0x40, 0x6b, 0x3d, 0xc1, 0x31, 0x25, 0xbe, 0xd7, 0xfc, 0x23, 0x3f, 0x09, 0xc1, 0x1b, 0xbe, 0xc3, 0xd7, 0x08, 0xbc, 0x87, 0x65, 0x14, 0xbd, 0x3b, 0xb2, 0xdb, 0xbe, 0xa3, 0x23, 0xa3, 0xbf, 0x7d, 0xc0, 0xd1, 0x3b, 0x84, 0x26, 0xea, 0xbd, 0xef, 0xf1, 0x88, 0xbd, 0x9e, 0xe7, 0x98, 0xbf, 0xf4, 0x80, 0x7a, 0xbd, 0x26, 0xac, 0x44, 0x3d, 0x69, 0x57, 0xd7, 0xbf, 0xaa, 0xea, 0x2b, 0xbe, 0x02, 0xaf, 0xbe, 0xbb, 0xf3, 0x97, 0x47, 0x3d, 0x67, 0xae, 0x3e, 0x3d, 0xbb, 0x04, 0xa0, 0x3c, 0x74, 0x5f, 0xc4, 0x3c, 0xc6, 0xb5, 0xdb, 0x3d, 0x3d, 0x8b, 0xa2, 0xbe, 0xdf, 0x23, 0x40, 0x3c, 0x6c, 0xe8, 0x19, 0x3e, 0xe3, 0x8c, 0x4e, 0xbd, 0x40, 0x36, 0x79, 0xbd, 0xfd, 0x3d, 0x0c, 0x3f, 0x25, 0x7d, 0xe8, 0x3c, 0xb1, 0x44, 0x1b, 0x3d, 0x8f, 0x7d, 0xa3, 0x3d, 0xcd, 0x5f, 0xc7, 0x3c, 0xf1, 0x3b, 0xad, 0xbf, 0xc1, 0x8a, 0xdd, 0xbf, 0xf0, 0xda, 0xb5, 0xbd, 0xfa, 0x19, 0x81, 0xbf, 0x22, 0xd8, 0xff, 0xff, 0x10, 0x00, 0x00, 0x00, 0x07, 0x00, 0x00, 0x00, 0x14, 0x00, 0x00, 0x00, 0x34, 0x00, 0x00, 0x00, 0x02, 0x00, 0x00, 0x00, 0x04, 0x00, 0x00, 0x00, 0x90, 0x01, 0x00, 0x00, 0x1c, 0x00, 0x00, 0x00, 0x53, 0x65, 0x71, 0x75, 0x65, 0x6e, 0x74, 0x69, 0x61, 0x6c, 0x2d, 0x4e, 0x4e, 0x2f, 0x64, 0x65, 0x6e, 0x73, 0x65, 0x5f, 0x32, 0x2f, 0x4d, 0x61, 0x74, 0x4d, 0x75, 0x6c, 0x00, 0x00, 0x00, 0x00, 0xa8, 0xd7, 0xff, 0xff, 0x92, 0xd8, 0xff, 0xff, 0x04, 0x00, 0x00, 0x00, 0x40, 0x1f, 0x00, 0x00, 0x68, 0x02, 0x18, 0x3e, 0x33, 0x93, 0xf1, 0x3d, 0x61, 0xca, 0x31, 0xbf, 0xd9, 0xf8, 0xdb, 0x3d, 0x44, 0xc9, 0x2a, 0x3e, 0xb6, 0x0c, 0xc8, 0x3b, 0xac, 0xbf, 0xc4, 0x3d, 0x79, 0xd8, 0x37, 0xbf, 0x1b, 0x5b, 0xa6, 0x3e, 0xfd, 0x1e, 0x57, 0x3d, 0x12, 0x3e, 0x93, 0xbc, 0xdd, 0xf7, 0xa5, 0xbe, 0xa5, 0x1c, 0x00, 0xbb, 0x6d, 0x90, 0xeb, 0x3d, 0x49, 0x2e, 0x0a, 0xbd, 0xad, 0x5f, 0x88, 0x3d, 0x3e, 0x71, 0x81, 0x3e, 0x87, 0x46, 0x6b, 0xbd, 0x20, 0xd3, 0xae, 0xbd, 0xee, 0x04, 0xf7, 0xbe, 0x4d, 0xd9, 0xaa, 0x3d, 0x19, 0x70, 0x15, 0xbb, 0xeb, 0x46, 0x15, 0xbd, 0x12, 0x79, 0x84, 0x3d, 0x17, 0x18, 0x01, 0xbc, 0x37, 0xd7, 0x9e, 0xbc, 0x0d, 0xf7, 0xc1, 0x3c, 0x7e, 0x3c, 0x2e, 0xbb, 0xb5, 0xb2, 0x4a, 0xbc, 0x98, 0xc0, 0x16, 0xbe, 0xbc, 0x9f, 0x23, 0x3d, 0x11, 0x40, 0x4f, 0xbc, 0x7f, 0x20, 0xab, 0xbc, 0xaf, 0x0d, 0x90, 0x3e, 0x93, 0x36, 0xe3, 0xbe, 0x5f, 0xda, 0xfe, 0xbc, 0x62, 0x3d, 0xa6, 0xbc, 0x6f, 0x41, 0x5e, 0xbc, 0x8f, 0x56, 0xea, 0x3d, 0xdb, 0x0e, 0x01, 0xbe, 0xd2, 0x7e, 0xe6, 0xbd, 0x0b, 0x59, 0xea, 0xbd, 0x37, 0x39, 0xff, 0x3c, 0xc5, 0xb4, 0xc7, 0xbc, 0xe4, 0x57, 0x02, 0x3d, 0xf7, 0x81, 0xa0, 0xbd, 0xca, 0x65, 0x47, 0xbc, 0x1f, 0xe1, 0x28, 0x3d, 0xca, 0xe2, 0x7a, 0xbe, 0x65, 0x2d, 0xfb, 0xbd, 0xd5, 0x47, 0x53, 0xbe, 0x4f, 0xd1, 0x64, 0x3c, 0xff, 0xff, 0x21, 0x3d, 0x6a, 0xa1, 0x30, 0x3d, 0xe1, 0x00, 0x8f, 0x3c, 0xa4, 0x53, 0xd7, 0xbc, 0xb1, 0xa4, 0x8d, 0xbc, 0xf5, 0xe8, 0x26, 0xbc, 0x1f, 0xd0, 0x80, 0x3e, 0xa7, 0x58, 0x65, 0xbd, 0xba, 0x64, 0x74, 0x3e, 0x59, 0xb1, 0xd2, 0xbe, 0x65, 0xd1, 0xa7, 0xbd, 0x1e, 0x26, 0xbd, 0xbd, 0xa9, 0xc2, 0x97, 0xbd, 0x23, 0xed, 0xeb, 0xbd, 0x36, 0x07, 0x34, 0x3d, 0xea, 0x76, 0x0d, 0x3d, 0x7f, 0xf2, 0xbb, 0xbe, 0x03, 0x1d, 0x90, 0xbd, 0x07, 0x71, 0x50, 0xbc, 0x7b, 0x7d, 0x30, 0x3e, 0xf0, 0xf9, 0x82, 0xbc, 0x5d, 0x96, 0x67, 0xbe, 0x70, 0xdd, 0xe7, 0xbd, 0x75, 0x62, 0x50, 0x3e, 0xf9, 0x5d, 0x7a, 0x3e, 0x19, 0x68, 0xbb, 0xbd, 0x45, 0x1a, 0x4f, 0xbf, 0x37, 0x58, 0x9b, 0xbe, 0x53, 0xbf, 0x00, 0xbe, 0x88, 0x4b, 0xcc, 0x3c, 0x83, 0xd6, 0x06, 0x3d, 0xd8, 0xc3, 0xe4, 0x3d, 0xa3, 0x15, 0x60, 0xbe, 0x17, 0xdc, 0x10, 0xbe, 0x09, 0xa7, 0x40, 0x3e, 0xe2, 0x78, 0xbf, 0x3c, 0x12, 0x2f, 0x2f, 0xbf, 0x4f, 0x41, 0xaf, 0xbd, 0xb0, 0xea, 0x67, 0xbc, 0x94, 0x4f, 0x49, 0xbd, 0x69, 0x40, 0xcf, 0xbd, 0x9f, 0x72, 0xe4, 0xbd, 0xd7, 0x60, 0xc0, 0xbd, 0x5a, 0x26, 0xcd, 0x3d, 0x84, 0x63, 0x2e, 0x3b, 0x1c, 0x74, 0x73, 0xbd, 0x7d, 0xd4, 0x09, 0x3e, 0x93, 0x2e, 0x21, 0xbc, 0x67, 0x56, 0x16, 0xbc, 0xed, 0x25, 0x37, 0x3e, 0xca, 0xd3, 0x0f, 0x3d, 0x88, 0x77, 0x0c, 0xbe, 0xd4, 0xfc, 0xfd, 0xbe, 0xac, 0x5c, 0xbc, 0xbd, 0x17, 0x7e, 0xe7, 0xbd, 0xbd, 0x29, 0xf0, 0xbd, 0x30, 0xe7, 0xfc, 0xbc, 0x1c, 0xf0, 0x61, 0xbd, 0xc9, 0x26, 0x2b, 0x3e, 0x7a, 0xe9, 0x6a, 0x3e, 0xa4, 0x84, 0x32, 0xbd, 0xf7, 0x8e, 0xae, 0xbe, 0x9f, 0x62, 0x0d, 0xbe, 0x24, 0x7d, 0x70, 0x3d, 0xb9, 0x64, 0x0a, 0x3e, 0x0e, 0x16, 0xa0, 0xbc, 0x79, 0x15, 0x33, 0xbf, 0xa9, 0x8d, 0x75, 0xbe, 0x79, 0x22, 0xc9, 0xbc, 0x76, 0x5d, 0x54, 0x3c, 0x73, 0xf3, 0xb1, 0xbb, 0xd9, 0xf2, 0x28, 0xbe, 0x0c, 0x28, 0xea, 0xbc, 0xb2, 0x6d, 0xdf, 0xbd, 0x44, 0xfc, 0x53, 0xbe, 0x61, 0x04, 0x6e, 0xbc, 0xe2, 0xff, 0xc3, 0x3d, 0x3f, 0xb1, 0x9d, 0x3d, 0xb2, 0xd5, 0x5c, 0x3c, 0x0d, 0xb4, 0x20, 0xbd, 0x8c, 0x40, 0x98, 0xbc, 0xe2, 0x2c, 0x8c, 0x3d, 0xd8, 0xbe, 0xe8, 0xbd, 0x51, 0x64, 0x79, 0xbd, 0xeb, 0x8d, 0x21, 0xbe, 0xcd, 0xa1, 0x83, 0x3c, 0xf2, 0x3a, 0x09, 0xbe, 0xda, 0x2a, 0x9f, 0x3c, 0x1b, 0x40, 0xbb, 0x3c, 0xb7, 0x48, 0x64, 0x3b, 0x8a, 0xfd, 0xd6, 0xbd, 0xda, 0xa0, 0x64, 0x3e, 0x3c, 0xa2, 0xa1, 0x3c, 0x4e, 0x70, 0x04, 0x3e, 0xd3, 0x39, 0xd1, 0xbd, 0xd3, 0x29, 0xbc, 0xbd, 0x6c, 0x20, 0x4c, 0x3e, 0xcb, 0x01, 0xf9, 0x3d, 0x15, 0xe6, 0x1a, 0xbe, 0x4a, 0x46, 0x4c, 0xbe, 0xd0, 0x96, 0x98, 0x3d, 0xac, 0x66, 0xa3, 0x3e, 0x3d, 0xa8, 0x44, 0x3e, 0xcf, 0x68, 0xf8, 0xbc, 0x68, 0x0b, 0xd0, 0xbb, 0xd8, 0x55, 0x3c, 0xbb, 0x1d, 0x3b, 0x19, 0x3e, 0x9a, 0x5d, 0x0a, 0xbc, 0x4e, 0x52, 0xc6, 0xbd, 0x83, 0x19, 0xf3, 0xbd, 0xc5, 0x56, 0x49, 0xbd, 0x1a, 0xae, 0x8a, 0x3d, 0x0e, 0x41, 0x4e, 0x3e, 0x28, 0x50, 0x06, 0xbd, 0x69, 0x92, 0x97, 0x3d, 0x0d, 0xd6, 0x59, 0xb9, 0xa0, 0x47, 0xb5, 0x3e, 0x8e, 0xcd, 0xdd, 0xbe, 0x26, 0x47, 0xa1, 0xbd, 0x39, 0x8a, 0x3d, 0xbe, 0x9a, 0xaf, 0xab, 0x3c, 0x5e, 0xe5, 0x32, 0xbe, 0xc9, 0x1f, 0x28, 0x3d, 0x7a, 0x81, 0x32, 0x3d, 0x88, 0xf7, 0xc2, 0xbd, 0x4b, 0x93, 0x87, 0xbd, 0x96, 0x39, 0x81, 0xbd, 0xa0, 0x21, 0xf1, 0xbd, 0xb4, 0x77, 0xb5, 0xbc, 0x2e, 0x88, 0x13, 0xbd, 0x08, 0xde, 0x3c, 0xbd, 0xa0, 0x8f, 0x8a, 0xbd, 0x04, 0xc4, 0x99, 0xbd, 0x36, 0x2f, 0x07, 0x3c, 0x76, 0x63, 0x7f, 0x3d, 0x1c, 0xf3, 0x07, 0xbc, 0x54, 0x79, 0x93, 0xbe, 0x73, 0x9c, 0x05, 0xbe, 0x22, 0x36, 0x3a, 0xbd, 0x57, 0x5f, 0x90, 0xbd, 0x92, 0x9b, 0x88, 0xbe, 0x3f, 0xc8, 0xde, 0x3d, 0x90, 0x0c, 0xa5, 0xbd, 0xe4, 0x7f, 0xd2, 0xbd, 0x69, 0x70, 0x3e, 0x3c, 0xbe, 0x39, 0xeb, 0x3c, 0x9f, 0x63, 0xf9, 0xbd, 0xaa, 0xc0, 0x11, 0xbc, 0x8d, 0xcf, 0x1e, 0xbf, 0xfa, 0x46, 0x29, 0xbe, 0xfd, 0x5d, 0x3f, 0xbf, 0x99, 0xfd, 0xa0, 0x3e, 0xb7, 0x9d, 0x82, 0x3e, 0x36, 0x5f, 0x77, 0xbd, 0x8c, 0xc5, 0x6d, 0x3d, 0xfb, 0x0c, 0x64, 0x3c, 0x8a, 0x61, 0x20, 0xbe, 0x1e, 0x7b, 0x07, 0xbe, 0x3a, 0x9b, 0x59, 0xbe, 0xc3, 0xbe, 0xa1, 0x3d, 0x7d, 0x87, 0x8f, 0x3d, 0x77, 0x20, 0x8c, 0xbd, 0xb9, 0x01, 0x42, 0x3e, 0xdc, 0x4e, 0x12, 0xbf, 0x51, 0x8f, 0x1b, 0x3e, 0x8a, 0xad, 0x39, 0x3e, 0x16, 0x7b, 0x10, 0xbf, 0xb0, 0x91, 0x1a, 0x3d, 0x95, 0x2c, 0xe7, 0x3d, 0xad, 0x48, 0xac, 0x3d, 0x2d, 0x9b, 0x37, 0xbe, 0xf5, 0xd3, 0xc0, 0x3d, 0x10, 0x4e, 0x10, 0xbe, 0xd8, 0xac, 0xc8, 0xbe, 0xba, 0x09, 0x66, 0x3e, 0x4f, 0x95, 0xeb, 0x3d, 0x18, 0xda, 0x49, 0xbf, 0x6e, 0x2a, 0x58, 0xbe, 0xd6, 0x28, 0x3f, 0xbd, 0x82, 0x8d, 0x09, 0x3e, 0x98, 0x17, 0x9d, 0x3c, 0xaa, 0x30, 0x0e, 0xbe, 0x04, 0xfb, 0x6e, 0x3e, 0x51, 0xd0, 0x7b, 0xbb, 0x4e, 0xb9, 0x23, 0xbe, 0xc4, 0xbc, 0x30, 0xbb, 0xd3, 0xbb, 0x20, 0xbe, 0xa7, 0xbe, 0x21, 0x3d, 0x75, 0x41, 0x2d, 0xbd, 0x0e, 0xe1, 0xbe, 0xbd, 0xbf, 0xd1, 0x9e, 0xbb, 0xfa, 0x37, 0xb1, 0x3d, 0x08, 0x49, 0x2c, 0xbe, 0xea, 0xda, 0x5c, 0x3c, 0xf0, 0x37, 0xa3, 0xbe, 0x2d, 0x5b, 0x11, 0x3c, 0x4b, 0x27, 0x3d, 0x3e, 0xba, 0x2c, 0x63, 0xbd, 0x51, 0x5b, 0x50, 0x3d, 0xc7, 0x87, 0x06, 0x3e, 0x4d, 0x58, 0x34, 0xbf, 0x86, 0x16, 0x22, 0x3e, 0x7d, 0x4f, 0xe5, 0x3d, 0x0f, 0xb3, 0xd1, 0xbd, 0x2e, 0x0c, 0x97, 0xbe, 0xe0, 0xfb, 0x02, 0x3d, 0x54, 0x3f, 0x2f, 0x3e, 0x5d, 0x01, 0x96, 0x3d, 0x68, 0xb9, 0x56, 0xbe, 0x51, 0x29, 0x98, 0xbd, 0xf8, 0x1a, 0x3d, 0xbe, 0x19, 0x63, 0xca, 0x3e, 0x94, 0x13, 0x18, 0x3d, 0x74, 0x51, 0xb6, 0xbc, 0x00, 0xce, 0x83, 0x3d, 0x96, 0x81, 0x03, 0x3b, 0x8e, 0xbb, 0xd5, 0xbe, 0x9e, 0x3f, 0x39, 0x3c, 0x6b, 0xd9, 0x21, 0xbf, 0x10, 0x60, 0xfe, 0x3d, 0x47, 0xd5, 0x3a, 0xbf, 0xd4, 0x3f, 0xbe, 0x3e, 0x4b, 0x8a, 0x12, 0xbc, 0x9c, 0xd2, 0x02, 0x3e, 0xd2, 0x51, 0x1e, 0x3c, 0xaf, 0xdb, 0x31, 0xbd, 0xe4, 0x72, 0x04, 0x3e, 0x7c, 0x2e, 0x5f, 0x3e, 0x79, 0x04, 0x97, 0xbc, 0xb2, 0x7b, 0x53, 0xbe, 0x17, 0xf2, 0x95, 0x3b, 0x57, 0x41, 0x50, 0xbe, 0x33, 0x05, 0x41, 0x3d, 0x1e, 0x6e, 0x27, 0x3d, 0x6d, 0xae, 0x80, 0xbe, 0x7f, 0x7f, 0x5f, 0xbc, 0x80, 0x74, 0x5e, 0x3e, 0x84, 0xfc, 0x25, 0x3d, 0xcf, 0x54, 0x23, 0xbd, 0x7d, 0x22, 0xa5, 0x3d, 0x80, 0x28, 0x95, 0xbe, 0x21, 0x9b, 0x9d, 0x3e, 0xc6, 0xb5, 0x87, 0x3d, 0xee, 0xcd, 0xa4, 0x3c, 0xdc, 0xb8, 0xb4, 0x3d, 0xeb, 0xde, 0xef, 0xbc, 0x67, 0x36, 0x8b, 0x3e, 0x27, 0xf7, 0x70, 0x3c, 0xef, 0x7c, 0xdf, 0xbe, 0x6f, 0xa5, 0xe2, 0x3d, 0xd0, 0x40, 0x3e, 0xbf, 0x68, 0xec, 0x1b, 0x3e, 0x82, 0xda, 0xda, 0x3d, 0xbc, 0xeb, 0x05, 0x3d, 0x38, 0x30, 0x4e, 0xbd, 0x84, 0x18, 0x67, 0xbd, 0x5e, 0x50, 0xf0, 0xbd, 0x93, 0x27, 0xbc, 0xbd, 0x28, 0x07, 0x0f, 0x3d, 0x79, 0xc6, 0x2a, 0x3e, 0x12, 0x67, 0xe5, 0xbb, 0x8e, 0xfe, 0x5a, 0xbe, 0xcb, 0x19, 0x41, 0x3d, 0x34, 0xd7, 0xb1, 0xbd, 0x78, 0x03, 0xf3, 0xbd, 0xc0, 0x2b, 0x95, 0xbd, 0xc0, 0x18, 0xd4, 0x3c, 0x26, 0xe6, 0x3e, 0xbd, 0x69, 0x55, 0xce, 0x3d, 0x7d, 0xfc, 0xd7, 0x3c, 0x97, 0xca, 0x19, 0xbd, 0xbf, 0xcd, 0xc8, 0xbe, 0xda, 0x11, 0x0d, 0xbe, 0x87, 0xe8, 0x16, 0x3e, 0xdd, 0x0f, 0x3e, 0xbd, 0x87, 0x86, 0xdc, 0xbd, 0x4f, 0x68, 0xd5, 0xbb, 0x81, 0xa4, 0xa7, 0x3d, 0xb4, 0x00, 0x44, 0xbd, 0x5e, 0xae, 0xdb, 0xbc, 0x65, 0x3c, 0x25, 0x3c, 0xad, 0xd6, 0x5f, 0x3e, 0x84, 0x6b, 0x25, 0xbe, 0x9d, 0x3e, 0x86, 0x3b, 0x2e, 0x19, 0x86, 0xbd, 0x0f, 0x84, 0x71, 0xbb, 0xf3, 0x24, 0x95, 0x3a, 0x7b, 0x99, 0x2f, 0x3c, 0x5e, 0x43, 0x46, 0xbe, 0x8c, 0xe8, 0xa1, 0x3c, 0x1a, 0xe5, 0x19, 0xbe, 0x95, 0x43, 0x39, 0x3f, 0x28, 0x50, 0x5b, 0xbc, 0x42, 0x55, 0x9d, 0xbc, 0xfd, 0xb7, 0xb9, 0xbc, 0x14, 0xad, 0x0c, 0xb9, 0xda, 0x5c, 0x35, 0x3d, 0xd9, 0x5f, 0xb0, 0xbd, 0x60, 0x5f, 0xdf, 0xbd, 0xeb, 0xe5, 0x5c, 0x3e, 0xe0, 0xd8, 0xb9, 0x3c, 0xcb, 0x42, 0x80, 0xbf, 0x61, 0xb4, 0x48, 0xbe, 0xd6, 0x50, 0xe0, 0xbd, 0xca, 0xe3, 0xa5, 0xbe, 0x04, 0x19, 0x74, 0x3d, 0x0d, 0x13, 0x16, 0x3a, 0xe8, 0xfe, 0x9d, 0x3e, 0x06, 0xb1, 0x4c, 0xbd, 0x8c, 0x24, 0xb7, 0x3d, 0x34, 0x1b, 0x50, 0x3c, 0xed, 0x94, 0x89, 0xbd, 0x19, 0x1e, 0xd9, 0xbd, 0x33, 0x81, 0x0f, 0x3d, 0xea, 0xc0, 0x69, 0x3d, 0xe6, 0xc4, 0x0c, 0xbd, 0x89, 0x06, 0x9c, 0x3e, 0x3c, 0x55, 0x0f, 0xbd, 0x89, 0xce, 0x8b, 0x3d, 0x75, 0xf5, 0x25, 0x3e, 0x21, 0xff, 0x0f, 0xbd, 0xe6, 0x8d, 0xb1, 0xbd, 0x6d, 0xf1, 0x48, 0x3e, 0xce, 0x52, 0x1c, 0x3e, 0x2a, 0xc3, 0x9d, 0x3d, 0x1d, 0x4b, 0x5e, 0xbd, 0xd3, 0x92, 0x09, 0xbf, 0x67, 0x7d, 0x09, 0xbe, 0x84, 0x12, 0xd3, 0x3d, 0x11, 0xcd, 0x2e, 0xbd, 0x39, 0x94, 0x44, 0xbd, 0xc5, 0x4a, 0x45, 0xbd, 0xba, 0xf7, 0x81, 0x3d, 0xd8, 0xbb, 0xa2, 0xba, 0x47, 0x77, 0x84, 0x3e, 0xaa, 0x16, 0xdd, 0x3b, 0xb3, 0xd6, 0xa9, 0xbe, 0xb1, 0x1c, 0x0e, 0xbe, 0x46, 0x26, 0xc2, 0xbd, 0x12, 0x5b, 0x87, 0x3e, 0xc8, 0x8c, 0xf3, 0x3c, 0xc9, 0x5a, 0xca, 0xbe, 0x22, 0x79, 0x8a, 0xbe, 0xf0, 0x8b, 0x92, 0xbe, 0x7c, 0x85, 0x08, 0x3e, 0x2f, 0x7f, 0xc0, 0x3d, 0x9d, 0x61, 0xd5, 0xbe, 0xb8, 0xc6, 0x2b, 0x3a, 0xa0, 0xe4, 0xae, 0xbd, 0x5f, 0xe8, 0x7c, 0xbb, 0xe8, 0xe0, 0x70, 0xbc, 0x5f, 0xa4, 0x22, 0x3d, 0xa1, 0x9c, 0xe5, 0xbd, 0x0a, 0x89, 0xbb, 0xbc, 0x5b, 0x25, 0xee, 0xbc, 0xbe, 0x96, 0xda, 0xba, 0x08, 0x58, 0x18, 0xbe, 0x94, 0x19, 0x09, 0xbe, 0x09, 0x1a, 0x28, 0x3e, 0x30, 0x13, 0x01, 0x3e, 0x49, 0x92, 0x34, 0xbf, 0x2a, 0x59, 0xb7, 0x3d, 0x2d, 0xdf, 0x05, 0x3e, 0xbf, 0xb1, 0xa6, 0xbd, 0x2a, 0xdf, 0x47, 0x3e, 0x89, 0x04, 0x3c, 0xbc, 0x3c, 0x4c, 0x1d, 0xbf, 0x1f, 0x1d, 0x87, 0xbe, 0xb3, 0x53, 0x52, 0x3c, 0x46, 0x80, 0x8c, 0xbc, 0x5e, 0xb8, 0x64, 0xbd, 0x89, 0xc3, 0xce, 0x3e, 0x67, 0x04, 0x24, 0x3d, 0x88, 0x9f, 0x09, 0xbc, 0xaf, 0xdf, 0x0a, 0xbe, 0x51, 0xe9, 0xb9, 0xbd, 0xe0, 0x2d, 0x26, 0x3d, 0xe0, 0xed, 0x23, 0x3e, 0x78, 0x2b, 0x48, 0x3c, 0x87, 0x63, 0x9f, 0x3d, 0x57, 0x70, 0x94, 0xbb, 0xaa, 0x68, 0x56, 0x3b, 0x87, 0xe2, 0xba, 0xbd, 0x1c, 0xa3, 0x14, 0xbd, 0xc5, 0x48, 0x8b, 0xbd, 0xb0, 0xb1, 0x94, 0xbc, 0x44, 0x56, 0xdf, 0xbd, 0x9c, 0x91, 0xd7, 0xbc, 0xe2, 0xf3, 0xc9, 0xbd, 0xe5, 0xa9, 0x08, 0xbe, 0x56, 0x85, 0xc3, 0xbd, 0xc1, 0xbc, 0x94, 0x3d, 0x90, 0xda, 0x58, 0x3e, 0x01, 0xd5, 0xce, 0x3d, 0xd9, 0x97, 0x32, 0x3e, 0x1a, 0x79, 0x38, 0xbe, 0x50, 0x8b, 0x16, 0xbd, 0xa3, 0xf8, 0x6c, 0x3e, 0xb1, 0xdf, 0xc4, 0xbd, 0x10, 0x9b, 0x24, 0x3e, 0x24, 0x26, 0xcd, 0x3c, 0x9a, 0xdb, 0xc0, 0xbe, 0x78, 0xdd, 0x25, 0xbe, 0x43, 0x39, 0x93, 0xbe, 0x82, 0xc9, 0xc5, 0x3c, 0x5c, 0x2d, 0xaa, 0xbd, 0xa9, 0xc5, 0x13, 0x3f, 0xc2, 0x87, 0x05, 0x3e, 0xfe, 0x93, 0x46, 0x3d, 0x2f, 0xe0, 0xc7, 0xbc, 0xbd, 0xbf, 0x01, 0xbd, 0xbd, 0x3d, 0x8e, 0x3e, 0xf6, 0x71, 0x6e, 0x3d, 0xc2, 0xca, 0x92, 0xbd, 0x2a, 0x18, 0x1d, 0xbd, 0x9c, 0x46, 0xf5, 0xbd, 0x9b, 0x8d, 0x6e, 0x3d, 0x4a, 0xb3, 0xdb, 0xbd, 0xf8, 0xe8, 0xda, 0xbc, 0x36, 0xc1, 0xbb, 0xbd, 0xd2, 0xc0, 0x71, 0xbd, 0x57, 0xc2, 0x9c, 0xbd, 0xe0, 0xd4, 0x3c, 0x3c, 0x3b, 0xe3, 0x12, 0x3d, 0x51, 0xee, 0x18, 0x3e, 0xbd, 0xa1, 0x2c, 0xbd, 0x20, 0x5e, 0x00, 0x3e, 0xda, 0x28, 0x6c, 0x3e, 0xd2, 0x86, 0x6c, 0x3d, 0xfb, 0x7e, 0xd6, 0x3d, 0x97, 0x50, 0x81, 0xbc, 0xc2, 0x6d, 0x40, 0x3e, 0xf7, 0x95, 0x87, 0x3e, 0x21, 0xbb, 0xac, 0xbd, 0x15, 0x6c, 0xa3, 0x3d, 0xfe, 0x37, 0x9e, 0xbe, 0x03, 0x19, 0xf6, 0x3e, 0xf0, 0x28, 0x28, 0x3e, 0xf8, 0xc8, 0x32, 0xbf, 0x4b, 0xa4, 0x25, 0x3e, 0x27, 0x4c, 0x28, 0xbf, 0xb1, 0x2d, 0x93, 0x3e, 0x85, 0xb8, 0x87, 0xbd, 0xc8, 0xf3, 0xc8, 0xbc, 0x5d, 0x6f, 0x73, 0x3e, 0x47, 0x23, 0x78, 0x3c, 0x1b, 0xf2, 0x9f, 0xbe, 0x96, 0xa9, 0xfc, 0xbd, 0xb1, 0x98, 0xe1, 0xbd, 0x33, 0x22, 0xf0, 0x3d, 0x1b, 0x88, 0xe8, 0x3c, 0xf4, 0xe1, 0x6d, 0xbe, 0x23, 0x00, 0xb0, 0xbe, 0x8b, 0x86, 0xfe, 0xbd, 0x3d, 0xad, 0xd6, 0xbe, 0xc9, 0x8b, 0xfc, 0x3c, 0xab, 0xd3, 0x64, 0x3e, 0xff, 0xf6, 0x32, 0x3e, 0x90, 0xe6, 0x53, 0xbc, 0x40, 0xe7, 0xf6, 0xbc, 0xcc, 0xa5, 0xbc, 0xbd, 0xb6, 0xbe, 0xab, 0xbd, 0xb0, 0xf3, 0x8d, 0xbd, 0x85, 0xf9, 0x2d, 0xbe, 0x80, 0xd6, 0x98, 0xbc, 0x8c, 0x31, 0xa4, 0xbe, 0x7e, 0xba, 0x4e, 0x3e, 0x1b, 0xe9, 0x70, 0x3e, 0x21, 0x1f, 0xd1, 0x39, 0x93, 0x25, 0x7d, 0xbc, 0x53, 0x2c, 0xae, 0xbb, 0xb1, 0x64, 0x95, 0xbd, 0x53, 0x51, 0x0e, 0xbe, 0xa7, 0x59, 0x09, 0x3d, 0x54, 0x1f, 0xcd, 0x3d, 0x68, 0xc1, 0xa6, 0xbd, 0x90, 0x88, 0xae, 0x3e, 0x7e, 0x3f, 0x66, 0x3d, 0x81, 0x99, 0xbd, 0x3d, 0xd9, 0xdf, 0x83, 0xbd, 0xf8, 0x2b, 0xd0, 0xbe, 0x5a, 0xab, 0x40, 0x3d, 0x83, 0x7a, 0x1b, 0xbe, 0xc1, 0xc4, 0xfa, 0xbd, 0x22, 0x98, 0xbf, 0x3d, 0xa4, 0xf7, 0x41, 0x3d, 0x10, 0x3b, 0xc9, 0xbd, 0xd7, 0x22, 0x00, 0x3d, 0x7a, 0xda, 0x7a, 0xbb, 0xd8, 0x90, 0x5c, 0xbe, 0xfc, 0x88, 0xfa, 0xbb, 0xbb, 0x00, 0x21, 0x3e, 0xb8, 0x43, 0x2a, 0xbc, 0x2d, 0xdb, 0x2f, 0x3c, 0xac, 0x27, 0x90, 0xbe, 0x74, 0xf7, 0x7d, 0x3b, 0x8e, 0x65, 0xfa, 0x3e, 0x09, 0x7a, 0xe3, 0x3d, 0x6a, 0x35, 0xd8, 0xbd, 0x88, 0x4d, 0x26, 0x3c, 0x38, 0xba, 0x2e, 0xbd, 0x3f, 0xd1, 0x6b, 0x3e, 0x50, 0x4f, 0xc8, 0xbc, 0xf1, 0xca, 0x86, 0x3e, 0xfa, 0xa7, 0xe1, 0xbe, 0x8b, 0x5f, 0xbb, 0xbd, 0x3c, 0x9e, 0x6e, 0x3d, 0x9a, 0x56, 0xfc, 0xbd, 0xc7, 0x3e, 0xd5, 0xbd, 0x3c, 0x38, 0xce, 0xbc, 0xf0, 0xfa, 0x41, 0x3c, 0x20, 0x9d, 0xe4, 0xbc, 0x00, 0x69, 0x34, 0x3b, 0x04, 0xb6, 0x1d, 0xbd, 0x6d, 0x60, 0xd4, 0x3d, 0x31, 0x6c, 0xe8, 0x3b, 0xe3, 0xa2, 0x40, 0xbe, 0x86, 0x9f, 0x10, 0xbe, 0x74, 0xaa, 0x8e, 0xbe, 0x37, 0xb4, 0xe6, 0x3a, 0x7e, 0x93, 0xaa, 0xbe, 0x0d, 0xbe, 0x13, 0x3f, 0x37, 0xc4, 0x06, 0x3e, 0xea, 0x53, 0x14, 0x3d, 0xe3, 0x0a, 0x9f, 0x3d, 0x84, 0xfc, 0xcb, 0xbc, 0x5b, 0xbc, 0xd9, 0xbe, 0x47, 0x7c, 0xcb, 0xbe, 0x8a, 0x34, 0xd4, 0xbd, 0x40, 0x69, 0xe0, 0xbd, 0xc8, 0x4d, 0x97, 0x3c, 0x4e, 0x04, 0xdb, 0xbd, 0x08, 0x49, 0x22, 0xbd, 0xbc, 0x9d, 0x24, 0x3c, 0x06, 0xa9, 0x8c, 0xbc, 0x67, 0xf7, 0x09, 0xbf, 0xcb, 0x66, 0xe9, 0x3e, 0xd6, 0x38, 0x05, 0x3e, 0xc0, 0x10, 0xcc, 0xbc, 0x48, 0xac, 0x75, 0xbd, 0x80, 0xc2, 0x65, 0xbc, 0xe6, 0x2e, 0x13, 0xbd, 0xcf, 0xd3, 0x03, 0x3c, 0xee, 0xb3, 0x7b, 0xbd, 0xac, 0x49, 0x05, 0xbc, 0x82, 0x95, 0x18, 0xbe, 0x3f, 0x44, 0xbb, 0x3e, 0xf1, 0x8c, 0x45, 0x3a, 0x65, 0xe6, 0x80, 0x3d, 0x3e, 0xe3, 0x05, 0xbf, 0x47, 0x60, 0xce, 0xbb, 0xc9, 0x82, 0xd8, 0x3e, 0x4f, 0xfe, 0xb5, 0xbd, 0xe0, 0x08, 0x3c, 0x3e, 0x22, 0xf2, 0x15, 0x3e, 0x2d, 0x1e, 0x9c, 0xbd, 0xe9, 0xf7, 0xb3, 0xbe, 0x8c, 0x0c, 0xfe, 0xbd, 0x92, 0x8d, 0xe9, 0xbd, 0x18, 0x9a, 0xbf, 0xbd, 0xda, 0x2b, 0xca, 0x3c, 0x0c, 0x51, 0x2c, 0x3d, 0x35, 0x90, 0xcd, 0xbb, 0x51, 0xf5, 0x54, 0xbe, 0xfd, 0xff, 0xf7, 0xbb, 0x2c, 0xfa, 0xd8, 0xbe, 0x0b, 0x99, 0x58, 0x3e, 0x62, 0x76, 0x31, 0x3e, 0x28, 0xa9, 0x6c, 0x3d, 0xb4, 0x61, 0x46, 0xbe, 0x3a, 0x2d, 0x54, 0x3c, 0x3b, 0x38, 0x23, 0x3e, 0x94, 0x2d, 0x7b, 0x3d, 0x89, 0x4f, 0x70, 0x3a, 0xd2, 0x77, 0xc9, 0x3d, 0xae, 0x67, 0xa3, 0xbc, 0x5e, 0xbd, 0x8a, 0x3d, 0xc5, 0x3a, 0xf2, 0x3d, 0x5c, 0x3d, 0x2a, 0x3c, 0x9d, 0x28, 0x24, 0xbe, 0x7b, 0x99, 0xe3, 0xbc, 0xda, 0x23, 0xab, 0x3e, 0x71, 0x0b, 0x8d, 0x3c, 0xc7, 0x14, 0xc0, 0xbf, 0x07, 0xf7, 0xad, 0x3e, 0x9e, 0x7a, 0x21, 0xbe, 0xd1, 0x6c, 0x6f, 0xbd, 0x78, 0x86, 0x5b, 0xc0, 0xfd, 0x7e, 0x7f, 0x3d, 0xcc, 0x9f, 0xe6, 0xbe, 0x36, 0xb5, 0xbe, 0xbc, 0x5f, 0x9e, 0xd8, 0x3c, 0x31, 0x30, 0xc0, 0x3d, 0x3b, 0x6c, 0x38, 0x3d, 0xcc, 0xf4, 0x97, 0xbc, 0x17, 0x02, 0xd2, 0xbc, 0x20, 0xf4, 0x80, 0x3e, 0x65, 0x5e, 0xc0, 0xbe, 0x16, 0x37, 0x03, 0x3d, 0xb0, 0x91, 0x6d, 0x3c, 0xb4, 0x8f, 0x87, 0xbc, 0xfd, 0x0c, 0x13, 0xbe, 0x81, 0xdc, 0x2e, 0xbe, 0xff, 0x2a, 0x2d, 0x3c, 0x70, 0x85, 0x81, 0xbc, 0xe6, 0x82, 0x92, 0xbd, 0x85, 0xc3, 0x5b, 0x3e, 0x07, 0x34, 0x39, 0x3c, 0xb8, 0xbb, 0x26, 0xbd, 0x1d, 0x71, 0x49, 0xbc, 0x61, 0x4a, 0xac, 0xbd, 0x6b, 0x7f, 0x77, 0x3d, 0x6b, 0x9a, 0xb6, 0xbd, 0x2c, 0x2f, 0x97, 0xbc, 0x1c, 0x7b, 0xf5, 0x3c, 0xc9, 0x2d, 0xbf, 0x3a, 0x67, 0x9f, 0xf0, 0xbe, 0xba, 0x6f, 0xf9, 0xbd, 0xce, 0x1f, 0x17, 0xbe, 0xf4, 0xf4, 0x0e, 0x3c, 0x54, 0x48, 0x2f, 0x3d, 0x16, 0xa1, 0x64, 0xbd, 0xeb, 0x23, 0x8b, 0xbd, 0xa7, 0x92, 0x25, 0xbd, 0xa9, 0x4d, 0xa7, 0xbb, 0xd8, 0xab, 0x9c, 0x3b, 0x93, 0xbd, 0xb7, 0x3d, 0x59, 0x69, 0xa3, 0xbd, 0x13, 0x0a, 0xeb, 0x3d, 0x4f, 0x5e, 0x6b, 0xbf, 0x3c, 0xbd, 0x1e, 0xbd, 0x62, 0xd5, 0xd3, 0x3e, 0x21, 0xac, 0xae, 0x3d, 0x75, 0xa1, 0xb7, 0x3d, 0x07, 0xac, 0x0f, 0x3e, 0x96, 0x80, 0x05, 0xbf, 0x70, 0x21, 0x5f, 0x3e, 0x20, 0x8a, 0x07, 0x3d, 0x1a, 0x3a, 0xc1, 0x3d, 0x90, 0xb8, 0x12, 0xbe, 0x96, 0xf4, 0x12, 0xbe, 0xa3, 0x26, 0xf1, 0x3e, 0xf6, 0x14, 0xf4, 0x3d, 0x1e, 0xcf, 0xa4, 0xbd, 0x28, 0xcf, 0x27, 0xbe, 0xe1, 0x7b, 0x92, 0x3c, 0x49, 0xc8, 0x76, 0xbd, 0xfb, 0xfb, 0xd2, 0x3d, 0x89, 0xe1, 0xe5, 0xbe, 0x32, 0x72, 0x38, 0x3e, 0xa6, 0xf9, 0xd3, 0xbe, 0x9a, 0x40, 0xc8, 0x3d, 0x52, 0x0d, 0x7e, 0xbe, 0x8b, 0x38, 0xd5, 0x3d, 0x79, 0x7d, 0x56, 0x3d, 0xbe, 0x58, 0x3e, 0xbe, 0xa6, 0x74, 0x8e, 0xbe, 0x61, 0xa1, 0x5a, 0x3d, 0xe7, 0xf2, 0xa0, 0xbe, 0x2a, 0x82, 0x37, 0x3e, 0xd5, 0xdf, 0xc8, 0x3d, 0x48, 0xaf, 0x1d, 0xbf, 0x25, 0x55, 0x27, 0x3d, 0x49, 0x15, 0x35, 0xbd, 0x23, 0xe6, 0xc4, 0x3d, 0x89, 0x77, 0x09, 0xbd, 0x0f, 0x41, 0x41, 0x3e, 0x22, 0x2f, 0x7f, 0x3e, 0xf1, 0xd1, 0xbe, 0xbc, 0x50, 0x3f, 0x71, 0x39, 0xae, 0x7e, 0x9c, 0xbb, 0x9d, 0x01, 0xb0, 0xbc, 0x0e, 0xa2, 0xd8, 0xbd, 0x21, 0xf9, 0x18, 0xbf, 0xdd, 0xb9, 0x84, 0x3e, 0x95, 0x14, 0x3a, 0x3e, 0x43, 0xfc, 0x0a, 0xbf, 0xf0, 0x65, 0x7d, 0xbe, 0x60, 0x43, 0xc3, 0xbd, 0x28, 0xd1, 0x94, 0x3d, 0x0a, 0x42, 0x18, 0x3d, 0x3d, 0xeb, 0xd1, 0xbf, 0xf4, 0x27, 0x0d, 0x3d, 0x15, 0xf6, 0x55, 0xbd, 0x36, 0x06, 0x2f, 0x3c, 0x5d, 0xe6, 0x23, 0x3c, 0xde, 0xe4, 0x7a, 0xbd, 0x23, 0x22, 0x15, 0xbf, 0x3d, 0xbd, 0xcf, 0xbb, 0xe4, 0xc2, 0xb1, 0xbd, 0xbd, 0x94, 0x4f, 0xbd, 0x2a, 0x87, 0x74, 0x3d, 0x2a, 0xaf, 0x3f, 0x3e, 0x5f, 0x2c, 0x25, 0xbf, 0x95, 0x35, 0x11, 0x3d, 0x9a, 0xe5, 0x43, 0xbf, 0x3d, 0xa2, 0xde, 0x3e, 0xc9, 0x26, 0x3a, 0x3e, 0xba, 0xd7, 0x0f, 0x3d, 0x29, 0x8e, 0xe3, 0x3c, 0xb8, 0x32, 0x19, 0xbe, 0xa6, 0x8e, 0x83, 0x3e, 0x1c, 0x69, 0xe9, 0x3d, 0x41, 0xab, 0x9e, 0x3c, 0x3b, 0x26, 0x08, 0x3d, 0x54, 0x79, 0x2b, 0xbf, 0x7a, 0x8b, 0x8a, 0x3e, 0xee, 0xb2, 0x33, 0x3e, 0x9a, 0x9c, 0x3b, 0x3c, 0x08, 0x4e, 0x0b, 0xbe, 0x53, 0xb1, 0x45, 0xbf, 0x8a, 0x0d, 0x66, 0x3e, 0x06, 0x07, 0x37, 0x3e, 0xdf, 0xf6, 0x8e, 0x3d, 0x7c, 0xfb, 0xe0, 0xbd, 0xd2, 0x29, 0x68, 0xbd, 0xb5, 0x85, 0xf2, 0xbd, 0x01, 0xd1, 0x77, 0x3d, 0xfd, 0x2c, 0x01, 0x3d, 0xd6, 0x61, 0x9f, 0xbe, 0xc4, 0x84, 0xb6, 0xbc, 0x37, 0xd4, 0x2e, 0x3e, 0xd1, 0xcd, 0x6f, 0xbd, 0xda, 0x9e, 0x72, 0xbd, 0xbd, 0x1c, 0xc1, 0xbd, 0x5a, 0x57, 0x41, 0x3c, 0xf0, 0x16, 0xa3, 0xbe, 0x1a, 0xcf, 0xf7, 0x3c, 0x60, 0xaa, 0x51, 0xbd, 0x92, 0x20, 0xe3, 0xbd, 0x7e, 0xf5, 0x32, 0xbd, 0xf6, 0x25, 0x44, 0xbd, 0x20, 0x3e, 0xf0, 0x3b, 0xaf, 0x59, 0x7e, 0xbc, 0x49, 0xba, 0x91, 0xbe, 0x36, 0xb0, 0x2b, 0xbc, 0x08, 0x7f, 0xde, 0x3e, 0x6e, 0x93, 0xd8, 0x3d, 0x7e, 0x63, 0x05, 0xbd, 0x50, 0x66, 0x0c, 0x3e, 0x82, 0x29, 0xfe, 0x3b, 0xed, 0x1f, 0x87, 0xbe, 0x3b, 0x60, 0xf4, 0xbd, 0x1e, 0x0f, 0xfa, 0x3d, 0xdd, 0x81, 0xb6, 0x3d, 0xf2, 0xde, 0x1a, 0xbf, 0x00, 0xcb, 0x5d, 0x3d, 0x32, 0xaf, 0xf5, 0x3d, 0x16, 0x32, 0x88, 0x3c, 0x29, 0x62, 0xac, 0x3b, 0xac, 0x0b, 0x2b, 0xbe, 0xa0, 0x79, 0x85, 0x3e, 0x4f, 0x8b, 0x68, 0x3d, 0x54, 0xd2, 0x77, 0x3c, 0x57, 0x57, 0x9d, 0x3d, 0x63, 0x0f, 0x43, 0xbf, 0xd9, 0xca, 0x82, 0x3e, 0x42, 0xa4, 0x2f, 0x3e, 0x50, 0xb1, 0x87, 0x3d, 0xbf, 0x2a, 0xc2, 0xbd, 0xa5, 0x3c, 0xf6, 0xbd, 0x00, 0x88, 0x46, 0x3d, 0x90, 0x74, 0xdd, 0xbd, 0x00, 0x64, 0x7e, 0x3d, 0xd8, 0x20, 0x22, 0x3e, 0xec, 0xc8, 0x08, 0xbd, 0xe5, 0x1c, 0x7b, 0xbf, 0x87, 0xdb, 0x85, 0xbe, 0xa3, 0x1c, 0xd9, 0xbd, 0x1e, 0x73, 0xc0, 0x3b, 0x65, 0x33, 0x80, 0xbb, 0xc0, 0x72, 0x39, 0x3e, 0x21, 0xcd, 0x28, 0x3d, 0xb5, 0xe6, 0x82, 0xbd, 0x5a, 0x74, 0xba, 0xbe, 0xd8, 0x45, 0x53, 0x3d, 0xf4, 0x08, 0x24, 0x3e, 0x9d, 0x05, 0x44, 0x3d, 0x65, 0x44, 0x7b, 0xbd, 0xc0, 0xac, 0x01, 0xbd, 0xb5, 0x39, 0x33, 0x3c, 0x88, 0x3f, 0xcb, 0x3d, 0x60, 0xf6, 0x50, 0xbe, 0xf6, 0xd6, 0x2c, 0x3b, 0xd0, 0x5d, 0x10, 0xbe, 0x87, 0x15, 0x2c, 0xbb, 0x57, 0x95, 0xa2, 0x3e, 0xd0, 0xae, 0xc6, 0x3d, 0x25, 0x28, 0xd3, 0xbc, 0x14, 0xb8, 0x59, 0x3e, 0x11, 0x3a, 0x21, 0xbd, 0xbd, 0x43, 0x12, 0x3d, 0x48, 0xc4, 0xcf, 0xbe, 0xd8, 0x11, 0xdf, 0xbd, 0x3a, 0xad, 0x98, 0xbc, 0x9f, 0x31, 0xd2, 0x3c, 0x52, 0x57, 0x04, 0xbf, 0x17, 0x60, 0x67, 0xbd, 0x9d, 0x79, 0x2d, 0xbd, 0x80, 0xdc, 0xe8, 0x3c, 0x96, 0xaf, 0x39, 0xbf, 0xcc, 0xba, 0xc8, 0x3e, 0x70, 0xa4, 0x63, 0x3e, 0x46, 0x6c, 0x8e, 0xbd, 0x0d, 0xea, 0x72, 0xbe, 0xf6, 0xb1, 0xba, 0x3c, 0x77, 0xd2, 0x12, 0xbe, 0xa2, 0x03, 0xdf, 0x3d, 0x12, 0x52, 0xe8, 0xbe, 0x8d, 0xf9, 0x09, 0x3e, 0xc7, 0xe3, 0xce, 0xbe, 0xf2, 0xe4, 0x3c, 0x3d, 0x7d, 0x1f, 0x70, 0xbe, 0x6a, 0xf3, 0x90, 0x3d, 0xfc, 0x26, 0x93, 0xbd, 0xe4, 0x37, 0xc0, 0xbc, 0xe3, 0x2d, 0x54, 0x3d, 0x7f, 0x12, 0xcc, 0x3c, 0xf0, 0xb8, 0xdc, 0x3c, 0x96, 0xd0, 0xc0, 0xbd, 0x19, 0x49, 0x24, 0x3d, 0xea, 0x34, 0xa8, 0xbd, 0xfa, 0x2e, 0xea, 0x3d, 0x71, 0xaa, 0x6d, 0xbb, 0x72, 0x66, 0x82, 0x3d, 0x07, 0x01, 0x64, 0xbd, 0x38, 0x40, 0x00, 0x3f, 0xaf, 0x8a, 0x0b, 0x3d, 0xf3, 0x76, 0xe6, 0xbd, 0x08, 0x51, 0x51, 0x3e, 0xd6, 0x4e, 0x60, 0x3d, 0xa0, 0xae, 0xd1, 0xbd, 0xf9, 0xea, 0x0a, 0xbf, 0x77, 0x06, 0xbc, 0x3d, 0x7b, 0xee, 0x18, 0x3d, 0x76, 0x81, 0x1b, 0xbd, 0xdd, 0x3c, 0x94, 0xbe, 0x7b, 0xb5, 0x2a, 0xbf, 0xf1, 0x58, 0x30, 0xbf, 0x63, 0x45, 0xf6, 0x3d, 0x70, 0x65, 0xfa, 0xbe, 0xcd, 0xa7, 0xdc, 0x3c, 0x46, 0xfa, 0x7b, 0xbe, 0x6b, 0x3c, 0xec, 0x3d, 0xc7, 0xfe, 0xa2, 0x3d, 0xae, 0x20, 0x54, 0xbd, 0xe2, 0xe2, 0xc3, 0xbe, 0x7e, 0x2b, 0xbc, 0xbd, 0xd6, 0x96, 0x7f, 0xbd, 0x88, 0xa8, 0xf2, 0xbd, 0x95, 0xc7, 0x4d, 0x3d, 0x5e, 0x21, 0x00, 0x3b, 0xdf, 0xf4, 0xb8, 0x3d, 0xf7, 0xd6, 0x2b, 0x3c, 0x5c, 0x06, 0xa9, 0xbd, 0xec, 0x75, 0x0f, 0xbd, 0xb9, 0x5a, 0xd9, 0x3c, 0xc0, 0xd4, 0x37, 0xbd, 0x8b, 0x1a, 0xd8, 0xbd, 0x20, 0x66, 0x74, 0xbe, 0x34, 0xc1, 0xef, 0x3b, 0xca, 0x88, 0x4a, 0x3e, 0xae, 0xb4, 0x75, 0x3c, 0x80, 0x91, 0xf7, 0xbd, 0x8d, 0x54, 0x96, 0xbe, 0xef, 0x95, 0x70, 0x3d, 0xf0, 0xb7, 0x40, 0x3d, 0xf7, 0x33, 0x90, 0x3e, 0x27, 0x15, 0x15, 0xba, 0x5f, 0x4f, 0xaa, 0x3d, 0x33, 0x88, 0x3a, 0xbf, 0xd2, 0x66, 0x3b, 0x3e, 0x23, 0x58, 0x34, 0x3e, 0x5c, 0xa7, 0xde, 0xbb, 0xec, 0x4a, 0x95, 0xbe, 0x32, 0x95, 0xd3, 0x3a, 0xaa, 0x34, 0x97, 0xbe, 0x5a, 0xd0, 0x71, 0x3d, 0xb2, 0x4b, 0x43, 0x3b, 0xd6, 0x6c, 0x0d, 0xbe, 0x6a, 0x42, 0x26, 0xbc, 0x52, 0xc4, 0x34, 0xbc, 0xbc, 0x50, 0x8e, 0x3d, 0x35, 0x41, 0x3b, 0xbe, 0xe6, 0xaa, 0xea, 0x3c, 0x8d, 0xb7, 0x71, 0x3d, 0xd4, 0x6b, 0xd1, 0x3e, 0xfc, 0xb9, 0x13, 0x3e, 0x81, 0xd9, 0xe5, 0xbd, 0xbb, 0x9b, 0xdb, 0xbe, 0xa3, 0x35, 0x1c, 0x3d, 0xb1, 0x3b, 0x89, 0x3e, 0xc7, 0x15, 0x04, 0x3e, 0xca, 0x6a, 0x58, 0x3d, 0x5c, 0x6b, 0x89, 0x3c, 0x55, 0xd2, 0xe8, 0xbc, 0xc8, 0x80, 0x9c, 0xbe, 0x21, 0x2f, 0x1e, 0xbe, 0xd7, 0xf8, 0xfc, 0xbd, 0xa7, 0x8e, 0x0b, 0xbf, 0x82, 0x75, 0x7f, 0x3d, 0xea, 0x86, 0xa7, 0x3e, 0x51, 0x38, 0x47, 0x3e, 0xce, 0x85, 0xa4, 0x3d, 0x5a, 0xf2, 0x6c, 0x3e, 0x88, 0x85, 0xed, 0xbd, 0x02, 0xf6, 0xbd, 0x3d, 0x97, 0x63, 0xa2, 0xbe, 0x66, 0xc0, 0x2e, 0xbd, 0xc2, 0xdf, 0x7b, 0x3b, 0xb4, 0xc8, 0x94, 0x3b, 0x3e, 0x2d, 0x07, 0x3d, 0x5f, 0xba, 0xc2, 0xbe, 0xe6, 0x24, 0xad, 0xbe, 0xcd, 0xde, 0xec, 0x3b, 0xe3, 0x05, 0x81, 0xbe, 0x99, 0x37, 0x2c, 0x3f, 0x6e, 0x72, 0xec, 0x3d, 0xf0, 0x86, 0x1c, 0x3d, 0xb1, 0x79, 0x1a, 0x3e, 0x75, 0xe6, 0x31, 0xbf, 0x54, 0xe9, 0x97, 0x3e, 0x32, 0xb6, 0xa3, 0x3d, 0x46, 0x3a, 0x68, 0x3d, 0x13, 0x0c, 0x66, 0xbd, 0xe7, 0x11, 0xb5, 0xbc, 0xe8, 0x56, 0x16, 0x3e, 0xf4, 0xba, 0xf0, 0xbc, 0x42, 0xec, 0x80, 0xbe, 0x21, 0x8e, 0xec, 0x3d, 0x95, 0xf6, 0xb5, 0x3d, 0x8e, 0x3c, 0xd8, 0x3d, 0x6c, 0x29, 0x0d, 0x3e, 0x9c, 0xdc, 0xa4, 0xbd, 0x4b, 0x37, 0x44, 0x3c, 0x29, 0x1b, 0xa1, 0xbe, 0xf9, 0x70, 0x91, 0x3e, 0x54, 0x92, 0x3c, 0x3e, 0x79, 0x61, 0xd3, 0xbd, 0x92, 0xaf, 0x44, 0xbd, 0x71, 0x4c, 0x30, 0xbe, 0xea, 0x7e, 0x77, 0x3e, 0xdb, 0xda, 0xea, 0x3d, 0x4f, 0xb9, 0x90, 0xbe, 0x01, 0xa7, 0xab, 0xbd, 0x12, 0xf7, 0xac, 0xbe, 0x89, 0x1e, 0x87, 0x3e, 0x67, 0x6e, 0x12, 0x3e, 0xb1, 0xb8, 0x0d, 0xbc, 0x8a, 0x74, 0x66, 0xbe, 0x2e, 0x99, 0xe9, 0x3a, 0x87, 0xcc, 0x26, 0xbe, 0xbd, 0x8e, 0xc0, 0x3d, 0x1e, 0x4e, 0x1b, 0x3d, 0x13, 0xed, 0xb4, 0xbe, 0x83, 0x39, 0xe0, 0xbc, 0xe4, 0x8d, 0x13, 0x3e, 0x8e, 0x96, 0x1a, 0x3c, 0x2a, 0x4f, 0xc4, 0x3c, 0x21, 0xf6, 0x17, 0x3d, 0x25, 0xbd, 0x8a, 0xbe, 0x33, 0x7f, 0xd6, 0x3e, 0xb3, 0x23, 0xc2, 0x3d, 0x86, 0x4f, 0xae, 0xbd, 0x71, 0xe1, 0x24, 0xbf, 0x23, 0x6f, 0x44, 0xbc, 0x85, 0xa9, 0x55, 0x3f, 0xce, 0x9c, 0xca, 0x3d, 0x8a, 0xc6, 0x81, 0xbd, 0xe7, 0x05, 0x8a, 0xbd, 0x52, 0x8b, 0x73, 0xbd, 0xae, 0xe1, 0x70, 0xbd, 0x40, 0xea, 0x6d, 0x3b, 0x41, 0xd3, 0x49, 0xbd, 0x12, 0x10, 0x80, 0xbe, 0x0a, 0x1e, 0x6c, 0x3c, 0x84, 0x49, 0x2c, 0xbe, 0xc1, 0x30, 0xe0, 0x3d, 0x97, 0x62, 0x2b, 0x3d, 0x5d, 0x5b, 0x51, 0xbf, 0x93, 0xeb, 0xd8, 0xbc, 0x3b, 0xf7, 0xf9, 0x3e, 0x2c, 0x5c, 0xb4, 0x3d, 0x8a, 0xb8, 0x95, 0xbd, 0x9d, 0x47, 0x4a, 0x3d, 0xf8, 0x12, 0x17, 0x3c, 0x1f, 0x7d, 0x31, 0x3e, 0x98, 0x20, 0xc1, 0x3d, 0x9f, 0xe0, 0x40, 0xbd, 0xb6, 0x51, 0xa0, 0x3d, 0x77, 0x20, 0x8c, 0x3d, 0x3a, 0x9e, 0x08, 0xc0, 0x17, 0x4b, 0xce, 0xb9, 0xe6, 0x83, 0x48, 0x3d, 0xce, 0x83, 0x01, 0x3d, 0x67, 0x87, 0x44, 0x3c, 0x42, 0xe5, 0xdd, 0xbe, 0xc5, 0xbb, 0xc7, 0x3b, 0xbf, 0x2b, 0x35, 0xbc, 0xe9, 0x56, 0xfa, 0xbd, 0xb2, 0x60, 0xec, 0xbe, 0xfd, 0x34, 0xc7, 0x3e, 0x92, 0xaa, 0x1f, 0x3c, 0x61, 0xc0, 0xae, 0xbd, 0xdb, 0x61, 0xa2, 0xbc, 0xbd, 0x78, 0xb9, 0x3c, 0x98, 0x40, 0x01, 0xbe, 0x24, 0x37, 0x64, 0xbd, 0x70, 0x25, 0x11, 0xbd, 0xb8, 0xd6, 0x09, 0xbd, 0x82, 0x35, 0x42, 0xbd, 0xad, 0x49, 0x51, 0x3d, 0xac, 0x1e, 0xaa, 0xbd, 0xd7, 0xf3, 0x1b, 0xbe, 0x73, 0x5a, 0x75, 0xbd, 0x7d, 0xd3, 0x2a, 0xbe, 0x93, 0xba, 0x9d, 0x3e, 0x51, 0xa3, 0x5b, 0x3d, 0xcc, 0x9f, 0xa2, 0xbd, 0x86, 0x67, 0x97, 0x3d, 0xa9, 0x2e, 0xaa, 0x3c, 0x95, 0x11, 0x78, 0x3b, 0x51, 0xa9, 0x00, 0xbe, 0x80, 0x26, 0x49, 0xba, 0x27, 0xf3, 0xe6, 0xbd, 0xca, 0x68, 0xcc, 0xbd, 0x5c, 0xcf, 0xf5, 0xbd, 0x30, 0xad, 0x22, 0x3c, 0xf1, 0x27, 0x15, 0xbe, 0x39, 0xd2, 0x3d, 0x3c, 0xa1, 0xec, 0x35, 0x3d, 0xfa, 0xca, 0x85, 0xbe, 0xc0, 0x9b, 0x9f, 0xbd, 0x8c, 0xcd, 0x6c, 0x3d, 0x13, 0x59, 0x00, 0x3e, 0xe9, 0x40, 0x3d, 0xbf, 0x19, 0x4b, 0x27, 0x3e, 0xa6, 0x99, 0x3b, 0x3e, 0xb5, 0x7d, 0x07, 0xbd, 0x04, 0xd0, 0x70, 0x3d, 0x94, 0xfa, 0x07, 0x3c, 0x57, 0xe8, 0x8b, 0xbd, 0xea, 0x02, 0x2f, 0xbd, 0x63, 0xb6, 0x18, 0x3d, 0x9c, 0x01, 0x8b, 0x3d, 0xed, 0x23, 0x1a, 0xbc, 0x84, 0xc0, 0x3f, 0x3e, 0x5f, 0x67, 0xf2, 0x3a, 0x46, 0x23, 0xa5, 0xbc, 0x28, 0x82, 0xc1, 0xbc, 0x84, 0x81, 0xc8, 0x3b, 0x2e, 0x71, 0x39, 0x3c, 0x19, 0x0a, 0x92, 0xbd, 0x92, 0x06, 0x9f, 0xbc, 0x64, 0xaa, 0x4e, 0xbc, 0xd2, 0x35, 0x0e, 0x3c, 0x6a, 0xa9, 0x14, 0xbf, 0x09, 0x8a, 0x45, 0x3d, 0x21, 0xc9, 0x0d, 0x3e, 0x11, 0x6c, 0x85, 0x3d, 0x5f, 0x00, 0x9e, 0xbd, 0xf5, 0x2c, 0x84, 0x3d, 0x67, 0x9a, 0x8b, 0x3d, 0x27, 0x48, 0x24, 0xbd, 0x40, 0xaa, 0xb5, 0x3d, 0x6d, 0x22, 0x2c, 0xbc, 0xec, 0x37, 0x23, 0xbe, 0x64, 0x6c, 0xf6, 0x3c, 0x51, 0x16, 0x2d, 0xbd, 0xf5, 0x93, 0xb7, 0x3d, 0x0f, 0x3e, 0xe0, 0x3b, 0xb2, 0xc2, 0x89, 0xbe, 0xe2, 0xb4, 0xab, 0xbe, 0xdd, 0xae, 0x8f, 0x3d, 0xc7, 0x72, 0xe7, 0x3d, 0x11, 0x46, 0x38, 0xbd, 0xbc, 0x48, 0x43, 0xbe, 0xbd, 0x03, 0x93, 0xbe, 0x22, 0xdc, 0x13, 0xbd, 0x9e, 0x8d, 0x33, 0x3c, 0xc7, 0xd8, 0xb2, 0xbd, 0x33, 0xaa, 0x00, 0x3f, 0xc4, 0x9f, 0x06, 0x3d, 0xd3, 0x09, 0x55, 0xbd, 0x0e, 0xf0, 0xdf, 0x3d, 0x31, 0xb6, 0x32, 0xbe, 0x13, 0xfe, 0x0b, 0xc0, 0x2b, 0xd1, 0x2d, 0xbe, 0x66, 0x8d, 0x7a, 0xbd, 0x02, 0x98, 0x7a, 0x3d, 0x46, 0x73, 0x7a, 0x3c, 0x62, 0x49, 0xce, 0x3d, 0xa5, 0x71, 0x53, 0xbe, 0xec, 0xf8, 0x66, 0x3c, 0x4b, 0xf7, 0x1b, 0x3e, 0x17, 0xf9, 0xce, 0xbc, 0x13, 0xa3, 0x29, 0xbd, 0xc4, 0x17, 0x36, 0x3e, 0x81, 0x04, 0x65, 0xbd, 0x95, 0xdf, 0x79, 0x3c, 0xf4, 0x47, 0x63, 0x3c, 0xff, 0x4f, 0x55, 0xbe, 0x3a, 0x1a, 0x46, 0xbd, 0x9d, 0x79, 0xbe, 0xbd, 0x3f, 0x03, 0x5c, 0xbe, 0x7f, 0x12, 0xe4, 0x3b, 0xb3, 0xab, 0x84, 0x3e, 0x1c, 0x67, 0xfd, 0xbb, 0x5d, 0x57, 0x1c, 0xbd, 0x16, 0x52, 0xbe, 0x3c, 0xb6, 0x3f, 0x02, 0x3d, 0x77, 0x17, 0x93, 0x3e, 0x5e, 0xe6, 0xb0, 0x3d, 0x60, 0x97, 0xb6, 0xbd, 0x14, 0x09, 0xc8, 0xbd, 0xd0, 0x78, 0x9b, 0xbc, 0x1c, 0x82, 0x33, 0xbd, 0x82, 0xad, 0x82, 0xbd, 0x01, 0x84, 0x48, 0x3c, 0xbb, 0x71, 0x8e, 0x3c, 0xa3, 0x4f, 0x20, 0xbf, 0xab, 0xc0, 0x8b, 0x3e, 0x1e, 0x3c, 0x0f, 0x3e, 0xda, 0x39, 0x9f, 0x3c, 0x34, 0x03, 0x22, 0x39, 0x61, 0x52, 0xcf, 0xbd, 0x7a, 0x50, 0xd8, 0xbb, 0x43, 0x4e, 0xc0, 0xbd, 0xe1, 0xca, 0x45, 0xbf, 0xd3, 0x0a, 0x12, 0xbe, 0xb1, 0xc8, 0x41, 0xbf, 0x24, 0x3d, 0xa3, 0xbd, 0xf1, 0xd4, 0x90, 0x3d, 0x1c, 0xea, 0xfc, 0x3d, 0x00, 0xe2, 0x48, 0xbe, 0x42, 0xa8, 0x43, 0xbd, 0x19, 0x29, 0x67, 0xbe, 0x8c, 0xdf, 0xdb, 0xbc, 0x2b, 0x78, 0xeb, 0xbc, 0xec, 0xae, 0x72, 0xbc, 0x6d, 0xf1, 0xc2, 0x3c, 0xb6, 0xae, 0x45, 0xbf, 0xf1, 0x6e, 0x9b, 0x3d, 0xb6, 0xa9, 0x91, 0xbd, 0xa8, 0xd4, 0xe5, 0xbc, 0xc8, 0x5b, 0x4d, 0xbd, 0xf6, 0x3c, 0x97, 0x3c, 0xc3, 0xaa, 0xe5, 0xbd, 0xb5, 0x03, 0x07, 0xbf, 0x4b, 0x2d, 0x3b, 0x3c, 0x61, 0x1c, 0x1b, 0xbf, 0x19, 0x10, 0xad, 0x3e, 0x41, 0x4a, 0x44, 0x3e, 0xb6, 0x2b, 0x49, 0x3d, 0xc1, 0xa7, 0x8b, 0x3d, 0x74, 0x4b, 0x31, 0xbf, 0xe8, 0x69, 0x4e, 0x3e, 0x1b, 0x42, 0x36, 0x3e, 0xf4, 0x0f, 0x1c, 0x3c, 0xc6, 0x4a, 0x6c, 0x3d, 0x37, 0x94, 0xcb, 0xbb, 0x4b, 0x00, 0x01, 0xbf, 0xdf, 0xf6, 0xbb, 0xbd, 0x30, 0x86, 0xa8, 0x3d, 0x12, 0x49, 0x94, 0xbb, 0x48, 0xe4, 0x0c, 0xbf, 0x2f, 0x9d, 0x1b, 0x3e, 0x9c, 0x72, 0x2c, 0x3e, 0x98, 0x85, 0xb0, 0x3c, 0x99, 0x74, 0x80, 0x3b, 0xd2, 0x32, 0xf5, 0xbc, 0xae, 0x1e, 0x3f, 0x3a, 0xcd, 0xa2, 0x1a, 0x3b, 0x41, 0xed, 0xb9, 0x3d, 0xde, 0xb1, 0x71, 0xbd, 0x25, 0x10, 0xfa, 0x3c, 0x0a, 0xa1, 0x05, 0x3e, 0xb3, 0x30, 0x32, 0xbf, 0x54, 0x7b, 0x33, 0xbf, 0xc6, 0x4e, 0x2b, 0xbe, 0x12, 0x64, 0x26, 0xbf, 0xfa, 0x86, 0xd3, 0x3e, 0xe3, 0xc0, 0x73, 0x3e, 0x5e, 0xd5, 0xa6, 0x3d, 0x3c, 0x8c, 0xd4, 0x3d, 0xde, 0x5f, 0x29, 0xbd, 0xf5, 0xe0, 0x36, 0xbe, 0xe9, 0xe0, 0xbf, 0xbe, 0x5e, 0x85, 0x5e, 0x3d, 0x3c, 0x7a, 0xe0, 0xbe, 0x81, 0x80, 0x09, 0x3c, 0xa5, 0xa1, 0xb5, 0x3e, 0xd3, 0xed, 0x3a, 0x3d, 0xc4, 0xff, 0x39, 0x3c, 0x0e, 0x87, 0x6a, 0xbd, 0x69, 0xc7, 0x86, 0xba, 0xf7, 0x84, 0x6b, 0x3d, 0xf5, 0x46, 0x13, 0x3e, 0x93, 0x1e, 0x0a, 0xbe, 0x50, 0x1b, 0xdb, 0x3d, 0x5c, 0x6c, 0x25, 0xbe, 0x94, 0x82, 0x9a, 0x3e, 0xea, 0x35, 0xb2, 0x3d, 0x6d, 0x52, 0x62, 0x3d, 0x58, 0xc8, 0x42, 0x3e, 0x7d, 0xd7, 0xf8, 0xbc, 0x0a, 0x7f, 0xec, 0xbc, 0xf3, 0xc6, 0xed, 0x3d, 0xb7, 0x3d, 0x22, 0x3d, 0x08, 0x36, 0xb8, 0xbc, 0x98, 0x7a, 0xf2, 0xbc, 0xd7, 0xb7, 0xb1, 0xbd, 0xdf, 0x1d, 0x97, 0xbd, 0xed, 0x18, 0x80, 0xbd, 0x8a, 0x45, 0xce, 0xbd, 0xde, 0xf1, 0x40, 0xbd, 0x65, 0xca, 0xdc, 0x3c, 0x3f, 0xbd, 0xeb, 0xbd, 0x1d, 0xd5, 0x1a, 0xbe, 0xae, 0x8a, 0x81, 0xbe, 0xf8, 0xcb, 0xc2, 0x3d, 0xc1, 0xc6, 0x0b, 0x3e, 0x38, 0xd8, 0x92, 0x3e, 0xd4, 0xa0, 0x44, 0xbe, 0x30, 0xcd, 0xdc, 0x3c, 0xa9, 0x33, 0x28, 0xbf, 0xe4, 0x01, 0x17, 0x3f, 0x53, 0x6a, 0xe2, 0x3c, 0xef, 0x06, 0x07, 0xbf, 0xf8, 0x77, 0x07, 0x3e, 0x6c, 0xcc, 0x11, 0xbf, 0x71, 0x7d, 0xca, 0x3e, 0xb6, 0xe3, 0x48, 0x3d, 0xe7, 0xff, 0xd9, 0x3d, 0x17, 0x70, 0xbe, 0xbd, 0x01, 0xf5, 0x0c, 0xbd, 0xce, 0x10, 0xf8, 0x3e, 0x24, 0x36, 0x1e, 0x3e, 0xed, 0x38, 0x2e, 0xbd, 0x51, 0x7c, 0x7d, 0x3d, 0xe9, 0x3d, 0xad, 0x39, 0xf1, 0x74, 0xaa, 0x3e, 0x0e, 0x3a, 0xb8, 0xbb, 0x67, 0x7e, 0x9d, 0xbd, 0x3d, 0x1d, 0xe1, 0xbd, 0xcd, 0x3e, 0x26, 0x3c, 0xf4, 0x07, 0xc1, 0xbd, 0xed, 0x7d, 0x10, 0xbe, 0x2a, 0x78, 0xf5, 0xbd, 0xf0, 0x24, 0xab, 0xbc, 0x18, 0xd8, 0xd9, 0xbd, 0xa6, 0x36, 0x61, 0xbd, 0x58, 0xd7, 0xad, 0xbd, 0x6e, 0x2d, 0x98, 0xbb, 0x71, 0x54, 0x16, 0x3c, 0x21, 0x6e, 0x89, 0xba, 0xfe, 0x82, 0x67, 0xbe, 0xd0, 0xce, 0xa2, 0xbd, 0x11, 0x38, 0xc6, 0x3d, 0x9e, 0x5b, 0x19, 0x3e, 0x6c, 0xd3, 0x4c, 0xbd, 0x39, 0x0e, 0x01, 0x3e, 0x83, 0x43, 0x1c, 0x3e, 0xd5, 0x69, 0x96, 0x3d, 0xd1, 0xf6, 0xda, 0xbd, 0x90, 0x32, 0x6a, 0xbd, 0xf3, 0x8c, 0xc6, 0xbd, 0xab, 0x13, 0x07, 0x3d, 0x4c, 0xd5, 0x6a, 0x3c, 0x06, 0x4b, 0x24, 0x3d, 0xa0, 0x51, 0x42, 0xbd, 0xeb, 0x61, 0x95, 0xbe, 0xb1, 0xf8, 0x10, 0xbd, 0x2d, 0x09, 0xf2, 0x3d, 0x73, 0xf9, 0xcd, 0x3d, 0xb8, 0x54, 0x09, 0xbf, 0xfd, 0xfa, 0xb2, 0x3c, 0xfe, 0x4f, 0x27, 0x3e, 0x7b, 0x2e, 0x29, 0xbb, 0x6d, 0xd6, 0x99, 0xb9, 0x5e, 0x7a, 0x7c, 0xbd, 0x36, 0x20, 0x04, 0xbd, 0x6a, 0xdf, 0xd2, 0xbd, 0x62, 0x96, 0x3b, 0xbd, 0x3d, 0x1a, 0x3e, 0x3d, 0x0b, 0xa9, 0x0a, 0x3c, 0x0d, 0xe4, 0x85, 0xbd, 0x01, 0xe5, 0xf5, 0xbc, 0x38, 0xc5, 0x5b, 0xbb, 0x5d, 0x75, 0x85, 0xbe, 0x24, 0x2e, 0x7c, 0xbb, 0xde, 0xb2, 0x0b, 0x3e, 0x74, 0xff, 0x83, 0xbd, 0xd9, 0xcb, 0xbd, 0xbf, 0xdc, 0xc5, 0xa0, 0x3e, 0x9a, 0x1f, 0xff, 0xbd, 0x27, 0x0d, 0x42, 0xbe, 0xb9, 0x78, 0x5d, 0xc0, 0x4a, 0x39, 0x33, 0xbd, 0x31, 0xf0, 0x74, 0xbd, 0x60, 0xd2, 0x9c, 0xbb, 0x02, 0xd9, 0x05, 0xbd, 0x42, 0xb2, 0x9f, 0xbd, 0x5a, 0xa6, 0x33, 0xbe, 0x8d, 0x52, 0x23, 0x3e, 0xa0, 0xed, 0xe6, 0xbe, 0xc1, 0xc6, 0x8b, 0x3d, 0x79, 0x84, 0x80, 0xbe, 0x11, 0x9c, 0x26, 0xbd, 0xa8, 0xb3, 0xb5, 0x3c, 0xc3, 0xf2, 0xc7, 0x3b, 0x83, 0xe8, 0x5f, 0xbe, 0x9f, 0xaa, 0xb1, 0xbd, 0x5d, 0x08, 0xe0, 0x3d, 0x89, 0x37, 0xda, 0xbd, 0x3e, 0xc4, 0x09, 0xbd, 0x0b, 0x8f, 0xfe, 0x3e, 0x29, 0xba, 0x20, 0x3e, 0x1a, 0x10, 0xaf, 0x3c, 0xb2, 0xe6, 0x20, 0x3e, 0x49, 0x0b, 0x45, 0xbc, 0x6d, 0x60, 0xd2, 0xbe, 0xd5, 0xb0, 0xcf, 0xbd, 0xd0, 0xb9, 0x4c, 0xbc, 0xf4, 0x27, 0xc4, 0xbd, 0x7f, 0xfb, 0xe2, 0xbe, 0xb9, 0x8d, 0x72, 0x3e, 0xec, 0xa2, 0x14, 0x3e, 0xdf, 0x44, 0xfc, 0x3c, 0xb7, 0x7b, 0x91, 0xbd, 0xdb, 0x1e, 0x4a, 0xba, 0x31, 0x94, 0x5c, 0xb9, 0x93, 0xc7, 0xe8, 0xbb, 0x55, 0x4e, 0x3b, 0x3e, 0xf2, 0x8c, 0x7c, 0x3e, 0xbb, 0xce, 0xc3, 0xbd, 0xbf, 0xaa, 0x20, 0xbe, 0x8d, 0x2f, 0x95, 0xbd, 0x17, 0x82, 0x14, 0xbf, 0x8f, 0x35, 0xdb, 0x3d, 0xff, 0x8c, 0xe7, 0xbe, 0xb0, 0x7e, 0xe9, 0x3c, 0xcc, 0xe9, 0x59, 0xbe, 0xe5, 0x79, 0xe4, 0xbc, 0xcd, 0xbb, 0x80, 0xbe, 0x36, 0x13, 0xc8, 0x3b, 0xaa, 0xbc, 0x97, 0x3c, 0x20, 0x04, 0xcd, 0x3c, 0xf7, 0xb5, 0xfc, 0x3c, 0x77, 0x65, 0x7a, 0x3d, 0xaf, 0x98, 0xa3, 0xbc, 0x08, 0x34, 0x91, 0x3e, 0xe3, 0x2d, 0x36, 0xbe, 0x7d, 0xdb, 0xb4, 0x3d, 0x8e, 0x78, 0x24, 0x3e, 0xfc, 0xa8, 0x64, 0xbd, 0x29, 0x41, 0x06, 0x3e, 0x8d, 0x53, 0x59, 0x3e, 0x62, 0x34, 0xd9, 0xbd, 0xb0, 0x66, 0x52, 0xbc, 0x20, 0xa6, 0xee, 0xbc, 0xca, 0xb4, 0xe6, 0xbd, 0x6a, 0x9b, 0xc6, 0xbd, 0x62, 0xa4, 0x5a, 0xbe, 0x22, 0xcf, 0xf7, 0xbd, 0xcd, 0x87, 0x85, 0x3c, 0x54, 0xec, 0xa0, 0xbd, 0x3f, 0xd2, 0xc2, 0x3c, 0x57, 0x67, 0x25, 0xbe, 0x81, 0x76, 0x56, 0x3d, 0x8b, 0x9a, 0x0b, 0xbf, 0x13, 0xed, 0xfa, 0x3e, 0x7b, 0x4d, 0xa7, 0x3d, 0xa7, 0xc0, 0xb1, 0xbd, 0xc0, 0x30, 0x2e, 0x3e, 0x26, 0xdc, 0x88, 0x3d, 0x14, 0x0c, 0xa5, 0xbe, 0x0b, 0x4e, 0x30, 0xbc, 0x38, 0xfb, 0x82, 0xbd, 0x77, 0xae, 0x14, 0x3d, 0xef, 0x6e, 0x60, 0x3c, 0xcd, 0x5f, 0xc0, 0xbc, 0x8a, 0x4c, 0x01, 0xbe, 0x0f, 0x49, 0xb0, 0x3a, 0xf5, 0x6c, 0x41, 0x3d, 0xe0, 0xe5, 0x3d, 0xbf, 0x2c, 0xd5, 0x06, 0x3e, 0x47, 0x46, 0x61, 0x3e, 0x30, 0xc0, 0x49, 0xbd, 0x02, 0x45, 0x50, 0xbc, 0xec, 0x9e, 0x20, 0xbd, 0x0f, 0xd9, 0xaa, 0x3e, 0x3e, 0xae, 0x9f, 0xbc, 0x7d, 0x02, 0xca, 0xbd, 0x25, 0xf6, 0x91, 0xbc, 0x4e, 0xbe, 0xe4, 0x3c, 0x32, 0x3c, 0x3a, 0xbe, 0x4f, 0x4f, 0x98, 0xbd, 0xba, 0xbb, 0xda, 0xbe, 0x93, 0xba, 0xf0, 0x3d, 0xf9, 0x4c, 0x2f, 0xbf, 0x6c, 0x42, 0x1f, 0x3e, 0x30, 0x5f, 0x4e, 0x3d, 0xed, 0x23, 0x52, 0xbe, 0xfe, 0x93, 0x55, 0xbe, 0x71, 0x07, 0x80, 0x3d, 0x2e, 0x2f, 0x6b, 0x3d, 0x3b, 0xb7, 0x20, 0x3e, 0xcd, 0x7a, 0x09, 0xbe, 0xcf, 0xbd, 0x36, 0xbe, 0x33, 0x46, 0x47, 0xbe, 0xf2, 0x25, 0x9e, 0x3e, 0xab, 0x4d, 0xe1, 0x3d, 0x74, 0xd1, 0x33, 0xbd, 0x20, 0xbd, 0xa0, 0xbb, 0x7e, 0x4f, 0x88, 0xbd, 0x96, 0x80, 0x15, 0x3d, 0x4f, 0x9f, 0x09, 0x3c, 0xc5, 0xa1, 0x83, 0xbd, 0x09, 0xc9, 0x50, 0x3e, 0xed, 0x60, 0x6e, 0x3c, 0xbb, 0x14, 0x15, 0xbe, 0x17, 0xb1, 0x70, 0xbf, 0xb8, 0xf9, 0x02, 0xbe, 0x4d, 0xae, 0x0a, 0x3e, 0xf9, 0xab, 0x1f, 0xbd, 0xd0, 0x8d, 0x1a, 0xbf, 0xf2, 0xaa, 0x9e, 0x3d, 0x17, 0xca, 0xb6, 0xbd, 0xdd, 0x71, 0xe9, 0x3c, 0x4c, 0x2f, 0xcd, 0x3c, 0xec, 0x47, 0xa3, 0x3e, 0x6e, 0xc8, 0x77, 0xbd, 0x3e, 0xa7, 0xec, 0x3d, 0x85, 0x0e, 0x05, 0xbe, 0xe1, 0xb1, 0x3b, 0xbd, 0x1a, 0x70, 0x0c, 0xbe, 0x6b, 0xea, 0x07, 0xbf, 0xb9, 0xf7, 0x8a, 0xbd, 0x8b, 0x90, 0x27, 0x3d, 0x41, 0xaa, 0xe6, 0x3c, 0xb9, 0xa3, 0xbb, 0xbd, 0xea, 0xf3, 0xa9, 0xbe, 0x13, 0x78, 0xf5, 0x3d, 0x8a, 0x3b, 0x2a, 0x3e, 0x04, 0x0e, 0x97, 0xbd, 0x9f, 0xe8, 0x20, 0xbe, 0xa9, 0x69, 0x2d, 0x3d, 0xa4, 0xad, 0x23, 0xbe, 0x27, 0xff, 0x32, 0x3d, 0xf8, 0x37, 0x43, 0x3d, 0xa6, 0x0d, 0x83, 0xbe, 0x0d, 0x9e, 0x9f, 0xbd, 0x93, 0x6d, 0x74, 0x3c, 0x64, 0x31, 0x05, 0x3e, 0x19, 0x2d, 0x42, 0xbf, 0xbf, 0xb1, 0x62, 0x3e, 0xbd, 0x28, 0xa9, 0x3d, 0x1b, 0xf5, 0xf9, 0xbd, 0x68, 0x55, 0x07, 0xbe, 0x3f, 0x65, 0x0f, 0x3d, 0xf0, 0x9f, 0xbb, 0xbd, 0x0a, 0x34, 0x3b, 0x3d, 0xe8, 0x65, 0xe7, 0x3b, 0xc2, 0xdf, 0xed, 0x3c, 0x8a, 0x58, 0xff, 0xbd, 0xc5, 0x5d, 0xc0, 0x3e, 0x8e, 0x91, 0x0f, 0x3b, 0xde, 0x73, 0x9f, 0xbc, 0xe9, 0xf9, 0x86, 0x3e, 0xc0, 0x2e, 0x01, 0xbb, 0x6b, 0xc4, 0x0a, 0xbf, 0x38, 0x1f, 0x24, 0xbd, 0x92, 0x0d, 0x1b, 0xbe, 0x6c, 0x9b, 0x6f, 0xbd, 0xea, 0x7a, 0xf1, 0xbd, 0xa7, 0xc9, 0xb8, 0x3e, 0xa3, 0x0b, 0x49, 0x3d, 0x3e, 0xc0, 0x70, 0xbe, 0x8a, 0x2e, 0x35, 0xbe, 0x66, 0x58, 0x14, 0xbd, 0xd6, 0xea, 0x70, 0x3c, 0x7f, 0xaa, 0x26, 0x3e, 0xc6, 0xba, 0x99, 0x3d, 0xac, 0x39, 0x82, 0x3b, 0xd4, 0x19, 0x33, 0x3d, 0x6e, 0x95, 0x86, 0x3e, 0x5b, 0x36, 0xb8, 0x3c, 0x81, 0x33, 0x34, 0xbe, 0x4a, 0x34, 0x3f, 0x3e, 0x3c, 0x9e, 0x1f, 0x3d, 0x5c, 0xb3, 0x48, 0xbf, 0x72, 0x1c, 0x5c, 0x3d, 0x13, 0xc2, 0x2d, 0x3e, 0xd1, 0xad, 0x4a, 0x3e, 0x8c, 0x03, 0x27, 0xbd, 0xcc, 0x54, 0x1f, 0xbe, 0x88, 0x10, 0x27, 0xbe, 0x4d, 0xcb, 0xe3, 0xbc, 0xfd, 0x53, 0xa3, 0x3e, 0x38, 0xb4, 0xa7, 0x3c, 0x32, 0x43, 0xba, 0xbe, 0x45, 0x88, 0x5d, 0xbe, 0x30, 0x5f, 0xcc, 0x3c, 0xb7, 0x41, 0x99, 0xbd, 0x7b, 0x57, 0x36, 0x3d, 0xcc, 0x98, 0xc4, 0x3c, 0x83, 0xb7, 0xf0, 0x3d, 0x4d, 0x9b, 0x4d, 0xbd, 0x1b, 0x5b, 0xd1, 0x3c, 0x73, 0xd5, 0x60, 0xbd, 0x85, 0x95, 0xa6, 0x3e, 0x10, 0x90, 0xe2, 0x3d, 0x7f, 0xe8, 0x18, 0xbf, 0xdf, 0xdc, 0x96, 0xbc, 0x3e, 0xfe, 0x3f, 0xbf, 0x19, 0x18, 0xe8, 0x3e, 0x11, 0x22, 0x8a, 0x3e, 0x6e, 0x33, 0xd3, 0xbd, 0x2a, 0x68, 0x8c, 0xbe, 0x62, 0x56, 0x6c, 0x3d, 0x19, 0xb9, 0x84, 0x3d, 0xc6, 0x65, 0x81, 0x3e, 0x8e, 0x18, 0x42, 0xbc, 0x58, 0x89, 0xf0, 0x3d, 0xe5, 0x10, 0x0d, 0xbf, 0xa5, 0x06, 0xd8, 0x3e, 0xec, 0x3c, 0xff, 0x3d, 0xb9, 0x2d, 0x04, 0xbe, 0x17, 0x52, 0xc6, 0x3b, 0x09, 0xea, 0xa7, 0xbd, 0x54, 0xd7, 0xb7, 0x3e, 0xe4, 0xd0, 0xb1, 0xbd, 0x28, 0xf0, 0x68, 0xbd, 0x86, 0xe4, 0xe8, 0x38, 0x8d, 0x91, 0xeb, 0x3b, 0x1a, 0xbe, 0x2f, 0xbd, 0x64, 0x8a, 0xbf, 0xbe, 0x79, 0xc1, 0x80, 0xbd, 0xfb, 0x9d, 0x5b, 0xbe, 0xf4, 0xb7, 0xb5, 0x3d, 0xe4, 0x9e, 0xa3, 0xbd, 0x40, 0xa9, 0xde, 0x3d, 0x1e, 0xde, 0x16, 0xbe, 0x8c, 0x5b, 0x47, 0xbd, 0x3c, 0x20, 0xbf, 0xbc, 0xf7, 0x8f, 0x26, 0x3d, 0x93, 0xe0, 0xd1, 0x3d, 0x2c, 0x9f, 0x67, 0xbd, 0xee, 0x3b, 0x33, 0xbc, 0x04, 0x0e, 0xd4, 0xbd, 0x50, 0xcf, 0x0a, 0x3e, 0x59, 0x29, 0x4b, 0x3e, 0xc3, 0x5e, 0x1e, 0xbf, 0x37, 0x89, 0x24, 0x3e, 0xdf, 0xc0, 0x33, 0xbf, 0x17, 0x32, 0x9c, 0x3e, 0x89, 0xe4, 0xf8, 0xbc, 0x5e, 0x44, 0xe6, 0xbd, 0xb8, 0xaa, 0xd4, 0x3c, 0xc4, 0x21, 0x00, 0x3d, 0x91, 0x34, 0xe8, 0xbb, 0x4a, 0x28, 0x34, 0xbd, 0x01, 0x2b, 0x6c, 0xbe, 0x21, 0xd1, 0x3b, 0x3d, 0x23, 0xa5, 0x78, 0x3d, 0xa0, 0x12, 0x86, 0xbe, 0x39, 0x57, 0x92, 0xbe, 0x2d, 0x73, 0x65, 0xbf, 0x06, 0xb7, 0x00, 0x3e, 0x44, 0xd5, 0x11, 0xbf, 0x86, 0x9c, 0x7b, 0x3e, 0x1f, 0x98, 0xa3, 0x3d, 0x3b, 0x53, 0x7b, 0xbd, 0xa9, 0x65, 0x95, 0xbe, 0x2d, 0xb7, 0x83, 0x3c, 0xaf, 0xf2, 0x33, 0x3e, 0xdc, 0x82, 0xf9, 0x3d, 0x72, 0x04, 0x22, 0xbf, 0x37, 0x41, 0x1d, 0x3e, 0x7c, 0x64, 0x16, 0xbf, 0xb6, 0xc9, 0x42, 0x3e, 0xed, 0xdf, 0x91, 0xbd, 0x6b, 0x80, 0x25, 0xbe, 0xf7, 0x24, 0xe5, 0x3c, 0x2b, 0x04, 0xad, 0xbe, 0x6a, 0x22, 0xee, 0x3e, 0x53, 0xf0, 0xfe, 0x3d, 0x11, 0xf2, 0x3c, 0xbe, 0x3d, 0x72, 0x7d, 0x3d, 0x7d, 0xf9, 0x8f, 0x3d, 0xbb, 0xa5, 0xe7, 0x3e, 0xc0, 0x18, 0x11, 0xbb, 0x51, 0x19, 0x20, 0x3d, 0xdb, 0x57, 0xd0, 0xbe, 0x70, 0xe7, 0xa9, 0xbc, 0xf9, 0x6f, 0x3f, 0x3e, 0x2c, 0x7c, 0x23, 0x3d, 0xee, 0xc1, 0x96, 0x3d, 0xfa, 0x41, 0xcc, 0xbd, 0xdc, 0x6d, 0xc6, 0xbc, 0x06, 0x5a, 0x01, 0xbd, 0x76, 0x90, 0x2f, 0x3d, 0xc1, 0x8e, 0x8e, 0xbd, 0x95, 0x1c, 0x71, 0x3c, 0xc9, 0xa2, 0xb6, 0xbd, 0x78, 0x95, 0xbd, 0x3e, 0xf8, 0x7d, 0xf0, 0x3d, 0x61, 0x5b, 0x59, 0xbc, 0x9f, 0x79, 0x82, 0xbe, 0xaf, 0xff, 0x1f, 0x3c, 0xbb, 0x6f, 0xec, 0xbd, 0xbf, 0xf7, 0x18, 0x3e, 0x92, 0x3a, 0x8e, 0xbe, 0xc3, 0xc7, 0x81, 0x3d, 0xb5, 0x97, 0x89, 0xbe, 0x8d, 0xde, 0xcd, 0x3e, 0x27, 0xdb, 0xc0, 0x3d, 0x16, 0x5f, 0xfe, 0x3d, 0x99, 0xce, 0x86, 0x3d, 0x2e, 0x28, 0x93, 0xbe, 0xdd, 0x59, 0xae, 0xbe, 0xc7, 0x52, 0xcf, 0x3d, 0x58, 0x07, 0x55, 0xbd, 0x0a, 0x2b, 0x65, 0x3d, 0x19, 0xe1, 0x8a, 0x3c, 0x47, 0x0f, 0x11, 0x3e, 0x0b, 0x89, 0x0c, 0x3e, 0xe6, 0xfc, 0xaa, 0x3d, 0x00, 0xa8, 0xae, 0x3d, 0x47, 0x48, 0x1a, 0xbd, 0x0e, 0x9e, 0x03, 0xbf, 0x20, 0xd0, 0x39, 0xbe, 0xb6, 0x5b, 0x49, 0x3d, 0xbc, 0x04, 0x8a, 0x3d, 0x15, 0x81, 0x0d, 0xbf, 0x72, 0x9f, 0x23, 0x3e, 0xe0, 0x22, 0x0c, 0x3e, 0x37, 0xc2, 0x9e, 0xbd, 0x57, 0x12, 0x6a, 0x3d, 0x5f, 0x43, 0x9d, 0x3b, 0x80, 0x32, 0x82, 0xbf, 0x2c, 0xba, 0x94, 0xbd, 0x3a, 0x94, 0x74, 0xbb, 0x14, 0x78, 0xb6, 0x3b, 0x72, 0xd0, 0x6a, 0xbb, 0x3a, 0x6b, 0x7f, 0xbd, 0x2e, 0xf9, 0x0f, 0xbe, 0x93, 0x6b, 0xaa, 0xbd, 0x13, 0x19, 0x21, 0x3d, 0x61, 0x72, 0xae, 0x3c, 0xce, 0x30, 0x62, 0x3e, 0x07, 0xdf, 0x0a, 0xbe, 0x50, 0xbe, 0x75, 0xbe, 0x95, 0x0f, 0x01, 0xbe, 0x65, 0x0d, 0x50, 0xbd, 0xd8, 0x01, 0xd4, 0x3c, 0x77, 0x85, 0x00, 0x3e, 0xc0, 0x3f, 0x86, 0x3d, 0x56, 0xd0, 0xc1, 0x3d, 0x4c, 0xb3, 0x20, 0xbf, 0x08, 0x8c, 0x9e, 0x3e, 0xee, 0x91, 0xef, 0x3d, 0xd0, 0x63, 0x2d, 0xbf, 0xd0, 0xf3, 0x17, 0x3e, 0x81, 0x48, 0x09, 0xbf, 0xc3, 0xab, 0x8f, 0x3d, 0x3b, 0x78, 0x74, 0xbe, 0x3c, 0x05, 0x0a, 0xbf, 0xb7, 0x48, 0x21, 0xbe, 0x28, 0x47, 0x09, 0xbf, 0xf8, 0x07, 0xfe, 0x3e, 0xf2, 0xe3, 0x5f, 0x3e, 0x9b, 0x5f, 0xaf, 0x3b, 0x0e, 0x33, 0xcc, 0x3d, 0xd4, 0x9f, 0x32, 0xbf, 0x67, 0xbe, 0x92, 0x3d, 0xda, 0x12, 0xad, 0x3d, 0x22, 0x0e, 0xb4, 0xbd, 0x7b, 0xb9, 0x84, 0xbd, 0x2b, 0xef, 0x88, 0xbd, 0x3c, 0xcf, 0x54, 0x3d, 0x23, 0x8d, 0x0b, 0x3e, 0x42, 0x63, 0x7c, 0xbf, 0xf7, 0x00, 0x82, 0x3e, 0x74, 0x98, 0x85, 0xbe, 0xe2, 0x93, 0x8e, 0xbe, 0x3c, 0xaa, 0x0e, 0xc0, 0x06, 0xa8, 0x8e, 0x3d, 0xa2, 0xbf, 0x01, 0x3e, 0x87, 0x81, 0x16, 0xbd, 0x31, 0xc2, 0x61, 0xbe, 0xdc, 0x9b, 0x57, 0xbd, 0x9c, 0x24, 0x0c, 0xbd, 0xd2, 0x4b, 0xab, 0x3d, 0x82, 0xea, 0x7d, 0xbe, 0xd8, 0xdb, 0xa1, 0x3e, 0xf8, 0x35, 0x8c, 0x3d, 0x33, 0xf9, 0xf5, 0xbd, 0xd6, 0xae, 0xd1, 0xbd, 0xa5, 0xfa, 0x89, 0xbd, 0x96, 0x8a, 0xe3, 0xbd, 0x54, 0x4a, 0x04, 0xbd, 0x5e, 0x9d, 0x85, 0x3d, 0x25, 0xb4, 0x26, 0x3e, 0x0a, 0xab, 0x11, 0x3d, 0xc6, 0xc1, 0x27, 0xbe, 0x96, 0x73, 0x8f, 0x3e, 0xc4, 0x1e, 0x73, 0x3d, 0xa9, 0xe3, 0x27, 0x3e, 0x36, 0xb5, 0x28, 0xbf, 0x49, 0x3e, 0x6c, 0x3e, 0x05, 0x3a, 0xa1, 0x3c, 0x0b, 0x7c, 0xab, 0xbd, 0xd7, 0xc7, 0x20, 0x3d, 0x94, 0x40, 0x04, 0x3b, 0xdc, 0x62, 0x18, 0x3d, 0xb0, 0x10, 0x98, 0x3b, 0xee, 0xc6, 0xaa, 0xbd, 0x9a, 0x2c, 0xe9, 0xbc, 0xe9, 0xcc, 0x10, 0xbd, 0x33, 0xff, 0xd9, 0x3e, 0xd2, 0x40, 0x75, 0xbe, 0xd2, 0x90, 0xda, 0xbd, 0x8d, 0xa9, 0x40, 0xbe, 0x32, 0x96, 0x0b, 0x3d, 0xea, 0x27, 0xbd, 0xbd, 0x7f, 0xc9, 0xc5, 0x3d, 0xb3, 0xab, 0x32, 0xbe, 0xd9, 0x6c, 0xa6, 0xbd, 0x1b, 0x59, 0x92, 0xbd, 0x96, 0x3b, 0xb7, 0x3d, 0xa9, 0x29, 0x49, 0x3e, 0xd5, 0xe5, 0xbd, 0xbd, 0xa8, 0x93, 0x77, 0xbc, 0xf0, 0x3c, 0xe5, 0x3c, 0xf5, 0xe7, 0xc7, 0xbd, 0xf0, 0x3e, 0xff, 0xbc, 0xd4, 0x68, 0x53, 0xbe, 0x50, 0x43, 0x20, 0x3d, 0x70, 0x16, 0x84, 0x3d, 0xd2, 0x69, 0x39, 0x3f, 0x1d, 0x96, 0x0b, 0xbe, 0xd0, 0x98, 0xf8, 0xbd, 0x7b, 0x18, 0xbe, 0xbd, 0xba, 0xfa, 0x97, 0xbd, 0x86, 0x9d, 0x6c, 0xbd, 0xed, 0x7b, 0xd4, 0xbd, 0x3b, 0xe4, 0xe7, 0x3a, 0x3c, 0x4b, 0xb3, 0xbd, 0x11, 0x5a, 0xa1, 0xbd, 0x98, 0xd8, 0xea, 0xbd, 0x9d, 0xd3, 0x0c, 0xbc, 0x90, 0x4b, 0x14, 0xbd, 0x70, 0x18, 0x73, 0xbe, 0x4c, 0x0d, 0x7a, 0x3b, 0x09, 0x1d, 0x93, 0x3c, 0x6a, 0xa7, 0xc2, 0xbc, 0x70, 0x94, 0xb9, 0x3d, 0xc3, 0x6e, 0xda, 0x3d, 0xde, 0x5f, 0x07, 0xbf, 0xda, 0x0c, 0x26, 0x3e, 0x67, 0x7f, 0xe1, 0x3c, 0x49, 0xdb, 0xa8, 0xbd, 0x41, 0x05, 0x83, 0xbe, 0xf0, 0x9e, 0x23, 0x3d, 0x32, 0xfd, 0x71, 0x3e, 0xed, 0x76, 0xaa, 0x3d, 0xa8, 0xee, 0x81, 0x3e, 0xf3, 0xa3, 0x78, 0xbd, 0x5a, 0x82, 0xbb, 0xbd, 0xe5, 0xab, 0x8f, 0xbf, 0xcb, 0xfb, 0xfd, 0xbe, 0x70, 0x32, 0xac, 0x3d, 0x22, 0x41, 0x02, 0xbc, 0x30, 0x38, 0xfe, 0xbc, 0x10, 0x30, 0x3c, 0x3d, 0x04, 0xe7, 0x95, 0x3b, 0xd6, 0x2f, 0x42, 0xbe, 0x6d, 0xbb, 0x81, 0x3e, 0xea, 0xa2, 0x33, 0xbe, 0x79, 0xe4, 0xe1, 0xbf, 0x91, 0x71, 0x3a, 0xbe, 0xfe, 0x07, 0x51, 0x3d, 0x1a, 0x80, 0x74, 0x3d, 0xc2, 0x30, 0x35, 0xbf, 0x47, 0xeb, 0xee, 0x3d, 0xd1, 0x3b, 0x58, 0x3e, 0xe6, 0x89, 0x07, 0xbf, 0x4e, 0xdf, 0x23, 0xbe, 0x3c, 0xba, 0x18, 0xbf, 0x25, 0x51, 0x08, 0x3f, 0x86, 0x70, 0x95, 0x3e, 0xbe, 0xf3, 0xa8, 0xbe, 0x27, 0xd7, 0x0d, 0xbd, 0x64, 0x59, 0x0b, 0xbf, 0xb1, 0x1d, 0x32, 0x3e, 0x5b, 0xe9, 0x4f, 0x3e, 0x81, 0xaf, 0xd8, 0x3d, 0x4b, 0x04, 0xa2, 0xbe, 0x28, 0x2f, 0x2a, 0xbd, 0xbb, 0x22, 0x43, 0x3e, 0x85, 0x38, 0x10, 0x3e, 0x7b, 0x30, 0x49, 0x3d, 0xbc, 0x6f, 0x7f, 0x3d, 0x74, 0x9a, 0x98, 0xbc, 0xae, 0x83, 0x0d, 0x3f, 0x6f, 0xdf, 0x0c, 0xbe, 0xff, 0xf4, 0x11, 0x3e, 0x91, 0x8b, 0x18, 0x3e, 0x8e, 0xdb, 0x2b, 0xbf, 0xea, 0xfe, 0x06, 0x3e, 0xc0, 0x6b, 0xd2, 0x3d, 0xb4, 0x49, 0x98, 0xbc, 0xc1, 0x56, 0x65, 0xbe, 0x8e, 0xd1, 0xa9, 0xbc, 0xfc, 0xea, 0xc7, 0x3e, 0x23, 0xb7, 0x4b, 0x3d, 0x18, 0x44, 0x66, 0xbc, 0x8a, 0x23, 0x62, 0xbd, 0x90, 0x3a, 0xe8, 0xbb, 0x05, 0x70, 0xc6, 0xbd, 0x96, 0xb7, 0xcf, 0xbd, 0xa3, 0x76, 0xbb, 0xbd, 0x84, 0xe9, 0x9c, 0x3d, 0x77, 0x7f, 0x06, 0xbd, 0x31, 0x8a, 0xa9, 0x3e, 0xf4, 0x58, 0x4f, 0x3e, 0x58, 0x06, 0x9e, 0x3c, 0xfd, 0xda, 0xee, 0x3b, 0x9b, 0x2b, 0x91, 0xbc, 0x65, 0x73, 0x68, 0xbc, 0xb4, 0x44, 0xb7, 0xbc, 0x63, 0xe8, 0x38, 0xbd, 0x81, 0x24, 0x98, 0x3d, 0xa5, 0xf5, 0x19, 0xbe, 0x64, 0x2e, 0xdc, 0x3d, 0xec, 0xcf, 0xbb, 0xbd, 0x74, 0x2a, 0x18, 0x3b, 0xcd, 0x40, 0xbc, 0x3c, 0x8e, 0xa9, 0xf0, 0x3a, 0x15, 0xd5, 0xaf, 0x3d, 0xd0, 0xee, 0x27, 0x3e, 0xe8, 0x93, 0xef, 0x3c, 0x4a, 0x77, 0x09, 0xbc, 0xcf, 0x75, 0x94, 0xbd, 0x0c, 0xa8, 0x11, 0x3f, 0xe3, 0x4b, 0x8f, 0x3d, 0x0c, 0xdb, 0xcf, 0x3c, 0xbd, 0xce, 0xf7, 0xbb, 0xb1, 0x9b, 0xc2, 0xbc, 0xe1, 0x0a, 0xa6, 0x3c, 0x6b, 0xe4, 0xfb, 0xbb, 0xa3, 0x24, 0xb5, 0x3c, 0xe1, 0xed, 0xdb, 0xbe, 0x2a, 0x2b, 0xa3, 0x3c, 0x2d, 0xc9, 0x3a, 0x3e, 0x6c, 0xbd, 0xe8, 0x3c, 0x7c, 0x47, 0x3a, 0xbd, 0x5a, 0xf9, 0xcc, 0xba, 0xda, 0x38, 0xb9, 0xbd, 0x0c, 0x27, 0x87, 0x3a, 0x52, 0x03, 0xd4, 0x3c, 0xe8, 0x0f, 0x2b, 0xbb, 0x2d, 0x6a, 0x48, 0xbe, 0xcd, 0xc7, 0x5b, 0xba, 0xc0, 0x85, 0x51, 0xbe, 0x55, 0x35, 0x0c, 0x3d, 0xdb, 0x23, 0xa7, 0xbd, 0x0a, 0x71, 0x1e, 0xbc, 0xf7, 0xcc, 0xa7, 0x3c, 0x67, 0xd6, 0xe0, 0xbd, 0x75, 0xaa, 0x90, 0xbd, 0xd8, 0xff, 0xcb, 0x3c, 0xd5, 0xbc, 0x26, 0xbc, 0x23, 0x3d, 0xf0, 0xbd, 0xa4, 0xfc, 0xea, 0xbd, 0xbd, 0x24, 0xf1, 0x3c, 0xa6, 0x6f, 0x02, 0xbf, 0x41, 0x9c, 0xff, 0x3d, 0xe7, 0x8f, 0x31, 0xbf, 0x3d, 0x1c, 0xdb, 0x3e, 0x46, 0x72, 0x10, 0xbd, 0x34, 0xfe, 0x91, 0xbd, 0x78, 0xc3, 0x37, 0x3d, 0x74, 0x7a, 0x91, 0x3c, 0xfd, 0xe1, 0x4e, 0xbd, 0x39, 0x93, 0x2a, 0xbe, 0x4c, 0x4c, 0xbb, 0x3c, 0xc5, 0x0b, 0xbd, 0x3d, 0x39, 0x66, 0x22, 0xbe, 0xef, 0x09, 0x88, 0xbe, 0x43, 0xf5, 0x68, 0xbd, 0xd9, 0xd0, 0x8e, 0x3d, 0xad, 0x37, 0xe1, 0x3d, 0xb2, 0x22, 0xc0, 0xbd, 0x39, 0x6b, 0xba, 0xbc, 0x1a, 0xe9, 0x1c, 0xbe, 0x99, 0x3c, 0x94, 0xbd, 0x4d, 0xa8, 0x30, 0xbd, 0x2d, 0xee, 0x31, 0x3d, 0x72, 0x9d, 0xac, 0x3e, 0x7f, 0x01, 0xa7, 0x3d, 0x47, 0xd6, 0x46, 0x3e, 0x68, 0x24, 0x55, 0x3e, 0x87, 0xba, 0x8f, 0xbd, 0xef, 0xe5, 0x8f, 0xbf, 0x7f, 0x72, 0x01, 0xbe, 0xe3, 0x88, 0xb8, 0xbd, 0x1e, 0x3f, 0x2b, 0xbe, 0xe0, 0x57, 0xb1, 0x3c, 0xc3, 0x99, 0xf8, 0xbd, 0x1c, 0xd1, 0x7d, 0x3d, 0xa5, 0xe2, 0x01, 0xbc, 0x91, 0xb6, 0x78, 0xbe, 0x6e, 0x4c, 0x08, 0xbd, 0x4c, 0x7f, 0x4f, 0x3e, 0xa6, 0x56, 0x78, 0x3d, 0xc6, 0x42, 0xc3, 0xbc, 0xe2, 0xa8, 0x8b, 0x3d, 0x71, 0x8f, 0x04, 0xbf, 0xd6, 0xf6, 0xb6, 0xbe, 0xe6, 0xf3, 0x05, 0x3e, 0x1f, 0xab, 0x24, 0xbe, 0xb2, 0xd9, 0x43, 0x3e, 0x6b, 0xdb, 0xb6, 0xbe, 0xc2, 0x6e, 0xaf, 0x3d, 0xd1, 0xc2, 0x9a, 0xbe, 0x8b, 0xeb, 0x56, 0xbe, 0x69, 0xca, 0x0e, 0xbe, 0x64, 0x8a, 0x27, 0xbc, 0x58, 0x52, 0x35, 0x3c, 0xb1, 0xc3, 0x05, 0x3e, 0x4c, 0xf0, 0xf3, 0x3b, 0x3b, 0x5b, 0xe2, 0xbd, 0x31, 0x81, 0xa6, 0x39, 0x3b, 0xcd, 0x0c, 0x3d, 0xac, 0x2f, 0x3f, 0x3e, 0x76, 0x58, 0x94, 0xbd, 0x03, 0x28, 0x39, 0x3c, 0xd4, 0xed, 0x96, 0x3c, 0x07, 0x45, 0x4b, 0x3e, 0x92, 0x24, 0x9d, 0xbd, 0x06, 0x53, 0x7c, 0xbe, 0xd6, 0x80, 0x77, 0x3c, 0xbe, 0x6d, 0x23, 0xbe, 0x6c, 0x1d, 0x05, 0x3f, 0x28, 0x3b, 0xfb, 0x3d, 0xb6, 0xf7, 0xff, 0xff, 0x10, 0x00, 0x00, 0x00, 0x06, 0x00, 0x00, 0x00, 0x14, 0x00, 0x00, 0x00, 0x34, 0x00, 0x00, 0x00, 0x02, 0x00, 0x00, 0x00, 0x90, 0x01, 0x00, 0x00, 0x05, 0x00, 0x00, 0x00, 0x1c, 0x00, 0x00, 0x00, 0x53, 0x65, 0x71, 0x75, 0x65, 0x6e, 0x74, 0x69, 0x61, 0x6c, 0x2d, 0x4e, 0x4e, 0x2f, 0x64, 0x65, 0x6e, 0x73, 0x65, 0x5f, 0x31, 0x2f, 0x4d, 0x61, 0x74, 0x4d, 0x75, 0x6c, 0x00, 0x00, 0x00, 0x00, 0x3c, 0xf7, 0xff, 0xff, 0x26, 0xf8, 0xff, 0xff, 0x04, 0x00, 0x00, 0x00, 0x64, 0x00, 0x00, 0x00, 0x8c, 0x81, 0x03, 0x3f, 0x9f, 0x5a, 0x33, 0x3e, 0xd8, 0xc1, 0x6e, 0xbe, 0x1f, 0x1f, 0x2b, 0x3f, 0xb3, 0x61, 0xba, 0x3e, 0x20, 0xc9, 0xb3, 0xbe, 0xa2, 0x6b, 0xe9, 0x3e, 0x18, 0x9b, 0x06, 0x3f, 0x81, 0xec, 0x27, 0xbf, 0x31, 0x6d, 0x15, 0x3e, 0x77, 0x0d, 0x3a, 0x3d, 0x2e, 0x49, 0x5b, 0x3e, 0xb4, 0x64, 0x26, 0xbf, 0x1b, 0xcc, 0x09, 0x3e, 0x10, 0xa3, 0x1b, 0xbf, 0x52, 0x07, 0x24, 0xbf, 0x16, 0x2a, 0xcf, 0xbe, 0xd6, 0xf8, 0x42, 0x3e, 0x09, 0x09, 0xfe, 0x3e, 0x24, 0x42, 0x86, 0x3e, 0x49, 0xd9, 0x90, 0xc0, 0x63, 0xb2, 0x36, 0xbf, 0xfa, 0x91, 0x0d, 0x3e, 0x20, 0x49, 0x9a, 0xbe, 0x3f, 0x26, 0x61, 0x3e, 0x6e, 0xf8, 0xff, 0xff, 0x10, 0x00, 0x00, 0x00, 0x05, 0x00, 0x00, 0x00, 0x14, 0x00, 0x00, 0x00, 0x30, 0x00, 0x00, 0x00, 0x02, 0x00, 0x00, 0x00, 0x05, 0x00, 0x00, 0x00, 0x05, 0x00, 0x00, 0x00, 0x1a, 0x00, 0x00, 0x00, 0x53, 0x65, 0x71, 0x75, 0x65, 0x6e, 0x74, 0x69, 0x61, 0x6c, 0x2d, 0x4e, 0x4e, 0x2f, 0x64, 0x65, 0x6e, 0x73, 0x65, 0x2f, 0x4d, 0x61, 0x74, 0x4d, 0x75, 0x6c, 0x00, 0x00, 0xf0, 0xf7, 0xff, 0xff, 0xda, 0xf8, 0xff, 0xff, 0x04, 0x00, 0x00, 0x00, 0x10, 0x00, 0x00, 0x00, 0x25, 0xff, 0x00, 0xbe, 0x81, 0x79, 0xa4, 0xbd, 0xa1, 0x66, 0x41, 0x3e, 0x1d, 0xb7, 0x2b, 0xbd, 0xce, 0xf8, 0xff, 0xff, 0x10, 0x00, 0x00, 0x00, 0x04, 0x00, 0x00, 0x00, 0x10, 0x00, 0x00, 0x00, 0x48, 0x00, 0x00, 0x00, 0x01, 0x00, 0x00, 0x00, 0x04, 0x00, 0x00, 0x00, 0x35, 0x00, 0x00, 0x00, 0x53, 0x65, 0x71, 0x75, 0x65, 0x6e, 0x74, 0x69, 0x61, 0x6c, 0x2d, 0x4e, 0x4e, 0x2f, 0x64, 0x65, 0x6e, 0x73, 0x65, 0x5f, 0x32, 0x2f, 0x42, 0x69, 0x61, 0x73, 0x41, 0x64, 0x64, 0x2f, 0x52, 0x65, 0x61, 0x64, 0x56, 0x61, 0x72, 0x69, 0x61, 0x62, 0x6c, 0x65, 0x4f, 0x70, 0x2f, 0x72, 0x65, 0x73, 0x6f, 0x75, 0x72, 0x63, 0x65, 0x00, 0x00, 0x00, 0x68, 0xf8, 0xff, 0xff, 0x52, 0xf9, 0xff, 0xff, 0x04, 0x00, 0x00, 0x00, 0x40, 0x06, 0x00, 0x00, 0x11, 0x98, 0xe3, 0x3d, 0x76, 0x4f, 0xe4, 0x3d, 0x52, 0x0c, 0x83, 0x3d, 0x01, 0x21, 0x68, 0x3e, 0x99, 0x83, 0xcc, 0xbd, 0x7b, 0x88, 0x2d, 0x3e, 0xcc, 0xd3, 0x1d, 0x3c, 0xc7, 0xd9, 0x8e, 0x3b, 0xd4, 0x48, 0x8d, 0x3d, 0x26, 0x77, 0x90, 0x3d, 0xbf, 0x2e, 0x86, 0xbd, 0x9d, 0x5c, 0x82, 0x3c, 0xdb, 0xd3, 0x91, 0x3e, 0xe5, 0x75, 0xb3, 0x3d, 0xa8, 0xf9, 0x34, 0x3e, 0xd7, 0x78, 0x25, 0x3e, 0x7d, 0x91, 0x5d, 0x3d, 0x44, 0xef, 0x5b, 0xbe, 0x00, 0x00, 0x00, 0x00, 0xc3, 0x35, 0xca, 0xbd, 0x64, 0xfc, 0x1f, 0x3e, 0x00, 0x00, 0x00, 0x00, 0xa5, 0x94, 0x3d, 0x3e, 0xb2, 0x87, 0xba, 0xbc, 0xd8, 0x72, 0x0c, 0x3d, 0xe6, 0x79, 0x7d, 0x3d, 0x5d, 0x84, 0x35, 0xbc, 0xc6, 0xa2, 0x03, 0x3e, 0x14, 0xad, 0x98, 0xbc, 0x08, 0xa5, 0x95, 0xbd, 0xa5, 0xb6, 0x72, 0xbc, 0xad, 0x6d, 0x8b, 0x3a, 0xca, 0x5e, 0x23, 0xbe, 0x52, 0x07, 0x59, 0xbe, 0x3b, 0xbe, 0x13, 0x3e, 0xe9, 0x3c, 0x10, 0xbd, 0x00, 0x00, 0x00, 0x00, 0x67, 0xd8, 0x62, 0x3e, 0x16, 0xdd, 0xe0, 0x3d, 0x28, 0x36, 0x3f, 0x3d, 0xad, 0x72, 0x89, 0x3e, 0x74, 0xcb, 0x20, 0x3e, 0x76, 0xbc, 0x2d, 0xbd, 0x93, 0x82, 0xa4, 0x3d, 0x08, 0xfc, 0x94, 0x3d, 0xbb, 0x11, 0x20, 0x3e, 0x68, 0x17, 0x8d, 0xbe, 0x2e, 0x7e, 0xfe, 0x3d, 0xda, 0x77, 0x10, 0xbd, 0x72, 0x62, 0xf6, 0x3d, 0x0b, 0xda, 0xec, 0x3d, 0x0e, 0x36, 0xe6, 0x3d, 0x3a, 0x2c, 0xd1, 0x3c, 0x24, 0x10, 0x66, 0xbc, 0x4e, 0x49, 0x2e, 0x3e, 0xff, 0xc8, 0x5c, 0xbe, 0xc3, 0x9c, 0x25, 0x3e, 0x56, 0x4f, 0x8a, 0xbb, 0x74, 0x0d, 0x8e, 0xbb, 0xe7, 0xfe, 0x45, 0x3c, 0x44, 0x49, 0x41, 0x3e, 0xf3, 0xe2, 0xd9, 0xbc, 0xfc, 0x60, 0xa8, 0xbe, 0x26, 0x92, 0x31, 0xbb, 0xc4, 0xad, 0x3f, 0x3e, 0x73, 0x2c, 0x9e, 0xbd, 0x79, 0x49, 0x88, 0x3d, 0x56, 0x0a, 0x49, 0xbc, 0xfd, 0xef, 0xe7, 0xbd, 0x6c, 0x51, 0xd3, 0x3d, 0x08, 0x29, 0x27, 0xbe, 0x7d, 0x65, 0x01, 0x3e, 0x10, 0x4b, 0x11, 0x3e, 0xdb, 0x1a, 0x28, 0xbe, 0xd9, 0xab, 0xb6, 0xbe, 0xfa, 0xcf, 0x3c, 0x3e, 0xe8, 0xd6, 0xef, 0xbd, 0x63, 0x5d, 0x53, 0x3e, 0x66, 0xfa, 0xef, 0xbb, 0x56, 0x27, 0x7e, 0x3d, 0xc5, 0x2d, 0x79, 0xbc, 0x8c, 0xde, 0x2c, 0x3e, 0xdf, 0x22, 0xf1, 0x3d, 0x92, 0x89, 0x03, 0x3e, 0xd1, 0x63, 0x86, 0x3c, 0x37, 0xfb, 0xd2, 0xbd, 0x95, 0x82, 0x44, 0xbe, 0x00, 0x00, 0x00, 0x00, 0xb0, 0xfa, 0x1e, 0xbe, 0x58, 0x24, 0xce, 0xbe, 0x8c, 0x9c, 0x2c, 0x3e, 0x93, 0x3c, 0xe9, 0xbd, 0xa5, 0x1c, 0x29, 0xbd, 0x25, 0x72, 0x31, 0xbb, 0x00, 0x00, 0x00, 0x00, 0xd8, 0xa0, 0xcb, 0xbe, 0x8d, 0xd5, 0x94, 0xbe, 0xb5, 0x3b, 0xb1, 0xbd, 0x07, 0x48, 0x45, 0x3e, 0xbc, 0x09, 0x69, 0x3e, 0x16, 0x22, 0x9e, 0x3d, 0xbd, 0x9c, 0x1f, 0x3e, 0x00, 0x00, 0x00, 0x00, 0x9a, 0xb3, 0x16, 0xbe, 0x82, 0xe6, 0x47, 0x3e, 0x32, 0x53, 0x63, 0xbd, 0x0f, 0xa4, 0x0a, 0x3e, 0xb7, 0x13, 0x8b, 0xbd, 0x49, 0x66, 0x34, 0x3d, 0x2a, 0xea, 0x8a, 0xbd, 0x13, 0x17, 0xb0, 0x3c, 0xd7, 0x35, 0x81, 0x3e, 0x00, 0x00, 0x00, 0x00, 0x57, 0x0b, 0x1a, 0x3e, 0x3d, 0x3a, 0x39, 0xbd, 0x5c, 0x93, 0x0f, 0x3e, 0x00, 0x00, 0x00, 0x00, 0xc2, 0x12, 0x6e, 0x3c, 0x3d, 0x41, 0x75, 0xbc, 0xe5, 0xf2, 0x6a, 0x3c, 0x6d, 0x4c, 0x47, 0x3e, 0x6f, 0x12, 0x60, 0x3e, 0xc1, 0x79, 0x4e, 0xbd, 0xf7, 0xe2, 0x83, 0xbd, 0x74, 0x8c, 0x81, 0x3d, 0xa7, 0x1b, 0x82, 0xbe, 0x54, 0xf2, 0x37, 0xbb, 0xc3, 0x99, 0xa9, 0x3e, 0x78, 0xe6, 0x7c, 0x3e, 0xbc, 0xa4, 0x1d, 0x3d, 0x5e, 0x09, 0x67, 0x3e, 0x88, 0x83, 0x3a, 0xbd, 0x52, 0x6a, 0x3a, 0xbc, 0xfd, 0x82, 0x29, 0x3e, 0x1a, 0xa2, 0x86, 0x3d, 0xf9, 0x92, 0x49, 0x3d, 0x56, 0xa7, 0xac, 0x3d, 0x69, 0x29, 0x75, 0x3d, 0x0a, 0xad, 0xac, 0xbd, 0x3e, 0x66, 0xc2, 0x3d, 0xdf, 0x2b, 0x29, 0x3e, 0x12, 0x86, 0x08, 0xbd, 0xbf, 0x04, 0x94, 0x3d, 0x05, 0x83, 0x89, 0xbe, 0x2d, 0x00, 0xb7, 0xbc, 0x4e, 0x70, 0xc9, 0x3c, 0xad, 0x63, 0xbd, 0x3c, 0x97, 0x8b, 0xd6, 0x3d, 0x7b, 0x0f, 0x1d, 0xbe, 0x66, 0x4a, 0x3d, 0x3e, 0xed, 0xbb, 0xea, 0xbc, 0xd7, 0x12, 0xea, 0x3d, 0x8f, 0x3c, 0x72, 0x3e, 0xe8, 0x2d, 0x4e, 0xbd, 0x4e, 0xd2, 0xff, 0x3d, 0x09, 0x64, 0x80, 0x3d, 0x00, 0x00, 0x00, 0x00, 0x77, 0x82, 0x42, 0xbd, 0x18, 0x7d, 0x57, 0x3e, 0xd0, 0x13, 0xe8, 0x3d, 0x4c, 0xaa, 0x2a, 0xbd, 0x0b, 0x94, 0x05, 0x3e, 0x0f, 0xd7, 0xae, 0xbd, 0xd7, 0x08, 0xfc, 0xbc, 0x0c, 0xc7, 0x5d, 0xbd, 0xe9, 0x02, 0x2a, 0x3e, 0x4b, 0x64, 0xad, 0x3d, 0x6c, 0xb5, 0x91, 0xbc, 0x86, 0x46, 0x36, 0x3e, 0x2c, 0x91, 0x04, 0x3e, 0x6e, 0x51, 0xe5, 0x3d, 0xd3, 0x8f, 0x22, 0x3e, 0x9b, 0x0b,