
#ifdef __has_attribute
#define HAVE_ATTRIBUTE(x) __has_attribute(x)
#else
#define HAVE_ATTRIBUTE(x) 0
#endif
#if HAVE_ATTRIBUTE(aligned) || (defined(__GNUC__) && !defined(__clang__))
#define DATA_ALIGN_ATTRIBUTE __attribute__((aligned(4)))
#else
#define DATA_ALIGN_ATTRIBUTE
#endif

const unsigned char model_data[] DATA_ALIGN_ATTRIBUTE = {0x1c, 0x00, 0x00, 0x00, 0x54, 0x46, 0x4c, 0x33, 0x00, 0x00, 0x12, 0x00, 0x1c, 0x00, 0x04, 0x00, 0x08, 0x00, 0x0c, 0x00, 0x10, 0x00, 0x14, 0x00, 0x00, 0x00, 0x18, 0x00, 0x12, 0x00, 0x00, 0x00, 0x03, 0x00, 0x00, 0x00, 0x14, 0x00, 0x00, 0x00, 0x1c, 0x00, 0x00, 0x00, 0xa8, 0x00, 0x00, 0x00, 0x1c, 0x00, 0x00, 0x00, 0x50, 0x00, 0x00, 0x00, 0x02, 0x00, 0x00, 0x00, 0x58, 0x03, 0x00, 0x00, 0x6c, 0x01, 0x00, 0x00, 0x01, 0x00, 0x00, 0x00, 0xb0, 0x00, 0x00, 0x00, 0x0d, 0x00, 0x00, 0x00, 0xf8, 0x2a, 0x00, 0x00, 0xf4, 0x2a, 0x00, 0x00, 0x04, 0x2a, 0x00, 0x00, 0x8c, 0x25, 0x00, 0x00, 0x14, 0x25, 0x00, 0x00, 0x58, 0x24, 0x00, 0x00, 0x00, 0x10, 0x00, 0x00, 0xa8, 0x03, 0x00, 0x00, 0xd8, 0x2a, 0x00, 0x00, 0xd4, 0x2a, 0x00, 0x00, 0xd0, 0x2a, 0x00, 0x00, 0xcc, 0x2a, 0x00, 0x00, 0x38, 0x00, 0x00, 0x00, 0x01, 0x00, 0x00, 0x00, 0x0c, 0x00, 0x00, 0x00, 0x08, 0x00, 0x0c, 0x00, 0x04, 0x00, 0x08, 0x00, 0x08, 0x00, 0x00, 0x00, 0x08, 0x00, 0x00, 0x00, 0x0c, 0x00, 0x00, 0x00, 0x13, 0x00, 0x00, 0x00, 0x6d, 0x69, 0x6e, 0x5f, 0x72, 0x75, 0x6e, 0x74, 0x69, 0x6d, 0x65, 0x5f, 0x76, 0x65, 0x72, 0x73, 0x69, 0x6f, 0x6e, 0x00, 0x62, 0xd6, 0xff, 0xff, 0x04, 0x00, 0x00, 0x00, 0x10, 0x00, 0x00, 0x00, 0x31, 0x2e, 0x35, 0x2e, 0x30, 0x00, 0x00, 0x00, 0x00, 0x00, 0x00, 0x00, 0x00, 0x00, 0x00, 0x00, 0x0f, 0x00, 0x00, 0x00, 0x4d, 0x4c, 0x49, 0x52, 0x20, 0x43, 0x6f, 0x6e, 0x76, 0x65, 0x72, 0x74, 0x65, 0x64, 0x2e, 0x00, 0x00, 0x00, 0x0e, 0x00, 0x18, 0x00, 0x04, 0x00, 0x08, 0x00, 0x0c, 0x00, 0x10, 0x00, 0x14, 0x00, 0x0e, 0x00, 0x00, 0x00, 0x14, 0x00, 0x00, 0x00, 0x40, 0x00, 0x00, 0x00, 0x44, 0x00, 0x00, 0x00, 0x48, 0x00, 0x00, 0x00, 0x58, 0x00, 0x00, 0x00, 0x0b, 0x00, 0x00, 0x00, 0xe8, 0x29, 0x00, 0x00, 0x74, 0x29, 0x00, 0x00, 0xd8, 0x28, 0x00, 0x00, 0x6c, 0x24, 0x00, 0x00, 0x08, 0x24, 0x00, 0x00, 0x4c, 0x23, 0x00, 0x00, 0xf4, 0x0e, 0x00, 0x00, 0x70, 0x02, 0x00, 0x00, 0x94, 0x01, 0x00, 0x00, 0xf4, 0x00, 0x00, 0x00, 0x7c, 0x00, 0x00, 0x00, 0x01, 0x00, 0x00, 0x00, 0x00, 0x00, 0x00, 0x00, 0x01, 0x00, 0x00, 0x00, 0x0a, 0x00, 0x00, 0x00, 0x04, 0x00, 0x00, 0x00, 0xf8, 0x01, 0x00, 0x00, 0x3c, 0x01, 0x00, 0x00, 0xa0, 0x00, 0x00, 0x00, 0x1c, 0x00, 0x00, 0x00, 0x04, 0x00, 0x00, 0x00, 0x6d, 0x61, 0x69, 0x6e, 0x00, 0x00, 0x0e, 0x00, 0x18, 0x00, 0x08, 0x00, 0x0c, 0x00, 0x10, 0x00, 0x07, 0x00, 0x14, 0x00, 0x0e, 0x00, 0x00, 0x00, 0x00, 0x00, 0x00, 0x09, 0x01, 0x00, 0x00, 0x00, 0x1c, 0x00, 0x00, 0x00, 0x10, 0x00, 0x00, 0x00, 0x04, 0x00, 0x00, 0x00, 0x3e, 0xd7, 0xff, 0xff, 0x00, 0x00, 0x80, 0x3f, 0x01, 0x00, 0x00, 0x00, 0x0a, 0x00, 0x00, 0x00, 0x01, 0x00, 0x00, 0x00, 0x09, 0x00, 0x00, 0x00, 0x22, 0xfe, 0xff, 0xff, 0x00, 0x00, 0x00, 0x19, 0x01, 0x00, 0x00, 0x00, 0xd0, 0xd6, 0xff, 0xff, 0x14, 0x00, 0x00, 0x00, 0x0b, 0x00, 0x00, 0x00, 0x18, 0x00, 0x00, 0x00, 0x30, 0x00, 0x00, 0x00, 0x20, 0x00, 0x00, 0x00, 0x02, 0x00, 0x00, 0x00, 0x01, 0x00, 0x00, 0x00, 0x03, 0x00, 0x00, 0x00, 0x08, 0x00, 0x00, 0x00, 0x49, 0x64, 0x65, 0x6e, 0x74, 0x69, 0x74, 0x79, 0x00, 0x00, 0x00, 0x00, 0x02, 0x00, 0x00, 0x00, 0xff, 0xff, 0xff, 0xff, 0x03, 0x00, 0x00, 0x00, 0xb4, 0xd6, 0xff, 0xff, 0x76, 0xff, 0xff, 0xff, 0x00, 0x00, 0x00, 0x08, 0x18, 0x00, 0x00, 0x00, 0x0c, 0x00, 0x00, 0x00, 0x04, 0x00, 0x00, 0x00, 0xcc, 0xd6, 0xff, 0xff, 0x01, 0x00, 0x00, 0x00, 0x09, 0x00, 0x00, 0x00, 0x03, 0x00, 0x00, 0x00, 0x08, 0x00, 0x00, 0x00, 0x06, 0x00, 0x00, 0x00, 0x03, 0x00, 0x00, 0x00, 0x44, 0xd7, 0xff, 0xff, 0x14, 0x00, 0x00, 0x00, 0x0a, 0x00, 0x00, 0x00, 0x18, 0x00, 0x00, 0x00, 0x44, 0x00, 0x00, 0x00, 0x34, 0x00, 0x00, 0x00, 0x02, 0x00, 0x00, 0x00, 0x01, 0x00, 0x00, 0x00, 0x03, 0x00, 0x00, 0x00, 0x1d, 0x00, 0x00, 0x00, 0x53, 0x65, 0x71, 0x75, 0x65, 0x6e, 0x74, 0x69, 0x61, 0x6c, 0x2d, 0x4e, 0x4e, 0x2f, 0x64, 0x65, 0x6e, 0x73, 0x65, 0x5f, 0x38, 0x2f, 0x42, 0x69, 0x61, 0x73, 0x41, 0x64, 0x64, 0x00, 0x00, 0x00, 0x02, 0x00, 0x00, 0x00, 0xff, 0xff, 0xff, 0xff, 0x03, 0x00, 0x00, 0x00, 0x34, 0xd8, 0xff, 0xff, 0x00, 0x00, 0x0e, 0x00, 0x14, 0x00, 0x00, 0x00, 0x08, 0x00, 0x0c, 0x00, 0x07, 0x00, 0x10, 0x00, 0x0e, 0x00, 0x00, 0x00, 0x00, 0x00, 0x00, 0x08, 0x1c, 0x00, 0x00, 0x00, 0x10, 0x00, 0x00, 0x00, 0x04, 0x00, 0x00, 0x00, 0x46, 0xff, 0xff, 0xff, 0x00, 0x00, 0x00, 0x01, 0x01, 0x00, 0x00, 0x00, 0x08, 0x00, 0x00, 0x00, 0x03, 0x00, 0x00, 0x00, 0x07, 0x00, 0x00, 0x00, 0x05, 0x00, 0x00, 0x00, 0x02, 0x00, 0x00, 0x00, 0xe0, 0xd7, 0xff, 0xff, 0x14, 0x00, 0x00, 0x00, 0x09, 0x00, 0x00, 0x00, 0x18, 0x00, 0x00, 0x00, 0x60, 0x00, 0x00, 0x00, 0x50, 0x00, 0x00, 0x00, 0x02, 0x00, 0x00, 0x00, 0x01, 0x00, 0x00, 0x00, 0x00, 0x01, 0x00, 0x00, 0x38, 0x00, 0x00, 0x00, 0x53, 0x65, 0x71, 0x75, 0x65, 0x6e, 0x74, 0x69, 0x61, 0x6c, 0x2d, 0x4e, 0x4e, 0x2f, 0x64, 0x65, 0x6e, 0x73, 0x65, 0x5f, 0x37, 0x2f, 0x52, 0x65, 0x6c, 0x75, 0x3b, 0x53, 0x65, 0x71, 0x75, 0x65, 0x6e, 0x74, 0x69, 0x61, 0x6c, 0x2d, 0x4e, 0x4e, 0x2f, 0x64, 0x65, 0x6e, 0x73, 0x65, 0x5f, 0x37, 0x2f, 0x42, 0x69, 0x61, 0x73, 0x41, 0x64, 0x64, 0x00, 0x00, 0x00, 0x00, 0x02, 0x00, 0x00, 0x00, 0xff, 0xff, 0xff, 0xff, 0x00, 0x01, 0x00, 0x00, 0xec, 0xd8, 0xff, 0xff, 0x00, 0x00, 0x0e, 0x00, 0x16, 0x00, 0x00, 0x00, 0x08, 0x00, 0x0c, 0x00, 0x07, 0x00, 0x10, 0x00, 0x0e, 0x00, 0x00, 0x00, 0x00, 0x00, 0x00, 0x08, 0x24, 0x00, 0x00, 0x00, 0x18, 0x00, 0x00, 0x00, 0x0c, 0x00, 0x00, 0x00, 0x00, 0x00, 0x06, 0x00, 0x08, 0x00, 0x07, 0x00, 0x06, 0x00, 0x00, 0x00, 0x00, 0x00, 0x00, 0x01, 0x01, 0x00, 0x00, 0x00, 0x07, 0x00, 0x00, 0x00, 0x03, 0x00, 0x00, 0x00, 0x00, 0x00, 0x00, 0x00, 0x04, 0x00, 0x00, 0x00, 0x01, 0x00, 0x00, 0x00, 0x00, 0x00, 0x0a, 0x00, 0x0c, 0x00, 0x07, 0x00, 0x00, 0x00, 0x08, 0x00, 0x0a, 0x00, 0x00, 0x00, 0x00, 0x00, 0x00, 0x09, 0x01, 0x00, 0x00, 0x00, 0xb8, 0xd8, 0xff, 0xff, 0x14, 0x00, 0x00, 0x00, 0x08, 0x00, 0x00, 0x00, 0x18, 0x00, 0x00, 0x00, 0x60, 0x00, 0x00, 0x00, 0x50, 0x00, 0x00, 0x00, 0x02, 0x00, 0x00, 0x00, 0x01, 0x00, 0x00, 0x00, 0x05, 0x00, 0x00, 0x00, 0x38, 0x00, 0x00, 0x00, 0x53, 0x65, 0x71, 0x75, 0x65, 0x6e, 0x74, 0x69, 0x61, 0x6c, 0x2d, 0x4e, 0x4e, 0x2f, 0x64, 0x65, 0x6e, 0x73, 0x65, 0x5f, 0x36, 0x2f, 0x52, 0x65, 0x6c, 0x75, 0x3b, 0x53, 0x65, 0x71, 0x75, 0x65, 0x6e, 0x74, 0x69, 0x61, 0x6c, 0x2d, 0x4e, 0x4e, 0x2f, 0x64, 0x65, 0x6e, 0x73, 0x65, 0x5f, 0x36, 0x2f, 0x42, 0x69, 0x61, 0x73, 0x41, 0x64, 0x64, 0x00, 0x00, 0x00, 0x00, 0x02, 0x00, 0x00, 0x00, 0xff, 0xff, 0xff, 0xff, 0x05, 0x00, 0x00, 0x00, 0xcc, 0xd8, 0xff, 0xff, 0xbe, 0xd9, 0xff, 0xff, 0x04, 0x00, 0x00, 0x00, 0x00, 0x0c, 0x00, 0x00, 0x32, 0xdd, 0x0e, 0x3e, 0x63, 0x8a, 0x3c, 0x3c, 0x9e, 0xe6, 0x50, 0xbe, 0xf0, 0xa1, 0x56, 0xbc, 0xec, 0x76, 0xc1, 0xbc, 0xe1, 0x13, 0x78, 0xbd, 0xab, 0x6f, 0xb2, 0x3d, 0x02, 0x02, 0x9a, 0x3e, 0x9d, 0xf7, 0xbc, 0x3d, 0x70, 0x8d, 0x3d, 0x3e, 0xa4, 0x75, 0x7a, 0x3d, 0x89, 0x76, 0x10, 0x3d, 0x9f, 0x2a, 0xac, 0x3d, 0x9c, 0x61, 0xb8, 0x3d, 0xbc, 0x56, 0xfe, 0xbe, 0x79, 0x8f, 0x4d, 0xba, 0x15, 0x4d, 0x30, 0xbd, 0x35, 0x32, 0x94, 0xbd, 0x10, 0xad, 0x1c, 0x3e, 0x8c, 0x41, 0x41, 0x3e, 0xe4, 0x22, 0xcd, 0x3d, 0xc4, 0x17, 0xff, 0xbc, 0x21, 0x50, 0x6e, 0xbd, 0x72, 0xe5, 0x03, 0xbe, 0x8f, 0x3b, 0x0c, 0x3c, 0xeb, 0x4d, 0x55, 0x3c, 0xf3, 0x56, 0x5d, 0xbc, 0xb4, 0xdf, 0x0c, 0xbe, 0x45, 0x92, 0x39, 0xbd, 0x70, 0x38, 0xe7, 0xba, 0x41, 0x8d, 0x91, 0x3c, 0x12, 0x2f, 0xb2, 0xbc, 0x91, 0x00, 0xa6, 0xbe, 0xf3, 0x2d, 0x26, 0xbd, 0x4e, 0x0f, 0x94, 0xbd, 0xfd, 0xa2, 0x80, 0x3e, 0x0e, 0x64, 0x0b, 0x3c, 0x16, 0xbd, 0xdc, 0x3e, 0x3a, 0x01, 0x44, 0xbd, 0x58, 0x7e, 0xd3, 0xbc, 0xf7, 0x41, 0x4c, 0xbd, 0x07, 0x4e, 0x33, 0x3e, 0xaa, 0xf5, 0x5c, 0xbd, 0xf0, 0xa0, 0xc0, 0xbd, 0x90, 0xb8, 0xe6, 0xbd, 0xa8, 0xe3, 0x33, 0x3e, 0x36, 0x25, 0x28, 0xbd, 0x74, 0xd6, 0x32, 0xbe, 0x01, 0x1e, 0xb7, 0x3c, 0x2e, 0x0b, 0x3a, 0x3d, 0x14, 0x09, 0xb1, 0x3c, 0x20, 0xc8, 0xed, 0xbb, 0xef, 0x58, 0x98, 0xbd, 0x6c, 0xba, 0xa5, 0xbd, 0x6f, 0x66, 0x7b, 0xbd, 0x1e, 0x8b, 0x23, 0xbe, 0xb6, 0xd7, 0xbd, 0xbd, 0x1b, 0x15, 0x0f, 0x3e, 0xec, 0xa4, 0x91, 0x3d, 0x4c, 0xeb, 0x3b, 0xbd, 0x60, 0x9c, 0x73, 0xbd, 0xfc, 0xb7, 0x23, 0xbd, 0xb2, 0x66, 0xc8, 0xbe, 0x9e, 0x4c, 0xeb, 0xbe, 0xd9, 0x35, 0x8c, 0xbd, 0xc8, 0x87, 0x48, 0xbc, 0x6c, 0xb2, 0x64, 0xbd, 0xf6, 0xa8, 0x2c, 0xbd, 0x80, 0x83, 0xcb, 0x3d, 0xd3, 0xd6, 0x49, 0xbe, 0xb7, 0x6f, 0xf5, 0x3c, 0x2c, 0x8c, 0x8f, 0xbd, 0x51, 0xcb, 0x6c, 0x3e, 0x84, 0x80, 0xa6, 0xbd, 0x70, 0x77, 0x88, 0x3c, 0x33, 0xd3, 0xc0, 0xbb, 0x2a, 0x40, 0x1d, 0x3e, 0xc9, 0x90, 0x17, 0x3d, 0x51, 0xc6, 0x0c, 0x3d, 0x1a, 0x6a, 0xed, 0xbb, 0x35, 0x31, 0x00, 0xbd, 0xe2, 0x95, 0x8e, 0xbd, 0x1c, 0x29, 0x9c, 0x3d, 0x93, 0x60, 0xe3, 0x3d, 0x68, 0x25, 0x10, 0xbe, 0x4c, 0x77, 0x12, 0xbe, 0x22, 0x60, 0x6b, 0x3d, 0xaa, 0x7f, 0x61, 0xbd, 0x55, 0xbd, 0xa3, 0x3d, 0x89, 0xce, 0x60, 0xbe, 0x5f, 0x34, 0xa3, 0xbc, 0x82, 0x73, 0x29, 0xbd, 0x99, 0xa6, 0x22, 0x3d, 0xd8, 0xab, 0x84, 0xbe, 0x2d, 0x3f, 0x1b, 0x3e, 0x08, 0xe4, 0xa4, 0xbe, 0xe6, 0xbd, 0x81, 0xbd, 0x6a, 0xb1, 0xc2, 0xbd, 0x19, 0x01, 0x7d, 0xbd, 0xd3, 0xdd, 0x2d, 0x3d, 0x1f, 0xdd, 0xd1, 0xbd, 0x38, 0x92, 0x94, 0x3d, 0x3d, 0xb0, 0xd2, 0xbd, 0xc5, 0x77, 0x48, 0x3c, 0x5f, 0x3c, 0xcd, 0xbd, 0x39, 0xf5, 0xee, 0x3c, 0x16, 0xfa, 0xd6, 0x3b, 0x11, 0x64, 0x24, 0xbe, 0xae, 0xa3, 0x9b, 0x3e, 0x14, 0xb1, 0x2d, 0x3e, 0x53, 0x62, 0x1b, 0xbe, 0x6c, 0xb5, 0x9a, 0xbc, 0xc2, 0xcd, 0x05, 0x3d, 0xb4, 0xd3, 0xd6, 0xbd, 0x89, 0x33, 0x2e, 0x3d, 0x35, 0x10, 0xa6, 0xbb, 0x7e, 0xe5, 0x39, 0xbc, 0x70, 0x80, 0x76, 0x3e, 0x0a, 0xdf, 0xe7, 0xbd, 0x71, 0xbb, 0xb3, 0x3d, 0x46, 0xde, 0x53, 0x3b, 0xe8, 0x56, 0x83, 0xbc, 0x60, 0x7a, 0x1e, 0xbd, 0xf1, 0x8a, 0xb5, 0xbd, 0xea, 0x2a, 0xcb, 0x3d, 0x71, 0x18, 0x3d, 0x3d, 0xe0, 0x60, 0x4f, 0x3c, 0x96, 0x72, 0xba, 0xbd, 0xb5, 0x57, 0xfe, 0xbb, 0x2b, 0x66, 0x57, 0xbd, 0x49, 0x8a, 0x26, 0x3e, 0x70, 0xd3, 0x12, 0xbd, 0xb5, 0x55, 0xd3, 0xbd, 0xf8, 0xfa, 0x3a, 0xbe, 0x82, 0xcf, 0xf3, 0xbc, 0x18, 0x9d, 0x48, 0xbc, 0x2c, 0x8a, 0xc7, 0xbd, 0x67, 0x49, 0xce, 0xbd, 0x71, 0xdd, 0x42, 0xbd, 0xab, 0xeb, 0x20, 0xbd, 0xf6, 0xd7, 0x29, 0xbd, 0x22, 0xc3, 0xb2, 0xbd, 0xf7, 0x0d, 0x0e, 0xbe, 0x18, 0x6e, 0x0c, 0xbd, 0x4e, 0xca, 0x93, 0x3e, 0xba, 0xc0, 0xd9, 0xbb, 0xe6, 0xa0, 0x10, 0xbe, 0x40, 0xd2, 0x9c, 0x3b, 0xc1, 0x5f, 0xcb, 0xbd, 0x1c, 0x04, 0x36, 0xbe, 0xfe, 0xb3, 0xf3, 0xbd, 0x02, 0x5e, 0x65, 0x3e, 0xf0, 0x02, 0xe1, 0x3d, 0x9a, 0x4e, 0x25, 0x3d, 0xf9, 0x53, 0x72, 0x3d, 0x30, 0xff, 0xd8, 0x3d, 0x00, 0x23, 0xae, 0x3b, 0x10, 0x93, 0xc4, 0x3d, 0xd3, 0xde, 0xd6, 0x3d, 0x8a, 0x71, 0x13, 0x3e, 0xb4, 0x3b, 0xe4, 0x3d, 0x0f, 0xb7, 0xa0, 0xbc, 0xf2, 0xeb, 0x8a, 0x3d, 0x11, 0x5c, 0x05, 0x3d, 0x74, 0x49, 0x52, 0x3d, 0xa5, 0x32, 0xe5, 0x3d, 0x06, 0xdb, 0x93, 0xbe, 0x79, 0xe5, 0x07, 0xbe, 0xef, 0x66, 0x94, 0x3c, 0x63, 0xb8, 0x30, 0x3d, 0x04, 0x2f, 0x0c, 0x3d, 0xe4, 0x82, 0x68, 0xbc, 0x4e, 0x6c, 0xda, 0xbd, 0x68, 0x1e, 0xcf, 0xbc, 0x45, 0x05, 0x46, 0x3d, 0x1a, 0x31, 0x27, 0xbd, 0x3e, 0x6d, 0x84, 0xbd, 0x00, 0xd1, 0x52, 0xbd, 0xb5, 0xf2, 0xdf, 0x3c, 0x90, 0x77, 0x75, 0xbd, 0x28, 0xc1, 0x89, 0xbd, 0xfe, 0x0e, 0xf8, 0x3c, 0xfd, 0x81, 0xa9, 0x3e, 0xe4, 0x2b, 0x67, 0x3d, 0xc2, 0xb5, 0x31, 0xbc, 0xa1, 0xfd, 0x32, 0x3e, 0x2c, 0xcc, 0xa0, 0x3d, 0x2f, 0x22, 0xc9, 0x3c, 0x7f, 0xb1, 0xd4, 0x3d, 0x5f, 0x0a, 0xca, 0xbd, 0xa1, 0x77, 0x83, 0xbd, 0xd8, 0x46, 0x7d, 0x3d, 0xe0, 0x93, 0x04, 0x3d, 0xad, 0x19, 0x91, 0x3c, 0xd2, 0x28, 0x2a, 0xbd, 0xad, 0xa3, 0xf6, 0xbe, 0xca, 0x15, 0x0c, 0xbb, 0x52, 0xaf, 0x0e, 0x3d, 0x40, 0x4c, 0x4b, 0xbc, 0xaf, 0x25, 0xd3, 0x3d, 0xb4, 0xf7, 0x1b, 0x3e, 0x8e, 0xcb, 0x12, 0xbe, 0x8b, 0xf3, 0x89, 0xbd, 0xf8, 0x0e, 0xfa, 0x3c, 0xb7, 0xe1, 0x27, 0x3c, 0x25, 0xf5, 0x7d, 0xbc, 0xdd, 0x20, 0x55, 0x3d, 0x25, 0x51, 0x84, 0xbd, 0xbc, 0xc0, 0xd2, 0x3d, 0xfc, 0x55, 0x1a, 0x3d, 0xac, 0x6d, 0xe7, 0x3d, 0x7a, 0x9d, 0x8c, 0x3e, 0x1c, 0x80, 0x69, 0xbd, 0x98, 0x83, 0xe1, 0x3e, 0xce, 0xe7, 0x7b, 0x3c, 0x56, 0x9d, 0x11, 0xbd, 0x0b, 0x90, 0xb9, 0x3d, 0xee, 0x70, 0x2e, 0xbc, 0x45, 0x6c, 0x02, 0x3e, 0x08, 0xe6, 0x1a, 0xbc, 0x09, 0x78, 0x2c, 0xbe, 0x3a, 0xcd, 0x72, 0xbe, 0xb3, 0x6e, 0x93, 0xbd, 0xa0, 0x45, 0x92, 0x3c, 0x1f, 0xd3, 0xcd, 0x3d, 0xf2, 0xfe, 0xc7, 0xbd, 0x12, 0x0f, 0x17, 0x3d, 0x65, 0x1f, 0x14, 0x3d, 0xb2, 0x00, 0x71, 0xbd, 0x97, 0xc1, 0x7c, 0x3d, 0x2f, 0x8b, 0xfa, 0x3c, 0x20, 0x03, 0x8d, 0x3d, 0x03, 0x66, 0x27, 0xbd, 0x9b, 0x40, 0x27, 0x3e, 0xfa, 0x52, 0x79, 0x3c, 0xf0, 0xc3, 0x9b, 0x3d, 0xc8, 0x5b, 0x63, 0xbd, 0xaa, 0xb0, 0xed, 0x3d, 0xb2, 0x91, 0xd8, 0xbd, 0x51, 0x2d, 0x11, 0x3e, 0x88, 0xda, 0x28, 0x3c, 0xc7, 0x77, 0xcf, 0x3e, 0xba, 0x8c, 0x60, 0x3d, 0xcd, 0x0c, 0x88, 0x3c, 0x2b, 0x76, 0xca, 0x3d, 0xde, 0x49, 0xac, 0x39, 0x28, 0xc8, 0x6d, 0xbd, 0x08, 0xf9, 0x5f, 0x3d, 0x17, 0x31, 0x51, 0x3d, 0xea, 0x60, 0xf2, 0x3d, 0x76, 0x67, 0xfc, 0xbd, 0x2c, 0x5b, 0x95, 0x3d, 0x52, 0x13, 0x23, 0x3d, 0x48, 0x9a, 0xfa, 0xbd, 0xd6, 0xe4, 0x13, 0x3e, 0x29, 0x29, 0x5a, 0x3d, 0x0c, 0x9e, 0x16, 0xbe, 0x63, 0xe6, 0x30, 0x3d, 0x70, 0xfe, 0x5b, 0xbe, 0x84, 0xbb, 0x1f, 0x3e, 0xed, 0xa3, 0xf5, 0xbc, 0x4d, 0xf2, 0x05, 0x3d, 0x6f, 0x58, 0x7d, 0x3d, 0x60, 0x4e, 0xde, 0x3d, 0x2a, 0xe8, 0xa8, 0x3d, 0x61, 0x87, 0xa7, 0x3d, 0x02, 0xbc, 0x99, 0xbd, 0xf8, 0x81, 0xcb, 0x3d, 0x1f, 0x45, 0xcc, 0x3c, 0x58, 0xfe, 0x94, 0xbc, 0x7c, 0xf0, 0x8b, 0x3d, 0x43, 0x33, 0x48, 0x3c, 0x8b, 0x3f, 0xe2, 0xbc, 0xd0, 0x54, 0x0b, 0xbc, 0x65, 0x6b, 0x6a, 0xbe, 0x72, 0x2c, 0xe0, 0xbd, 0x35, 0xb1, 0xaa, 0x3e, 0x90, 0xaa, 0x9e, 0xbc, 0x7b, 0xf2, 0x15, 0xbd, 0xd8, 0xa2, 0x50, 0xbe, 0xbf, 0x14, 0x8f, 0x3c, 0x63, 0xb7, 0xcb, 0xbd, 0xd9, 0xdf, 0x38, 0x3d, 0xf9, 0xde, 0xfb, 0xbd, 0xd8, 0x34, 0x5c, 0x3d, 0xf0, 0xb4, 0x29, 0x3d, 0x4f, 0x94, 0xc6, 0xbd, 0x2e, 0x24, 0xab, 0xbc, 0x03, 0xb3, 0x83, 0xbc, 0x29, 0xd6, 0x9c, 0xbc, 0xf5, 0xf4, 0xa5, 0xbd, 0xc3, 0x94, 0xb8, 0xbd, 0xf1, 0x60, 0x49, 0x3c, 0x4e, 0x62, 0x94, 0xbe, 0x12, 0xcf, 0x78, 0xbc, 0xe1, 0xf4, 0x3b, 0xbd, 0xa0, 0x5c, 0x22, 0xbd, 0x86, 0x65, 0x94, 0x3e, 0x00, 0x93, 0x05, 0xbd, 0x20, 0xb1, 0xe0, 0x3c, 0x59, 0x92, 0xd9, 0xbd, 0x31, 0x93, 0x7a, 0xbe, 0xd5, 0x57, 0xf0, 0x3b, 0x23, 0x10, 0xa2, 0xbd, 0x2b, 0xc3, 0xea, 0x3d, 0xc2, 0xa2, 0x3b, 0x3d, 0x40, 0x40, 0xf0, 0x3d, 0xb8, 0x02, 0xd2, 0x3d, 0x0a, 0x74, 0x82, 0x3d, 0xba, 0x5e, 0xc9, 0x3c, 0x03, 0xd3, 0x01, 0xbd, 0xb7, 0x01, 0x12, 0xbe, 0xf3, 0xcc, 0x19, 0xbe, 0x9b, 0x1b, 0x79, 0xbe, 0x4d, 0xf8, 0xa4, 0x3d, 0xc6, 0xd3, 0x48, 0xbd, 0x80, 0xd2, 0x78, 0x3b, 0x70, 0xc8, 0xbd, 0x3c, 0x38, 0x50, 0x36, 0xbd, 0xdb, 0x13, 0xc0, 0x3e, 0x04, 0x53, 0x9b, 0xbc, 0x35, 0xdc, 0xaf, 0xbb, 0x03, 0x55, 0x7f, 0xbd, 0x70, 0x65, 0xce, 0x3c, 0xad, 0x58, 0xc1, 0x3c, 0xf2, 0xae, 0xb5, 0x3e, 0x04, 0xa8, 0xd9, 0xbc, 0x95, 0x76, 0x10, 0x3e, 0x83, 0x31, 0xfe, 0x3d, 0xbc, 0x74, 0xd5, 0x3c, 0xf8, 0x4d, 0xc6, 0xbd, 0x80, 0xe6, 0xed, 0x3d, 0x59, 0xeb, 0xcd, 0xbc, 0xe5, 0x95, 0xdb, 0x3c, 0x81, 0xc6, 0x7f, 0x3e, 0xfe, 0xa6, 0x57, 0x3b, 0xe0, 0xf4, 0xe1, 0xbc, 0xaa, 0x70, 0x81, 0xbd, 0x60, 0x55, 0xec, 0x3d, 0x0f, 0x36, 0xae, 0x3d, 0x3f, 0x01, 0xd6, 0xbd, 0x92, 0x63, 0x15, 0x3f, 0xf6, 0x68, 0xb0, 0xbc, 0x4f, 0x3b, 0xbc, 0x3d, 0xaa, 0xd5, 0xbb, 0x3d, 0xf3, 0xac, 0x00, 0x3d, 0xd2, 0xc4, 0x5d, 0xbe, 0x11, 0xf4, 0xac, 0x3a, 0x38, 0x4b, 0x5f, 0xbd, 0x59, 0x4e, 0xee, 0x3d, 0xfd, 0x1c, 0x0b, 0x3d, 0x6d, 0x48, 0xf5, 0xbc, 0xa7, 0x3f, 0x23, 0x3d, 0x96, 0x73, 0x85, 0xbd, 0x81, 0x28, 0x02, 0xbd, 0xdd, 0x6b, 0x2f, 0x3d, 0xdf, 0x7e, 0xa9, 0xbd, 0x54, 0xc2, 0xb8, 0xbd, 0x81, 0x6f, 0xc7, 0x3b, 0x65, 0x7e, 0x9c, 0xbb, 0xd5, 0x18, 0xb7, 0xbc, 0xb2, 0xc4, 0x52, 0x3c, 0x3c, 0xe8, 0xaf, 0x3e, 0xc2, 0xdb, 0x82, 0x3d, 0x71, 0x01, 0xa4, 0x3d, 0xcf, 0x94, 0xee, 0xbb, 0x80, 0xf4, 0xd2, 0x3a, 0x98, 0x11, 0xcb, 0xbd, 0xc1, 0x8f, 0x1d, 0xbb, 0x17, 0xc4, 0x81, 0x3c, 0x37, 0xa7, 0xaf, 0x3d, 0x85, 0x8c, 0xb1, 0xbc, 0x30, 0x6d, 0xd0, 0xba, 0x66, 0xa9, 0x7c, 0x3d, 0x43, 0x1e, 0x45, 0xbd, 0xc7, 0xe6, 0x94, 0x3d, 0xe9, 0x0b, 0x2e, 0x3d, 0x8e, 0x8d, 0x9a, 0xbd, 0x4a, 0x33, 0x10, 0x3e, 0x17, 0x64, 0x20, 0xbd, 0x5c, 0x4e, 0x99, 0x3d, 0x09, 0x11, 0xba, 0xbb, 0xd1, 0xe2, 0x1a, 0xbe, 0x60, 0x1f, 0x83, 0x3b, 0xce, 0xfb, 0xae, 0x3a, 0xfb, 0xe5, 0x62, 0xbd, 0xb3, 0x4d, 0x68, 0xbd, 0x08, 0x47, 0x13, 0x3d, 0x82, 0x25, 0xd6, 0x3d, 0x32, 0x22, 0x49, 0xbc, 0xbd, 0xf3, 0x8a, 0x3e, 0x1b, 0x24, 0xdf, 0x3c, 0xf4, 0x4a, 0xa3, 0x3d, 0x0b, 0x9d, 0x66, 0xbd, 0x1d, 0x53, 0x35, 0x3d, 0x3b, 0x05, 0x0d, 0xbe, 0x06, 0x8f, 0xee, 0xbc, 0x21, 0x82, 0xab, 0xbd, 0x31, 0x2a, 0x78, 0x3c, 0x65, 0xeb, 0x07, 0xbd, 0x68, 0xaf, 0x58, 0xbe, 0xef, 0x83, 0xdb, 0xbd, 0x1a, 0x29, 0xa4, 0xbd, 0x82, 0x1b, 0x03, 0xbe, 0xd5, 0x81, 0x91, 0xbb, 0x3c, 0x88, 0x99, 0x3e, 0xa0, 0xb1, 0xca, 0x3b, 0xa8, 0xa8, 0xe4, 0x3c, 0x10, 0xb6, 0xce, 0x3d, 0x5e, 0x67, 0x85, 0x3d, 0x23, 0xc5, 0x88, 0x3d, 0x08, 0x67, 0x04, 0x3c, 0xfd, 0x47, 0xaf, 0xbd, 0x83, 0xd2, 0x6d, 0xbd, 0xeb, 0x4f, 0x89, 0xbe, 0x6c, 0xdf, 0x5f, 0xbd, 0xaa, 0x23, 0xf2, 0x3d, 0x39, 0x10, 0x6b, 0xbd, 0x46, 0xa1, 0x16, 0x3d, 0x1a, 0x7e, 0x6c, 0x3c, 0x28, 0x55, 0xc2, 0x3d, 0xc0, 0x63, 0xcf, 0x3d, 0x1f, 0x9c, 0xd7, 0xbc, 0x5f, 0x12, 0x2b, 0x3d, 0xc1, 0xdb, 0x52, 0x3d, 0x06, 0xfa, 0x2f, 0x3d, 0xbf, 0x4e, 0x1c, 0x3e, 0xde, 0x52, 0x91, 0xbc, 0xd6, 0x4f, 0xcb, 0xbd, 0xcf, 0x07, 0xb9, 0xbd, 0x2d, 0xa8, 0xa7, 0xbd, 0x4a, 0xbc, 0x39, 0x3d, 0x7e, 0x4d, 0x29, 0xbd, 0x04, 0xbc, 0x88, 0xbd, 0x45, 0x27, 0x5e, 0x3d, 0xbe, 0x52, 0xb1, 0xbd, 0x99, 0xd2, 0x3b, 0xbd, 0xae, 0x03, 0x88, 0xbd, 0x9e, 0x4f, 0x3b, 0x3d, 0x77, 0x6c, 0x67, 0x3d, 0xa8, 0xcc, 0xc8, 0x3c, 0xcb, 0x0c, 0xc5, 0x3c, 0x60, 0x22, 0x88, 0x3d, 0x22, 0xf5, 0x23, 0xbb, 0x3a, 0xac, 0x0f, 0x3d, 0x59, 0xa3, 0xa3, 0xbd, 0xc0, 0x83, 0xb3, 0xbc, 0x06, 0x43, 0xb8, 0xbc, 0xb5, 0xbe, 0x2b, 0x3d, 0x59, 0xce, 0x04, 0x39, 0xeb, 0x8e, 0xfe, 0xbb, 0x4c, 0x37, 0x0e, 0xb9, 0x32, 0x74, 0xd1, 0x3c, 0xf6, 0x4e, 0x34, 0x3d, 0xbe, 0xbc, 0x08, 0xbc, 0xa6, 0x9d, 0x39, 0x3c, 0xfe, 0xd5, 0xdd, 0xbd, 0x41, 0x86, 0x50, 0x3d, 0x8c, 0xe9, 0x98, 0xbd, 0x24, 0x69, 0x25, 0x3d, 0x0f, 0xa3, 0x16, 0x3d, 0x73, 0xaa, 0x68, 0x3d, 0xae, 0xb3, 0x4b, 0x3c, 0xa8, 0x16, 0x82, 0xbc, 0x1e, 0x34, 0xbe, 0x3d, 0xba, 0xa2, 0x40, 0x3e, 0x16, 0xb6, 0x26, 0xbd, 0x53, 0x2a, 0x85, 0xbe, 0x64, 0x64, 0x76, 0xbd, 0xa0, 0x65, 0x54, 0xbe, 0xde, 0x78, 0xb6, 0xbc, 0x28, 0xb5, 0x8a, 0xbc, 0x43, 0xdc, 0xcf, 0x3d, 0xc0, 0x0d, 0x06, 0xbc, 0x30, 0x4d, 0x2a, 0x3c, 0xf3, 0x19, 0x71, 0xbd, 0x6c, 0xef, 0x5c, 0x3d, 0xa9, 0xea, 0x9b, 0x3b, 0xab, 0x6e, 0x03, 0x3f, 0x6c, 0x5d, 0x9d, 0x3d, 0x4d, 0xd1, 0x90, 0xbd, 0x7f, 0x26, 0x3b, 0x3d, 0x07, 0x21, 0x93, 0x3c, 0x71, 0x3b, 0x32, 0x3d, 0xd7, 0x8f, 0xae, 0x3d, 0x20, 0xcf, 0xb1, 0x3d, 0xbf, 0x94, 0x98, 0x3c, 0xc7, 0x3b, 0x23, 0xbc, 0x58, 0x30, 0x7a, 0xbd, 0xc6, 0x19, 0xff, 0x3d, 0x8e, 0x3d, 0xd9, 0x3c, 0x3f, 0xe5, 0xb6, 0x3c, 0x2f, 0x9b, 0x16, 0xbc, 0x46, 0xeb, 0x97, 0x3d, 0x84, 0xbb, 0x2a, 0x3d, 0x4a, 0x51, 0xb3, 0x3d, 0x00, 0x21, 0xc7, 0x3c, 0x42, 0x07, 0x0d, 0xbf, 0x1e, 0xb3, 0xd8, 0x3c, 0x12, 0x28, 0x71, 0x3c, 0xb5, 0x22, 0xa2, 0x3d, 0xfe, 0xc7, 0x5e, 0x3d, 0xb8, 0x00, 0xb5, 0x3c, 0xd4, 0xfa, 0x0f, 0x3d, 0x8f, 0x1e, 0x86, 0x3d, 0x34, 0xa1, 0xba, 0xbe, 0xca, 0x4c, 0x7d, 0xbd, 0xda, 0xa6, 0xad, 0x3c, 0x65, 0x72, 0x4d, 0x3d, 0x90, 0xf5, 0xb3, 0x3c, 0x56, 0xd4, 0x56, 0xbd, 0x0c, 0x72, 0x7f, 0x3d, 0x62, 0xea, 0x65, 0xbd, 0x8b, 0xb3, 0x62, 0x3d, 0xbd, 0x9f, 0xc4, 0x3d, 0x57, 0x05, 0x97, 0xbd, 0x49, 0xf7, 0x95, 0xbc, 0xb6, 0xc7, 0x82, 0x3d, 0xfd, 0xa2, 0x98, 0xbe, 0x09, 0x10, 0xcd, 0xbe, 0xc7, 0xff, 0x11, 0xbf, 0x6b, 0x00, 0x9d, 0xbe, 0x1c, 0x8c, 0xfe, 0x3d, 0x3c, 0x40, 0x0e, 0x3d, 0x54, 0xd4, 0xa4, 0xbd, 0x89, 0x8f, 0xe4, 0x3d, 0x15, 0xd8, 0x9c, 0x3d, 0x02, 0x9d, 0x9a, 0x3c, 0xd7, 0x8b, 0x6c, 0xbc, 0x28, 0x91, 0x54, 0x3d, 0xb1, 0xc5, 0x0b, 0x3f, 0x1d, 0x8e, 0x80, 0xbf, 0x06, 0x06, 0x71, 0xbe, 0x34, 0xea, 0x51, 0x3d, 0x96, 0x36, 0xa0, 0xbb, 0x11, 0x65, 0xd6, 0xbb, 0xc5, 0x82, 0x33, 0x3d, 0xb9, 0x17, 0x86, 0x3d, 0xbc, 0xc5, 0x40, 0x3e, 0xd5, 0x61, 0x13, 0xbe, 0xcb, 0x1e, 0x8f, 0x3d, 0x3a, 0x27, 0x2d, 0x3d, 0x73, 0xf4, 0x2a, 0x3d, 0x05, 0xa6, 0x3b, 0xbc, 0x76, 0x68, 0x63, 0xbe, 0x0d, 0x8f, 0xb2, 0xbc, 0x9c, 0x8c, 0xcd, 0xbc, 0x69, 0x2a, 0xbd, 0x3c, 0xc3, 0xe3, 0xd0, 0x3c, 0x43, 0x80, 0x49, 0x3e, 0x94, 0xb9, 0x88, 0xbc, 0x7b, 0xc9, 0xd6, 0xbc, 0xd3, 0xa9, 0x5c, 0xbc, 0xe3, 0x59, 0x87, 0xbf, 0x6b, 0xd7, 0xe0, 0xbc, 0xae, 0xb3, 0xa8, 0x3d, 0x30, 0x2b, 0x40, 0x3c, 0xbe, 0x09, 0x0a, 0x3f, 0xd0, 0x34, 0xe9, 0xbc, 0x7e, 0x12, 0x1e, 0x3e, 0x8f, 0x8b, 0x5c, 0x3d, 0xe6, 0x1a, 0x29, 0x3d, 0xfc, 0xec, 0x61, 0xbc, 0xaa, 0xc2, 0xba, 0x3d, 0x18, 0x78, 0xde, 0x3d, 0xc7, 0x75, 0x6c, 0x3c, 0xdb, 0x39, 0x01, 0xbe, 0x1f, 0x29, 0x5d, 0x3e, 0xb4, 0xd8, 0xa2, 0x3d, 0x51, 0x46, 0x13, 0x3e, 0x57, 0xce, 0xba, 0x3d, 0xe4, 0x7a, 0x62, 0xbd, 0x06, 0xd2, 0xc5, 0xbd, 0xb0, 0x41, 0xc7, 0xbb, 0xd8, 0x21, 0x4f, 0xbc, 0x06, 0xb7, 0xb7, 0xbf, 0x95, 0xb7, 0x60, 0xbe, 0xbc, 0x2f, 0x50, 0xbd, 0xd9, 0x65, 0x7d, 0xbd, 0xb4, 0xf8, 0xfa, 0xbd, 0xc1, 0xf0, 0x16, 0xbe, 0x51, 0x22, 0x30, 0xbf, 0x17, 0xb5, 0x32, 0x3c, 0xdb, 0xba, 0x03, 0xbe, 0x7b, 0x73, 0xa8, 0xbe, 0xac, 0x7d, 0x87, 0xbd, 0x84, 0xc8, 0x84, 0x3d, 0x00, 0x21, 0xe5, 0x3d, 0x5b, 0x51, 0xa9, 0xbe, 0x8a, 0x80, 0xd2, 0xbd, 0xcc, 0x8e, 0x46, 0xbd, 0x8b, 0xa8, 0x9a, 0x3b, 0x46, 0x4b, 0x1e, 0xba, 0x92, 0x04, 0xc0, 0xbd, 0xb1, 0xe9, 0x97, 0xbd, 0x8c, 0xd3, 0x9e, 0x3d, 0xac, 0xa7, 0x72, 0xbe, 0x6b, 0x80, 0x27, 0xbf, 0xb7, 0x0f, 0xe3, 0xbd, 0xe8, 0x87, 0xe6, 0x3c, 0x18, 0x75, 0x25, 0xbe, 0xc0, 0x56, 0x95, 0x3d, 0x6f, 0xb6, 0x6f, 0x3e, 0x86, 0x60, 0xc8, 0xbe, 0x23, 0xd6, 0x79, 0xbc, 0x48, 0xe4, 0xef, 0xbf, 0x74, 0xe0, 0x97, 0xbd, 0x11, 0x35, 0x5b, 0x3e, 0x53, 0x1c, 0x96, 0xbd, 0xb0, 0xd6, 0x3a, 0xbb, 0xe5, 0x3a, 0x19, 0xbd, 0x72, 0x27, 0xe3, 0xbe, 0x7b, 0xd0, 0xc0, 0xbd, 0x16, 0x46, 0x9f, 0x3d, 0x70, 0xb4, 0x0b, 0x3d, 0xd7, 0x49, 0x45, 0xbe, 0xc5, 0x83, 0xd4, 0xbd, 0xfd, 0x80, 0x27, 0x3d, 0x01, 0x97, 0x8d, 0xbe, 0xfb, 0xc7, 0xc3, 0x3d, 0xe7, 0xfb, 0x58, 0xbe, 0x0e, 0x2f, 0xb4, 0xbd, 0xfa, 0x60, 0x9a, 0xbd, 0x1d, 0x71, 0x8b, 0xbd, 0x89, 0x86, 0xb6, 0xbb, 0xb0, 0x85, 0x40, 0xbd, 0xd9, 0x77, 0xec, 0xbd, 0x41, 0xc6, 0x83, 0xba, 0x36, 0xa0, 0x52, 0x3c, 0x11, 0x9b, 0x86, 0xbe, 0xec, 0x9d, 0xfb, 0xbc, 0xcf, 0xca, 0xa1, 0x3c, 0x03, 0xe0, 0xa0, 0xbe, 0x5c, 0x3d, 0xd1, 0x3d, 0xde, 0xa0, 0xfa, 0xbd, 0x42, 0xd6, 0x74, 0xbd, 0x9c, 0x9d, 0x5b, 0x3c, 0x45, 0xb4, 0x1c, 0x3c, 0x98, 0xe6, 0xef, 0xbd, 0xc0, 0xab, 0x09, 0xbc, 0xa4, 0x49, 0xd4, 0xbd, 0x78, 0x0a, 0x1c, 0x3e, 0xa2, 0xcf, 0xc0, 0xbe, 0xb2, 0x1d, 0x99, 0x3d, 0x02, 0x6e, 0x3b, 0xc0, 0xa0, 0x72, 0xb1, 0xbf, 0x33, 0xd7, 0xb7, 0xbf, 0x17, 0xb1, 0x1d, 0x3c, 0xba, 0x6b, 0x92, 0xbd, 0x21, 0xea, 0xb3, 0x3d, 0x21, 0x7d, 0x01, 0x3c, 0xd0, 0x98, 0x85, 0xbe, 0x12, 0x50, 0x9d, 0xbd, 0x43, 0x9b, 0x0e, 0xbd, 0xb0, 0xf3, 0x9c, 0xbe, 0x29, 0x5c, 0x01, 0xbd, 0x77, 0x9d, 0x23, 0x3f, 0x60, 0xcc, 0x89, 0x3d, 0xf9, 0x19, 0xdd, 0x3d, 0xd8, 0xf1, 0x44, 0xbd, 0x0a, 0x33, 0x03, 0xbf, 0x0a, 0x08, 0xec, 0xbe, 0xf0, 0x8f, 0x82, 0xbd, 0x2b, 0xa0, 0x95, 0xbe, 0x9c, 0x2d, 0x12, 0x3e, 0x20, 0x0d, 0x42, 0x3d, 0x66, 0xe4, 0x32, 0xbd, 0x78, 0x2d, 0x1f, 0xbd, 0xca, 0xe1, 0x90, 0x3d, 0x07, 0x2b, 0x3a, 0xbf, 0x16, 0xee, 0xd9, 0x3e, 0xd6, 0x44, 0x3e, 0x3d, 0x7c, 0x47, 0xbe, 0xbd, 0x3c, 0xbf, 0xa0, 0xbc, 0xc2, 0x7b, 0xbe, 0x3c, 0x0f, 0x75, 0x0e, 0x3d, 0xc5, 0x82, 0x9c, 0x3d, 0x1d, 0x4c, 0xc1, 0xbe, 0x14, 0xfb, 0x46, 0x3c, 0xc6, 0x5c, 0xae, 0x3c, 0x75, 0xe5, 0x1a, 0x3d, 0xc3, 0x23, 0xa1, 0x3d, 0x64, 0xd2, 0xce, 0xbf, 0xe1, 0xee, 0x0c, 0xbd, 0x6d, 0xc2, 0x9a, 0xbd, 0x7b, 0xe9, 0x48, 0x3d, 0xd6, 0x36, 0xb4, 0xbd, 0x90, 0x46, 0x5d, 0xbd, 0x0f, 0xd5, 0x42, 0x3d, 0x5e, 0x4f, 0x55, 0xbd, 0xf6, 0x6e, 0x62, 0x3d, 0xd3, 0xa3, 0x78, 0xbd, 0xe1, 0xee, 0xcb, 0xbd, 0x5a, 0x99, 0x11, 0x3e, 0x80, 0x15, 0x9f, 0xbe, 0x5d, 0x84, 0x51, 0x3d, 0xb4, 0xec, 0x37, 0x3c, 0x44, 0xbf, 0xbd, 0xbd, 0x88, 0xed, 0xd4, 0xbc, 0xe4, 0xdb, 0x0c, 0xbc, 0xbb, 0xc9, 0xb5, 0xbc, 0x71, 0x3f, 0x9a, 0xbd, 0x84, 0x39, 0x69, 0xbd, 0x75, 0x6c, 0x48, 0xbc, 0x67, 0xdf, 0x15, 0x3a, 0x3a, 0x66, 0xf7, 0x3c, 0x37, 0x21, 0x01, 0xbe, 0xdb, 0xc4, 0xc6, 0x3e, 0x6c, 0x64, 0x77, 0x3d, 0xa5, 0x75, 0x73, 0x3c, 0xa8, 0x4f, 0x54, 0xbd, 0x38, 0xa1, 0x30, 0x3d, 0xa6, 0x47, 0x01, 0xbd, 0xca, 0xf0, 0xa1, 0xbd, 0xb1, 0xe6, 0x8e, 0xbd, 0xeb, 0x28, 0x79, 0x3d, 0xa0, 0x2e, 0xb4, 0xbd, 0xe0, 0xa4, 0x30, 0x3d, 0x17, 0xf0, 0xfc, 0xbd, 0x91, 0x08, 0x61, 0x3d, 0x30, 0x5f, 0xda, 0x3c, 0x14, 0xcd, 0x13, 0xc0, 0x9b, 0x97, 0x85, 0xbd, 0xab, 0x69, 0x1b, 0x3f, 0x50, 0xe5, 0x2e, 0xbd, 0xb8, 0xee, 0x54, 0x3e, 0xd3, 0x51, 0x59, 0xbd, 0x59, 0x70, 0xff, 0xbc, 0x4e, 0xad, 0xfe, 0x3d, 0xea, 0x89, 0x05, 0xbd, 0xf5, 0xf1, 0x71, 0xbe, 0x37, 0xd4, 0xa2, 0xbc, 0xfa, 0xae, 0x48, 0x3c, 0xe3, 0x96, 0xb0, 0x3e, 0x5a, 0xa2, 0x83, 0xbf, 0xdb, 0x58, 0xb2, 0x3c, 0x82, 0xdb, 0x0c, 0xbd, 0xd9, 0x1a, 0xb7, 0x3d, 0x2d, 0x88, 0x52, 0xbd, 0xb9, 0x76, 0x05, 0xbd, 0x02, 0x99, 0xd4, 0xbd, 0x94, 0x6e, 0x91, 0x3d, 0xb7, 0x0f, 0x19, 0x3d, 0xe7, 0x97, 0x2d, 0xbe, 0x13, 0x69, 0x7d, 0xbd, 0x29, 0x0d, 0x7c, 0xbe, 0xc3, 0xd1, 0xbb, 0x3c, 0xb0, 0x30, 0xd1, 0xbe, 0x42, 0x58, 0xcc, 0x3c, 0x7b, 0x62, 0xf7, 0x3a, 0x90, 0x28, 0xe1, 0x3d, 0xf2, 0x1b, 0xbb, 0x3d, 0x7f, 0xd1, 0x2b, 0xbd, 0x72, 0x2d, 0x17, 0xbe, 0x12, 0xdd, 0x73, 0xbe, 0xcc, 0x06, 0x0e, 0x3d, 0xe1, 0xa7, 0xc0, 0x3d, 0xe8, 0x88, 0x21, 0x3d, 0x15, 0x36, 0x8c, 0xbd, 0x73, 0xfe, 0x2a, 0x3d, 0x74, 0x48, 0x31, 0x3d, 0x4e, 0x36, 0xaf, 0x3e, 0x64, 0x4c, 0x17, 0x3e, 0x80, 0xa9, 0xc9, 0xbd, 0x87, 0xd5, 0xd6, 0x3d, 0x59, 0xf2, 0x9a, 0xbd, 0xac, 0x46, 0x02, 0x3e, 0x8a, 0x6c, 0xec, 0x3b, 0xa2, 0xe5, 0xff, 0xff, 0x10, 0x00, 0x00, 0x00, 0x07, 0x00, 0x00, 0x00, 0x14, 0x00, 0x00, 0x00, 0x34, 0x00, 0x00, 0x00, 0x02, 0x00, 0x00, 0x00, 0x03, 0x00, 0x00, 0x00, 0x00, 0x01, 0x00, 0x00, 0x1c, 0x00, 0x00, 0x00, 0x53, 0x65, 0x71, 0x75, 0x65, 0x6e, 0x74, 0x69, 0x61, 0x6c, 0x2d, 0x4e, 0x4e, 0x2f, 0x64, 0x65, 0x6e, 0x73, 0x65, 0x5f, 0x38, 0x2f, 0x4d, 0x61, 0x74, 0x4d, 0x75, 0x6c, 0x00, 0x00, 0x00, 0x00, 0x20, 0xe5, 0xff, 0xff, 0x12, 0xe6, 0xff, 0xff, 0x04, 0x00, 0x00, 0x00, 0x00, 0x14, 0x00, 0x00, 0x2a, 0x45, 0xbc, 0x3d, 0x03, 0x0c, 0x12, 0xbe, 0x28, 0xeb, 0x0b, 0xbe, 0xa2, 0x48, 0x9d, 0x3d, 0x2c, 0x2a, 0xa2, 0xbd, 0x08, 0x9d, 0xed, 0xbb, 0xe9, 0xdb, 0x2d, 0x3d, 0x79, 0x1b, 0x0c, 0xbc, 0x3d, 0xf9, 0xb1, 0xbd, 0x1a, 0x14, 0x8a, 0xbd, 0x32, 0xcc, 0x20, 0xbd, 0xaf, 0x59, 0x4c, 0x3e, 0xda, 0x35, 0x62, 0xbd, 0x08, 0x20, 0xc1, 0x3d, 0xc5, 0xd5, 0xb0, 0xbe, 0x2d, 0x50, 0xf2, 0x3d, 0x0d, 0x69, 0x7f, 0x3c, 0x6c, 0xa0, 0x5b, 0x3e, 0x52, 0xf4, 0xe1, 0xbd, 0x2f, 0x5d, 0xc3, 0xbc, 0x12, 0x05, 0x10, 0x3d, 0xa0, 0x8f, 0xf6, 0xbc, 0x31, 0x4e, 0x6d, 0xbc, 0x87, 0x95, 0xf7, 0xbd, 0x21, 0x48, 0x99, 0xbc, 0xb7, 0x6d, 0xc5, 0xbd, 0x50, 0xa9, 0x5b, 0xbc, 0xe1, 0x9d, 0x04, 0xbc, 0x78, 0x83, 0x0c, 0x3e, 0x4f, 0xe2, 0x83, 0xbd, 0x12, 0x3f, 0x46, 0x3d, 0x2b, 0x77, 0x65, 0xbe, 0x65, 0x3a, 0x19, 0xbe, 0x4e, 0x33, 0x18, 0x3e, 0x89, 0x0c, 0xc0, 0x3c, 0x3e, 0x7b, 0x8a, 0xbd, 0x3d, 0xfc, 0xac, 0x3d, 0x16, 0x22, 0x33, 0xbe, 0xe9, 0xe6, 0x82, 0xbd, 0xcd, 0x5d, 0x6d, 0xbd, 0xbc, 0x65, 0x07, 0xbe, 0xc9, 0x3c, 0x8d, 0xbe, 0x45, 0xf5, 0x2d, 0xbe, 0xa4, 0xdf, 0x28, 0x3d, 0x34, 0x22, 0x71, 0x3d, 0x03, 0xfc, 0xe1, 0x3d, 0x8d, 0x8a, 0x5f, 0xbd, 0x9d, 0x2b, 0xa3, 0xbd, 0x70, 0xf8, 0x94, 0x3c, 0x9b, 0xc7, 0xa8, 0xbc, 0xec, 0x5e, 0xfc, 0x3d, 0x0a, 0xff, 0x64, 0xbd, 0x48, 0xed, 0xd3, 0xbc, 0x70, 0x72, 0x03, 0xbc, 0xb1, 0x73, 0x70, 0xbd, 0xee, 0xd4, 0x9e, 0xbd, 0x09, 0x80, 0x76, 0xbd, 0x66, 0x92, 0xba, 0xbc, 0x40, 0x99, 0x14, 0x3b, 0x67, 0x44, 0x4a, 0xbd, 0x5c, 0x6c, 0x02, 0x3e, 0x38, 0x37, 0x38, 0xbd, 0xfa, 0x53, 0x07, 0xbf, 0xe0, 0x28, 0x15, 0x3e, 0x4e, 0xda, 0xdb, 0xbc, 0x4e, 0x55, 0x69, 0x3d, 0x91, 0x1b, 0x93, 0xbc, 0xe2, 0x59, 0x06, 0xbd, 0x34, 0x68, 0x8f, 0x3d, 0xe9, 0x58, 0x62, 0xbd, 0x98, 0x36, 0xb5, 0xbc, 0x4a, 0x3a, 0x8c, 0x3e, 0x9d, 0x47, 0xde, 0x3c, 0x20, 0x7c, 0x91, 0xbd, 0xd7, 0x04, 0x94, 0xbe, 0xc3, 0x51, 0xf8, 0x3d, 0x86, 0x0e, 0xa0, 0xbc, 0xdf, 0xf5, 0x89, 0xbe, 0x1d, 0x85, 0xa3, 0xbd, 0x91, 0x1f, 0xa4, 0xbd, 0x68, 0x32, 0x86, 0x3d, 0x7e, 0x4a, 0x50, 0x3b, 0x29, 0xe5, 0x46, 0xbd, 0xbe, 0xe7, 0x04, 0xbd, 0x79, 0x71, 0xf8, 0xb9, 0x00, 0x88, 0x2a, 0xbc, 0xb0, 0xc3, 0x54, 0xbc, 0x30, 0x50, 0xcf, 0xbd, 0x50, 0xc5, 0x6b, 0xbc, 0xc0, 0xb3, 0xb4, 0xbc, 0x20, 0x5c, 0x11, 0x3c, 0x61, 0x78, 0x7e, 0xbe, 0x4c, 0x83, 0xb5, 0x3d, 0x54, 0x12, 0x06, 0x3e, 0x8e, 0x88, 0x7b, 0xbe, 0x71, 0xf9, 0x37, 0xbd, 0x6e, 0x56, 0xab, 0xbe, 0x44, 0xa5, 0xa9, 0xbe, 0xe0, 0x0e, 0x6e, 0xbc, 0x03, 0x8c, 0x1a, 0x3e, 0xa4, 0xd5, 0xd9, 0xbd, 0x57, 0x72, 0xa2, 0xbc, 0x94, 0x14, 0xc3, 0xbd, 0xd0, 0xab, 0xdf, 0xbd, 0x39, 0xbf, 0xdf, 0xbd, 0xba, 0x32, 0xd2, 0xbd, 0x40, 0x85, 0x56, 0xbc, 0xc3, 0x38, 0xc1, 0xbd, 0x86, 0xf6, 0xbc, 0x3d, 0x5c, 0x82, 0x76, 0xbd, 0xed, 0x0f, 0x16, 0x3c, 0x79, 0x5b, 0x67, 0xbe, 0xa9, 0xa7, 0x83, 0xbc, 0x24, 0xf0, 0xca, 0x3d, 0x46, 0xcb, 0xbf, 0x3c, 0x40, 0x8d, 0x8d, 0xbc, 0x69, 0xbd, 0x8d, 0x3c, 0xe7, 0xe1, 0x61, 0xbd, 0x20, 0x59, 0x28, 0xbc, 0xe2, 0xca, 0xbd, 0xbe, 0xe5, 0xcf, 0x1c, 0xbd, 0x90, 0xc7, 0xc7, 0x3a, 0xa1, 0x70, 0xac, 0xbe, 0x6a, 0x5e, 0xc0, 0x3d, 0xd8, 0x0b, 0x73, 0x39, 0x5c, 0x7f, 0xf6, 0x3d, 0xcf, 0xc5, 0xf6, 0xbb, 0xf4, 0x25, 0x1d, 0xbc, 0xe2, 0xa7, 0xcd, 0xbd, 0xc3, 0x1b, 0xa0, 0xbd, 0xd6, 0x27, 0x8e, 0xbd, 0xbc, 0xea, 0xa1, 0xbe, 0x8c, 0x43, 0x2e, 0x3d, 0x3c, 0xeb, 0xee, 0x3d, 0x57, 0x5f, 0x1f, 0x3d, 0x68, 0xfa, 0xb0, 0x3d, 0xad, 0x8b, 0xc9, 0xbd, 0x2b, 0x11, 0x8b, 0xbc, 0x44, 0x29, 0x12, 0x3e, 0x93, 0xda, 0x1f, 0x3b, 0xf9, 0xb3, 0xd1, 0x3d, 0xd4, 0x02, 0x49, 0xbd, 0xf2, 0x64, 0x0d, 0xbd, 0xb0, 0x27, 0xf6, 0xbd, 0xb2, 0x48, 0x02, 0xbc, 0x4b, 0xa9, 0x07, 0xbe, 0xdf, 0xf3, 0x4c, 0x3c, 0x55, 0x61, 0x51, 0xbd, 0xf4, 0xb2, 0x57, 0x3d, 0x1a, 0x4a, 0x3f, 0xbd, 0xe7, 0xb5, 0xb7, 0xbd, 0x74, 0xbd, 0x67, 0xbd, 0xf4, 0x2c, 0x78, 0xbb, 0x5a, 0xab, 0x5d, 0xbd, 0xf1, 0x5f, 0x3d, 0xbe, 0x19, 0xc5, 0x6b, 0xbd, 0xf2, 0x36, 0x6e, 0xbd, 0xfc, 0x6e, 0x0e, 0xbc, 0x54, 0xa9, 0xed, 0x3d, 0x4a, 0x5e, 0xfe, 0xbb, 0x74, 0x13, 0x3c, 0x3d, 0xa8, 0xb8, 0x21, 0x3d, 0xbb, 0xba, 0xaa, 0xbe, 0x28, 0x6a, 0xa6, 0xbc, 0x75, 0xbf, 0xd4, 0xbe, 0x1e, 0xd6, 0x82, 0x3d, 0x6e, 0x52, 0x25, 0x3b, 0x87, 0x23, 0x6c, 0xbc, 0xf8, 0x11, 0x6e, 0x3d, 0x94, 0xcd, 0x3b, 0xbe, 0x11, 0x01, 0xd8, 0x3d, 0x7a, 0x71, 0xaa, 0xbc, 0x85, 0x19, 0x40, 0xbd, 0x78, 0x8c, 0x02, 0x3e, 0x1e, 0x34, 0x0e, 0xbd, 0x42, 0x0d, 0xa3, 0xbd, 0xaf, 0xa1, 0xfb, 0x3d, 0x54, 0x6c, 0x05, 0xbd, 0xb9, 0x61, 0x00, 0xbe, 0x56, 0xb0, 0x43, 0xbe, 0x1f, 0xb7, 0x6c, 0x3d, 0xab, 0x15, 0x1a, 0xbd, 0xad, 0xeb, 0x67, 0xbb, 0x1c, 0x9a, 0xd3, 0x3d, 0x1f, 0xfc, 0x01, 0xbe, 0xde, 0x63, 0x83, 0x3d, 0xe1, 0xfb, 0x23, 0x3e, 0x0b, 0x96, 0x1f, 0xbd, 0x60, 0x01, 0xfc, 0x3c, 0x09, 0x35, 0x64, 0xbe, 0x10, 0x0b, 0xa1, 0xbd, 0x81, 0xd6, 0x89, 0x3c, 0x8a, 0xfd, 0xcb, 0xbc, 0x00, 0xc4, 0x41, 0x39, 0x99, 0xe0, 0x1a, 0xbd, 0x95, 0xd9, 0xa7, 0x3d, 0xa7, 0x33, 0xd9, 0xbb, 0xbc, 0x25, 0xac, 0xbc, 0x5d, 0x2e, 0xdb, 0xbd, 0x2d, 0x6b, 0x01, 0xbe, 0xcc, 0xe2, 0x09, 0xbc, 0x7e, 0x30, 0xf6, 0xbc, 0x7a, 0xeb, 0xc7, 0x39, 0x00, 0xe1, 0x33, 0x3a, 0x28, 0x8e, 0x33, 0xbe, 0xf3, 0xff, 0x13, 0x3e, 0xc1, 0x9f, 0x3b, 0xbd, 0x0a, 0xb1, 0x8a, 0xbd, 0x00, 0xc2, 0xec, 0x3b, 0xa5, 0x3c, 0x9e, 0xbd, 0xa7, 0x35, 0x94, 0x3d, 0x14, 0x1d, 0x2e, 0xbc, 0xcf, 0x58, 0x8b, 0xbd, 0x08, 0xf3, 0xb6, 0xbd, 0x45, 0x15, 0x31, 0xbd, 0xea, 0xfb, 0x17, 0x3e, 0x84, 0xef, 0x04, 0xbd, 0x4e, 0x01, 0xb9, 0xbd, 0xd0, 0x98, 0x3c, 0x3c, 0x8c, 0x0f, 0x0c, 0xbe, 0x84, 0xab, 0xd8, 0xbd, 0xd7, 0x5b, 0xdc, 0xbd, 0x74, 0xb3, 0xed, 0xbd, 0x40, 0x94, 0x2a, 0x3c, 0xde, 0xbb, 0xca, 0xbd, 0x5e, 0xe1, 0x07, 0xbe, 0xa9, 0x79, 0x3b, 0xbe, 0xd1, 0xfc, 0x9f, 0x3d, 0xa3, 0xce, 0xe6, 0xbd, 0x95, 0xa0, 0x6a, 0xbe, 0x2d, 0x0f, 0xd8, 0xbd, 0x32, 0x5c, 0x61, 0x3c, 0xeb, 0xc7, 0x97, 0xbc, 0xca, 0x97, 0xc7, 0xbd, 0x9c, 0x03, 0x5c, 0xbd, 0x26, 0x0a, 0x13, 0x3e, 0x2d, 0x6c, 0x43, 0x3c, 0x6a, 0x50, 0xf0, 0xbd, 0x5c, 0x3f, 0x18, 0x3e, 0x56, 0x0a, 0xb2, 0x3d, 0x75, 0x4c, 0xa2, 0x3d, 0x34, 0x82, 0x41, 0x3b, 0xc1, 0xe4, 0x2c, 0x3c, 0x11, 0xdc, 0x18, 0xbe, 0x97, 0xfd, 0x8b, 0xbd, 0xc3, 0x86, 0x01, 0xbe, 0x61, 0x08, 0x9b, 0xbb, 0x02, 0x47, 0xb1, 0x3b, 0xa4, 0xbe, 0x0e, 0xbd, 0x89, 0x3f, 0x9f, 0x3b, 0x38, 0x2f, 0xe9, 0xbc, 0x4d, 0x40, 0x74, 0x3c, 0x2c, 0x25, 0xac, 0xbc, 0x68, 0x00, 0xde, 0x3c, 0x55, 0xf1, 0xc9, 0xbe, 0xd6, 0xb3, 0x0c, 0xbe, 0x8a, 0x14, 0xd6, 0xbd, 0xc6, 0xde, 0xbe, 0xbd, 0x13, 0x33, 0x1a, 0xbe, 0x4c, 0xdb, 0x74, 0xbd, 0xbd, 0x8e, 0xcd, 0x3d, 0x8c, 0x0f, 0x28, 0xbd, 0xfa, 0x6b, 0xb4, 0xbd, 0x88, 0xe6, 0xc3, 0x3c, 0x90, 0xf3, 0x1f, 0xbd, 0x95, 0x5d, 0xd0, 0x3d, 0x06, 0x85, 0x06, 0xbe, 0xd7, 0x48, 0x55, 0xbd, 0xe0, 0xa6, 0xe6, 0x3d, 0xe1, 0xb6, 0xfb, 0xbb, 0xb1, 0x76, 0x70, 0xbd, 0x51, 0xfc, 0x0d, 0xbe, 0xd0, 0xec, 0xd2, 0xbd, 0x69, 0x75, 0x98, 0xbd, 0x51, 0x4a, 0x37, 0x3b, 0x2d, 0x44, 0x85, 0xbd, 0x06, 0x53, 0x4f, 0x3e, 0xd3, 0x75, 0x87, 0xbd, 0xa4, 0xb9, 0x81, 0x3d, 0x7a, 0x07, 0xa3, 0xbe, 0x1e, 0x70, 0x4a, 0xbd, 0x60, 0x87, 0x96, 0xbd, 0xd1, 0xb5, 0x8b, 0xbd, 0x73, 0x39, 0x87, 0xbd, 0x68, 0x75, 0xd6, 0xbd, 0x8c, 0x65, 0x66, 0x3d, 0x37, 0xac, 0xf5, 0x3c, 0x0f, 0xe2, 0x10, 0x3e, 0x00, 0xab, 0x0b, 0x3e, 0xbf, 0x1d, 0xc5, 0xbe, 0x20, 0xfc, 0xab, 0xbb, 0xa7, 0x45, 0x70, 0x3c, 0x01, 0xc7, 0x14, 0xbe, 0x14, 0x63, 0x06, 0xbe, 0x5b, 0x33, 0x3b, 0xbd, 0x23, 0x64, 0x1c, 0x3d, 0x94, 0x32, 0x13, 0xbe, 0xef, 0xdc, 0x81, 0xbc, 0x40, 0x75, 0x9d, 0x3b, 0x64, 0x26, 0xd6, 0xbb, 0xac, 0x01, 0x3c, 0x3d, 0x09, 0xb1, 0x82, 0x3d, 0xe0, 0xde, 0xf4, 0xbe, 0x6e, 0x55, 0xa9, 0xbd, 0x0c, 0xe1, 0xe3, 0xbe, 0x4b, 0x2d, 0x80, 0xbd, 0xd9, 0x49, 0x79, 0xbd, 0xef, 0x44, 0x87, 0x3d, 0x8a, 0xe1, 0x76, 0xbd, 0x22, 0x9c, 0x1f, 0x3c, 0x17, 0xac, 0xf2, 0xbd, 0x05, 0x66, 0xa0, 0x3d, 0x85, 0xf9, 0xee, 0xba, 0x22, 0xe0, 0x47, 0xbd, 0xec, 0x7a, 0x85, 0xbe, 0x40, 0xd1, 0x0a, 0xbe, 0x08, 0x8c, 0x2d, 0xc0, 0x85, 0xa9, 0xd7, 0x3d, 0x5e, 0x02, 0x3d, 0xbd, 0xe5, 0x56, 0x8a, 0xbf, 0xc1, 0xdc, 0x09, 0xbe, 0xdd, 0x57, 0x82, 0xbe, 0x11, 0x0c, 0xde, 0x3a, 0x6a, 0xa8, 0xb0, 0xbd, 0xed, 0x7c, 0x7b, 0xbe, 0x1b, 0x46, 0xf0, 0xbd, 0x7b, 0x82, 0xa7, 0xba, 0xf9, 0x77, 0x24, 0xbb, 0xe8, 0x15, 0xcc, 0x3c, 0x40, 0x62, 0x80, 0xbd, 0xab, 0x19, 0x8f, 0xbd, 0x65, 0xc5, 0x2d, 0xbc, 0x15, 0x87, 0x08, 0xbc, 0xb4, 0xcc, 0x09, 0x3e, 0xc6, 0x67, 0xa6, 0xbd, 0x40, 0x12, 0x00, 0x3b, 0x4d, 0x2f, 0x8e, 0xbd, 0x5a, 0x97, 0x0a, 0xbe, 0xa0, 0x42, 0x74, 0x3d, 0x42, 0xfd, 0x12, 0xbe, 0x4f, 0x99, 0x8c, 0x3d, 0x04, 0x18, 0x61, 0xbd, 0x70, 0xe1, 0x64, 0xbd, 0x00, 0x42, 0x9a, 0x39, 0x2e, 0x2b, 0x94, 0xbc, 0xc0, 0x60, 0x45, 0xbc, 0x76, 0x0e, 0x86, 0xbc, 0x12, 0xc4, 0x9f, 0xbd, 0x6d, 0x0b, 0x98, 0xbd, 0xc7, 0x2e, 0x0b, 0xbe, 0x00, 0xfb, 0xd9, 0x3b, 0x9f, 0x3c, 0x4f, 0xbb, 0x4d, 0x14, 0x1b, 0xbe, 0xb0, 0xf6, 0x3b, 0x3d, 0xe3, 0x1e, 0x55, 0xbe, 0x24, 0x60, 0x06, 0x3d, 0x7b, 0xcb, 0x1e, 0xbc, 0x22, 0x84, 0x6a, 0xbd, 0xf0, 0xee, 0xb1, 0x3c, 0x47, 0xf1, 0xd6, 0xbd, 0xc6, 0x31, 0xfa, 0xbd, 0x8f, 0xaf, 0x46, 0xbd, 0xeb, 0x37, 0x5b, 0xbd, 0x42, 0x12, 0x93, 0xbd, 0x8a, 0x93, 0xff, 0xbc, 0x60, 0xb2, 0x82, 0xbd, 0x59, 0x87, 0xd3, 0xbc, 0x4a, 0xc8, 0x96, 0xbd, 0x1c, 0xfa, 0x50, 0xbd, 0xe9, 0x2f, 0x08, 0xbe, 0xba, 0x12, 0x34, 0xbd, 0x3c, 0xd3, 0xc6, 0xbd, 0x6e, 0xfc, 0x16, 0xbd, 0x40, 0x2f, 0x98, 0x3b, 0x20, 0x8e, 0xb3, 0xbc, 0x4a, 0xb5, 0xe5, 0xbd, 0x49, 0xad, 0x90, 0xbc, 0x64, 0x4e, 0xfc, 0xbd, 0xd8, 0x1a, 0x8c, 0xbc, 0xab, 0x40, 0x39, 0xbe, 0x8c, 0x60, 0x99, 0xbc, 0xd6, 0x7a, 0x1a, 0xbd, 0x88, 0x08, 0x14, 0xbe, 0xa0, 0x73, 0x25, 0x3d, 0x11, 0xe9, 0x21, 0x3b, 0x72, 0x68, 0x49, 0xbd, 0xea, 0x6a, 0x61, 0xbd, 0xb5, 0x68, 0xae, 0xbc, 0xf8, 0x06, 0x00, 0xbd, 0xed, 0x7d, 0x59, 0xbd, 0xc5, 0x8a, 0xd6, 0xbd, 0x4f, 0x63, 0x43, 0xbd, 0x1e, 0xc0, 0x08, 0xbe, 0x50, 0x4f, 0x7e, 0x3c, 0xe4, 0xe4, 0x1e, 0xbe, 0x74, 0x55, 0xe0, 0x3d, 0xdb, 0x26, 0x50, 0x3c, 0x50, 0x80, 0x7a, 0xbd, 0x48, 0x25, 0xd1, 0x3d, 0xd2, 0xe9, 0xa6, 0xbd, 0xad, 0xeb, 0xec, 0x3d, 0x3b, 0xd2, 0x07, 0xbd, 0x87, 0x4f, 0x23, 0xbd, 0x6c, 0x7f, 0xa6, 0x3d, 0x62, 0x42, 0x96, 0xbd, 0x2a, 0xfc, 0xa4, 0xbd, 0x51, 0x1e, 0xc7, 0xbc, 0xf8, 0x5c, 0x2e, 0xbe, 0xcc, 0x84, 0x07, 0x3e, 0xe0, 0xf2, 0x5a, 0xbd, 0x00, 0x2e, 0x8b, 0xbc, 0x42, 0x3f, 0x2f, 0xbd, 0xd6, 0x0d, 0x14, 0xbd, 0xbc, 0x7c, 0x93, 0xbd, 0xe0, 0xbf, 0x86, 0xbc, 0x6c, 0xaf, 0xce, 0x3c, 0x82, 0x8b, 0xaa, 0x3c, 0xd3, 0x0f, 0x80, 0x3b, 0x80, 0xff, 0xb6, 0x3d, 0x43, 0xac, 0xc4, 0xbd, 0xfa, 0x72, 0x16, 0x3e, 0x00, 0x81, 0xc4, 0x3a, 0x42, 0xd0, 0x4a, 0xbd, 0x16, 0xc4, 0xae, 0x3d, 0xcb, 0xfd, 0xd2, 0xbe, 0x98, 0x06, 0xe4, 0x3b, 0x6b, 0xdc, 0xb5, 0xbc, 0x7e, 0x79, 0xc5, 0xbd, 0x58, 0x43, 0xe5, 0x3d, 0xdb, 0x63, 0x0c, 0xbe, 0x74, 0x0a, 0xfb, 0x3d, 0x69, 0xb5, 0x95, 0x3d, 0xbd, 0x9c, 0x10, 0xbf, 0xb9, 0x34, 0x10, 0xbe, 0x51, 0x4a, 0xd7, 0xbe, 0x62, 0xf5, 0xd5, 0x3d, 0x72, 0xaa, 0x0f, 0xbd, 0x84, 0x79, 0x80, 0xbd, 0x69, 0xff, 0xb8, 0xbd, 0xbe, 0x0d, 0xde, 0xbc, 0xfb, 0x99, 0x47, 0xbc, 0x64, 0x64, 0xf9, 0xbc, 0x8f, 0xbf, 0xbb, 0xbd, 0xe2, 0x63, 0x34, 0xbd, 0xd5, 0x5e, 0xb9, 0xbd, 0xd0, 0x88, 0xad, 0xbd, 0xe6, 0x3b, 0xe9, 0x3d, 0x6e, 0x7a, 0x25, 0x3e, 0x30, 0xc0, 0xf5, 0xbd, 0x2d, 0xd5, 0x82, 0x3b, 0x70, 0xb2, 0x74, 0xbd, 0x90, 0xa4, 0x47, 0xbe, 0xf4, 0x70, 0x16, 0xbc, 0xe0, 0x95, 0xf9, 0x3c, 0xb2, 0xfa, 0x78, 0xbe, 0x80, 0x97, 0x11, 0x3c, 0x67, 0xd8, 0x12, 0xbe, 0x30, 0xde, 0x3a, 0xbd, 0x64, 0x1f, 0xd9, 0xbd, 0xd8, 0xa0, 0x05, 0xbc, 0x0e, 0x98, 0x82, 0x3b, 0xdb, 0xbb, 0x32, 0xbe, 0x14, 0x91, 0x67, 0xbe, 0x92, 0x22, 0xa4, 0x3d, 0x08, 0x12, 0x4e, 0x3b, 0x9f, 0x2e, 0x94, 0xbd, 0xfa, 0x26, 0xcb, 0xbf, 0xed, 0x75, 0xbc, 0x3d, 0x24, 0xb4, 0x55, 0x3d, 0x5e, 0x57, 0x42, 0xbf, 0xbc, 0x8b, 0x54, 0x3d, 0x9e, 0x8e, 0xa9, 0xbd, 0x73, 0x76, 0x89, 0xbc, 0x00, 0xf5, 0x16, 0x3d, 0xf3, 0xb6, 0xe5, 0xbd, 0xb4, 0x35, 0x1c, 0x3d, 0xab, 0x0d, 0x00, 0x3e, 0xc9, 0xf4, 0x3d, 0xbe, 0x5c, 0x76, 0xa8, 0x3d, 0x41, 0x59, 0x54, 0xbc, 0xc9, 0x79, 0x17, 0xbe, 0x6c, 0x32, 0x03, 0xbe, 0x15, 0x66, 0xb1, 0xbc, 0x90, 0x9e, 0xed, 0x3d, 0x3f, 0x62, 0x6f, 0x3a, 0xa2, 0x28, 0x9a, 0x3d, 0x32, 0x38, 0x0f, 0xbc, 0x49, 0x9c, 0x08, 0xbe, 0x04, 0x8b, 0x15, 0xbe, 0xe4, 0xb7, 0x84, 0xbe, 0x30, 0xb7, 0x7a, 0xbc, 0xb1, 0x0b, 0x04, 0x3d, 0xc8, 0xab, 0xa9, 0xbb, 0xb0, 0xd7, 0x60, 0x3c, 0xd3, 0x9f, 0xb6, 0xbc, 0x36, 0xad, 0xa7, 0x3d, 0xaf, 0x38, 0x71, 0xbe, 0x2d, 0xa8, 0x1d, 0xbe, 0x0b, 0x9c, 0xe1, 0xbd, 0xe0, 0x6f, 0x44, 0x3d, 0x32, 0x39, 0x6b, 0x3d, 0x07, 0xdd, 0x6f, 0x3c, 0xc7, 0xe9, 0xaa, 0xbd, 0x98, 0xf1, 0xf0, 0xbc, 0xf4, 0x88, 0xaf, 0xbc, 0xc0, 0x93, 0xff, 0x3b, 0x18, 0x8c, 0x03, 0xbb, 0x3c, 0x69, 0x48, 0xbe, 0x35, 0x87, 0x17, 0xbe, 0xfe, 0xb3, 0x36, 0xbe, 0x41, 0x1e, 0xef, 0x3d, 0x0b, 0xcd, 0xca, 0xbc, 0x79, 0x1f, 0x14, 0xbd, 0x02, 0x79, 0x45, 0xbd, 0x33, 0x7f, 0xec, 0xba, 0x74, 0x15, 0x9e, 0x3d, 0xd8, 0x5f, 0x99, 0xbd, 0x5d, 0x46, 0x59, 0xbc, 0x10, 0x08, 0x55, 0xbc, 0x76, 0xa7, 0xe6, 0xbd, 0x6e, 0x8f, 0x7d, 0xbd, 0x80, 0x1b, 0xa8, 0x3a, 0xf4, 0x2b, 0x70, 0xbd, 0xd8, 0xe9, 0xd6, 0x3c, 0x56, 0x6d, 0xd2, 0xbd, 0xf2, 0x32, 0xac, 0xbd, 0x6f, 0x2a, 0x1e, 0xbd, 0x70, 0x90, 0x4a, 0xbd, 0xe4, 0x11, 0x5b, 0x3d, 0x12, 0xd8, 0x78, 0xbd, 0x1d, 0xb9, 0x36, 0x3d, 0x56, 0xe0, 0xb0, 0xbc, 0x4d, 0xce, 0x78, 0xbd, 0x57, 0xa5, 0x15, 0xbe, 0xe8, 0xc0, 0x07, 0xbe, 0xc5, 0x8e, 0xda, 0x3d, 0x1b, 0x8a, 0xa8, 0x3d, 0xe9, 0xdd, 0x40, 0x3e, 0x2a, 0x6a, 0xfb, 0xbd, 0xf8, 0x02, 0xbb, 0x3c, 0xaa, 0x55, 0x0c, 0x3e, 0x1d, 0x18, 0x6b, 0x3c, 0x9c, 0x6b, 0x46, 0xbe, 0x18, 0x25, 0x9f, 0x3c, 0xe2, 0xce, 0xa0, 0xbc, 0xc0, 0x2d, 0xf0, 0xbb, 0xb3, 0xc8, 0x7e, 0xbd, 0x4c, 0x8e, 0xce, 0xbb, 0x18, 0x73, 0xd3, 0x3c, 0x27, 0xd0, 0xd4, 0xbd, 0x86, 0x3b, 0x02, 0xbe, 0x12, 0x30, 0x11, 0xbd, 0xba, 0x97, 0xff, 0xbd, 0xf4, 0xe4, 0x05, 0x3d, 0xb0, 0xb4, 0x24, 0xbc, 0x89, 0x63, 0xa5, 0x3d, 0x27, 0x3c, 0x3f, 0xbd, 0xd1, 0xa6, 0xbc, 0xbc, 0x56, 0xc7, 0x75, 0xbd, 0x89, 0xc2, 0x1f, 0xbe, 0x96, 0xef, 0x10, 0x3e, 0xc4, 0x9d, 0xaa, 0xbc, 0xdd, 0x16, 0x93, 0xbb, 0x10, 0xf4, 0x02, 0x3e, 0x90, 0x90, 0x32, 0xbe, 0xb5, 0xb2, 0x17, 0xbe, 0xb4, 0xf7, 0xf6, 0xbc, 0x0f, 0xc8, 0x20, 0xbe, 0x59, 0xcb, 0xba, 0xbd, 0xe8, 0xf6, 0x13, 0xbe, 0x52, 0x1a, 0xbf, 0x3c, 0xd4, 0x7b, 0x21, 0xbe, 0xdf, 0x5e, 0x5c, 0x3d, 0xc0, 0x30, 0xf4, 0xbd, 0x79, 0xb1, 0xd2, 0x3c, 0x0e, 0xbe, 0x03, 0x3e, 0x5f, 0xac, 0xa4, 0xbc, 0xcb, 0x69, 0xef, 0xba, 0x88, 0x6c, 0x98, 0x3c, 0x8f, 0xdd, 0x41, 0xbe, 0x20, 0x77, 0x24, 0x3c, 0x64, 0x69, 0x9b, 0x3b, 0x5f, 0x78, 0x0e, 0xbd, 0xdc, 0x8c, 0xf4, 0x3d, 0x5e, 0xf7, 0x0a, 0xbe, 0x6e, 0x78, 0x17, 0x3d, 0xe4, 0x3d, 0x61, 0xbd, 0xe4, 0x1a, 0xc7, 0xbe, 0xaf, 0x78, 0xb3, 0xbd, 0x15, 0x5a, 0xa1, 0xbc, 0x23, 0xe1, 0xda, 0xbd, 0xe1, 0x8a, 0x25, 0xbe, 0xbd, 0xdb, 0x8c, 0x3b, 0x44, 0x4f, 0xe5, 0xbd, 0x40, 0x15, 0x39, 0xbc, 0x5a, 0x7b, 0x9a, 0x3d, 0x04, 0x40, 0x33, 0xbe, 0x06, 0xbf, 0xd7, 0xbc, 0x30, 0x26, 0x68, 0xbd, 0xc9, 0x0d, 0x52, 0x3d, 0xd3, 0x28, 0xbb, 0x3d, 0x35, 0xfd, 0x73, 0xbd, 0x3a, 0xe1, 0x65, 0xbd, 0x10, 0x7b, 0xb8, 0xbd, 0xaf, 0xea, 0xad, 0xbd, 0x82, 0xb8, 0x99, 0x3d, 0x9a, 0x02, 0xbe, 0xbd, 0xcd, 0xc9, 0x0a, 0xbe, 0x18, 0x4c, 0x8c, 0xbc, 0xac, 0xcb, 0x73, 0xbd, 0xcc, 0x52, 0xab, 0x3d, 0xf0, 0x5a, 0xdc, 0xbd, 0xaa, 0xef, 0xe7, 0xbc, 0x64, 0xbc, 0x0c, 0xbe, 0x19, 0xd2, 0xc4, 0xbc, 0xb0, 0x06, 0x8e, 0x3d, 0x19, 0xaf, 0x0f, 0xbd, 0x4d, 0x3e, 0x36, 0xbe, 0x20, 0x78, 0x4c, 0xbc, 0x9c, 0xa4, 0xc2, 0xbe, 0x9c, 0xaa, 0x18, 0xbe, 0x62, 0x9d, 0x5d, 0xbd, 0x8d, 0x0e, 0x23, 0xbe, 0x80, 0x7a, 0x63, 0xbc, 0xc3, 0x60, 0x26, 0xbd, 0x06, 0x90, 0x78, 0xbd, 0x0b, 0x59, 0xde, 0xbc, 0x6a, 0x80, 0x56, 0xbd, 0xa0, 0xb9, 0xe7, 0x3c, 0xd6, 0xf8, 0x37, 0xbe, 0xfc, 0xf5, 0x41, 0xbd, 0xcd, 0x79, 0xfd, 0xbd, 0x80, 0x7d, 0x0c, 0xbe, 0x52, 0x0f, 0x02, 0x3e, 0x30, 0x77, 0x33, 0xbc, 0xfc, 0xab, 0x21, 0xbd, 0xe4, 0xa9, 0xdb, 0xbc, 0x42, 0x42, 0x14, 0xbd, 0xda, 0xba, 0xb7, 0xbd, 0x50, 0xa8, 0x9e, 0xbc, 0x85, 0x40, 0xac, 0x3d, 0x5e, 0xa1, 0xfd, 0xbc, 0x55, 0x50, 0x3c, 0xbd, 0x10, 0x47, 0xdc, 0x3c, 0xdf, 0xc7, 0x04, 0xbe, 0xe0, 0xcd, 0xf9, 0x3d, 0x94, 0x47, 0x8f, 0xbc, 0x30, 0xbb, 0x93, 0xbb, 0x60, 0x21, 0xac, 0x3c, 0x69, 0xac, 0xac, 0xbe, 0xb1, 0xd2, 0x61, 0x3d, 0x53, 0x8e, 0x11, 0xbd, 0x15, 0x7e, 0xa7, 0xbe, 0x80, 0x54, 0xfa, 0x3d, 0xcc, 0xaa, 0x5c, 0xbd, 0xbe, 0x76, 0x12, 0xbe, 0xf9, 0x43, 0x9b, 0xbd, 0x9f, 0x26, 0x12, 0xbe, 0xac, 0x66, 0x65, 0xbd, 0x92, 0x73, 0xbf, 0xbd, 0x21, 0x75, 0x03, 0xbe, 0x83, 0x50, 0x06, 0xbf, 0x21, 0x11, 0x01, 0x3e, 0x90, 0xdc, 0x14, 0x3d, 0xb1, 0x1a, 0x0e, 0xbf, 0xd0, 0xaa, 0x39, 0x3d, 0x6e, 0xbd, 0x18, 0xc0, 0xf1, 0xd5, 0x4f, 0x3d, 0x5c, 0xfa, 0x7a, 0x3d, 0x66, 0x50, 0x28, 0xbf, 0xd8, 0xa7, 0x1c, 0xbd, 0x29, 0x5a, 0x0a, 0xc0, 0x52, 0x80, 0x84, 0x3d, 0x52, 0x9a, 0x19, 0x3e, 0x2c, 0xfa, 0x35, 0xbf, 0x1d, 0xdb, 0xc2, 0xbd, 0x2c, 0x1c, 0x69, 0x3c, 0xe8, 0xbf, 0x2f, 0xbe, 0xd2, 0xb7, 0x19, 0xbe, 0x5a, 0x30, 0x5a, 0xbd, 0xfc, 0x40, 0xfb, 0x3d, 0x58, 0x30, 0xbd, 0xbd, 0x8a, 0x47, 0xca, 0xbd, 0x0c, 0x6b, 0xe6, 0x3d, 0xfd, 0xa6, 0x11, 0xbe, 0x84, 0x89, 0xb9, 0x3d, 0xfe, 0xa5, 0x11, 0xbe, 0x78, 0xa3, 0xce, 0xbc, 0x30, 0xdf, 0x65, 0x3c, 0x9b, 0x3b, 0xbc, 0xbd, 0x9c, 0x61, 0xd5, 0x3d, 0x54, 0x66, 0x66, 0xbc, 0xa6, 0x32, 0xc4, 0xbd, 0xb0, 0x25, 0xe5, 0xbd, 0x7b, 0x87, 0x8c, 0xbe, 0x00, 0xf6, 0xbf, 0xbb, 0xfd, 0x38, 0x0b, 0xbe, 0x6f, 0x8a, 0x09, 0xbc, 0xf2, 0xb3, 0x02, 0xbd, 0x11, 0x3a, 0x8c, 0xbe, 0xe6, 0x16, 0xb6, 0xbd, 0xbb, 0x81, 0x06, 0xbd, 0x61, 0x9c, 0xd5, 0x3b, 0x60, 0xf1, 0x2e, 0xbc, 0xfc, 0x74, 0xa3, 0x3b, 0x00, 0xd4, 0xb6, 0x3c, 0x1d, 0xd0, 0x90, 0x3a, 0x15, 0xaf, 0xc2, 0xbd, 0x8f, 0x73, 0x13, 0xbe, 0x13, 0xbf, 0xb2, 0xbd, 0xa6, 0xbe, 0x79, 0xbc, 0x55, 0xfa, 0x25, 0xbd, 0xcd, 0xf5, 0x8e, 0xbd, 0xc2, 0x2b, 0x02, 0xbd, 0x73, 0xe5, 0x06, 0xbe, 0x7a, 0x63, 0xb5, 0x3d, 0x3f, 0x62, 0x1c, 0x3c, 0x44, 0x14, 0x97, 0xbb, 0x58, 0xd6, 0x18, 0x3e, 0x1d, 0x7e, 0x93, 0xbd, 0x74, 0x17, 0xe0, 0x3d, 0xcd, 0x30, 0xae, 0xbe, 0x93, 0x4c, 0xe7, 0x3d, 0x54, 0xba, 0x13, 0xbd, 0x93, 0xe4, 0x9d, 0xbe, 0x75, 0xca, 0xe3, 0xbd, 0xef, 0xa2, 0xfb, 0xbc, 0x2d, 0x3c, 0x9e, 0xbd, 0xf8, 0xd5, 0x33, 0x3d, 0xab, 0x9e, 0x19, 0xbe, 0x7d, 0x6b, 0x0f, 0xbe, 0x48, 0x1a, 0xc7, 0x3d, 0x1d, 0x81, 0x11, 0xbe, 0x48, 0xe3, 0xdd, 0xbd, 0xa1, 0x45, 0x3f, 0x3c, 0x2a, 0xa9, 0x0a, 0x3e, 0xa0, 0x31, 0xfe, 0xbc, 0xc0, 0xf0, 0x8a, 0xbb, 0xfa, 0x47, 0x16, 0x3e, 0xbf, 0x6f, 0xd3, 0xbd, 0x3c, 0x5c, 0xb7, 0xbd, 0x35, 0xd0, 0xaa, 0xbd, 0x7c, 0xec, 0x92, 0xbd, 0xd0, 0xaf, 0x69, 0xbc, 0xe8, 0xae, 0x06, 0x39, 0xf4, 0x8c, 0xf8, 0xbd, 0x7f, 0x5b, 0x29, 0xc0, 0x87, 0xb7, 0x75, 0x3d, 0xc0, 0x50, 0x09, 0xbe, 0xce, 0xb7, 0x4f, 0xbf, 0x58, 0xca, 0xa6, 0xbc, 0xf0, 0xdc, 0x52, 0xbd, 0xd8, 0xd4, 0xc8, 0xbd, 0x2a, 0x8c, 0x13, 0x3e, 0x4c, 0x12, 0x36, 0xbd, 0xb2, 0x3c, 0xd2, 0x3c, 0x01, 0x37, 0xe3, 0xbc, 0x9b, 0x3b, 0xff, 0xbd, 0x00, 0x18, 0x1d, 0x3d, 0x30, 0x68, 0xf5, 0xbb, 0x2a, 0xaa, 0xe3, 0xbd, 0xd8, 0x58, 0x83, 0xbc, 0xb0, 0xc2, 0x47, 0xbc, 0xe0, 0x8a, 0xe6, 0x3b, 0x9e, 0x2a, 0xce, 0xbd, 0x66, 0xda, 0x9d, 0x3d, 0xec, 0x06, 0x9a, 0xbc, 0x96, 0x6f, 0x62, 0xbe, 0xe4, 0x3b, 0x09, 0x3e, 0x1f, 0x53, 0x3f, 0xbd, 0x14, 0xe3, 0xe5, 0xbd, 0xae, 0xf9, 0x2c, 0xbd, 0xfb, 0xcf, 0x40, 0x3b, 0x4e, 0xe1, 0x56, 0xbd, 0x06, 0x1f, 0x9c, 0xbe, 0xb5, 0x4e, 0x41, 0x3d, 0xee, 0xfb, 0x35, 0xbb, 0x52, 0x21, 0x01, 0xbe, 0x7a, 0x60, 0x9d, 0xbd, 0x94, 0x4d, 0xfb, 0xbc, 0xe8, 0x64, 0xd1, 0xbd, 0x7d, 0x53, 0x81, 0xbd, 0x70, 0x39, 0x82, 0xbc, 0x82, 0xe9, 0x48, 0xbd, 0x29, 0x98, 0xa5, 0xbd, 0xdd, 0x51, 0x4d, 0x3d, 0x0a, 0x26, 0x79, 0xbe, 0xea, 0x06, 0x3f, 0xbe, 0xb0, 0x93, 0x16, 0x3d, 0xb2, 0x56, 0xad, 0x3d, 0x04, 0x60, 0x43, 0xbd, 0xd2, 0xc8, 0x44, 0xbe, 0x16, 0x00, 0xa0, 0x3d, 0xe8, 0xb3, 0xba, 0xbd, 0x9f, 0x36, 0x64, 0xbe, 0x60, 0xfc, 0x95, 0x3d, 0xc3, 0x58, 0xae, 0xbb, 0xb3, 0xb5, 0x09, 0xbd, 0xe8, 0x8b, 0x11, 0x3d, 0x90, 0xce, 0xf1, 0xbd, 0x5c, 0x42, 0x17, 0xbd, 0x36, 0xf7, 0x09, 0xbe, 0x61, 0xa1, 0x3a, 0xbc, 0x26, 0xf2, 0x02, 0xbd, 0xae, 0x22, 0x8e, 0xbd, 0xd7, 0xbe, 0xaf, 0x3b, 0xc6, 0xa0, 0x95, 0xbd, 0x62, 0x94, 0xd1, 0xbc, 0x2c, 0x14, 0x40, 0xbd, 0x18, 0xbc, 0xe6, 0xba, 0x51, 0x4c, 0x6b, 0x3b, 0xf9, 0x69, 0x1a, 0xbd, 0x40, 0xda, 0x54, 0xbe, 0x88, 0xd2, 0xf7, 0x3d, 0x02, 0x38, 0xb3, 0xbc, 0x33, 0xe7, 0x10, 0x3c, 0xfc, 0x6d, 0x40, 0xbb, 0x71, 0x80, 0xb7, 0xbc, 0x80, 0x66, 0x4f, 0x3d, 0xff, 0x7a, 0xa5, 0x3a, 0xbc, 0x84, 0xd6, 0x3d, 0x76, 0xc7, 0x85, 0xbd, 0x62, 0xe0, 0x20, 0xbd, 0xe0, 0x80, 0x33, 0x3c, 0x79, 0xd4, 0xd8, 0xbb, 0x69, 0xe1, 0x9b, 0x3d, 0xbd, 0x31, 0x99, 0xbe, 0x01, 0xb5, 0x11, 0xbe, 0x70, 0x94, 0x18, 0x3e, 0xa4, 0xf3, 0x89, 0x3d, 0x40, 0xd3, 0xd9, 0x3d, 0x20, 0x2c, 0x2c, 0xbb, 0xf9, 0x86, 0x7f, 0xbd, 0x6e, 0x31, 0x47, 0xbd, 0x0e, 0x4b, 0xb2, 0xbe, 0xfc, 0x20, 0x6c, 0x3d, 0x12, 0x6f, 0x5a, 0xbc, 0xae, 0xc6, 0x8a, 0xbd, 0x68, 0x84, 0x89, 0x3d, 0xae, 0x23, 0xc8, 0xbb, 0x3b, 0x78, 0x68, 0xbd, 0x01, 0x9b, 0xa5, 0x3c, 0x1e, 0x88, 0x5a, 0xbc, 0x82, 0xcd, 0x03, 0x3e, 0x04, 0x19, 0xad, 0xbd, 0x2e, 0x21, 0xb7, 0xbd, 0x2c, 0x37, 0xf3, 0xbc, 0x82, 0x4d, 0x04, 0xbd, 0xf0, 0xf4, 0xc3, 0x3d, 0x04, 0x4e, 0x81, 0xbe, 0x08, 0x3b, 0xfe, 0x3c, 0x18, 0xd7, 0xc4, 0xbe, 0xa3, 0x99, 0xa4, 0x3d, 0x80, 0x92, 0xc0, 0x3b, 0x81, 0x9e, 0xe2, 0xbe, 0x16, 0x1d, 0x08, 0xbe, 0x81, 0x08, 0xcf, 0xbd, 0xbc, 0x19, 0x88, 0xbc, 0xa0, 0xc4, 0x88, 0x3b, 0xd3, 0x50, 0x1b, 0xbc, 0xa2, 0x95, 0xfa, 0xbd, 0xa9, 0x19, 0x85, 0xbb, 0xa4, 0xad, 0x7a, 0xbd, 0xc0, 0xf1, 0x57, 0x3c, 0x39, 0x78, 0x39, 0xbd, 0x94, 0x88, 0x15, 0xbe, 0x01, 0xc3, 0xd1, 0xbb, 0x65, 0x4b, 0x09, 0xbe, 0x18, 0x1e, 0x2f, 0xbd, 0xd7, 0x07, 0x56, 0xbe, 0xf4, 0x55, 0x49, 0xbd, 0xb0, 0x88, 0xf0, 0xbd, 0x65, 0xa8, 0x8f, 0xbb, 0xb5, 0xab, 0x96, 0xbd, 0x09, 0xdc, 0x9d, 0xbd, 0x80, 0x5e, 0x1e, 0xbb, 0x9d, 0x4b, 0xb1, 0x3c, 0xd5, 0x88, 0xc0, 0xbe, 0x34, 0x4e, 0x0f, 0x3e, 0x41, 0xed, 0xf8, 0xbe, 0xe0, 0x3f, 0xc9, 0x3c, 0x06, 0x69, 0x8a, 0x3b, 0xb7, 0x7c, 0x3f, 0xbe, 0x00, 0x11, 0xef, 0x3a, 0x8d, 0xea, 0x92, 0xbe, 0xa5, 0x12, 0xdf, 0x3d, 0x9d, 0xaa, 0x1b, 0xbd, 0xe3, 0x17, 0x94, 0xbd, 0xe8, 0x72, 0x12, 0xbd, 0x54, 0xbf, 0xe7, 0xbd, 0x8b, 0x3f, 0x10, 0xbe, 0x10, 0x3e, 0xac, 0x3c, 0x36, 0x8a, 0xc4, 0xbe, 0x82, 0x8b, 0xa8, 0x3d, 0xbd, 0xc3, 0xab, 0xbd, 0x8c, 0xbd, 0xf6, 0xbd, 0xcf, 0x93, 0xd5, 0xbd, 0x65, 0x89, 0xc9, 0xbc, 0x68, 0xfe, 0xdd, 0x3d, 0x19, 0xcc, 0xb7, 0xbd, 0xce, 0x9b, 0x23, 0xbb, 0x9c, 0x7d, 0xd6, 0x3b, 0x26, 0x54, 0x28, 0xbc, 0x40, 0xf6, 0x30, 0xbc, 0xd7, 0x7b, 0x2b, 0xbd, 0xf1, 0xa0, 0xb8, 0xba, 0x9e, 0x0c, 0x14, 0xbe, 0x70, 0xf3, 0x95, 0xba, 0x20, 0xcf, 0xd4, 0x3d, 0xeb, 0xb8, 0xdc, 0xbb, 0x4d, 0x31, 0x58, 0x3d, 0xbc, 0xb1, 0xa6, 0xbb, 0x57, 0x7f, 0x4e, 0xbe, 0x67, 0x74, 0x8a, 0xbd, 0xec, 0x1e, 0x8b, 0xbc, 0x69, 0x61, 0xae, 0xbd, 0x72, 0xc3, 0xa7, 0xbd, 0x8a, 0xe0, 0xbf, 0x3a, 0xd6, 0x85, 0xda, 0xbd, 0xae, 0xbe, 0x90, 0x3b, 0x7d, 0x35, 0x0d, 0xbe, 0x67, 0x8e, 0xc6, 0x3c, 0x2e, 0xe6, 0x6a, 0xbc, 0x76, 0x7b, 0xdb, 0xbd, 0x98, 0xa9, 0x9d, 0xbd, 0x00, 0xed, 0xe3, 0xbb, 0xe1, 0xc1, 0x09, 0xbe, 0x1f, 0x91, 0x49, 0xbc, 0x08, 0xe8, 0x90, 0xbd, 0xd5, 0x10, 0x16, 0xbe, 0x60, 0x09, 0x25, 0xbd, 0xc6, 0xfb, 0xbc, 0xbd, 0xaa, 0x8a, 0xed, 0xbd, 0x02, 0x15, 0x67, 0xbd, 0x50, 0x64, 0x86, 0xbc, 0x5d, 0xb5, 0x8f, 0xbd, 0x49, 0xcc, 0x62, 0x3c, 0x26, 0x0d, 0xc8, 0xbe, 0x78, 0x89, 0xb4, 0xbd, 0x3d, 0xf7, 0x1c, 0xbe, 0x11, 0x8c, 0xf9, 0x3c, 0xca, 0x20, 0xbc, 0xbd, 0x35, 0xde, 0x64, 0x3d, 0xd0, 0xa2, 0xc8, 0x3c, 0x10, 0x1b, 0xa7, 0xbe, 0x87, 0xb1, 0x9f, 0x3d, 0xa7, 0x51, 0xc0, 0x3b, 0xd7, 0xd3, 0x11, 0xbd, 0x50, 0xd5, 0x8b, 0x3c, 0x3f, 0x94, 0xbc, 0xbc, 0x9e, 0x76, 0xf9, 0xbd, 0x84, 0xab, 0xb9, 0xbd, 0x54, 0x7e, 0xd2, 0xbd, 0x2e, 0xe6, 0x0f, 0x3e, 0x9d, 0xbb, 0xa4, 0xbd, 0x22, 0x91, 0x05, 0xbe, 0xac, 0x42, 0x0f, 0xbb, 0xe3, 0x80, 0x9f, 0xbd, 0xe4, 0xbb, 0xb1, 0xbd, 0x75, 0x7c, 0x49, 0xbe, 0x1d, 0xc0, 0xd4, 0xbd, 0x82, 0xa2, 0x85, 0xbc, 0x71, 0x4a, 0x4d, 0x3c, 0x10, 0x0d, 0x97, 0xbc, 0x61, 0x6e, 0x82, 0xbd, 0xcb, 0x2d, 0xb2, 0xbd, 0x70, 0x08, 0x00, 0xbd, 0x17, 0xdb, 0x1c, 0xbd, 0xb8, 0x66, 0x2f, 0x3d, 0x39, 0x1c, 0x14, 0xbd, 0x2f, 0x44, 0xd1, 0xbc, 0x3c, 0x1b, 0x7c, 0xbe, 0x73, 0x32, 0x35, 0xbe, 0x21, 0x9b, 0xb2, 0xbd, 0x3d, 0xfe, 0xd2, 0x3c, 0xce, 0xf2, 0x61, 0xbd, 0xf3, 0xeb, 0x95, 0x3e, 0x95, 0xb1, 0x9f, 0xbd, 0x2c, 0x87, 0x21, 0x3d, 0x50, 0x71, 0xb8, 0xbe, 0x30, 0xa6, 0xef, 0xbd, 0x63, 0xd4, 0x53, 0x3d, 0x04, 0x00, 0x8e, 0xbc, 0x64, 0xc1, 0x5e, 0x3d, 0x9e, 0xc6, 0x05, 0xbd, 0xc6, 0xd7, 0x3c, 0xbd, 0x95, 0xa8, 0x35, 0xbc, 0xc1, 0x92, 0x8b, 0xbc, 0xc6, 0x68, 0x09, 0xbe, 0xda, 0x2e, 0xa5, 0xbd, 0x6a, 0x7c, 0x47, 0xbd, 0xf4, 0x58, 0xc0, 0xbd, 0x10, 0x9f, 0xd6, 0xbc, 0x00, 0x1c, 0x9f, 0x3c, 0x5c, 0xa5, 0x45, 0xbb, 0x74, 0xe9, 0x3f, 0x3d, 0x81, 0x0e, 0x6b, 0xbc, 0x66, 0x5f, 0xc1, 0xba, 0x84, 0x88, 0x54, 0x3d, 0x04, 0x2a, 0x07, 0xbe, 0x2c, 0xbf, 0x0e, 0xbd, 0x31, 0xef, 0xea, 0x3d, 0x3a, 0x83, 0x54, 0xbd, 0x8c, 0xb0, 0x05, 0xbe, 0xac, 0x50, 0x42, 0xbe, 0xc3, 0x40, 0xbf, 0xbd, 0x75, 0x03, 0xd3, 0xbd, 0x79, 0xbf, 0x0a, 0x3e, 0x00, 0x77, 0x3c, 0xba, 0xc0, 0x98, 0xb0, 0x3b, 0xbe, 0x3c, 0x10, 0x3e, 0x5e, 0xc1, 0x8f, 0xbc, 0xcc, 0x87, 0xf6, 0xbd, 0x58, 0x6a, 0xc9, 0xbd, 0x1f, 0xbb, 0x25, 0xbe, 0x00, 0x10, 0x04, 0xbe, 0x75, 0x7f, 0xb3, 0xbb, 0x05, 0x6e, 0xf4, 0xbc, 0xdc, 0xf7, 0xe8, 0xbd, 0x55, 0xbd, 0xe5, 0xbb, 0xa0, 0x6a, 0xc0, 0x3c, 0x2b, 0x49, 0xb8, 0xbb, 0x52, 0xe1, 0xe0, 0xbd, 0x60, 0xa0, 0x81, 0xbb, 0x21, 0x71, 0x7a, 0xbe, 0x30, 0xb3, 0x2e, 0xbd, 0xfe, 0x11, 0x91, 0x3c, 0x48, 0xa6, 0x83, 0xbd, 0x9e, 0x9d, 0x9f, 0x3d, 0x64, 0x9d, 0x2b, 0xbd, 0x23, 0xee, 0x92, 0xbd, 0x3a, 0x5b, 0xf2, 0xbd, 0x43, 0x5b, 0xad, 0xbc, 0xb8, 0x90, 0x0c, 0x3d, 0xdb, 0x37, 0x09, 0xbe, 0x04, 0x19, 0xc1, 0x3d, 0xdf, 0x15, 0x3f, 0xbb, 0x8f, 0xaa, 0xfa, 0xbd, 0xd1, 0xb7, 0x10, 0xbe, 0x41, 0x55, 0x51, 0xbe, 0x70, 0xc8, 0x5c, 0x3c, 0xe0, 0xd1, 0xc9, 0xbb, 0xca, 0x42, 0x9c, 0xbd, 0x92, 0xf4, 0x63, 0xbd, 0x08, 0x0a, 0x12, 0xbe, 0x00, 0x67, 0xb0, 0x3c, 0xea, 0x82, 0xf7, 0xbe, 0x9e, 0xb9, 0x05, 0x3e, 0xc0, 0x6d, 0x1d, 0x3b, 0x45, 0xbd, 0x14, 0xbf, 0x9c, 0x8e, 0xca, 0xbd, 0x68, 0x13, 0x18, 0xbe, 0xa3, 0xa6, 0x8d, 0xbd, 0x78, 0x36, 0x75, 0x3d, 0xbf, 0x55, 0x05, 0xbe, 0xdc, 0x79, 0x04, 0xbe, 0xf7, 0x43, 0xb1, 0xbe, 0x5b, 0x13, 0xef, 0x3d, 0xea, 0x98, 0x19, 0xbd, 0xea, 0xf1, 0x9e, 0xbe, 0x66, 0x10, 0x94, 0x3d, 0x93, 0xf3, 0xc3, 0xbd, 0x2b, 0xcf, 0xdc, 0xbd, 0x98, 0xe3, 0x34, 0x3d, 0xc0, 0x67, 0x9e, 0x3a, 0x44, 0xbe, 0x2e, 0xbd, 0xea, 0x55, 0x23, 0x3e, 0xd3, 0x61, 0x46, 0xbd, 0x8f, 0x95, 0xdb, 0xbd, 0x7f, 0x0a, 0x7d, 0xbe, 0x4e, 0xf9, 0x3c, 0xbd, 0x99, 0xd8, 0x37, 0xbd, 0x01, 0x0b, 0x23, 0xbc, 0x68, 0xaf, 0xa1, 0xbc, 0xc8, 0x88, 0x7a, 0xbd, 0x69, 0x3a, 0x2c, 0xbd, 0xf3, 0x6f, 0x8c, 0x3c, 0x1e, 0xfe, 0x59, 0x3b, 0x6b, 0x5a, 0x13, 0xbe, 0x1d, 0x94, 0x3c, 0xbd, 0x50, 0x65, 0x0c, 0x3d, 0x05, 0x63, 0x9e, 0xbb, 0xac, 0xd6, 0xc7, 0xb9, 0xaa, 0x31, 0x44, 0xbd, 0xff, 0x40, 0x51, 0xbe, 0x3f, 0xfe, 0x06, 0x3e, 0x3d, 0xac, 0x5e, 0xbe, 0x36, 0x75, 0x31, 0xbe, 0x92, 0x7d, 0x4a, 0xbd, 0x04, 0x7f, 0x03, 0x3d, 0x89, 0xb9, 0x20, 0xbe, 0xbc, 0xa2, 0x74, 0xbe, 0x50, 0xfd, 0x2e, 0xbe, 0x32, 0x81, 0x31, 0xbd, 0x8a, 0x7e, 0xb7, 0x3d, 0xa0, 0x41, 0x91, 0xbb, 0x54, 0xc4, 0x08, 0x3d, 0x6f, 0xbc, 0x08, 0xbf, 0x44, 0x95, 0xf4, 0x3d, 0x96, 0xd0, 0xe9, 0xbd, 0xf5, 0x0f, 0x13, 0xbe, 0xac, 0x37, 0xa6, 0x3c, 0x2b, 0x4f, 0x03, 0xbf, 0xc0, 0x37, 0x39, 0xbb, 0xff, 0xcf, 0x9c, 0xbd, 0xe0, 0xcd, 0xda, 0x3d, 0xc9, 0x3b, 0x45, 0x3e, 0x7f, 0x94, 0x7f, 0xbe, 0x9c, 0xbb, 0x9e, 0xbd, 0x50, 0xba, 0x6d, 0xbe, 0x7a, 0xa6, 0x33, 0x3d, 0x7d, 0xaa, 0xa4, 0xbc, 0xfc, 0xab, 0x9d, 0xbd, 0x1e, 0xe6, 0x96, 0xbd, 0x5e, 0x77, 0x02, 0xbe, 0xd5, 0x4c, 0xc5, 0x3c, 0x66, 0x66, 0x5a, 0xbd, 0x25, 0x3f, 0x39, 0xbe, 0xec, 0x47, 0x94, 0xbd, 0xa9, 0x1a, 0xdd, 0xbd, 0x02, 0x21, 0xaf, 0x3d, 0xa6, 0x1e, 0xa8, 0xbc, 0xad, 0xce, 0xbf, 0xbd, 0xa6, 0x78, 0x04, 0x3e, 0xdf, 0xad, 0x8d, 0xbd, 0x68, 0x25, 0x56, 0x3d, 0x88, 0x5c, 0x7a, 0xbd, 0x6c, 0x2f, 0xf1, 0xbc, 0xe0, 0xcb, 0xbf, 0xbb, 0x52, 0x57, 0x19, 0xbe, 0x52, 0x0b, 0x8b, 0xbc, 0xf2, 0x8d, 0x47, 0xbd, 0x5f, 0x81, 0xbd, 0xbc, 0x4b, 0x9d, 0x18, 0xbe, 0xda, 0x45, 0x89, 0xbe, 0xa0, 0x2c, 0xda, 0xbd, 0x5b, 0x3a, 0x6b, 0xbd, 0xb7, 0x4e, 0x8e, 0xbe, 0x8b, 0x08, 0xb5, 0xbd, 0x57, 0xca, 0x79, 0xbb, 0x0f, 0x44, 0xbb, 0xbd, 0x61, 0xee, 0x00, 0xbe, 0x58, 0x59, 0xc7, 0xbd, 0xd0, 0xa3, 0xe5, 0x3d, 0xdc, 0x9b, 0xc0, 0xbc, 0x2a, 0x93, 0x17, 0x3e, 0x38, 0x8f, 0xc6, 0xbd, 0x3e, 0xfe, 0x9b, 0xbb, 0x88, 0x27, 0x5a, 0x3d, 0x33, 0x99, 0x85, 0xbc, 0xbf, 0x0a, 0x1b, 0xbe, 0x13, 0xfd, 0xf4, 0xbb, 0xee, 0x42, 0x8b, 0xbc, 0x4b, 0x49, 0xd7, 0xbd, 0x82, 0x3e, 0x51, 0xbe, 0xd2, 0x06, 0x14, 0x3e, 0xed, 0x42, 0x23, 0xbd, 0x8c, 0xae, 0x82, 0xbd, 0xf4, 0x64, 0x0f, 0x3e, 0x0e, 0xbe, 0x0c, 0xbd, 0x7f, 0x8a, 0xf0, 0x3d, 0xf1, 0xb4, 0xd3, 0xbd, 0x02, 0x8a, 0x2e, 0xbe, 0xc4, 0xa0, 0xa7, 0x3d, 0xec, 0xef, 0xcb, 0xbb, 0x0f, 0x1f, 0x21, 0x3d, 0xde, 0x98, 0x91, 0xbe, 0x7e, 0x17, 0x82, 0xbe, 0xc4, 0x6d, 0x09, 0xbe, 0x33, 0x44, 0xb4, 0x3d, 0x5c, 0x53, 0x47, 0x3c, 0xbb, 0xf8, 0x16, 0x3c, 0x02, 0x0b, 0xc2, 0x3a, 0x84, 0xeb, 0xe8, 0xbc, 0xe0, 0xbf, 0xca, 0xbc, 0x6d, 0xbd, 0x17, 0x3e, 0x8d, 0x48, 0x7f, 0xbe, 0x06, 0x75, 0x09, 0xbe, 0xc4, 0xb9, 0xd8, 0xbd, 0x61, 0xdb, 0x8d, 0x3c, 0xa8, 0x2d, 0x4d, 0x3d, 0xe3, 0x9a, 0xfb, 0xbc, 0xbf, 0x5f, 0x88, 0xbc, 0x7e, 0xf2, 0x0f, 0x3e, 0x65, 0xea, 0x2c, 0xbe, 0xc4, 0x7c, 0xb2, 0xbd, 0x82, 0xa6, 0x3b, 0xbe, 0xb2, 0x39, 0x76, 0xbd, 0x0f, 0xe2, 0xd2, 0xbd, 0xdd, 0x62, 0x8c, 0x3d, 0x49, 0x4d, 0x04, 0x3e, 0xd0, 0x78, 0x76, 0xbc, 0xc0, 0x22, 0x2b, 0xbb, 0x1b, 0xc0, 0x8b, 0xbd, 0xae, 0xbd, 0x6b, 0xbd, 0x15, 0x90, 0x4b, 0xbd, 0xae, 0xac, 0xe4, 0xbd, 0x5b, 0x9e, 0x2d, 0xbd, 0x82, 0xbb, 0x00, 0xbd, 0x56, 0x37, 0x4a, 0xba, 0xe7, 0x80, 0x03, 0xbe, 0x97, 0x18, 0xe2, 0xbd, 0xef, 0xff, 0xb7, 0xbd, 0xff, 0x21, 0x0c, 0xbe, 0x60, 0x9d, 0x00, 0xbb, 0x92, 0x66, 0x65, 0x3c, 0xfc, 0xc4, 0x46, 0xbe, 0x9d, 0x0d, 0x07, 0xbe, 0x58, 0xc6, 0x09, 0x3e, 0xe1, 0x4d, 0xb1, 0x3c, 0x53, 0x20, 0xb6, 0xbd, 0xad, 0xa9, 0x2c, 0xbd, 0x66, 0x4b, 0x38, 0xbd, 0xe4, 0x2f, 0x41, 0xbd, 0xac, 0x7b, 0x91, 0xbd, 0x4f, 0x0b, 0xe9, 0x3d, 0xc0, 0x87, 0x0c, 0xbb, 0xf3, 0xb1, 0x65, 0xbd, 0x60, 0x60, 0xd9, 0xbb, 0x70, 0x61, 0x23, 0xbd, 0x18, 0x29, 0x2c, 0xbd, 0xec, 0xca, 0xcb, 0xbd, 0x78, 0x83, 0xc6, 0xbc, 0x14, 0x5d, 0xe9, 0xbc, 0x3a, 0xff, 0x0d, 0xbe, 0xa6, 0x13, 0x16, 0xbe, 0x5a, 0x1d, 0xd8, 0xbb, 0xc9, 0x41, 0x16, 0xbc, 0xe6, 0xb0, 0x0c, 0xbe, 0x51, 0x82, 0xba, 0xbd, 0x04, 0xa7, 0x3c, 0xbd, 0xdc, 0xab, 0x6d, 0xbd, 0xc1, 0xdb, 0xc3, 0xbc, 0xea, 0xac, 0x52, 0xbd, 0x6f, 0x04, 0x22, 0xbe, 0x36, 0xd1, 0x32, 0x3d, 0x56, 0x0d, 0x43, 0x3c, 0x85, 0x68, 0xef, 0xba, 0x88, 0x72, 0xd3, 0x3d, 0xef, 0x76, 0x60, 0xbd, 0xa0, 0x65, 0xee, 0x3c, 0xb8, 0x48, 0x1d, 0xbd, 0x96, 0x26, 0xed, 0xbc, 0x8b, 0xec, 0x0c, 0xbe, 0x12, 0x1c, 0x50, 0xbd, 0xc0, 0xe8, 0x95, 0x3c, 0x03, 0x75, 0x78, 0xbe, 0x2a, 0x09, 0xd3, 0x3d, 0xa8, 0x15, 0xab, 0x3d, 0x66, 0xbf, 0x8c, 0xbe, 0xf4, 0x20, 0x58, 0x3d, 0x09, 0x76, 0xe8, 0xbd, 0xee, 0xe2, 0xd6, 0xbd, 0x8a, 0xbb, 0x97, 0x3d, 0x33, 0x53, 0xb9, 0xbd, 0x33, 0x33, 0x9b, 0xbd, 0x4f, 0xc4, 0x87, 0xbd, 0xb7, 0xbd, 0x9f, 0xbe, 0x26, 0xe6, 0x27, 0xbd, 0x79, 0x73, 0x38, 0xbd, 0x08, 0xca, 0x8b, 0xbd, 0x4b, 0x7d, 0xb0, 0xbd, 0xb1, 0x8a, 0xb2, 0x3a, 0x6c, 0x72, 0x0a, 0x3e, 0xe7, 0xaf, 0x3b, 0xbb, 0x28, 0x51, 0xcf, 0x3c, 0xaa, 0xe2, 0xd4, 0xbd, 0x10, 0xf5, 0x03, 0xbb, 0x5e, 0x20, 0x96, 0xbd, 0xe5, 0xe2, 0xc0, 0xbd, 0x00, 0x8c, 0x14, 0x3e, 0xb2, 0xd7, 0xed, 0x3d, 0x06, 0x2b, 0x6e, 0xbd, 0xea, 0xd9, 0x3f, 0xbd, 0xf8, 0xef, 0xb7, 0xbe, 0x33, 0x10, 0xb5, 0xbd, 0x2a, 0x9e, 0x63, 0xbd, 0x29, 0x50, 0xb4, 0x3b, 0x7c, 0x26, 0x7a, 0x3d, 0xae, 0xc6, 0x88, 0xbe, 0xf6, 0xf9, 0xff, 0xff, 0x10, 0x00, 0x00, 0x00, 0x06, 0x00, 0x00, 0x00, 0x14, 0x00, 0x00, 0x00, 0x34, 0x00, 0x00, 0x00, 0x02, 0x00, 0x00, 0x00, 0x00, 0x01, 0x00, 0x00, 0x05, 0x00, 0x00, 0x00, 0x1c, 0x00, 0x00, 0x00, 0x53, 0x65, 0x71, 0x75, 0x65, 0x6e, 0x74, 0x69, 0x61, 0x6c, 0x2d, 0x4e, 0x4e, 0x2f, 0x64, 0x65, 0x6e, 0x73, 0x65, 0x5f, 0x37, 0x2f, 0x4d, 0x61, 0x74, 0x4d, 0x75, 0x6c, 0x00, 0x00, 0x00, 0x00, 0x74, 0xf9, 0xff, 0xff, 0x66, 0xfa, 0xff, 0xff, 0x04, 0x00, 0x00, 0x00, 0x64, 0x00, 0x00, 0x00, 0x64, 0xea, 0xc1, 0x3e, 0x91, 0x4b, 0xdd, 0xbd, 0x60, 0x6c, 0x85, 0x3e, 0x1a, 0x89, 0xbf, 0xbe, 0xfc, 0x8c, 0x91, 0x3e, 0x0d, 0x21, 0x40, 0xba, 0xb3, 0xda, 0x1c, 0xbb, 0xf0, 0x0e, 0x52, 0xbf, 0x41, 0xc0, 0xd5, 0x3d, 0x33, 0x8e, 0x0f, 0xc0, 0xe2, 0xac, 0x84, 0x3e, 0x98, 0x56, 0xe2, 0x3e, 0x6e, 0x7f, 0x66, 0x3e, 0x9b, 0x1e, 0xe0, 0xbd, 0x43, 0x47, 0x9f, 0xbf, 0x18, 0x9f, 0xa4, 0xbd, 0x6f, 0x4b, 0x97, 0xbe, 0xf7, 0x9d, 0x1d, 0xbf, 0x00, 0x6e, 0x6b, 0xbd, 0x60, 0x57, 0x9d, 0xbc, 0xc7, 0x66, 0x87, 0xbf, 0x87, 0x1f, 0xc8, 0xbd, 0xb6, 0x03, 0xfa, 0x3d, 0xc0, 0xdf, 0xe1, 0x3d, 0x20, 0xdd, 0xc2, 0x40, 0xae, 0xfa, 0xff, 0xff, 0x10, 0x00, 0x00, 0x00, 0x05, 0x00, 0x00, 0x00, 0x14, 0x00, 0x00, 0x00, 0x34, 0x00, 0x00, 0x00, 0x02, 0x00, 0x00, 0x00, 0x05, 0x00, 0x00, 0x00, 0x05, 0x00, 0x00, 0x00, 0x1c, 0x00, 0x00, 0x00, 0x53, 0x65, 0x71, 0x75, 0x65, 0x6e, 0x74, 0x69, 0x61, 0x6c, 0x2d, 0x4e, 0x4e, 0x2f, 0x64, 0x65, 0x6e, 0x73, 0x65, 0x5f, 0x36, 0x2f, 0x4d, 0x61, 0x74, 0x4d, 0x75, 0x6c, 0x00, 0x00, 0x00, 0x00, 0x2c, 0xfa, 0xff, 0xff, 0x1e, 0xfb, 0xff, 0xff, 0x04, 0x00, 0x00, 0x00, 0x0c, 0x00, 0x00, 0x00, 0xb2, 0x37, 0x34, 0x3f, 0x29, 0xa5, 0xd6, 0x3e, 0xa0, 0x3c, 0x8f, 0xbf, 0x0e, 0xfb, 0xff, 0xff, 0x10, 0x00, 0x00, 0x00, 0x04, 0x00, 0x00, 0x00, 0x10, 0x00, 0x00, 0x00, 0x48, 0x00, 0x00, 0x00, 0x01, 0x00, 0x00, 0x00, 0x03, 0x00, 0x00, 0x00, 0x35, 0x00, 0x00, 0x00, 0x53, 0x65, 0x71, 0x75, 0x65, 0x6e, 0x74, 0x69, 0x61, 0x6c, 0x2d, 0x4e, 0x4e, 0x2f, 0x64, 0x65, 0x6e, 0x73, 0x65, 0x5f, 0x38, 0x2f, 0x42, 0x69, 0x61, 0x73, 0x41, 0x64, 0x64, 0x2f, 0x52, 0x65, 0x61, 0x64, 0x56, 0x61, 0x72, 0x69, 0x61, 0x62, 0x6c, 0x65, 0x4f, 0x70, 0x2f, 0x72, 0x65, 0x73, 0x6f, 0x75, 0x72, 0x63, 0x65, 0x00, 0x00, 0x00, 0xa0, 0xfa, 0xff, 0xff, 0x92, 0xfb, 0xff, 0xff, 0x04, 0x00, 0x00, 0x00, 0x00, 0x04, 0x00, 0x00, 0x00, 0x00, 0x00, 0x00, 0x9d, 0x0e, 0x89, 0xbf, 0x1e, 0x8e, 0x44, 0xbe, 0xc5, 0x5b, 0x21, 0x3f, 0xdc, 0x41, 0x91, 0x3e, 0x8b, 0x61, 0xdc, 0xbc, 0x32, 0x68, 0x70, 0x3e, 0x79, 0x25, 0xae, 0x3f, 0xff, 0x5d, 0x7f, 0x3e, 0x03, 0xed, 0x8f, 0x3f, 0x9a, 0xf0, 0x8f, 0x2f, 0x62, 0xdf, 0x02, 0x3f, 0x73, 0x22, 0x3d, 0x3f, 0xbc, 0x42, 0x01, 0xbd, 0x77, 0xee, 0x08, 0xbe, 0xfc, 0xd6, 0x92, 0x3e, 0x15, 0x82, 0x6f, 0xbe, 0x00, 0x00, 0x00, 0x00, 0x5c, 0xef, 0x9a, 0x3f, 0x5d, 0xb3, 0xc0, 0x3e, 0x25, 0xa1, 0x97, 0x3f, 0x00, 0x00, 0x00, 0x00, 0x06, 0x84, 0x18, 0x3f, 0x4b, 0x5a, 0x22, 0xbf, 0xc8, 0xe3, 0x89, 0xbe, 0x0f, 0x50, 0x3d, 0xbd, 0xdc, 0x39, 0x8a, 0x3e, 0x6b, 0x96, 0xd3, 0xbe, 0x6f, 0x83, 0x70, 0xbc, 0xb2, 0xe7, 0x4d, 0xbf, 0x21, 0xce, 0x36, 0xbd, 0xcb, 0xc8, 0x38, 0xbf, 0x3a, 0x34, 0x67, 0x3e, 0x80, 0x6f, 0xb7, 0xbd, 0x37, 0x00, 0xd3, 0x3d, 0xc8, 0x3b, 0x31, 0xbf, 0x04, 0x41, 0xb3, 0x3d, 0x3b, 0xdd, 0x85, 0xbf, 0x68, 0xff, 0x07, 0xbf, 0x31, 0xc9, 0x78, 0xbe, 0x59, 0x69, 0x80, 0xbc, 0xd1, 0x66, 0xa9, 0x3f, 0x35, 0x22, 0xe1, 0xbe, 0x00, 0x00, 0x00, 0x00, 0x00, 0x00, 0x00, 0x00, 0xe3, 0x6c, 0xa1, 0x3f, 0x1a, 0x6a, 0x04, 0xbf, 0x5a, 0xbb, 0xbb, 0xbf, 0x93, 0x6c, 0x77, 0xbf, 0x7d, 0x09, 0xef, 0xbe, 0xcd, 0x8f, 0xf4, 0xbe, 0x00, 0x00, 0x00, 0x00, 0x6c, 0x69, 0xc1, 0xb4, 0x10, 0xf3, 0xb0, 0xbe, 0xb9, 0xb4, 0x25, 0x3f, 0x91, 0x0b, 0x9e, 0xbe, 0x00, 0x00, 0x00, 0x00, 0x35, 0x4d, 0x12, 0x3f, 0x3b, 0x00, 0x2a, 0xbf, 0xcb, 0x65, 0xd5, 0x3a, 0x85, 0x52, 0x7d, 0x3e, 0x3a, 0xd4, 0xe6, 0xbd, 0x0d, 0xf8, 0xe5, 0xbe, 0x64, 0x0b, 0x42, 0xbf, 0xc4, 0xb1, 0xc2, 0xbd, 0xf0, 0xd1, 0x52, 0xbe, 0x6b, 0xe2, 0x01, 0xbc, 0x00, 0x00, 0x00, 0x00, 0x58, 0x7c, 0x10, 0xb4, 0x00, 0x17, 0xa4, 0x3f, 0x5c, 0x7a, 0xd7, 0xbd, 0x6e, 0xeb, 0x01, 0xbd, 0x4b, 0x87, 0x9f, 0x3f, 0x43, 0xf2, 0x52, 0x3f, 0x00, 0x00, 0x00, 0x00, 0x04, 0xc7, 0x01, 0xbd, 0xd0, 0xdd, 0xb1, 0x3f, 0x88, 0x25, 0xe1, 0xbc, 0xe7, 0x1f, 0x70, 0x3f, 0xaf, 0x14, 0x5a, 0xbf, 0x32, 0x56, 0x0b, 0x3f, 0xa3, 0x85, 0x3d, 0x3e, 0x00, 0x00, 0x00, 0x00, 0x3e, 0x76, 0x72, 0xbf, 0x88, 0xe8, 0x11, 0xbe, 0xb4, 0x87, 0xb0, 0x3f, 0xe9, 0x38, 0x89, 0x3e, 0xbf, 0x01, 0x0d, 0xb5, 0xc5, 0x85, 0x8a, 0x3f, 0x94, 0x41, 0xa3, 0xbf, 0x59, 0x2d, 0x37, 0x3f, 0x42, 0x5d, 0xaf, 0xbe, 0xf3, 0x6b, 0xbc, 0x3d, 0xd6, 0x1c, 0xde, 0xbe, 0xe7, 0x12, 0x6d, 0xbc, 0xb7, 0x19, 0xb8, 0xbf, 0x81, 0xce, 0x04, 0xbe, 0x34, 0xa1, 0xb3, 0xbd, 0xf4, 0xcb, 0x83, 0xbf, 0x42, 0xe0, 0x9a, 0x3e, 0x58, 0x70, 0x16, 0xbf, 0x53, 0x23, 0xbb, 0xbd, 0xa7, 0x21, 0x6f, 0xbc, 0x5c, 0x20, 0x8e, 0x3e, 0x1b, 0xe0, 0x01, 0xbd, 0xc4, 0xaf, 0x07, 0x3f, 0x44, 0x8f, 0x9a, 0x3f, 0x21, 0xcf, 0xa1, 0xbf, 0xf2, 0xfb, 0xa1, 0x3f, 0x52, 0x16, 0xcf, 0xbc, 0x00, 0x00, 0x00, 0x00, 0x39, 0xdb, 0xc1, 0x3e, 0x83, 0xed, 0x2c, 0xbe, 0x3b, 0xd2, 0x2d, 0x3f, 0x77, 0x49, 0x60, 0xbf, 0x5a, 0x73, 0x16, 0xbe, 0xdd, 0x70, 0x99, 0xbe, 0xfa, 0x30, 0x97, 0x3f, 0x9f, 0xe8, 0xf8, 0xbe, 0xc6, 0x17, 0x2a, 0xbf, 0x27, 0x30, 0x81, 0x3f, 0x00, 0x00, 0x00, 0x00, 0xfc, 0x27, 0x48, 0xbe, 0xf6, 0xc3, 0xd2, 0xbc, 0x4c, 0x10, 0x38, 0x3f, 0x45, 0x9b, 0x07, 0xbd, 0x00, 0x00, 0x00, 0x00, 0x00, 0x00, 0x00, 0x00, 0x46, 0x1f, 0x6f, 0x3f, 0xfc, 0xd1, 0x3f, 0xbe, 0x5c, 0x99, 0xa4, 0x3f, 0x00, 0x00, 0x00, 0x00, 0xf5, 0xa2, 0x4c, 0xbe, 0x02, 0x8f, 0x75, 0xbe, 0x57, 0x92, 0x2f, 0xbe, 0x5e, 0xe1, 0x2f, 0xbf, 0x00, 0x00, 0x00, 0x00, 0xa8, 0x3d, 0x86, 0xbd, 0x2f, 0x4e, 0x33, 0xbd, 0x8d, 0xa0, 0xb8, 0xbd, 0x61, 0xcd, 0x19, 0xbf, 0xe3, 0xa0, 0x60, 0xbd, 0x97, 0x81, 0x87, 0x3f, 0x6a, 0x9a, 0x90, 0xbe, 0xf7, 0x18, 0xa4, 0x3f, 0x56, 0x1a, 0x02, 0xbd, 0xd0, 0x5f, 0xa4, 0xbf, 0x00, 0x00, 0x00, 0x00, 0xdb, 0xf4, 0x28, 0xbd, 0xca, 0x2b, 0x5c, 0x3e, 0x00, 0x00, 0x00, 0x00, 0xef, 0x6a, 0xa3, 0x3f, 0x00, 0x00, 0x00, 0x00, 0xd2, 0xd0, 0xc6, 0xbd, 0xd3, 0x19, 0xcf, 0xbd, 0x44, 0xdc, 0x04, 0xbc, 0x00, 0x00, 0x00, 0x00, 0x93, 0x00, 0x16, 0x3f, 0xa4, 0xdc, 0x6c, 0x3f, 0xb1, 0xe4, 0xd7, 0xbc, 0xf3, 0x2b, 0xd6, 0xbc, 0x4b, 0x7e, 0xe9, 0x3c, 0xd4, 0x0a, 0xaa, 0x3e, 0x13, 0xd2, 0x47, 0xbf, 0xf2, 0x06, 0xf0, 0x3d, 0x53, 0xbf, 0xa3, 0xbe, 0xd4, 0x95, 0xe6, 0xbc, 0x99, 0xb1, 0xb0, 0xbc, 0xed, 0x8d, 0x91, 0xbf, 0x6a, 0x14, 0x3d, 0xbe, 0xd1, 0x3c, 0x38, 0xbe, 0xa6, 0x9d, 0x80, 0x3e, 0x52, 0xc6, 0x13, 0xbd, 0xaf, 0xf5, 0x5f, 0xbd, 0x17, 0xfc, 0xc1, 0xbc, 0x6a, 0x67, 0x11, 0xbe, 0x93, 0xd4, 0x13, 0xbe, 0x36, 0x80, 0xcc, 0xbd, 0xd1, 0x8b, 0x15, 0xbf, 0x1a, 0xb2, 0xcc, 0x3e, 0x4d, 0x69, 0x76, 0xbe, 0x4a, 0x61, 0x32, 0x3b, 0x8b, 0x0a, 0xb1, 0x3f, 0x62, 0xe9, 0x22, 0xbf, 0x50, 0xe7, 0x82, 0xbf, 0x7b, 0x0c, 0x76, 0xba, 0x00, 0x00, 0x00, 0x00, 0xe2, 0xf6, 0xa1, 0xbe, 0x03, 0xcc, 0xe5, 0xbc, 0x8c, 0xf5, 0x23, 0xbf, 0x00, 0x00, 0x00, 0x00, 0x59, 0xef, 0x6d, 0xbd, 0x46, 0x3a, 0x5a, 0xbf, 0x7b, 0x1d, 0x35, 0x3e, 0x24, 0x19, 0xf6, 0x3e, 0xed, 0x5a, 0xe6, 0xbe, 0x6c, 0xd9, 0x96, 0xbf, 0x9d, 0xb7, 0x0a, 0x3e, 0x42, 0x7e, 0x57, 0xbf, 0x52, 0xbc, 0x02, 0xbe, 0x9c, 0x77, 0x16, 0xbf, 0x2a, 0xa5, 0xd3, 0xbe, 0xfa, 0x12, 0x02, 0xbd, 0xce, 0x52, 0x3d, 0xbe, 0x0d, 0x93, 0x87, 0x3d, 0xaa, 0x2c, 0x4c, 0xbf, 0x92, 0x0e, 0xda, 0x3e, 0xf5, 0xff, 0x3d, 0xbe, 0x00, 0x00, 0x00, 0x00, 0x06, 0x09, 0x44, 0xbe, 0x00, 0x00, 0x00, 0x00, 0xf4, 0xd2, 0x97, 0x3f, 0xd8, 0x4d, 0x19, 0xbf, 0xd2, 0xdf, 0x56, 0xbf, 0x61, 0x84, 0x40, 0xbd, 0x46, 0x25, 0x35, 0xbf, 0x89, 0x9a, 0x13, 0x3c, 0xaa, 0x6b, 0xe2, 0x3e, 0xe6, 0x76, 0xd8, 0xbd, 0xa8, 0x8a, 0x52, 0xbf, 0x9a, 0x0d, 0x6a, 0xbf, 0x0b, 0xc2, 0xcc, 0xbe, 0x51, 0x50, 0xaf, 0x3f, 0x2e, 0x57, 0x11, 0x3f, 0x6b, 0xad, 0x98, 0xbd, 0x03, 0xf8, 0x74, 0xbd, 0x2e, 0xc0, 0x90, 0x3e, 0x04, 0x73, 0x6d, 0x3e, 0x9a, 0xb4, 0x93, 0xbe, 0x9e, 0x80, 0xd8, 0xbe, 0x52, 0xfc, 0xf5, 0xbd, 0xd6, 0x69, 0x8f, 0x3f, 0x23, 0xd4, 0x09, 0xba, 0xcd, 0xf1, 0x80, 0x3d, 0x2b, 0x56, 0xe5, 0xbe, 0xb1, 0x1c, 0x4a, 0x3e, 0xd4, 0xe1, 0x25, 0xbe, 0xd4, 0x43, 0xee, 0xbe, 0x64, 0x0e, 0xd9, 0xb2, 0x6a, 0xd0, 0x94, 0xbe, 0x94, 0x2d, 0xd9, 0x3d, 0x4b, 0xaf, 0x99, 0x3e, 0x5b, 0x5e, 0x9c, 0x3f, 0xb2, 0xee, 0xe6, 0xbe, 0x32, 0x3d, 0xd2, 0xbe, 0x91, 0x1c, 0x07, 0xbf, 0x94, 0xee, 0x72, 0xbd, 0x7d, 0x36, 0x0b, 0xbf, 0x04, 0x23, 0x6c, 0xbc, 0x61, 0x83, 0x62, 0x3f, 0x00, 0x00, 0x00, 0x00, 0x67, 0x13, 0x53, 0x3f, 0x24, 0xbf, 0x3f, 0xbe, 0x7f, 0x3d, 0xe2, 0xbc, 0xd0, 0x21, 0xbd, 0xbe, 0xbe, 0x2e, 0x41, 0xbe, 0x76, 0xff, 0xff, 0xff, 0x10, 0x00, 0x00, 0x00, 0x03, 0x00, 0x00, 0x00, 0x10, 0x00, 0x00, 0x00, 0x4c, 0x00, 0x00, 0x00, 0x01, 0x00, 0x00, 0x00, 0x00, 0x01, 0x00, 0x00, 0x35, 0x00, 0x00, 0x00, 0x53, 0x65, 0x71, 0x75, 0x65, 0x6e, 0x74, 0x69, 0x61, 0x6c, 0x2d, 0x4e, 0x4e, 0x2f, 0x64, 0x65, 0x6e, 0x73, 0x65, 0x5f, 0x37, 0x2f, 0x42, 0x69, 0x61, 0x73, 0x41, 0x64, 0x64, 0x2f, 0x52, 0x65, 0x61, 0x64, 0x56, 0x61, 0x72, 0x69, 0x61, 0x62, 0x6c, 0x65, 0x4f, 0x70, 0x2f, 0x72, 0x65, 0x73, 0x6f, 0x75, 0x72, 0x63, 0x65, 0x00, 0x00, 0x00, 0x04, 0x00, 0x06, 0x00, 0x04, 0x00, 0x00, 0x00, 0x00, 0x00, 0x06, 0x00, 0x08, 0x00, 0x04, 0x00, 0x06, 0x00, 0x00, 0x00, 0x04, 0x00, 0x00, 0x00, 0x14, 0x00, 0x00, 0x00, 0x26, 0x7c, 0xd7, 0x3b, 0x77, 0xd8, 0xf7, 0xbf, 0x33, 0x6d, 0x8f, 0xbe, 0x00, 0x00, 0x00, 0x00, 0x0a, 0x99, 0xfd, 0xbe, 0x00, 0x00, 0x0e, 0x00, 0x14, 0x00, 0x04, 0x00, 0x00, 0x00, 0x08, 0x00, 0x0c, 0x00, 0x10, 0x00, 0x0e, 0x00, 0x00, 0x00, 0x10, 0x00, 0x00, 0x00, 0x02, 0x00, 0x00, 0x00, 0x10, 0x00, 0x00, 0x00, 0x48, 0x00, 0x00, 0x00, 0x01, 0x00, 0x00, 0x00, 0x05, 0x00, 0x00, 0x00, 0x35, 0x00, 0x00, 0x00, 0x53, 0x65, 0x71, 0x75, 0x65, 0x6e, 0x74, 0x69, 0x61, 0x6c, 0x2d, 0x4e, 0x4e, 0x2f, 0x64, 0x65, 0x6e, 0x73, 0x65, 0x5f, 0x36, 0x2f, 0x42, 0x69, 0x61, 0x73, 0x41, 0x64, 0x64, 0x2f, 0x52, 0x65, 0x61, 0x64, 0x56, 0x61, 0x72, 0x69, 0x61, 0x62, 0x6c, 0x65, 0x4f, 0x70, 0x2f, 0x72, 0x65, 0x73, 0x6f, 0x75, 0x72, 0x63, 0x65, 0x00, 0x00, 0x00, 0xa0, 0xff, 0xff, 0xff, 0x14, 0x00, 0x18, 0x00, 0x04, 0x00, 0x00, 0x00, 0x08, 0x00, 0x0c, 0x00, 0x10, 0x00, 0x00, 0x00, 0x00, 0x00, 0x14, 0x00, 0x14, 0x00, 0x00, 0x00, 0x14, 0x00, 0x00, 0x00, 0x01, 0x00, 0x00, 0x00, 0x18, 0x00, 0x00, 0x00, 0x34, 0x00, 0x00, 0x00, 0x24, 0x00, 0x00, 0x00, 0x02, 0x00, 0x00, 0x00, 0x01, 0x00, 0x00, 0x00, 0x05, 0x00, 0x00, 0x00, 0x0d, 0x00, 0x00, 0x00, 0x64, 0x65, 0x6e, 0x73, 0x65, 0x5f, 0x36, 0x5f, 0x69, 0x6e, 0x70, 0x75, 0x74, 0x00, 0x00, 0x00, 0x02, 0x00, 0x00, 0x00, 0xff, 0xff, 0xff, 0xff, 0x05, 0x00, 0x00, 0x00, 0xfc, 0xff, 0xff, 0xff, 0x04, 0x00, 0x04, 0x00, 0x04, 0x00, 0x00, 0x00};
const int model_data_len = 11084;