
#ifdef __has_attribute
#define HAVE_ATTRIBUTE(x) __has_attribute(x)
#else
#define HAVE_ATTRIBUTE(x) 0
#endif
#if HAVE_ATTRIBUTE(aligned) || (defined(__GNUC__) && !defined(__clang__))
#define DATA_ALIGN_ATTRIBUTE __attribute__((aligned(4)))
#else
#define DATA_ALIGN_ATTRIBUTE
#endif

const unsigned char model_data[] DATA_ALIGN_ATTRIBUTE = {0x1c, 0x00, 0x00, 0x00, 0x54, 0x46, 0x4c, 0x33, 0x00, 0x00, 0x12, 0x00, 0x1c, 0x00, 0x04, 0x00, 0x08, 0x00, 0x0c, 0x00, 0x10, 0x00, 0x14, 0x00, 0x00, 0x00, 0x18, 0x00, 0x12, 0x00, 0x00, 0x00, 0x03, 0x00, 0x00, 0x00, 0x14, 0x00, 0x00, 0x00, 0x1c, 0x00, 0x00, 0x00, 0xa8, 0x00, 0x00, 0x00, 0x1c, 0x00, 0x00, 0x00, 0x50, 0x00, 0x00, 0x00, 0x02, 0x00, 0x00, 0x00, 0x58, 0x03, 0x00, 0x00, 0x6c, 0x01, 0x00, 0x00, 0x01, 0x00, 0x00, 0x00, 0xb0, 0x00, 0x00, 0x00, 0x0d, 0x00, 0x00, 0x00, 0xf8, 0x2a, 0x00, 0x00, 0xf4, 0x2a, 0x00, 0x00, 0x04, 0x2a, 0x00, 0x00, 0x8c, 0x25, 0x00, 0x00, 0x14, 0x25, 0x00, 0x00, 0x58, 0x24, 0x00, 0x00, 0x00, 0x10, 0x00, 0x00, 0xa8, 0x03, 0x00, 0x00, 0xd8, 0x2a, 0x00, 0x00, 0xd4, 0x2a, 0x00, 0x00, 0xd0, 0x2a, 0x00, 0x00, 0xcc, 0x2a, 0x00, 0x00, 0x38, 0x00, 0x00, 0x00, 0x01, 0x00, 0x00, 0x00, 0x0c, 0x00, 0x00, 0x00, 0x08, 0x00, 0x0c, 0x00, 0x04, 0x00, 0x08, 0x00, 0x08, 0x00, 0x00, 0x00, 0x08, 0x00, 0x00, 0x00, 0x0c, 0x00, 0x00, 0x00, 0x13, 0x00, 0x00, 0x00, 0x6d, 0x69, 0x6e, 0x5f, 0x72, 0x75, 0x6e, 0x74, 0x69, 0x6d, 0x65, 0x5f, 0x76, 0x65, 0x72, 0x73, 0x69, 0x6f, 0x6e, 0x00, 0x62, 0xd6, 0xff, 0xff, 0x04, 0x00, 0x00, 0x00, 0x10, 0x00, 0x00, 0x00, 0x31, 0x2e, 0x35, 0x2e, 0x30, 0x00, 0x00, 0x00, 0x00, 0x00, 0x00, 0x00, 0x00, 0x00, 0x00, 0x00, 0x0f, 0x00, 0x00, 0x00, 0x4d, 0x4c, 0x49, 0x52, 0x20, 0x43, 0x6f, 0x6e, 0x76, 0x65, 0x72, 0x74, 0x65, 0x64, 0x2e, 0x00, 0x00, 0x00, 0x0e, 0x00, 0x18, 0x00, 0x04, 0x00, 0x08, 0x00, 0x0c, 0x00, 0x10, 0x00, 0x14, 0x00, 0x0e, 0x00, 0x00, 0x00, 0x14, 0x00, 0x00, 0x00, 0x40, 0x00, 0x00, 0x00, 0x44, 0x00, 0x00, 0x00, 0x48, 0x00, 0x00, 0x00, 0x58, 0x00, 0x00, 0x00, 0x0b, 0x00, 0x00, 0x00, 0xe8, 0x29, 0x00, 0x00, 0x74, 0x29, 0x00, 0x00, 0xd8, 0x28, 0x00, 0x00, 0x6c, 0x24, 0x00, 0x00, 0x08, 0x24, 0x00, 0x00, 0x4c, 0x23, 0x00, 0x00, 0xf4, 0x0e, 0x00, 0x00, 0x70, 0x02, 0x00, 0x00, 0x94, 0x01, 0x00, 0x00, 0xf4, 0x00, 0x00, 0x00, 0x7c, 0x00, 0x00, 0x00, 0x01, 0x00, 0x00, 0x00, 0x00, 0x00, 0x00, 0x00, 0x01, 0x00, 0x00, 0x00, 0x0a, 0x00, 0x00, 0x00, 0x04, 0x00, 0x00, 0x00, 0xf8, 0x01, 0x00, 0x00, 0x3c, 0x01, 0x00, 0x00, 0xa0, 0x00, 0x00, 0x00, 0x1c, 0x00, 0x00, 0x00, 0x04, 0x00, 0x00, 0x00, 0x6d, 0x61, 0x69, 0x6e, 0x00, 0x00, 0x0e, 0x00, 0x18, 0x00, 0x08, 0x00, 0x0c, 0x00, 0x10, 0x00, 0x07, 0x00, 0x14, 0x00, 0x0e, 0x00, 0x00, 0x00, 0x00, 0x00, 0x00, 0x09, 0x01, 0x00, 0x00, 0x00, 0x1c, 0x00, 0x00, 0x00, 0x10, 0x00, 0x00, 0x00, 0x04, 0x00, 0x00, 0x00, 0x3e, 0xd7, 0xff, 0xff, 0x00, 0x00, 0x80, 0x3f, 0x01, 0x00, 0x00, 0x00, 0x0a, 0x00, 0x00, 0x00, 0x01, 0x00, 0x00, 0x00, 0x09, 0x00, 0x00, 0x00, 0x22, 0xfe, 0xff, 0xff, 0x00, 0x00, 0x00, 0x19, 0x01, 0x00, 0x00, 0x00, 0xd0, 0xd6, 0xff, 0xff, 0x14, 0x00, 0x00, 0x00, 0x0b, 0x00, 0x00, 0x00, 0x18, 0x00, 0x00, 0x00, 0x30, 0x00, 0x00, 0x00, 0x20, 0x00, 0x00, 0x00, 0x02, 0x00, 0x00, 0x00, 0x01, 0x00, 0x00, 0x00, 0x03, 0x00, 0x00, 0x00, 0x08, 0x00, 0x00, 0x00, 0x49, 0x64, 0x65, 0x6e, 0x74, 0x69, 0x74, 0x79, 0x00, 0x00, 0x00, 0x00, 0x02, 0x00, 0x00, 0x00, 0xff, 0xff, 0xff, 0xff, 0x03, 0x00, 0x00, 0x00, 0xb4, 0xd6, 0xff, 0xff, 0x76, 0xff, 0xff, 0xff, 0x00, 0x00, 0x00, 0x08, 0x18, 0x00, 0x00, 0x00, 0x0c, 0x00, 0x00, 0x00, 0x04, 0x00, 0x00, 0x00, 0xcc, 0xd6, 0xff, 0xff, 0x01, 0x00, 0x00, 0x00, 0x09, 0x00, 0x00, 0x00, 0x03, 0x00, 0x00, 0x00, 0x08, 0x00, 0x00, 0x00, 0x06, 0x00, 0x00, 0x00, 0x03, 0x00, 0x00, 0x00, 0x44, 0xd7, 0xff, 0xff, 0x14, 0x00, 0x00, 0x00, 0x0a, 0x00, 0x00, 0x00, 0x18, 0x00, 0x00, 0x00, 0x44, 0x00, 0x00, 0x00, 0x34, 0x00, 0x00, 0x00, 0x02, 0x00, 0x00, 0x00, 0x01, 0x00, 0x00, 0x00, 0x03, 0x00, 0x00, 0x00, 0x1d, 0x00, 0x00, 0x00, 0x53, 0x65, 0x71, 0x75, 0x65, 0x6e, 0x74, 0x69, 0x61, 0x6c, 0x2d, 0x4e, 0x4e, 0x2f, 0x64, 0x65, 0x6e, 0x73, 0x65, 0x5f, 0x35, 0x2f, 0x42, 0x69, 0x61, 0x73, 0x41, 0x64, 0x64, 0x00, 0x00, 0x00, 0x02, 0x00, 0x00, 0x00, 0xff, 0xff, 0xff, 0xff, 0x03, 0x00, 0x00, 0x00, 0x34, 0xd8, 0xff, 0xff, 0x00, 0x00, 0x0e, 0x00, 0x14, 0x00, 0x00, 0x00, 0x08, 0x00, 0x0c, 0x00, 0x07, 0x00, 0x10, 0x00, 0x0e, 0x00, 0x00, 0x00, 0x00, 0x00, 0x00, 0x08, 0x1c, 0x00, 0x00, 0x00, 0x10, 0x00, 0x00, 0x00, 0x04, 0x00, 0x00, 0x00, 0x46, 0xff, 0xff, 0xff, 0x00, 0x00, 0x00, 0x01, 0x01, 0x00, 0x00, 0x00, 0x08, 0x00, 0x00, 0x00, 0x03, 0x00, 0x00, 0x00, 0x07, 0x00, 0x00, 0x00, 0x05, 0x00, 0x00, 0x00, 0x02, 0x00, 0x00, 0x00, 0xe0, 0xd7, 0xff, 0xff, 0x14, 0x00, 0x00, 0x00, 0x09, 0x00, 0x00, 0x00, 0x18, 0x00, 0x00, 0x00, 0x60, 0x00, 0x00, 0x00, 0x50, 0x00, 0x00, 0x00, 0x02, 0x00, 0x00, 0x00, 0x01, 0x00, 0x00, 0x00, 0x00, 0x01, 0x00, 0x00, 0x38, 0x00, 0x00, 0x00, 0x53, 0x65, 0x71, 0x75, 0x65, 0x6e, 0x74, 0x69, 0x61, 0x6c, 0x2d, 0x4e, 0x4e, 0x2f, 0x64, 0x65, 0x6e, 0x73, 0x65, 0x5f, 0x34, 0x2f, 0x52, 0x65, 0x6c, 0x75, 0x3b, 0x53, 0x65, 0x71, 0x75, 0x65, 0x6e, 0x74, 0x69, 0x61, 0x6c, 0x2d, 0x4e, 0x4e, 0x2f, 0x64, 0x65, 0x6e, 0x73, 0x65, 0x5f, 0x34, 0x2f, 0x42, 0x69, 0x61, 0x73, 0x41, 0x64, 0x64, 0x00, 0x00, 0x00, 0x00, 0x02, 0x00, 0x00, 0x00, 0xff, 0xff, 0xff, 0xff, 0x00, 0x01, 0x00, 0x00, 0xec, 0xd8, 0xff, 0xff, 0x00, 0x00, 0x0e, 0x00, 0x16, 0x00, 0x00, 0x00, 0x08, 0x00, 0x0c, 0x00, 0x07, 0x00, 0x10, 0x00, 0x0e, 0x00, 0x00, 0x00, 0x00, 0x00, 0x00, 0x08, 0x24, 0x00, 0x00, 0x00, 0x18, 0x00, 0x00, 0x00, 0x0c, 0x00, 0x00, 0x00, 0x00, 0x00, 0x06, 0x00, 0x08, 0x00, 0x07, 0x00, 0x06, 0x00, 0x00, 0x00, 0x00, 0x00, 0x00, 0x01, 0x01, 0x00, 0x00, 0x00, 0x07, 0x00, 0x00, 0x00, 0x03, 0x00, 0x00, 0x00, 0x00, 0x00, 0x00, 0x00, 0x04, 0x00, 0x00, 0x00, 0x01, 0x00, 0x00, 0x00, 0x00, 0x00, 0x0a, 0x00, 0x0c, 0x00, 0x07, 0x00, 0x00, 0x00, 0x08, 0x00, 0x0a, 0x00, 0x00, 0x00, 0x00, 0x00, 0x00, 0x09, 0x01, 0x00, 0x00, 0x00, 0xb8, 0xd8, 0xff, 0xff, 0x14, 0x00, 0x00, 0x00, 0x08, 0x00, 0x00, 0x00, 0x18, 0x00, 0x00, 0x00, 0x60, 0x00, 0x00, 0x00, 0x50, 0x00, 0x00, 0x00, 0x02, 0x00, 0x00, 0x00, 0x01, 0x00, 0x00, 0x00, 0x05, 0x00, 0x00, 0x00, 0x38, 0x00, 0x00, 0x00, 0x53, 0x65, 0x71, 0x75, 0x65, 0x6e, 0x74, 0x69, 0x61, 0x6c, 0x2d, 0x4e, 0x4e, 0x2f, 0x64, 0x65, 0x6e, 0x73, 0x65, 0x5f, 0x33, 0x2f, 0x52, 0x65, 0x6c, 0x75, 0x3b, 0x53, 0x65, 0x71, 0x75, 0x65, 0x6e, 0x74, 0x69, 0x61, 0x6c, 0x2d, 0x4e, 0x4e, 0x2f, 0x64, 0x65, 0x6e, 0x73, 0x65, 0x5f, 0x33, 0x2f, 0x42, 0x69, 0x61, 0x73, 0x41, 0x64, 0x64, 0x00, 0x00, 0x00, 0x00, 0x02, 0x00, 0x00, 0x00, 0xff, 0xff, 0xff, 0xff, 0x05, 0x00, 0x00, 0x00, 0xcc, 0xd8, 0xff, 0xff, 0xbe, 0xd9, 0xff, 0xff, 0x04, 0x00, 0x00, 0x00, 0x00, 0x0c, 0x00, 0x00, 0x9e, 0x8c, 0x1b, 0x3f, 0xf0, 0xb8, 0xc3, 0x3c, 0x7c, 0xb0, 0x82, 0xbd, 0x07, 0xfe, 0xad, 0x3d, 0x8a, 0x03, 0x2b, 0xc0, 0xb7, 0xee, 0x2d, 0xbd, 0xc8, 0x9d, 0xba, 0xbf, 0x0b, 0xd6, 0xd9, 0x3f, 0x18, 0xf5, 0xd5, 0x3f, 0xf0, 0xea, 0xc4, 0x3f, 0xea, 0x09, 0xa2, 0x3e, 0x2e, 0xf9, 0x84, 0xbe, 0x8e, 0xa8, 0x56, 0x3e, 0x8f, 0x04, 0xbe, 0x3e, 0xd9, 0xd8, 0x38, 0xbd, 0x2a, 0xb6, 0x5d, 0xbd, 0x05, 0xb4, 0x27, 0x3f, 0x35, 0x32, 0x94, 0xbd, 0x86, 0x7f, 0xec, 0x3f, 0x7b, 0x25, 0x93, 0xbc, 0x69, 0x43, 0x13, 0xbe, 0xd6, 0xfe, 0x03, 0x3e, 0x27, 0x65, 0x08, 0x3f, 0x80, 0x9e, 0xc8, 0xbf, 0x8e, 0x05, 0x80, 0x3e, 0xb2, 0x8a, 0xbb, 0x3f, 0x84, 0x73, 0xfd, 0x3e, 0xf3, 0xf0, 0x86, 0xbf, 0x24, 0x53, 0x9c, 0xbf, 0x0f, 0x9f, 0xde, 0xbb, 0xbb, 0xaa, 0xaa, 0x3b, 0x58, 0x32, 0xc3, 0xc0, 0x3f, 0xb7, 0x05, 0x3f, 0x26, 0x11, 0x44, 0xbc, 0xe9, 0x0b, 0x9a, 0x3d, 0x8e, 0xfd, 0xbc, 0xbf, 0x90, 0xa0, 0x8e, 0x3e, 0x2a, 0xf2, 0x9d, 0x3f, 0x6f, 0x56, 0x0a, 0xbf, 0x65, 0xbd, 0x01, 0xc0, 0xe4, 0x07, 0x33, 0x3f, 0x00, 0x1b, 0x30, 0x3e, 0xfc, 0x90, 0x0f, 0xbe, 0x57, 0x1e, 0x29, 0xc0, 0x8b, 0xcf, 0xdb, 0xbd, 0xd6, 0x77, 0x9f, 0x3f, 0xa7, 0xbc, 0x8e, 0x3d, 0xb0, 0xf2, 0x14, 0xc0, 0x6c, 0xbd, 0x5b, 0xc0, 0x7d, 0xa3, 0xc7, 0xbd, 0xe4, 0x0e, 0x08, 0xbf, 0x20, 0xc8, 0xed, 0xbb, 0xf8, 0x5a, 0x10, 0xbc, 0xde, 0x72, 0xdb, 0xbe, 0x5a, 0x2f, 0x9c, 0x3e, 0xba, 0x7d, 0x5e, 0x3d, 0xb6, 0xd7, 0xbd, 0xbd, 0x28, 0x8c, 0xe3, 0x3f, 0x25, 0xaf, 0xdf, 0x3e, 0x15, 0x72, 0x91, 0xbe, 0x08, 0xe3, 0x9c, 0x3e, 0x3d, 0x2d, 0xb5, 0xbf, 0x8b, 0xfa, 0xd6, 0xbd, 0xfc, 0xa9, 0xe8, 0xbf, 0xc0, 0xfb, 0xf4, 0xbf, 0x9a, 0xa8, 0xee, 0x3f, 0x4c, 0xfb, 0x61, 0x3e, 0x8c, 0xc9, 0x1b, 0x3f, 0x98, 0xfc, 0xc4, 0x3e, 0x44, 0xaf, 0x79, 0xbe, 0xa9, 0x8a, 0xf8, 0x3d, 0x1d, 0x83, 0x20, 0xbe, 0xa3, 0x7f, 0xda, 0x3e, 0x64, 0xf9, 0x12, 0xbe, 0x70, 0x77, 0x88, 0x3c, 0x40, 0x0c, 0x6a, 0x3c, 0x14, 0x14, 0x03, 0x3f, 0x6c, 0x83, 0x85, 0x3b, 0xc2, 0xfa, 0x67, 0x3f, 0x44, 0xe6, 0x11, 0x3f, 0x36, 0x93, 0x53, 0x3b, 0x75, 0x08, 0x56, 0x3e, 0x1c, 0x29, 0x9c, 0x3d, 0xe4, 0xc5, 0x07, 0xbf, 0xbd, 0x85, 0xc1, 0xbd, 0xa6, 0xc1, 0x11, 0x3d, 0x03, 0xfd, 0x9c, 0xbc, 0x50, 0x4f, 0x7b, 0x3f, 0xa4, 0x0f, 0xac, 0x3d, 0x68, 0xa8, 0x9a, 0xbf, 0x0d, 0x33, 0x61, 0x3e, 0x23, 0x6c, 0x1f, 0xc0, 0x78, 0x6d, 0x64, 0xbb, 0x4f, 0x22, 0x06, 0xc0, 0x46, 0xa4, 0x20, 0x3e, 0xd7, 0x34, 0x97, 0x3d, 0xf2, 0xa6, 0x79, 0xbd, 0x69, 0xd9, 0xd0, 0xbd, 0xa8, 0xd0, 0xd4, 0xbf, 0xbe, 0x19, 0xc5, 0x3e, 0x96, 0xe3, 0x8f, 0xbf, 0x9a, 0x8e, 0x3f, 0xbe, 0xaf, 0x6f, 0x0f, 0x3d, 0x06, 0xa8, 0xdc, 0x3e, 0x4d, 0x1f, 0xc7, 0x3e, 0xb6, 0xf6, 0x0a, 0x3e, 0x1d, 0x6e, 0x82, 0x3e, 0x85, 0xd1, 0x88, 0xbe, 0x88, 0x74, 0x7a, 0x3f, 0xa7, 0x77, 0x83, 0x3e, 0x3a, 0x2f, 0x0b, 0xbe, 0xc4, 0xf0, 0x5b, 0x3f, 0x60, 0xdf, 0x89, 0xbb, 0x0b, 0xec, 0xf4, 0xbe, 0xf5, 0x9c, 0xe2, 0xbb, 0xe0, 0xa7, 0x60, 0x3b, 0x61, 0x7b, 0x14, 0x3e, 0x29, 0xa2, 0x26, 0x3e, 0xcf, 0x5e, 0xe2, 0xc0, 0xae, 0x74, 0x28, 0xc0, 0x42, 0xaa, 0xcf, 0x3f, 0x43, 0xcf, 0xb9, 0x3f, 0x67, 0xd5, 0x90, 0x3e, 0x2d, 0xb5, 0x37, 0x3d, 0x24, 0x60, 0x23, 0x3e, 0x63, 0x75, 0x5b, 0x3f, 0xc4, 0x8c, 0x9e, 0x3d, 0x96, 0x72, 0xba, 0xbd, 0xf4, 0xb3, 0x2d, 0xbe, 0x60, 0xb4, 0x21, 0x3d, 0xd5, 0xc3, 0xd5, 0x3d, 0x70, 0xd3, 0x12, 0xbd, 0x6a, 0x88, 0xde, 0x3f, 0x1b, 0xec, 0xc9, 0x3e, 0xbb, 0xe6, 0xd9, 0x3f, 0xe4, 0x33, 0xa0, 0xbf, 0xab, 0x54, 0xe1, 0x3d, 0x4a, 0xb6, 0x9c, 0x3f, 0xee, 0x2f, 0xb9, 0x3f, 0x1f, 0x0a, 0xf1, 0xbf, 0x47, 0x81, 0x99, 0xc0, 0x20, 0x4c, 0xc9, 0xbd, 0x00, 0xf8, 0x81, 0xbe, 0x49, 0xc2, 0x36, 0xbd, 0x04, 0x68, 0x3d, 0xc0, 0xa4, 0x08, 0x9b, 0x3e, 0x2d, 0x81, 0xca, 0xbe, 0x4c, 0x8d, 0xfa, 0x3d, 0x26, 0x4d, 0xec, 0xbd, 0x9d, 0x4a, 0x84, 0xbd, 0x02, 0xdf, 0x0d, 0xbf, 0x3e, 0xa2, 0xf1, 0x3e, 0xfc, 0xcf, 0xf3, 0x3d, 0x39, 0x65, 0x1b, 0x3f, 0xbb, 0xe5, 0xfb, 0x3b, 0x12, 0x04, 0x0e, 0x3f, 0x00, 0x23, 0xae, 0x3b, 0xd8, 0x5d, 0x0b, 0xbe, 0xdc, 0x1c, 0xe0, 0xbf, 0x4d, 0x69, 0xba, 0x3e, 0x25, 0xb9, 0x24, 0xbd, 0xf7, 0x5e, 0xc0, 0xbe, 0x70, 0x52, 0x00, 0x3e, 0xc7, 0xbc, 0x9c, 0xbf, 0x6b, 0xe6, 0x15, 0xc0, 0x85, 0x30, 0xa1, 0xbe, 0x4d, 0x38, 0x1c, 0x40, 0x35, 0x70, 0xee, 0xbf, 0xd8, 0x27, 0x42, 0xbe, 0x38, 0x5b, 0x09, 0x3f, 0x6a, 0x6e, 0xb2, 0xbf, 0x22, 0x43, 0x8c, 0xc0, 0x0e, 0xbe, 0xa1, 0xbd, 0xfc, 0x24, 0xef, 0x3d, 0x8e, 0x4e, 0x76, 0x3d, 0xc3, 0x7c, 0xe5, 0x3c, 0x82, 0xcf, 0x0d, 0x3f, 0x6f, 0x71, 0x08, 0x3f, 0x19, 0xd0, 0x08, 0x3f, 0xdc, 0xe4, 0x67, 0x3f, 0xc0, 0xba, 0x8f, 0xbd, 0xbe, 0xc9, 0xfb, 0x3e, 0x7c, 0xf7, 0x1e, 0x3e, 0x83, 0x36, 0xae, 0xbf, 0x52, 0x35, 0x9c, 0xbf, 0xd5, 0x06, 0xb3, 0x3c, 0x2c, 0xcc, 0xa0, 0x3d, 0x7b, 0x68, 0x03, 0xbd, 0x95, 0xe0, 0x08, 0x3f, 0xd3, 0x09, 0x91, 0xbf, 0x4d, 0xfd, 0x0e, 0x3f, 0x3c, 0xc8, 0xfa, 0x3d, 0x46, 0x5c, 0xd5, 0xbf, 0x8f, 0x39, 0xcf, 0x3e, 0x7e, 0xbe, 0xa2, 0x3d, 0x01, 0xf3, 0x99, 0x3e, 0xd4, 0x88, 0xf6, 0xbe, 0x5c, 0xa9, 0x43, 0xbd, 0x4b, 0x21, 0x0e, 0xbf, 0x13, 0x79, 0x1b, 0x3d, 0x87, 0x57, 0x05, 0x3c, 0x93, 0x22, 0xe9, 0xbf, 0x07, 0x64, 0x99, 0x3e, 0x14, 0x95, 0xba, 0x3d, 0xb2, 0xb6, 0x42, 0xbd, 0xdf, 0x30, 0xf1, 0x3d, 0x41, 0xeb, 0xeb, 0x3f, 0x6b, 0x46, 0x8a, 0xbf, 0xbc, 0xc0, 0xd2, 0x3d, 0xbe, 0xa4, 0xf0, 0xbf, 0x38, 0xa5, 0x4e, 0x3e, 0xda, 0x5b, 0x05, 0xc0, 0xfc, 0x54, 0xbf, 0xbe, 0xbe, 0x9c, 0x5a, 0x3d, 0xbb, 0xff, 0x9d, 0xbd, 0x7b, 0x1d, 0xae, 0xc0, 0xb1, 0x19, 0x00, 0x40, 0xb0, 0xaa, 0x38, 0xbe, 0x1b, 0x7e, 0x23, 0xbe, 0x08, 0x0d, 0xb2, 0x3f, 0xd1, 0x2b, 0xf2, 0xbb, 0x29, 0xd6, 0x0f, 0x3e, 0xd8, 0xfd, 0x9d, 0xbd, 0xe1, 0x3f, 0x22, 0x3f, 0xf7, 0x09, 0x1b, 0x3e, 0xb7, 0x4c, 0xff, 0xbf, 0xd1, 0xcd, 0xcb, 0x3f, 0x95, 0x00, 0x95, 0x3f, 0x98, 0x25, 0x82, 0xbd, 0x0e, 0x04, 0x6f, 0xbf, 0x6a, 0x31, 0x9f, 0xbf, 0x6b, 0x8e, 0xa7, 0x3f, 0xd6, 0x42, 0x5c, 0xbd, 0x0c, 0x2c, 0x00, 0xbf, 0x4a, 0xdc, 0x16, 0x3e, 0x10, 0x6e, 0x91, 0x3e, 0x65, 0xe2, 0x49, 0xbe, 0x1e, 0x67, 0xe1, 0xbf, 0x9e, 0x4d, 0xac, 0x3d, 0x39, 0x30, 0xcb, 0xbf, 0x98, 0xd5, 0x0b, 0x3f, 0x5b, 0x01, 0x60, 0xbc, 0xf4, 0x29, 0x6e, 0xbf, 0x3f, 0x45, 0xc3, 0x3d, 0x8d, 0xa8, 0x7f, 0x3f, 0xf7, 0x2d, 0x9f, 0xbd, 0xdd, 0xa1, 0x91, 0x3c, 0x8f, 0xd6, 0x08, 0x3d, 0x69, 0x06, 0x5e, 0xbf, 0xa1, 0xa9, 0xd4, 0xbf, 0x1b, 0x95, 0x91, 0xbd, 0x86, 0x64, 0x28, 0x3a, 0xe6, 0x5d, 0xae, 0x3e, 0xaa, 0x9b, 0x84, 0xbf, 0xca, 0x39, 0x14, 0x3e, 0xf6, 0x28, 0xc5, 0x3f, 0xa1, 0x78, 0x3a, 0xbf, 0x07, 0x88, 0x58, 0x3d, 0xd7, 0x5f, 0x73, 0xbd, 0xb0, 0xf2, 0x98, 0x3d, 0xbc, 0xb4, 0xb5, 0x3e, 0x14, 0x5a, 0x4b, 0xbc, 0xc0, 0xa8, 0x22, 0x3e, 0x69, 0xf6, 0x46, 0xbf, 0x51, 0x19, 0x0d, 0xc0, 0xf8, 0x3c, 0xc9, 0xbe, 0x2f, 0x96, 0x09, 0xbf, 0x6d, 0xc9, 0x9e, 0xbc, 0xa6, 0x92, 0x10, 0xbe, 0xe6, 0xc8, 0x8c, 0xbe, 0x3b, 0x48, 0x35, 0xbd, 0xa8, 0x57, 0x85, 0x3b, 0x19, 0xd2, 0xaa, 0xbf, 0xd0, 0x54, 0x0b, 0xbc, 0x1a, 0x70, 0xa5, 0xbf, 0x45, 0xf4, 0xd0, 0xbd, 0x05, 0xc3, 0x23, 0x3f, 0x2c, 0xc5, 0x73, 0xbe, 0xc9, 0xf5, 0x6a, 0xbe, 0x03, 0x60, 0x4d, 0x3e, 0x25, 0xdd, 0x47, 0xbe, 0xb5, 0xef, 0xac, 0xbf, 0x64, 0xbc, 0xbf, 0xbd, 0x99, 0xe4, 0x38, 0xbf, 0x46, 0xa3, 0xdc, 0xbd, 0xc5, 0xd5, 0x81, 0xbc, 0x22, 0xb5, 0xba, 0xbd, 0xe4, 0x7d, 0x98, 0xbe, 0x13, 0x9e, 0x62, 0xbe, 0x7d, 0x78, 0xb5, 0xbc, 0x05, 0x3d, 0x92, 0xbe, 0xe2, 0x2b, 0x96, 0x3e, 0xbc, 0x65, 0x90, 0xbf, 0x10, 0x36, 0xb9, 0xbf, 0x75, 0x9b, 0x5b, 0xbf, 0xe8, 0x3d, 0xa7, 0xbf, 0x61, 0x1e, 0xdd, 0xbf, 0x2e, 0x64, 0x6e, 0xbe, 0x3b, 0x1b, 0x46, 0xbd, 0xbe, 0x66, 0xa6, 0xbf, 0xb1, 0x62, 0xe4, 0xbd, 0xfd, 0xfb, 0x64, 0xbe, 0xac, 0x4f, 0xdf, 0xbe, 0x75, 0x56, 0xcc, 0xbd, 0x08, 0xfe, 0x32, 0x3f, 0x98, 0xcb, 0x1c, 0xbd, 0xae, 0xd8, 0xca, 0x3d, 0xb8, 0x02, 0xd2, 0x3d, 0x8d, 0xe6, 0x5a, 0xbd, 0xe6, 0xe0, 0x12, 0xbd, 0x3c, 0x07, 0xf3, 0x3d, 0xd4, 0xcc, 0x45, 0x3d, 0xf3, 0xcc, 0x19, 0xbe, 0xb8, 0x89, 0x34, 0xbd, 0x3d, 0xdd, 0x12, 0xbf, 0x4e, 0xd3, 0x84, 0xbe, 0x73, 0x19, 0xb6, 0xbd, 0x2d, 0x69, 0xa7, 0x3e, 0x29, 0x7f, 0x14, 0xbe, 0x32, 0xcf, 0x07, 0x3d, 0xd1, 0xac, 0x21, 0x3f, 0x7a, 0x6f, 0xb4, 0xbf, 0xe8, 0xae, 0x90, 0xbe, 0x40, 0x7d, 0x49, 0xbe, 0x38, 0x1c, 0x8b, 0xbc, 0xea, 0x5c, 0xa5, 0xbd, 0x89, 0x02, 0xe9, 0xbd, 0x16, 0x6e, 0xa0, 0x3e, 0x41, 0xd9, 0x72, 0x3c, 0x11, 0x91, 0xbb, 0x3d, 0xf8, 0x4d, 0xc6, 0xbd, 0xfc, 0xf5, 0x16, 0x3e, 0x1e, 0xc6, 0x43, 0xbe, 0x8d, 0x02, 0xd8, 0x3c, 0x3c, 0x08, 0x8f, 0xbe, 0x40, 0x2b, 0x2b, 0xbf, 0xaa, 0x2d, 0xd3, 0x3c, 0xea, 0x71, 0xe9, 0xbc, 0x60, 0x55, 0xec, 0x3d, 0xba, 0xf0, 0xe2, 0xbe, 0xd0, 0x7a, 0xd6, 0xbd, 0x35, 0xb8, 0x57, 0xbe, 0x04, 0x39, 0x45, 0x3d, 0x23, 0x07, 0x15, 0xbf, 0xc8, 0x06, 0x99, 0xbc, 0x3b, 0xbf, 0x35, 0x3e, 0xf3, 0x55, 0x9a, 0xc0, 0x31, 0x5c, 0xfd, 0xbd, 0x7f, 0xe2, 0x8f, 0x3b, 0x2b, 0x6b, 0x97, 0x3d, 0x28, 0xd9, 0x22, 0x3e, 0x07, 0x60, 0x1a, 0xbe, 0xbe, 0xbf, 0x15, 0x3d, 0x01, 0xf8, 0x6a, 0xbd, 0x23, 0x1a, 0xa4, 0x3d, 0x9e, 0xa8, 0xf6, 0xbc, 0xae, 0x6d, 0xa3, 0xbd, 0x5a, 0xd9, 0x48, 0xbe, 0x26, 0x7f, 0xe9, 0xbc, 0x57, 0x78, 0xf2, 0xbe, 0x40, 0x7e, 0x27, 0xbe, 0x79, 0x7a, 0xee, 0x3c, 0x9c, 0x63, 0xcc, 0x3c, 0xb4, 0xf3, 0xb2, 0xbc, 0xb3, 0x4e, 0xc2, 0xbe, 0x69, 0x66, 0x98, 0x3d, 0x77, 0x20, 0x6c, 0xbc, 0x2c, 0xcc, 0xd2, 0xbe, 0x22, 0x5d, 0x82, 0xbb, 0x04, 0x50, 0x35, 0xbd, 0x7e, 0x0c, 0xfe, 0x39, 0x05, 0x64, 0x29, 0x3c, 0x76, 0x1e, 0xe8, 0xbd, 0x64, 0xe8, 0xf1, 0x3b, 0x42, 0xba, 0x76, 0xbf, 0xf1, 0x1d, 0x7d, 0x3d, 0x7e, 0x50, 0x48, 0xbf, 0xb8, 0x06, 0x17, 0xc0, 0xe3, 0x69, 0x66, 0xbe, 0x85, 0x10, 0x6f, 0xbc, 0xde, 0x4d, 0x92, 0x3d, 0x13, 0x20, 0xb8, 0xbe, 0x41, 0x61, 0xbf, 0xbd, 0x60, 0x1f, 0x83, 0x3b, 0xb5, 0xcd, 0xce, 0xbc, 0xdd, 0xe9, 0x6b, 0x3d, 0x71, 0x5a, 0x40, 0xbe, 0x08, 0x47, 0x13, 0x3d, 0xb8, 0xe8, 0xdf, 0xbf, 0x46, 0xf0, 0x26, 0xbf, 0xad, 0xa8, 0x11, 0xbf, 0x3d, 0xf7, 0x34, 0x3e, 0x67, 0xfd, 0x6e, 0xbd, 0x68, 0x00, 0xb8, 0xbf, 0x45, 0x87, 0xda, 0xbe, 0x46, 0x62, 0x0a, 0x3e, 0xa6, 0xbc, 0x78, 0x3c, 0xba, 0x91, 0xbf, 0xbd, 0xb5, 0x18, 0x63, 0xbe, 0xda, 0x4d, 0x11, 0xbd, 0x89, 0xdb, 0x81, 0xbf, 0x7e, 0xdd, 0xd1, 0xbe, 0xa4, 0x11, 0xa5, 0xbe, 0x9c, 0xb8, 0x8d, 0xbe, 0xe0, 0x9a, 0x3b, 0x3c, 0x3e, 0x1b, 0x81, 0x3d, 0xd6, 0x0f, 0x15, 0x3f, 0x03, 0xfb, 0x06, 0xbe, 0x6a, 0x03, 0xbc, 0x3d, 0xa1, 0xef, 0x27, 0xbf, 0x36, 0x66, 0x19, 0x3e, 0xa5, 0x5f, 0x0f, 0xbe, 0xfd, 0x47, 0xaf, 0xbd, 0x54, 0xe9, 0xcc, 0xbd, 0xb1, 0xd2, 0x32, 0x3e, 0x5f, 0x50, 0xae, 0xbe, 0x42, 0x00, 0x20, 0x3e, 0x19, 0x89, 0x8c, 0x3e, 0xbd, 0x1c, 0xe3, 0xbb, 0x28, 0x50, 0x78, 0xbd, 0xb6, 0x6e, 0x74, 0xbf, 0x32, 0xf4, 0xf0, 0xbc, 0xa4, 0xd9, 0xdd, 0xbf, 0x95, 0x01, 0x80, 0x3d, 0x6c, 0x0c, 0x47, 0xbc, 0xff, 0x50, 0x87, 0xbd, 0x7b, 0xb2, 0x16, 0x3d, 0xa9, 0x45, 0x1b, 0xbf, 0x4a, 0xbd, 0xda, 0xbd, 0x2d, 0xa3, 0xb4, 0xbd, 0x1e, 0xbb, 0xdb, 0x3d, 0xfd, 0x4d, 0xb4, 0x3d, 0x9b, 0x64, 0x03, 0x3d, 0x39, 0xce, 0x86, 0xbe, 0x8e, 0xb5, 0xc9, 0xbe, 0xde, 0x28, 0xd4, 0xbf, 0x11, 0x46, 0x98, 0xbd, 0x26, 0x35, 0xd5, 0xbe, 0xd5, 0xb9, 0xa2, 0x3d, 0xba, 0x7e, 0x5b, 0x3e, 0x7d, 0x20, 0x28, 0x3e, 0x6c, 0xb8, 0x21, 0x3e, 0x60, 0x22, 0x88, 0x3d, 0xa8, 0xdd, 0xcb, 0x3d, 0xce, 0xcd, 0xe2, 0xbe, 0xf7, 0xe2, 0x9a, 0xbd, 0x07, 0x54, 0x38, 0xbe, 0x57, 0x6c, 0xae, 0xbd, 0x14, 0xe9, 0x1f, 0x3e, 0xd2, 0xab, 0x8f, 0xbe, 0xd9, 0x41, 0xd8, 0xbc, 0xf4, 0x0e, 0xca, 0xbc, 0x41, 0x65, 0xe6, 0x3c, 0xa0, 0x9e, 0xdb, 0x3d, 0x62, 0x9c, 0x25, 0x3b, 0x13, 0x9a, 0x7c, 0x3d, 0x75, 0x59, 0x28, 0xbd, 0xcd, 0x2d, 0xb5, 0x3d, 0x39, 0x3d, 0x7b, 0xbf, 0x33, 0x87, 0x5b, 0xbd, 0x14, 0xc0, 0x9a, 0x3e, 0x9d, 0x4f, 0xee, 0xbd, 0xff, 0x33, 0xd5, 0xbf, 0xf0, 0x72, 0x21, 0xbd, 0x1e, 0x34, 0xbe, 0x3d, 0x5f, 0x2a, 0x66, 0x3e, 0x49, 0xd7, 0x5f, 0x3d, 0xcb, 0x94, 0x59, 0xbe, 0xc2, 0x94, 0x7b, 0xbc, 0x5b, 0x5e, 0xa6, 0x3c, 0xcc, 0xc9, 0xc4, 0x3c, 0x34, 0xdc, 0x52, 0xbe, 0x4c, 0x14, 0x99, 0xbf, 0x5d, 0xab, 0xa0, 0xbd, 0xa4, 0xb6, 0x80, 0x3d, 0xed, 0xb9, 0xd7, 0xbf, 0x56, 0xe0, 0x6c, 0xba, 0x9e, 0x66, 0x99, 0x3d, 0x30, 0xb8, 0x8f, 0xbd, 0xc5, 0xf3, 0x0b, 0xbf, 0x32, 0xa6, 0x53, 0xb9, 0xd9, 0xaf, 0xce, 0x3e, 0x85, 0x30, 0x2d, 0xbf, 0xa1, 0x5b, 0x93, 0xbe, 0x65, 0x47, 0xb2, 0x3d, 0x45, 0x54, 0xa1, 0xbe, 0x8a, 0x55, 0xc0, 0x3e, 0x58, 0x85, 0x11, 0xbf, 0x35, 0x1f, 0x4b, 0xbd, 0x3e, 0x3c, 0x82, 0xbf, 0xf5, 0x55, 0x9c, 0xbe, 0x5f, 0xc8, 0x6d, 0xbf, 0xa1, 0xd5, 0x2f, 0xbe, 0x4c, 0xca, 0xc9, 0x3e, 0x8e, 0x34, 0x40, 0x3d, 0x66, 0x3c, 0xdd, 0x3e, 0x11, 0x15, 0x8f, 0xbf, 0xec, 0x08, 0x10, 0xbe, 0xab, 0x1d, 0xfe, 0xbc, 0xa5, 0xca, 0x74, 0xbe, 0xd3, 0xc7, 0x60, 0x3d, 0x19, 0xe2, 0x4c, 0x3d, 0x17, 0xe8, 0xc6, 0xbc, 0xa0, 0x37, 0x9d, 0xbc, 0x06, 0x7a, 0x91, 0x3e, 0xca, 0x51, 0xff, 0xbd, 0x06, 0x17, 0x07, 0xbe, 0x34, 0x7b, 0x99, 0x3d, 0x22, 0x5d, 0x34, 0xbe, 0x97, 0xb5, 0x88, 0xbd, 0xbb, 0xf6, 0x15, 0x3e, 0x75, 0xc8, 0x0b, 0xbf, 0x5e, 0xe6, 0x17, 0xc0, 0x17, 0xde, 0x0d, 0x3d, 0xc9, 0x8e, 0xac, 0xbd, 0x42, 0x5a, 0x9c, 0xbf, 0xa9, 0xad, 0xc6, 0x3e, 0x1a, 0x74, 0x19, 0x3d, 0x85, 0x8e, 0x08, 0x3e, 0xe9, 0x8f, 0x01, 0xc0, 0xb5, 0x24, 0x14, 0x40, 0xfa, 0x0b, 0x50, 0xbf, 0x13, 0x28, 0x57, 0xbf, 0x90, 0xee, 0x12, 0x3e, 0x2e, 0xc2, 0x1a, 0xc0, 0x66, 0xa1, 0xa5, 0xbf, 0x5c, 0x6d, 0x3a, 0x3b, 0xaf, 0x15, 0x87, 0x3e, 0x13, 0xb0, 0x4e, 0xc0, 0x28, 0x91, 0x54, 0x3d, 0x59, 0x66, 0xba, 0x3f, 0x07, 0x12, 0x83, 0xbc, 0xa6, 0xbf, 0x4f, 0xc0, 0xbd, 0x74, 0xa6, 0xbf, 0x3e, 0xb0, 0xbb, 0xc0, 0xc3, 0xac, 0x10, 0xbe, 0xe9, 0x68, 0xda, 0xc0, 0x38, 0x7b, 0x9e, 0x3f, 0x23, 0xb5, 0x1e, 0x3e, 0x90, 0xec, 0xd0, 0x3e, 0x31, 0x43, 0xcc, 0x3e, 0x94, 0xff, 0x9a, 0x3d, 0xe4, 0x28, 0x6b, 0x3c, 0x08, 0x13, 0x4d, 0x3f, 0x99, 0x75, 0x68, 0xbf, 0xcd, 0x63, 0xfe, 0xbc, 0x80, 0x2c, 0x2d, 0x3f, 0x2f, 0x01, 0xa3, 0xbd, 0x82, 0xfa, 0x8a, 0x3f, 0x44, 0x67, 0xab, 0x3f, 0xfc, 0xa2, 0x5f, 0x3f, 0x58, 0x9c, 0xe4, 0x3f, 0x15, 0xb7, 0xd7, 0x3f, 0xaa, 0x96, 0x0f, 0xbf, 0x94, 0x57, 0x1c, 0xbd, 0xb0, 0x9d, 0xc8, 0x3f, 0x71, 0x0a, 0xd2, 0x3b, 0xa4, 0x41, 0x3b, 0xbf, 0x95, 0x95, 0x98, 0x3f, 0x56, 0x55, 0x8d, 0x3d, 0xbb, 0xb6, 0x4e, 0x3f, 0xa7, 0xea, 0xf8, 0x3d, 0x59, 0xb9, 0x1f, 0x3e, 0xaa, 0xc2, 0xba, 0x3d, 0x26, 0x58, 0xba, 0x3d, 0x72, 0x7d, 0x11, 0x3e, 0x68, 0xf8, 0x2d, 0xbf, 0xc1, 0xf9, 0x89, 0xc0, 0xb4, 0xd8, 0xa2, 0x3d, 0x90, 0x8f, 0x20, 0x3e, 0xae, 0xb0, 0x8b, 0x3f, 0xe3, 0xaf, 0x52, 0x3f, 0x31, 0x44, 0x31, 0xbf, 0x66, 0xba, 0xd9, 0xbd, 0x6e, 0x74, 0x03, 0x3e, 0xdc, 0x45, 0xc5, 0x3c, 0x41, 0x83, 0xa1, 0xbd, 0x46, 0xcc, 0xb3, 0x3f, 0xd2, 0xe8, 0xac, 0xc0, 0x5f, 0xb5, 0xb3, 0xbf, 0x6d, 0x96, 0xb8, 0xc0, 0xc7, 0xda, 0xa6, 0xbd, 0xfd, 0xcc, 0xf4, 0xc0, 0x78, 0x77, 0xfe, 0xbe, 0xfc, 0x5e, 0x26, 0xbf, 0x3c, 0xd1, 0x9a, 0xbd, 0x84, 0xc8, 0x84, 0x3d, 0x6a, 0x14, 0xa5, 0x3d, 0x4d, 0xa4, 0xa2, 0xc0, 0x8e, 0x25, 0xa7, 0xbd, 0x17, 0xf5, 0x16, 0xc0, 0xc8, 0xd2, 0x27, 0xbf, 0xde, 0xf5, 0xfb, 0x3d, 0x1f, 0x19, 0x3f, 0xbf, 0xb1, 0xe9, 0x97, 0xbd, 0xbe, 0xd1, 0x2c, 0x3f, 0x61, 0x88, 0x7c, 0xbd, 0x99, 0x44, 0x5c, 0x3f, 0x09, 0x42, 0x18, 0xbe, 0x45, 0x5a, 0x18, 0xbd, 0x6c, 0xeb, 0xcc, 0x3c, 0xa3, 0xe3, 0x11, 0x3d, 0x4e, 0x48, 0x98, 0x40, 0xce, 0x38, 0xaf, 0x3d, 0x78, 0x5c, 0xba, 0xbc, 0xad, 0xed, 0x84, 0x3d, 0x43, 0x8c, 0x01, 0xc1, 0xdc, 0x3c, 0x89, 0xc0, 0x07, 0x32, 0x97, 0xbd, 0x7a, 0x56, 0x6f, 0x3f, 0x2e, 0xa6, 0xaf, 0x3d, 0xd7, 0xe8, 0xb5, 0xbe, 0xf1, 0xfa, 0xc0, 0xbd, 0x79, 0x02, 0x9d, 0x3f, 0x24, 0xf4, 0xe4, 0x3c, 0xf4, 0xeb, 0x42, 0xc0, 0x4b, 0x72, 0x6e, 0xbf, 0x76, 0x84, 0xa2, 0xbe, 0x4b, 0xed, 0x94, 0xbd, 0x64, 0x64, 0xd4, 0x3d, 0x2f, 0x1e, 0xf2, 0xbe, 0x83, 0xfc, 0x12, 0xbf, 0xf4, 0x8f, 0xba, 0xbd, 0xeb, 0x16, 0x1f, 0xbf, 0xf5, 0x2f, 0x0f, 0xbe, 0xf8, 0xd8, 0x0e, 0xbd, 0x50, 0xc3, 0x86, 0x3c, 0xea, 0x96, 0x9c, 0xbd, 0x55, 0x18, 0xa2, 0xbf, 0xc6, 0x0d, 0x5b, 0x3a, 0xda, 0x2c, 0xc1, 0x3f, 0x28, 0xfa, 0xc8, 0x3e, 0xcd, 0x4c, 0x72, 0xbf, 0x18, 0x6f, 0x08, 0xc0, 0x5c, 0x0b, 0x14, 0xbf, 0x87, 0x95, 0x5e, 0xc0, 0x89, 0x17, 0xf8, 0xbb, 0x56, 0x9c, 0xa6, 0xbf, 0x19, 0xd0, 0xfd, 0xbf, 0xc0, 0xab, 0x09, 0xbc, 0xff, 0x96, 0xa4, 0xbe, 0x75, 0xa5, 0x5a, 0xbc, 0x49, 0xcf, 0x5b, 0xc0, 0xb2, 0x1d, 0x99, 0x3d, 0xc0, 0xb2, 0xdd, 0xbf, 0x60, 0x00, 0xe1, 0xbe, 0x34, 0xe1, 0x87, 0xbf, 0x79, 0x98, 0x46, 0x3d, 0x3a, 0x1f, 0x9c, 0xbc, 0x70, 0x5f, 0xab, 0x3f, 0x0b, 0xee, 0xeb, 0x3c, 0xdf, 0x3f, 0xfd, 0x3d, 0xb8, 0x6f, 0x51, 0x3d, 0x7d, 0x9c, 0x66, 0xbc, 0x4c, 0xc9, 0x4c, 0x3f, 0x9f, 0x76, 0xd3, 0x3c, 0xe5, 0x40, 0xae, 0x3f, 0x6c, 0x0f, 0x34, 0xc1, 0xc1, 0x47, 0xa1, 0x3e, 0x12, 0x83, 0xb4, 0xbf, 0xd8, 0x9a, 0xbf, 0xbd, 0x04, 0xf7, 0x8b, 0xbd, 0x1a, 0xf5, 0x5f, 0xbf, 0x21, 0x15, 0x40, 0xbe, 0x99, 0xc4, 0x08, 0x3e, 0x66, 0xdb, 0x0f, 0xc0, 0xa0, 0x80, 0x93, 0xbd, 0xde, 0x57, 0xad, 0xbe, 0xca, 0xe1, 0x90, 0x3d, 0x8b, 0xad, 0x22, 0x3f, 0x05, 0xc9, 0x2a, 0x3e, 0xa6, 0x09, 0x43, 0xbf, 0x83, 0xc7, 0x33, 0xbe, 0x01, 0xd2, 0x6d, 0xbe, 0x56, 0x2e, 0x30, 0xc0, 0xb9, 0xbc, 0xed, 0x3d, 0xfe, 0x2d, 0xaf, 0x3f, 0xc3, 0xac, 0x92, 0x3e, 0x0a, 0x8d, 0xbc, 0xbf, 0x86, 0x38, 0x8d, 0x3d, 0xe8, 0x43, 0x43, 0xbb, 0x19, 0x82, 0x23, 0xbf, 0x52, 0x4d, 0x10, 0x3f, 0x4f, 0xbc, 0x66, 0x3f, 0xd0, 0x09, 0x08, 0xbe, 0x30, 0xe7, 0x41, 0x3c, 0xe6, 0x59, 0x7d, 0xc1, 0x2b, 0x57, 0x9c, 0xbe, 0xf2, 0xf3, 0xa7, 0xbf, 0x61, 0x39, 0x0a, 0xbf, 0xf9, 0x0e, 0x80, 0xc0, 0xb3, 0xc1, 0xb5, 0x3f, 0xb6, 0xec, 0xcf, 0xbd, 0x77, 0x70, 0x9a, 0xc0, 0xa2, 0x4e, 0xe6, 0xbd, 0x0a, 0x46, 0x98, 0x3d, 0xb0, 0x27, 0xfa, 0x3c, 0xd2, 0xf1, 0xce, 0xbd, 0x88, 0xed, 0xd4, 0xbc, 0x2e, 0x18, 0x06, 0xbd, 0x90, 0x0a, 0x04, 0xc0, 0xcb, 0xda, 0xed, 0xbd, 0x49, 0x08, 0x5a, 0xbf, 0x44, 0x94, 0x4e, 0x3d, 0xdc, 0xac, 0x1c, 0x3e, 0xd5, 0x33, 0x01, 0xc1, 0x44, 0xad, 0xd4, 0xbd, 0x83, 0x3d, 0xea, 0xbe, 0xde, 0x13, 0xd5, 0x3d, 0x0b, 0x2d, 0x6c, 0xbc, 0x15, 0xbd, 0xdc, 0x3d, 0xe0, 0x49, 0xd5, 0x3c, 0x5e, 0x73, 0x43, 0xbd, 0x3b, 0x08, 0x09, 0x3d, 0x01, 0xd2, 0x18, 0x3d, 0x16, 0x4c, 0xc9, 0x3d, 0xc0, 0x8b, 0x10, 0xbf, 0x78, 0x2f, 0x92, 0xbf, 0x4e, 0x4f, 0xdf, 0x3f, 0xcd, 0xca, 0x92, 0x3e, 0x30, 0x5f, 0xda, 0x3c, 0x37, 0xb6, 0x59, 0x3e, 0x32, 0x07, 0xf0, 0xc0, 0xe3, 0xb9, 0x46, 0x3f, 0x85, 0x6d, 0x45, 0xbd, 0x92, 0x2f, 0x02, 0x3d, 0x1b, 0x4e, 0x27, 0xbd, 0x3b, 0xa2, 0x1e, 0x3f, 0x2a, 0x43, 0xb1, 0x3f, 0x62, 0x45, 0xa1, 0xbd, 0x24, 0x9c, 0x63, 0x3d, 0xd1, 0x61, 0x3b, 0xbe, 0x1a, 0x46, 0x95, 0xbd, 0xbf, 0x0f, 0xd7, 0x3d, 0x52, 0xee, 0x85, 0x3e, 0x0a, 0x87, 0x02, 0xc1, 0xd4, 0xce, 0x88, 0xbf, 0xea, 0xf5, 0x1b, 0x3d, 0xee, 0xbe, 0x7e, 0xbe, 0x1f, 0xb9, 0xf5, 0xbd, 0xde, 0x60, 0x99, 0x3c, 0x4e, 0xe7, 0xea, 0x3e, 0x68, 0x2e, 0x62, 0x3a, 0xfb, 0x81, 0x31, 0xbf, 0x85, 0x2b, 0xaa, 0xbd, 0xd7, 0xe8, 0x9d, 0x3f, 0x6c, 0xde, 0x7a, 0x3f, 0xd0, 0xf3, 0x4f, 0x3e, 0x14, 0x7c, 0xe8, 0x3e, 0x45, 0xf7, 0xa7, 0xbc, 0xcd, 0xb6, 0x97, 0x3d, 0x2c, 0xf4, 0xe6, 0x3c, 0xfb, 0x0b, 0x4c, 0x3f, 0x7e, 0xa7, 0x97, 0x3e, 0x27, 0x04, 0xe7, 0x3a, 0xf8, 0xbf, 0xbc, 0xbf, 0x15, 0x28, 0x1f, 0xc0, 0x82, 0xeb, 0xc1, 0x3d, 0x2b, 0x02, 0xbb, 0xbd, 0x91, 0x7c, 0x73, 0xbe, 0xa9, 0xfb, 0x14, 0xbc, 0x99, 0x89, 0xee, 0x3e, 0xa3, 0xf3, 0xf1, 0x3d, 0x57, 0x0b, 0xb8, 0x3a, 0xfe, 0xc7, 0xf3, 0xbf, 0x6d, 0xd4, 0x97, 0x3e, 0x88, 0xf4, 0x0a, 0xbe, 0xc8, 0x8f, 0x9b, 0xbf, 0xa2, 0xe5, 0xff, 0xff, 0x10, 0x00, 0x00, 0x00, 0x07, 0x00, 0x00, 0x00, 0x14, 0x00, 0x00, 0x00, 0x34, 0x00, 0x00, 0x00, 0x02, 0x00, 0x00, 0x00, 0x03, 0x00, 0x00, 0x00, 0x00, 0x01, 0x00, 0x00, 0x1c, 0x00, 0x00, 0x00, 0x53, 0x65, 0x71, 0x75, 0x65, 0x6e, 0x74, 0x69, 0x61, 0x6c, 0x2d, 0x4e, 0x4e, 0x2f, 0x64, 0x65, 0x6e, 0x73, 0x65, 0x5f, 0x35, 0x2f, 0x4d, 0x61, 0x74, 0x4d, 0x75, 0x6c, 0x00, 0x00, 0x00, 0x00, 0x20, 0xe5, 0xff, 0xff, 0x12, 0xe6, 0xff, 0xff, 0x04, 0x00, 0x00, 0x00, 0x00, 0x14, 0x00, 0x00, 0xc4, 0x1a, 0x64, 0xbc, 0xee, 0xe3, 0x5a, 0xbe, 0x36, 0x54, 0x85, 0xc0, 0x83, 0x7e, 0x7d, 0x3e, 0x4c, 0xfb, 0xb4, 0xbd, 0xfd, 0x45, 0xc5, 0xbd, 0x20, 0x20, 0x2e, 0x3c, 0x6d, 0xbd, 0xc4, 0x3d, 0x31, 0x6d, 0xe8, 0x3b, 0x40, 0x40, 0x7c, 0xbd, 0x80, 0x58, 0xe1, 0xbc, 0x55, 0xfb, 0x0f, 0xbd, 0xe7, 0xd3, 0xaf, 0x3d, 0x61, 0x51, 0x80, 0x3d, 0xf9, 0x9b, 0xb8, 0xbe, 0xee, 0xf9, 0x4d, 0x3e, 0x9d, 0x64, 0x0a, 0x3d, 0x45, 0x03, 0x20, 0xbe, 0xd3, 0x38, 0xc4, 0xbe, 0xb3, 0x7a, 0xb7, 0xbe, 0xcf, 0x38, 0x7d, 0x3f, 0x40, 0x4c, 0x64, 0xbe, 0xba, 0xf5, 0x55, 0x3e, 0x59, 0x01, 0x90, 0xbf, 0x88, 0xea, 0xae, 0x3d, 0xa0, 0x30, 0x7a, 0xbe, 0x07, 0x17, 0x63, 0xbd, 0xe0, 0x54, 0xa0, 0x3c, 0xe4, 0x02, 0x08, 0x3d, 0xbf, 0x10, 0x4e, 0xbd, 0x04, 0x54, 0xfd, 0x3e, 0xba, 0x03, 0x4f, 0xbe, 0xa3, 0x05, 0x2b, 0x3e, 0x48, 0xc8, 0xe4, 0xbe, 0x1c, 0x67, 0x89, 0x3d, 0x72, 0xd3, 0xb1, 0x3e, 0xdb, 0x79, 0x16, 0x3e, 0xec, 0x24, 0x6c, 0xbe, 0x71, 0x72, 0x43, 0xbf, 0x13, 0xfe, 0x01, 0xbf, 0x09, 0x67, 0x0b, 0xc0, 0xf2, 0x5b, 0x72, 0xbf, 0xde, 0x02, 0xc1, 0x3e, 0xb0, 0x63, 0x12, 0x3f, 0xb0, 0x86, 0xc3, 0xbd, 0x51, 0xd5, 0x6d, 0x3f, 0x65, 0x68, 0xd6, 0x3d, 0x9f, 0xae, 0xb8, 0xbd, 0xa6, 0xea, 0xef, 0xbf, 0x75, 0x9e, 0x56, 0xbd, 0xc0, 0xf5, 0x71, 0x3d, 0x50, 0x16, 0x2f, 0xbe, 0x2c, 0x21, 0x62, 0xc0, 0x7f, 0xb7, 0xe4, 0x3d, 0x6d, 0x68, 0xd8, 0xbc, 0xbe, 0xee, 0xbb, 0xbe, 0x3b, 0x1a, 0x4e, 0x3d, 0xa1, 0x35, 0x9e, 0x3e, 0x9d, 0x49, 0x74, 0x3e, 0xb9, 0xc6, 0x29, 0xbf, 0x04, 0x72, 0x07, 0x3d, 0xec, 0x61, 0x16, 0xbd, 0x82, 0x25, 0x86, 0xbf, 0xda, 0x68, 0x42, 0xbe, 0xc3, 0xae, 0x38, 0x3d, 0xd5, 0x4f, 0x31, 0xbe, 0x0e, 0xdc, 0xaf, 0xbd, 0x09, 0x25, 0x43, 0xc0, 0x31, 0x09, 0x23, 0x3d, 0xb0, 0x7e, 0x79, 0x3d, 0x6a, 0xf3, 0x7a, 0xbd, 0x98, 0x2f, 0x17, 0x3d, 0xf2, 0x18, 0xf1, 0xbc, 0x9e, 0x29, 0xd5, 0xbd, 0x6b, 0x27, 0x2f, 0xbe, 0x6e, 0x1d, 0x80, 0xbd, 0x87, 0x96, 0xce, 0xbc, 0x4f, 0x27, 0x6b, 0xbf, 0x67, 0x3f, 0x74, 0xbe, 0x8b, 0x1a, 0xad, 0x3d, 0x68, 0x94, 0x27, 0x3e, 0xf9, 0xa8, 0x7b, 0xbe, 0x2e, 0xc4, 0x04, 0xc0, 0xbb, 0x49, 0xdd, 0xbd, 0x7c, 0x1b, 0xa0, 0x3e, 0x00, 0x88, 0x2a, 0xbc, 0xb0, 0xc3, 0x54, 0xbc, 0x30, 0x50, 0xcf, 0xbd, 0x50, 0xc5, 0x6b, 0xbc, 0xc0, 0xb3, 0xb4, 0xbc, 0x33, 0x20, 0x51, 0xbe, 0x06, 0x7e, 0x95, 0xbf, 0x3c, 0xc1, 0x05, 0x3f, 0xe2, 0x78, 0xf5, 0x3e, 0x27, 0x72, 0x25, 0xbd, 0x32, 0x74, 0x6e, 0xbd, 0x27, 0x88, 0xcc, 0xbd, 0x11, 0xeb, 0x3a, 0xbd, 0xe0, 0x0e, 0x6e, 0xbc, 0x33, 0x17, 0x12, 0x3d, 0x3b, 0x62, 0xd1, 0x3c, 0xc4, 0xd5, 0x7c, 0x3e, 0x4f, 0x62, 0xb2, 0xbd, 0x00, 0x6b, 0xa2, 0xbf, 0x62, 0x26, 0x20, 0xbe, 0x6d, 0xc2, 0x0b, 0xbe, 0x09, 0x01, 0x2f, 0xbd, 0x68, 0x7d, 0x94, 0xbd, 0x3a, 0x11, 0x65, 0x3e, 0x91, 0x0b, 0x0d, 0x3d, 0x40, 0xd2, 0xdb, 0x3e, 0x66, 0x5d, 0x45, 0x3d, 0x9f, 0x54, 0x73, 0xbe, 0x4f, 0xfd, 0x78, 0xbf, 0xb9, 0x2b, 0x02, 0xbf, 0x8c, 0x26, 0xe1, 0xbe, 0x2e, 0xff, 0xfc, 0xbd, 0x81, 0xff, 0x3d, 0x3f, 0x35, 0x79, 0x05, 0x3d, 0xda, 0x9d, 0x9f, 0xbe, 0xbd, 0x16, 0xb5, 0x3c, 0xde, 0x69, 0xdc, 0xbd, 0xa7, 0xbb, 0x52, 0xc0, 0x65, 0xbf, 0x9b, 0x3c, 0x09, 0xf2, 0x90, 0x3e, 0x6a, 0x01, 0xb8, 0xbc, 0x37, 0x40, 0x4e, 0xbf, 0xfb, 0x39, 0xcc, 0x3e, 0x96, 0xa0, 0xc7, 0x3e, 0x40, 0x14, 0x04, 0x3d, 0x02, 0x98, 0x06, 0xbf, 0x48, 0x6c, 0x93, 0xbd, 0xbc, 0x20, 0x29, 0xbe, 0x90, 0x5d, 0x02, 0x3f, 0x19, 0xef, 0x31, 0x3e, 0xde, 0x05, 0x20, 0xc0, 0xef, 0x3c, 0xa5, 0xbe, 0x3a, 0xd6, 0x9f, 0x3e, 0xba, 0xd1, 0x4f, 0xbf, 0xf5, 0x77, 0x06, 0x3e, 0xbb, 0x3d, 0xbd, 0x3e, 0x2c, 0x8c, 0x36, 0xbf, 0xde, 0x50, 0x0f, 0x3e, 0xf9, 0x86, 0x76, 0x3e, 0x34, 0x07, 0x1f, 0x3e, 0xe6, 0x79, 0x11, 0xbe, 0x2d, 0xda, 0xe1, 0xbc, 0x78, 0x37, 0xfc, 0xbd, 0x04, 0x06, 0x96, 0x3c, 0xca, 0xbf, 0xed, 0x3c, 0xb0, 0x38, 0x0d, 0xbe, 0xdd, 0x96, 0xca, 0xbd, 0xb4, 0x18, 0x89, 0x3b, 0x1f, 0x93, 0xa9, 0xbd, 0x04, 0x3d, 0x17, 0xbe, 0xca, 0x95, 0x93, 0xbf, 0x8c, 0x5e, 0x1c, 0xbf, 0xa8, 0xaf, 0xb1, 0x3e, 0xc1, 0x46, 0x1f, 0x3f, 0x58, 0x29, 0x30, 0x3e, 0x79, 0x9b, 0x2f, 0x3f, 0x1f, 0xc3, 0x4f, 0x3e, 0xfe, 0xff, 0x67, 0xbe, 0xce, 0x11, 0xb4, 0xbf, 0x2d, 0xc6, 0x1f, 0x3d, 0xed, 0x19, 0x93, 0xbe, 0xc3, 0xc4, 0x89, 0x3d, 0x06, 0x08, 0xd6, 0x3b, 0x3a, 0x68, 0x0e, 0xbd, 0x6f, 0x25, 0xe0, 0xbe, 0xfe, 0xe2, 0xfb, 0xbe, 0x3c, 0x46, 0xf0, 0xbc, 0x88, 0xa7, 0x20, 0xbe, 0xed, 0x08, 0xc1, 0x3e, 0xed, 0x77, 0xd0, 0xbd, 0xa0, 0x07, 0xb2, 0xbe, 0x66, 0x46, 0x51, 0xbe, 0x8c, 0x0a, 0x56, 0x3f, 0x58, 0x4f, 0x7b, 0x3c, 0x5b, 0x86, 0xa1, 0xbe, 0x07, 0xb5, 0x18, 0xc0, 0x39, 0xac, 0xa3, 0xbe, 0x1e, 0xa1, 0xc1, 0x3e, 0x9b, 0xdc, 0xf0, 0xbe, 0x3f, 0x3f, 0xcf, 0x3d, 0x94, 0xf9, 0x1f, 0x3d, 0x39, 0x04, 0x39, 0xbf, 0x23, 0xe7, 0xba, 0x3e, 0x1a, 0x08, 0xcb, 0x3e, 0x64, 0x8a, 0xd3, 0x3d, 0xde, 0x00, 0x2c, 0xc0, 0x48, 0x83, 0xaa, 0xbe, 0x51, 0x68, 0xa2, 0x3e, 0x4a, 0x1d, 0xdb, 0xbe, 0xaa, 0x5c, 0x11, 0x3e, 0x59, 0xa8, 0x6d, 0x3f, 0x81, 0xb5, 0x9f, 0xbf, 0x23, 0x9a, 0xa2, 0x3e, 0x6f, 0x9e, 0x11, 0x3e, 0x3b, 0x8f, 0x2e, 0x3e, 0x74, 0xd2, 0x1d, 0xc0, 0x8a, 0xf1, 0xe4, 0xbe, 0xd0, 0x24, 0xb8, 0x3e, 0x89, 0xeb, 0xe3, 0xbe, 0xa2, 0xd9, 0xde, 0x3c, 0x30, 0xb7, 0x71, 0x3e, 0x8e, 0x94, 0x15, 0xbe, 0xfe, 0x0a, 0x19, 0xbe, 0x6f, 0xb9, 0x2f, 0xbf, 0x8e, 0xa7, 0x3e, 0x3c, 0x7e, 0x53, 0x9e, 0xbe, 0xdf, 0x00, 0x71, 0xbe, 0x9b, 0xec, 0x24, 0x3d, 0x23, 0x1e, 0x44, 0x3a, 0x23, 0x13, 0x91, 0x3d, 0xc3, 0x1e, 0xcd, 0x3e, 0x52, 0x71, 0x0b, 0xbf, 0x4c, 0xa8, 0xf4, 0x3e, 0xff, 0x85, 0x11, 0x3e, 0x62, 0x37, 0xe2, 0xbd, 0x84, 0xab, 0xd8, 0xbd, 0x14, 0x4d, 0xe7, 0xbd, 0x74, 0xb3, 0xed, 0xbd, 0x03, 0xf5, 0xa5, 0x3b, 0xde, 0xbb, 0xca, 0xbd, 0x2b, 0x04, 0x8e, 0x3e, 0x1c, 0x9d, 0x90, 0x3e, 0xcf, 0x32, 0xaf, 0x3d, 0xaf, 0x74, 0x96, 0xbf, 0x4b, 0x60, 0x36, 0xbe, 0x5c, 0x6d, 0xa3, 0x3d, 0x50, 0x96, 0x1e, 0x3d, 0x49, 0x34, 0x25, 0xbf, 0x37, 0x48, 0xc3, 0xbe, 0x0f, 0x48, 0x09, 0x3d, 0xc8, 0xa6, 0x3c, 0x3e, 0xb1, 0xf5, 0xd5, 0xbe, 0xe1, 0x4b, 0x84, 0x3e, 0x70, 0x77, 0xc5, 0x3d, 0x07, 0x0f, 0x95, 0x3d, 0xbb, 0x11, 0xa8, 0xbe, 0x29, 0x46, 0x09, 0xbf, 0xcc, 0x0b, 0x92, 0x3e, 0xc9, 0x03, 0xdb, 0x3e, 0xf9, 0xa7, 0x79, 0x3d, 0x7a, 0xd5, 0xc5, 0xbe, 0xca, 0xb2, 0xf1, 0x3c, 0x03, 0xc3, 0x60, 0x3e, 0x26, 0x06, 0x21, 0x3e, 0x2b, 0xce, 0x00, 0xbf, 0xd4, 0x7d, 0xae, 0xbe, 0xc0, 0x5c, 0xb2, 0x3d, 0xd7, 0x3e, 0x08, 0x3f, 0xfb, 0x03, 0x58, 0x3e, 0x1b, 0xd9, 0x8b, 0xbf, 0xd6, 0xb3, 0x0c, 0xbe, 0x8a, 0x14, 0xd6, 0xbd, 0xc6, 0xde, 0xbe, 0xbd, 0x13, 0x33, 0x1a, 0xbe, 0x4c, 0xdb, 0x74, 0xbd, 0xc8, 0x77, 0x94, 0x3d, 0x86, 0x9f, 0x87, 0xbd, 0x4d, 0x7b, 0x06, 0xbe, 0x5b, 0x7a, 0xff, 0xbc, 0xc0, 0x3e, 0x81, 0xbc, 0xec, 0x74, 0xa4, 0x3e, 0x92, 0x44, 0x19, 0xbf, 0x0a, 0x48, 0x38, 0x3d, 0x85, 0x9e, 0x1f, 0x3e, 0x5c, 0x01, 0xda, 0x3d, 0x54, 0x31, 0xbe, 0x3d, 0x3c, 0xd0, 0x7f, 0xbd, 0x94, 0x28, 0x5c, 0xbf, 0x02, 0x7a, 0x46, 0xbe, 0xa5, 0xb0, 0x94, 0x3e, 0xf9, 0x07, 0xcf, 0x3e, 0x03, 0xc4, 0x73, 0xbe, 0x2b, 0x20, 0xa3, 0xbe, 0xd5, 0x35, 0x66, 0xbe, 0x37, 0x1d, 0xa3, 0xbe, 0x1e, 0x70, 0x4a, 0xbd, 0x60, 0x87, 0x96, 0xbd, 0xd1, 0xb5, 0x8b, 0xbd, 0x73, 0x39, 0x87, 0xbd, 0x68, 0x75, 0xd6, 0xbd, 0xc6, 0xa5, 0xc0, 0x3b, 0xfd, 0x26, 0x8d, 0xbe, 0x76, 0x11, 0x8b, 0x3e, 0x38, 0xf6, 0x74, 0x3e, 0x9e, 0x29, 0x4c, 0xbd, 0x64, 0xc8, 0xd7, 0x3d, 0xac, 0xa3, 0x1d, 0xbc, 0x07, 0x60, 0x4d, 0xbf, 0xc2, 0xd4, 0xc6, 0xbe, 0x42, 0x58, 0xe6, 0x3d, 0x2f, 0x2c, 0x42, 0xbf, 0x5f, 0xaa, 0x56, 0x3d, 0xfb, 0xb6, 0x9e, 0xbe, 0x0d, 0xb4, 0xa6, 0x3e, 0x0d, 0x0b, 0x5c, 0xbf, 0x3f, 0x6d, 0xb8, 0x3e, 0xd3, 0xc1, 0x03, 0x3e, 0x7a, 0xf7, 0x3e, 0xbe, 0x87, 0x77, 0x63, 0xbf, 0x65, 0x05, 0x12, 0x3b, 0xc9, 0x0d, 0xda, 0xbe, 0xd3, 0x1d, 0xf5, 0xbd, 0xee, 0x6e, 0x1d, 0x3f, 0xaf, 0xa1, 0x46, 0x3c, 0xf2, 0x0f, 0x8a, 0xbe, 0x70, 0xd0, 0x1e, 0xbe, 0x3c, 0x4a, 0x43, 0x3d, 0x4a, 0x13, 0x0e, 0xbd, 0x4c, 0x60, 0xc5, 0xbd, 0xb2, 0xcc, 0x41, 0xbe, 0x35, 0x65, 0x95, 0xbe, 0xe2, 0x95, 0xad, 0xbe, 0x11, 0x27, 0x96, 0x3f, 0x72, 0xb0, 0x1b, 0x3e, 0x86, 0x3d, 0x22, 0xbe, 0xe3, 0x3f, 0xdc, 0xbe, 0xc3, 0xb7, 0x09, 0xbe, 0xad, 0xa7, 0xde, 0x3e, 0xe0, 0x95, 0x49, 0xbd, 0xb1, 0x21, 0xe4, 0xbf, 0x24, 0xe6, 0xd0, 0xbd, 0xf5, 0x2b, 0x88, 0xbf, 0xb3, 0x25, 0xf5, 0x3e, 0x7e, 0xa0, 0xe4, 0x3e, 0xb6, 0x86, 0xd6, 0xbb, 0xa5, 0x5e, 0x39, 0xbe, 0xe5, 0xa7, 0xd1, 0xbd, 0xf7, 0xfb, 0x40, 0xc0, 0xb9, 0xee, 0xe6, 0x3d, 0xa8, 0xa2, 0x30, 0x3e, 0x41, 0x9a, 0x55, 0x3f, 0x2e, 0xb9, 0x77, 0x3e, 0xea, 0xde, 0xa6, 0xbe, 0xa3, 0x0d, 0xdf, 0xbf, 0x8e, 0xf6, 0x02, 0x3d, 0xb5, 0x90, 0xf0, 0x3e, 0x01, 0xe9, 0x41, 0xbd, 0x4e, 0x47, 0xf4, 0xbe, 0x25, 0x46, 0x6c, 0xbf, 0x59, 0x0f, 0x18, 0xbf, 0x92, 0xfb, 0x87, 0xbf, 0xa6, 0xdb, 0xd4, 0x3c, 0x47, 0xc3, 0xfd, 0x3c, 0xdf, 0x05, 0xdc, 0xbd, 0xe7, 0x4a, 0x84, 0x3c, 0x91, 0x2e, 0x27, 0x3c, 0x11, 0x88, 0x64, 0xbd, 0xfa, 0x99, 0x2b, 0xc0, 0x4c, 0x1a, 0xd2, 0xbd, 0x7b, 0xcc, 0x75, 0x3d, 0x0e, 0x84, 0x34, 0xbe, 0xdf, 0xfb, 0x70, 0x3d, 0x08, 0x36, 0x3f, 0xbd, 0xae, 0xb4, 0x5a, 0xbf, 0x05, 0xbb, 0xac, 0xbe, 0xf7, 0x37, 0xfb, 0x3e, 0x38, 0x2c, 0x2e, 0x3e, 0xb0, 0x10, 0x4e, 0xbe, 0xd2, 0x9c, 0x91, 0xbf, 0xda, 0xb6, 0x5a, 0x3c, 0xe0, 0x73, 0x6a, 0xbd, 0xcd, 0x4b, 0x5d, 0xbd, 0x0d, 0xdc, 0xe9, 0xbd, 0x1c, 0xfa, 0x50, 0xbd, 0x8c, 0x99, 0x46, 0x3d, 0xba, 0x12, 0x34, 0xbd, 0x3c, 0xd3, 0xc6, 0xbd, 0x6e, 0xfc, 0x16, 0xbd, 0x40, 0x2f, 0x98, 0x3b, 0x20, 0x8e, 0xb3, 0xbc, 0x4a, 0xb5, 0xe5, 0xbd, 0xe0, 0x04, 0x67, 0x3c, 0x64, 0x4e, 0xfc, 0xbd, 0xd8, 0x1a, 0x8c, 0xbc, 0x8d, 0xc5, 0x18, 0xbe, 0x13, 0xe1, 0xdb, 0x3e, 0x31, 0x43, 0x86, 0x3d, 0x13, 0x2f, 0x5a, 0xbe, 0xf2, 0xdb, 0x6e, 0xbf, 0xa1, 0x40, 0x00, 0xbf, 0xb4, 0xb6, 0x92, 0xbd, 0xf7, 0x97, 0x9d, 0xbd, 0xa1, 0xc8, 0x75, 0xbc, 0xf8, 0x06, 0x00, 0xbd, 0x78, 0x21, 0xc7, 0xbc, 0xac, 0x34, 0xe5, 0x3e, 0x11, 0x38, 0x8a, 0x3d, 0xdc, 0x8a, 0x96, 0xbe, 0xfe, 0x60, 0x15, 0xbf, 0x4b, 0x03, 0x35, 0xbf, 0x60, 0xac, 0x88, 0xbe, 0x3c, 0x28, 0x6f, 0xbd, 0x4e, 0xc9, 0x3d, 0xc0, 0xd2, 0xf1, 0x91, 0x3d, 0x8b, 0x23, 0x24, 0xbd, 0x3a, 0x8f, 0x19, 0xbe, 0xee, 0x48, 0x1f, 0xbd, 0x53, 0x66, 0x71, 0xbd, 0xab, 0x93, 0x65, 0xbc, 0x77, 0x2e, 0x40, 0xbe, 0x3c, 0xef, 0xe9, 0x3e, 0x8a, 0xe4, 0xf1, 0x3d, 0x69, 0xcd, 0x6f, 0xbe, 0x7b, 0x3e, 0x80, 0xbf, 0xfc, 0x8a, 0x12, 0x3d, 0x00, 0x2e, 0x8b, 0xbc, 0x42, 0x3f, 0x2f, 0xbd, 0xd6, 0x0d, 0x14, 0xbd, 0xbc, 0x7c, 0x93, 0xbd, 0xe0, 0xbf, 0x86, 0xbc, 0x6f, 0x5b, 0x17, 0xc0, 0xad, 0x85, 0x99, 0xbe, 0xf7, 0x9e, 0xaf, 0x3e, 0xb5, 0x3d, 0x0f, 0xbf, 0x6d, 0xdb, 0xc3, 0x3d, 0x25, 0x59, 0x76, 0xbd, 0xb3, 0x73, 0xba, 0xbc, 0xd4, 0x55, 0x99, 0x3b, 0x67, 0x12, 0x74, 0x3c, 0xb2, 0xe1, 0x9c, 0xbe, 0x81, 0x32, 0x2f, 0xbf, 0x63, 0xf8, 0x89, 0x3d, 0x37, 0x12, 0x7d, 0xbe, 0x70, 0xf7, 0xd3, 0x3e, 0x12, 0x92, 0x9b, 0xbe, 0xdb, 0x04, 0xcc, 0xbd, 0x31, 0xb9, 0x6d, 0x3d, 0x14, 0x65, 0x50, 0x3d, 0x7d, 0x24, 0x33, 0xbf, 0x64, 0x2e, 0xaa, 0xbd, 0xc9, 0x64, 0xfa, 0x3e, 0x5a, 0x30, 0xf6, 0xbd, 0x33, 0x48, 0x7e, 0xbd, 0x96, 0x89, 0xfa, 0xbe, 0x63, 0x69, 0x17, 0xbf, 0xb5, 0x1c, 0x83, 0x3d, 0x67, 0x57, 0x9c, 0xbd, 0x42, 0x16, 0x1d, 0xbe, 0x0c, 0x28, 0xcb, 0xbd, 0x02, 0xfa, 0x86, 0x3d, 0x3f, 0x28, 0xb4, 0xbe, 0x1c, 0x8d, 0x11, 0xbe, 0xf8, 0xf5, 0x25, 0x3f, 0x05, 0x1f, 0x36, 0x3d, 0x2d, 0x98, 0x81, 0xbe, 0xbf, 0xba, 0xb0, 0x3e, 0xf9, 0xc2, 0x44, 0xc0, 0x64, 0x31, 0x68, 0x3e, 0xd6, 0xac, 0x41, 0x3f, 0x58, 0x6c, 0xe3, 0xbe, 0x4f, 0xfa, 0x9c, 0x3e, 0x01, 0x1e, 0x27, 0xbf, 0x1f, 0xdc, 0x24, 0x3e, 0x02, 0x72, 0x1e, 0x3e, 0xc9, 0x2b, 0x01, 0x3e, 0xc3, 0xe0, 0xd6, 0xbe, 0x11, 0xf9, 0x87, 0xbd, 0x22, 0x3d, 0x3a, 0xbe, 0x2e, 0x2c, 0x35, 0x3d, 0x54, 0xd3, 0x61, 0x3d, 0x27, 0xaf, 0x8e, 0xbe, 0x1f, 0x45, 0xa0, 0xbe, 0xba, 0x22, 0x8c, 0x3f, 0x6a, 0x02, 0xf3, 0x3d, 0xa1, 0x3e, 0xd1, 0xbd, 0xff, 0xd3, 0xb9, 0x3e, 0xa8, 0x11, 0xf9, 0xbe, 0x4d, 0xaf, 0x3c, 0xbe, 0xb7, 0x6c, 0x22, 0x3d, 0x58, 0x23, 0x11, 0xbf, 0xff, 0xa4, 0xee, 0xbd, 0xec, 0xce, 0xfb, 0xbc, 0x9e, 0x53, 0x1a, 0xc0, 0x19, 0x60, 0xd1, 0xbd, 0xd4, 0x83, 0x70, 0x3e, 0xe1, 0xb3, 0x68, 0xbe, 0x94, 0x61, 0x10, 0xbe, 0xb3, 0xdd, 0xac, 0xbc, 0x7e, 0xeb, 0xb4, 0x3c, 0xbb, 0x41, 0x2a, 0x3d, 0xbb, 0x5d, 0xa8, 0xbe, 0x63, 0x55, 0x76, 0x3c, 0xfb, 0xa8, 0xce, 0xbe, 0x2c, 0xca, 0xda, 0xbd, 0x6e, 0x3e, 0xd8, 0xbd, 0x8d, 0x70, 0xc9, 0xbe, 0x5c, 0x28, 0x63, 0xbe, 0x30, 0x1e, 0x15, 0x3f, 0xde, 0x84, 0xfe, 0x3d, 0xcb, 0xb1, 0x1e, 0xbe, 0xd8, 0x97, 0x08, 0x3f, 0xe9, 0x5a, 0x16, 0xbe, 0x21, 0x25, 0x1e, 0xbe, 0x53, 0x2e, 0xb9, 0xbf, 0x00, 0x52, 0x66, 0x3b, 0x07, 0x03, 0x08, 0xbf, 0x1f, 0x6d, 0x8f, 0xbe, 0x76, 0x40, 0x74, 0x3d, 0x0c, 0x34, 0x8d, 0xbe, 0xff, 0x71, 0xcf, 0x3d, 0xef, 0x60, 0x0e, 0xbe, 0xac, 0x2f, 0x0c, 0x3d, 0x46, 0xe4, 0xcf, 0xbe, 0x80, 0x93, 0x8e, 0xbe, 0xdc, 0x05, 0xe6, 0xbd, 0xc9, 0x51, 0xa9, 0x3d, 0x42, 0x41, 0x45, 0xbe, 0xaa, 0x3b, 0x81, 0xbc, 0x28, 0x54, 0x2d, 0x3d, 0xc9, 0x80, 0xef, 0xbd, 0x85, 0xbd, 0xf4, 0xbd, 0xbf, 0x47, 0xa5, 0xbd, 0xaf, 0xb7, 0x41, 0xc0, 0x57, 0x8f, 0xd2, 0x3d, 0xb9, 0xde, 0x41, 0xbd, 0xe7, 0x79, 0x1d, 0x3f, 0xbe, 0x8a, 0x64, 0x3e, 0xde, 0x58, 0x6e, 0xbe, 0x4d, 0x6c, 0xb7, 0xbf, 0x4f, 0x6e, 0xc1, 0x3b, 0x9f, 0xf2, 0x74, 0x3e, 0x6f, 0x64, 0x06, 0xbe, 0x43, 0xee, 0x5a, 0xbe, 0xb7, 0x06, 0x24, 0xbf, 0x10, 0xe3, 0x33, 0xbe, 0xc2, 0xaf, 0x90, 0x3e, 0x72, 0xdf, 0x80, 0x3b, 0x59, 0x50, 0x21, 0xbe, 0x67, 0x7f, 0x88, 0xbf, 0x55, 0xcf, 0x85, 0xbc, 0x99, 0xf9, 0xf8, 0xbc, 0x19, 0x41, 0xb1, 0xbe, 0xd4, 0x7b, 0x5d, 0x3e, 0x2b, 0x8c, 0xdc, 0x3c, 0xd7, 0x4c, 0xc3, 0xbd, 0x61, 0xe8, 0xe2, 0x3e, 0x7e, 0xb1, 0x67, 0x3e, 0x5d, 0x70, 0xe5, 0xbd, 0xb4, 0x5c, 0x8b, 0xbf, 0xc8, 0x7f, 0x89, 0xbc, 0x84, 0xa8, 0xbb, 0x3e, 0x3b, 0x97, 0xc9, 0x3d, 0xf8, 0x6e, 0x2d, 0xbe, 0x18, 0xa6, 0x4d, 0xbf, 0x2a, 0x55, 0x9e, 0xba, 0x15, 0x64, 0x08, 0xbe, 0x2d, 0x1b, 0x5f, 0xbd, 0xba, 0x97, 0xff, 0xbd, 0xf3, 0x25, 0x5d, 0x3c, 0xb0, 0xb4, 0x24, 0xbc, 0xa7, 0x51, 0x32, 0x3f, 0xc0, 0x03, 0x81, 0x3b, 0xd8, 0x4b, 0xbd, 0xbd, 0x89, 0xab, 0xb9, 0xbf, 0x7a, 0x3f, 0x5d, 0xbc, 0x33, 0x23, 0x83, 0x3c, 0x26, 0x41, 0x38, 0xbc, 0x7f, 0x09, 0x2b, 0xbf, 0x7d, 0x12, 0xcd, 0x3a, 0x8d, 0x75, 0xac, 0xbd, 0x7c, 0x70, 0xde, 0xbf, 0xb8, 0xe9, 0xb7, 0x3d, 0x18, 0x43, 0x8d, 0xbd, 0xcc, 0x0e, 0xf7, 0xbd, 0xa5, 0x09, 0x0e, 0x3c, 0x8e, 0x9b, 0x19, 0xbd, 0xb6, 0x47, 0xa6, 0x3c, 0x27, 0xd7, 0x7b, 0x3d, 0x69, 0x68, 0x74, 0xbc, 0x55, 0x27, 0x65, 0xbd, 0xfa, 0xc1, 0xf2, 0x3b, 0x98, 0x97, 0x8e, 0x3a, 0xe2, 0x78, 0x09, 0x3d, 0x66, 0xc6, 0xc8, 0xba, 0xb4, 0x11, 0x4d, 0xbe, 0xfd, 0x53, 0x28, 0xbe, 0xaf, 0xac, 0x4b, 0xbd, 0xd8, 0xe3, 0xf8, 0xbe, 0xf8, 0x56, 0x1d, 0x3e, 0x55, 0x4d, 0x2e, 0xbe, 0x75, 0x93, 0x79, 0x3d, 0x01, 0x28, 0xd9, 0xbd, 0x01, 0xfb, 0x91, 0xbd, 0xc4, 0xda, 0xbd, 0xbd, 0x1d, 0xbf, 0x36, 0x3d, 0x71, 0x06, 0xfd, 0xbf, 0xc7, 0x21, 0x09, 0xbf, 0x76, 0x30, 0xbb, 0x3e, 0x6f, 0xbe, 0x44, 0x3f, 0x81, 0x2e, 0x33, 0x3e, 0x31, 0xe2, 0xd0, 0xbd, 0xf9, 0x74, 0x26, 0xbf, 0x62, 0x65, 0xb8, 0x3e, 0xbf, 0x20, 0xf2, 0x3e, 0x24, 0x93, 0x81, 0x3d, 0x61, 0xc9, 0x3f, 0x3f, 0x92, 0xfe, 0xd4, 0xbc, 0x23, 0x48, 0x5a, 0xbc, 0xf7, 0x0c, 0x9e, 0xbf, 0x1e, 0x70, 0xa2, 0xbc, 0x49, 0xad, 0x63, 0xbe, 0x5d, 0x0a, 0xac, 0xbd, 0xbf, 0x7f, 0x8a, 0xc0, 0x99, 0x38, 0x79, 0x3d, 0xf9, 0xf6, 0x26, 0x3f, 0xe3, 0x19, 0x9c, 0x3e, 0xae, 0xb4, 0x01, 0xbd, 0x8f, 0xa9, 0xaa, 0xba, 0xf9, 0xbc, 0x33, 0xbf, 0x7e, 0xa6, 0x10, 0xbe, 0x46, 0xa2, 0x8a, 0xbd, 0x9b, 0x23, 0x95, 0xba, 0x42, 0x90, 0xd0, 0xbf, 0x4b, 0x18, 0x52, 0xbe, 0xb5, 0x64, 0xd6, 0x3d, 0x3c, 0x86, 0x46, 0x3c, 0x3a, 0x6e, 0x9c, 0x3c, 0xfe, 0xb9, 0x56, 0xbe, 0xe4, 0xf2, 0x3c, 0xbf, 0xa1, 0x6c, 0x06, 0x3c, 0x91, 0xb5, 0xe4, 0x3e, 0xbf, 0x7a, 0x44, 0xbe, 0x58, 0x65, 0x63, 0xbe, 0xff, 0xf9, 0x9b, 0xbf, 0xf7, 0x6f, 0x0e, 0xbf, 0x64, 0xe2, 0x6a, 0x3e, 0xdd, 0xb0, 0x6e, 0xbe, 0x6e, 0x38, 0x1e, 0xbf, 0x47, 0xf5, 0x9c, 0xbe, 0xbe, 0x23, 0x90, 0x3d, 0xfc, 0xab, 0x21, 0xbd, 0xe4, 0xa9, 0xdb, 0xbc, 0x42, 0x42, 0x14, 0xbd, 0xda, 0xba, 0xb7, 0xbd, 0x50, 0xa8, 0x9e, 0xbc, 0x9d, 0xe7, 0xd1, 0xbc, 0x94, 0xab, 0x65, 0x3c, 0xd1, 0x81, 0xb4, 0xbd, 0x34, 0xec, 0x26, 0xbf, 0xac, 0xfe, 0x2d, 0x3d, 0x14, 0xc4, 0x8a, 0xbc, 0xc4, 0x72, 0x8d, 0xba, 0x66, 0x0a, 0x6c, 0x3c, 0x8a, 0xf7, 0xe8, 0x3b, 0x9a, 0xd1, 0x4f, 0xbe, 0xf9, 0x91, 0x88, 0xbe, 0xeb, 0xe6, 0x85, 0xbd, 0xb8, 0xef, 0xd0, 0xbf, 0xf9, 0x24, 0x16, 0x3e, 0xd7, 0xf9, 0x40, 0x3e, 0xbe, 0x76, 0x12, 0xbe, 0xf9, 0x43, 0x9b, 0xbd, 0x9f, 0x26, 0x12, 0xbe, 0xac, 0x66, 0x65, 0xbd, 0x92, 0x73, 0xbf, 0xbd, 0x5a, 0xd6, 0x53, 0xbe, 0x42, 0x9c, 0xf6, 0x3c, 0x36, 0x94, 0x91, 0xbe, 0xc3, 0x99, 0x72, 0x3e, 0x1f, 0x3c, 0x32, 0xbd, 0x51, 0xa3, 0xd4, 0xbd, 0xf0, 0x05, 0x2b, 0xbb, 0xc4, 0x2d, 0x16, 0x3c, 0xb2, 0x33, 0x24, 0x3e, 0xb6, 0x1b, 0xe3, 0x3d, 0xb0, 0x1a, 0x3a, 0x3f, 0xd4, 0x6f, 0xd3, 0xbd, 0xa3, 0x1c, 0xc8, 0xbd, 0x74, 0x1c, 0xd0, 0xbf, 0x5e, 0x77, 0x98, 0xbf, 0xa8, 0x3f, 0xe4, 0xbe, 0x2d, 0xfd, 0x7e, 0xbe, 0x8c, 0x85, 0x20, 0x3f, 0xab, 0x18, 0x87, 0x3d, 0x26, 0x22, 0x65, 0xbe, 0x63, 0xbf, 0x0b, 0x3e, 0x5c, 0x07, 0xb7, 0xbc, 0x7d, 0xc5, 0xb5, 0x3c, 0x96, 0x04, 0x42, 0x3e, 0xf0, 0x51, 0xc7, 0xbe, 0x8a, 0x16, 0xda, 0xbc, 0x9c, 0x9a, 0x90, 0xbf, 0x26, 0x7d, 0xe8, 0x3e, 0x8b, 0xc0, 0xfb, 0x3e, 0x51, 0x21, 0x02, 0x3e, 0x2a, 0xcc, 0xff, 0x3e, 0x65, 0xa3, 0x2d, 0xbe, 0x62, 0x3e, 0x1a, 0x3b, 0x74, 0x56, 0x21, 0xbf, 0x48, 0x60, 0x6f, 0xbf, 0x60, 0xb4, 0x84, 0xbe, 0x4c, 0xb1, 0x91, 0xbe, 0x10, 0xde, 0x97, 0x3f, 0x2b, 0xf8, 0xee, 0x3d, 0xfe, 0x68, 0x09, 0xbe, 0xb3, 0x0a, 0x95, 0x3f, 0x31, 0x48, 0xfa, 0xbe, 0xe4, 0x1a, 0xf7, 0x3e, 0xcf, 0x32, 0x95, 0xbf, 0x40, 0x8c, 0xa9, 0x3d, 0x70, 0xbc, 0xe5, 0xbb, 0xfe, 0x68, 0x0d, 0x3d, 0x7a, 0xb4, 0x09, 0xbd, 0x4d, 0xbf, 0x25, 0xbe, 0xcb, 0x67, 0x86, 0xbd, 0x75, 0x75, 0x40, 0xbf, 0x41, 0x21, 0xcb, 0x3c, 0x0b, 0x84, 0xce, 0xbe, 0x77, 0x45, 0x7b, 0x3e, 0x40, 0x66, 0x20, 0xbf, 0x50, 0xd2, 0xc6, 0xbd, 0xa0, 0xd7, 0x34, 0x3a, 0x69, 0x12, 0xc9, 0xbc, 0x33, 0x6f, 0xf0, 0x3d, 0x17, 0xfa, 0xc1, 0xbd, 0xdd, 0x6e, 0xa5, 0xbc, 0xa3, 0xfe, 0x9f, 0xbf, 0x6d, 0xa0, 0x0b, 0x3f, 0x33, 0x7f, 0x1f, 0x3f, 0x4d, 0xaf, 0xf1, 0x3c, 0x2b, 0x52, 0x1d, 0xbe, 0x36, 0x86, 0x15, 0x3d, 0xde, 0xc7, 0xa1, 0xbf, 0x0c, 0x0d, 0x45, 0x3e, 0x2c, 0x2b, 0x22, 0x3e, 0xda, 0x44, 0x04, 0xc0, 0x6e, 0xec, 0x31, 0x3e, 0x2b, 0xf1, 0xc2, 0xbd, 0x28, 0x28, 0x4a, 0x3e, 0x60, 0x46, 0xe6, 0x3d, 0xbb, 0x58, 0x06, 0x3b, 0x97, 0x63, 0x49, 0xbe, 0xc6, 0xbe, 0x4a, 0xc0, 0x16, 0x37, 0x30, 0x3e, 0x23, 0x79, 0x5d, 0xbe, 0xcd, 0xe3, 0xa9, 0xbd, 0x4c, 0x85, 0x3e, 0xbd, 0x7c, 0xec, 0x92, 0xbd, 0xd0, 0xaf, 0x69, 0xbc, 0xc0, 0x03, 0xb8, 0x3c, 0x9e, 0x37, 0xbc, 0x3c, 0x7f, 0x00, 0x92, 0xbe, 0xee, 0x0c, 0x31, 0x3d, 0xf8, 0x67, 0xcf, 0xbd, 0x2c, 0xc5, 0x4e, 0xbe, 0x58, 0x0f, 0x97, 0xbf, 0x86, 0xa2, 0x92, 0xbe, 0x2c, 0x3e, 0x1c, 0x3e, 0x11, 0x01, 0x92, 0x3d, 0xf3, 0x35, 0x63, 0xbf, 0x6a, 0xf6, 0xc0, 0x3e, 0xb4, 0x04, 0x21, 0x3e, 0xe8, 0xfc, 0x0a, 0xbe, 0x22, 0xd4, 0x63, 0xbf, 0x97, 0xd9, 0x83, 0x39, 0x2a, 0xaa, 0xe3, 0xbd, 0x08, 0x67, 0xde, 0xbc, 0xb0, 0xc2, 0x47, 0xbc, 0xb0, 0x88, 0x80, 0xbb, 0x9e, 0x2a, 0xce, 0xbd, 0xc6, 0xf8, 0x3c, 0xbd, 0x5d, 0x28, 0x3e, 0xbe, 0x1e, 0x79, 0x83, 0xc0, 0x47, 0x84, 0x38, 0x3e, 0xbc, 0x75, 0x33, 0xbd, 0x91, 0x13, 0xc4, 0xb8, 0x81, 0x2e, 0xd5, 0xbd, 0x79, 0x25, 0x8e, 0x3d, 0x4e, 0xe1, 0x56, 0xbd, 0x90, 0xc3, 0xc2, 0xbd, 0x95, 0x93, 0x22, 0x3f, 0xac, 0x7d, 0xac, 0xbd, 0x43, 0x2d, 0xf3, 0xbd, 0x34, 0x2b, 0xb9, 0xbf, 0xda, 0x06, 0x07, 0xbc, 0xe8, 0x64, 0xd1, 0xbd, 0x7d, 0x53, 0x81, 0xbd, 0x70, 0x39, 0x82, 0xbc, 0x82, 0xe9, 0x48, 0xbd, 0x29, 0x98, 0xa5, 0xbd, 0x38, 0x0f, 0x96, 0xbe, 0xc9, 0x28, 0x3f, 0xbd, 0xc9, 0x84, 0xdb, 0xbe, 0x42, 0x09, 0xdb, 0xbb, 0x25, 0x12, 0x02, 0x3d, 0x4d, 0x13, 0x79, 0xbe, 0xd0, 0xe7, 0x86, 0xbe, 0xa5, 0xe9, 0x94, 0x3f, 0xae, 0xf4, 0xf4, 0x3d, 0x69, 0x3f, 0x2f, 0xbe, 0xcc, 0x3b, 0x0f, 0xbe, 0xed, 0x0c, 0x5c, 0xbd, 0xe2, 0xc8, 0x2a, 0xc0, 0xf4, 0xd8, 0x5a, 0x3d, 0xc9, 0x30, 0xd9, 0xbd, 0xc0, 0x25, 0x73, 0xbe, 0x96, 0xf7, 0x4d, 0x3d, 0x83, 0xa7, 0x6d, 0x3d, 0x64, 0x33, 0x09, 0xbf, 0xbe, 0x06, 0xd8, 0xbe, 0x90, 0xaf, 0x81, 0xbe, 0x38, 0x0a, 0x96, 0x3e, 0xc3, 0xb1, 0x68, 0xbd, 0xbe, 0xaf, 0x5f, 0xbf, 0xe2, 0x1f, 0x0e, 0xbf, 0x5e, 0x7e, 0x0f, 0xbe, 0xdf, 0x3b, 0x64, 0xbc, 0xe6, 0x31, 0xfa, 0xbf, 0xb9, 0xa3, 0x86, 0xbd, 0x61, 0x12, 0x14, 0x3e, 0xb5, 0xf3, 0xa6, 0xbf, 0x63, 0x3f, 0x7b, 0x3d, 0x32, 0xb9, 0xe6, 0x3c, 0xd3, 0x2a, 0x21, 0xbd, 0xed, 0xaf, 0x14, 0x3e, 0xce, 0x7f, 0x71, 0x3f, 0xa8, 0x3e, 0xc3, 0xbf, 0xa2, 0xb3, 0x58, 0x3e, 0xa7, 0x59, 0xa0, 0x3e, 0x61, 0x8e, 0x5f, 0x3e, 0xd3, 0xda, 0xea, 0x3e, 0x40, 0xf5, 0x2c, 0xbf, 0x25, 0x5f, 0x3d, 0x3d, 0xf4, 0xe7, 0x08, 0x3e, 0xe5, 0xa3, 0x82, 0x3c, 0xbf, 0x91, 0x0d, 0x3f, 0x3c, 0xf8, 0x59, 0x3e, 0xa3, 0xe1, 0x21, 0xbe, 0x9e, 0xad, 0x93, 0xbf, 0x97, 0x94, 0x43, 0xbe, 0x77, 0x00, 0x77, 0x3e, 0x96, 0xf6, 0x4c, 0xbe, 0x2f, 0x8c, 0x23, 0x3e, 0x31, 0x3a, 0x01, 0xbe, 0xe0, 0x9a, 0x83, 0x3d, 0xe8, 0x4b, 0x9f, 0xbe, 0x2e, 0x6d, 0x9c, 0xbc, 0xfb, 0x61, 0x99, 0xbc, 0x62, 0x47, 0xb5, 0x3e, 0xe3, 0x99, 0xed, 0xbd, 0xed, 0x58, 0x0c, 0x3f, 0x85, 0x17, 0x87, 0x3e, 0x6a, 0x14, 0x32, 0xbe, 0x09, 0x8b, 0xbc, 0xbf, 0x3e, 0x26, 0x48, 0xbd, 0x86, 0x3f, 0xeb, 0xbe, 0x54, 0xc7, 0x27, 0xbe, 0x0d, 0x16, 0x02, 0x3f, 0xf9, 0xca, 0xa8, 0x3d, 0xb1, 0x0b, 0x8f, 0xbf, 0xeb, 0xdd, 0xa8, 0x3f, 0x70, 0x88, 0xa8, 0xbf, 0x0c, 0x3b, 0x78, 0x3e, 0x4b, 0xb7, 0xb2, 0xbe, 0xbf, 0x30, 0x6d, 0x3e, 0x39, 0x99, 0x07, 0xbe, 0xe0, 0x3a, 0xf8, 0x3c, 0x1a, 0xdb, 0x52, 0xbd, 0xb0, 0x5a, 0x38, 0xbc, 0xbd, 0xd9, 0x0d, 0xbc, 0x94, 0x88, 0x15, 0xbe, 0xbc, 0xcb, 0x27, 0x3d, 0xbf, 0x74, 0x16, 0xbe, 0x18, 0x1e, 0x2f, 0xbd, 0x09, 0xa1, 0x0f, 0xbe, 0x21, 0x02, 0x33, 0x3f, 0x03, 0xa3, 0xd3, 0xbe, 0xee, 0xd4, 0xbe, 0xbd, 0x3f, 0xc7, 0x58, 0x3f, 0x0b, 0x46, 0x8a, 0xbf, 0x34, 0x7e, 0x28, 0x3d, 0x1f, 0x7f, 0x0b, 0x3e, 0x9c, 0x24, 0xd7, 0x3d, 0xcd, 0xc0, 0x03, 0xbe, 0x3d, 0x3f, 0x23, 0xbe, 0x02, 0xa6, 0x34, 0x3f, 0x4e, 0xac, 0x42, 0x3e, 0x64, 0x9a, 0x9b, 0xbe, 0x96, 0x51, 0xbc, 0xbf, 0xc7, 0x8c, 0x78, 0xbb, 0x61, 0x3e, 0x2c, 0x3f, 0xaa, 0xb6, 0x43, 0xbd, 0x41, 0x4c, 0xe7, 0xbd, 0xc8, 0x90, 0xc0, 0xbf, 0xa0, 0xd9, 0xa0, 0xbc, 0x50, 0xbc, 0xd0, 0xbe, 0x07, 0xef, 0x07, 0xbe, 0xbd, 0x42, 0x7e, 0xbf, 0x7c, 0x40, 0x19, 0x3f, 0x20, 0x41, 0x35, 0xbd, 0x39, 0x56, 0x26, 0xc0, 0x85, 0xa6, 0x93, 0xbe, 0x21, 0x23, 0xd6, 0x3e, 0x0f, 0x3c, 0xb5, 0xbe, 0x7f, 0xcd, 0xbb, 0x3d, 0xac, 0xea, 0xa8, 0xbd, 0x41, 0xcf, 0xc0, 0x3c, 0x5e, 0xd8, 0xb1, 0x3c, 0x33, 0x55, 0x7b, 0xb9, 0x84, 0x63, 0xbe, 0xbd, 0xf1, 0xcb, 0x92, 0xbd, 0xa4, 0xeb, 0x2d, 0xbe, 0xb2, 0xa0, 0x4e, 0xc0, 0xba, 0x8c, 0x90, 0x3e, 0xea, 0x5a, 0x94, 0xbd, 0x50, 0x1a, 0xf3, 0x3d, 0x06, 0x69, 0x93, 0xbd, 0xed, 0x8c, 0x41, 0xbe, 0x6a, 0xb5, 0x7d, 0xbf, 0x30, 0x1c, 0xbe, 0x3b, 0xdc, 0x8b, 0xca, 0xbe, 0x38, 0x74, 0xab, 0xbe, 0x73, 0xcf, 0x45, 0x3f, 0xa4, 0xa3, 0xba, 0x3d, 0xc8, 0xa7, 0x7e, 0xbe, 0x2b, 0x04, 0xd2, 0xbe, 0xc0, 0x16, 0x4e, 0xbe, 0x08, 0x67, 0x34, 0x3f, 0x54, 0x27, 0xb2, 0x3d, 0x14, 0xf4, 0x84, 0xbe, 0x9e, 0x07, 0xf7, 0xbc, 0x41, 0x73, 0xa7, 0xbd, 0x80, 0xfe, 0x21, 0x39, 0x3d, 0xde, 0xd9, 0xbd, 0x3c, 0x24, 0x05, 0xbe, 0x60, 0x09, 0x25, 0xbd, 0xc6, 0xfb, 0xbc, 0xbd, 0xaa, 0x8a, 0xed, 0xbd, 0x02, 0x15, 0x67, 0xbd, 0x50, 0x64, 0x86, 0xbc, 0x2b, 0xc9, 0xc8, 0xbd, 0xce, 0x9f, 0x83, 0x3d, 0x62, 0x08, 0x08, 0xbe, 0xee, 0x04, 0xfa, 0xbd, 0xb0, 0xa2, 0xea, 0xbd, 0x97, 0xc3, 0x44, 0xbd, 0x13, 0x9f, 0x78, 0x3d, 0xb7, 0xa1, 0x02, 0x3e, 0xcb, 0xd7, 0x5a, 0x3e, 0xe4, 0x5d, 0x21, 0xbe, 0x41, 0x23, 0xf6, 0xbe, 0x5c, 0xb9, 0x5a, 0xbe, 0x93, 0xd1, 0x9a, 0x3d, 0x30, 0x0f, 0x73, 0xbc, 0x03, 0x20, 0x64, 0x3d, 0x0c, 0x01, 0x22, 0x3f, 0x17, 0x4d, 0x5c, 0x3e, 0xc9, 0x66, 0x9e, 0xbe, 0x58, 0x99, 0xb5, 0xbf, 0x9f, 0x40, 0xe0, 0x3d, 0x22, 0x91, 0x05, 0xbe, 0xd4, 0x0e, 0x5f, 0x3d, 0xe3, 0x80, 0x9f, 0xbd, 0xe4, 0xbb, 0xb1, 0xbd, 0x01, 0x25, 0x1b, 0xbe, 0xde, 0xd6, 0x90, 0xbe, 0xdb, 0xa3, 0xb5, 0xbe, 0xa3, 0xc0, 0x84, 0x3f, 0x86, 0xbe, 0x2e, 0x3e, 0x8c, 0xf4, 0x37, 0xbe, 0x76, 0xa2, 0x64, 0xbe, 0x49, 0xf8, 0x89, 0xbd, 0x17, 0x7a, 0x23, 0xc0, 0x7d, 0x54, 0x00, 0x3e, 0xf1, 0xe5, 0x8e, 0x3e, 0x38, 0x09, 0x85, 0x3d, 0x6d, 0xd3, 0xfb, 0xbd, 0x60, 0x81, 0x0d, 0xbd, 0x21, 0x9b, 0xb2, 0xbd, 0x49, 0xff, 0xf4, 0x3c, 0xde, 0x6f, 0x58, 0x3e, 0x60, 0x53, 0x2c, 0x3e, 0x69, 0xf4, 0x82, 0xbd, 0x93, 0xde, 0x49, 0xbf, 0xf5, 0x0c, 0xc7, 0xbd, 0xab, 0xff, 0xc2, 0xbe, 0x4f, 0xc5, 0x49, 0x3d, 0xef, 0x0f, 0x86, 0x3e, 0xb2, 0xfa, 0x92, 0x3e, 0x7a, 0x7d, 0x17, 0xbf, 0x9e, 0x44, 0x90, 0xbd, 0x6d, 0x44, 0x38, 0x3d, 0x6f, 0x1c, 0xdd, 0xbd, 0xce, 0x3c, 0x2e, 0xbe, 0xe5, 0x2b, 0x7b, 0xbc, 0xfc, 0x28, 0x84, 0xbe, 0xe9, 0x68, 0x2b, 0xbe, 0xc8, 0x37, 0x83, 0x3e, 0x78, 0x68, 0x3e, 0x3d, 0x26, 0xcc, 0x15, 0xbf, 0x3c, 0x0a, 0x96, 0xbd, 0x92, 0x4f, 0xe7, 0xbc, 0x47, 0x43, 0xb6, 0xbe, 0x56, 0x70, 0x73, 0xbd, 0xbb, 0xfb, 0xb1, 0xbd, 0x44, 0x7a, 0x05, 0xbe, 0x24, 0x23, 0xb9, 0x3c, 0xa0, 0x99, 0x78, 0x3d, 0x97, 0x6b, 0x9e, 0xbd, 0xce, 0xa0, 0xe8, 0xbe, 0x5e, 0xfb, 0x6d, 0xbe, 0xb0, 0x3a, 0x87, 0xbe, 0xa0, 0x80, 0x80, 0x3f, 0xd4, 0x98, 0xa3, 0x3d, 0xb2, 0x75, 0xb4, 0xbd, 0x5e, 0x8c, 0x36, 0x3e, 0xf8, 0x03, 0x17, 0xbe, 0x8c, 0xad, 0xe4, 0xbf, 0x76, 0x9b, 0x8d, 0xbe, 0x80, 0xb8, 0xa9, 0x3e, 0x37, 0x2d, 0x0b, 0xbe, 0x7e, 0xfe, 0xa0, 0xbb, 0x1a, 0x39, 0x81, 0xbd, 0xdc, 0xf7, 0xe8, 0xbd, 0x73, 0xa2, 0xab, 0xbc, 0xb8, 0x46, 0x92, 0xbe, 0x4d, 0x99, 0x23, 0xbc, 0x60, 0xac, 0xb5, 0xbd, 0xea, 0x84, 0x61, 0xbf, 0x59, 0x6f, 0xe1, 0xbe, 0x45, 0x71, 0xb6, 0xbc, 0xe2, 0xfc, 0x46, 0x3d, 0xb5, 0x5c, 0x9f, 0xbe, 0xd7, 0xd5, 0x1f, 0x3e, 0x56, 0xfc, 0x01, 0x3e, 0xce, 0x80, 0x0c, 0xbe, 0x45, 0xe7, 0x9a, 0xbf, 0xe0, 0x29, 0x00, 0x3f, 0xc7, 0xf7, 0xff, 0x3e, 0xb1, 0x36, 0x24, 0x3d, 0xd8, 0x69, 0x7c, 0x3e, 0x7f, 0xbb, 0x0e, 0xbf, 0x5a, 0xe0, 0x06, 0x3e, 0xf2, 0xa3, 0x70, 0x3e, 0xf5, 0xf4, 0xaa, 0x3d, 0x70, 0xc8, 0x5c, 0x3c, 0xe0, 0xd1, 0xc9, 0xbb, 0xca, 0x42, 0x9c, 0xbd, 0x92, 0xf4, 0x63, 0xbd, 0x08, 0x0a, 0x12, 0xbe, 0x66, 0x46, 0x8a, 0xbe, 0x3a, 0x09, 0x97, 0xbe, 0x7e, 0xdd, 0x98, 0x3f, 0x26, 0xdf, 0xf0, 0x3d, 0xc9, 0xec, 0xe9, 0xbd, 0x23, 0xb4, 0x1f, 0x3e, 0xe3, 0xad, 0x99, 0xbe, 0xcc, 0xf7, 0x5d, 0xbf, 0x5a, 0x77, 0x43, 0xbc, 0x5d, 0xe5, 0x0d, 0x3e, 0x4f, 0xf7, 0xf7, 0xbe, 0x42, 0xd4, 0xd9, 0xbe, 0xcb, 0x5b, 0xb6, 0x3e, 0x07, 0x06, 0x65, 0x3e, 0xfe, 0xb3, 0x54, 0xbf, 0x50, 0x5a, 0xad, 0xbe, 0xb8, 0x2d, 0xb5, 0x3d, 0xb9, 0xd1, 0x37, 0xbe, 0xcd, 0xb8, 0xff, 0xbe, 0x86, 0x84, 0x86, 0xbc, 0xc7, 0x9f, 0x9c, 0xbe, 0xad, 0xea, 0xe0, 0x3d, 0xc8, 0x3a, 0xd8, 0x3c, 0x77, 0xe9, 0x36, 0xbe, 0xe4, 0x75, 0xda, 0xbe, 0x6b, 0xc2, 0x52, 0xbd, 0xdc, 0x6e, 0xd7, 0xbc, 0x0f, 0xb5, 0x42, 0x3c, 0xcb, 0xf9, 0xc0, 0xbc, 0xa4, 0xd4, 0x2a, 0xbd, 0x25, 0x9e, 0x8f, 0xbf, 0xa8, 0x69, 0xe3, 0xbe, 0x41, 0x36, 0x9f, 0x3e, 0x3a, 0xfd, 0x08, 0x3f, 0x16, 0x06, 0x0b, 0x3e, 0xa4, 0x5f, 0x01, 0x3c, 0xe1, 0xf3, 0x09, 0xbf, 0xe5, 0x0b, 0xc3, 0x3e, 0xd6, 0xbd, 0xb0, 0x3e, 0x10, 0x4e, 0x34, 0xbd, 0xbf, 0x29, 0x12, 0xbe, 0x10, 0x4e, 0x6f, 0xbe, 0xa3, 0x82, 0xc9, 0xbc, 0x57, 0xcd, 0x59, 0x3d, 0x3f, 0xd8, 0x8d, 0x3d, 0x65, 0x59, 0x61, 0xbe, 0xfe, 0x7a, 0xc5, 0xbd, 0x13, 0x70, 0xb3, 0xbd, 0xc8, 0x9e, 0xd1, 0x3b, 0x73, 0x98, 0x0c, 0x3d, 0x7a, 0x4f, 0x43, 0xbe, 0x76, 0xf3, 0x4e, 0x3c, 0x08, 0x9a, 0xd8, 0xbe, 0xc7, 0x1d, 0x92, 0x3e, 0x52, 0x3a, 0x47, 0xbd, 0x82, 0x9e, 0xb5, 0xbe, 0x56, 0xdd, 0x90, 0x3d, 0x79, 0x0f, 0xa9, 0xbd, 0x93, 0x9c, 0xf1, 0xbd, 0x99, 0x79, 0x2f, 0xbd, 0xf6, 0xfe, 0x41, 0x3d, 0x02, 0xe6, 0x1e, 0xbd, 0x5e, 0x66, 0x73, 0xbd, 0xbe, 0xf6, 0x0b, 0xbe, 0x9a, 0xfc, 0x81, 0xbd, 0x42, 0xe4, 0x10, 0x3d, 0x57, 0x9b, 0xa5, 0xbc, 0x10, 0x97, 0x24, 0xbf, 0x7f, 0xc7, 0x67, 0xbe, 0x16, 0x49, 0xe1, 0x3d, 0x64, 0xad, 0x84, 0x3c, 0x48, 0x8e, 0x10, 0x3d, 0xc8, 0x86, 0x22, 0xc0, 0x84, 0x25, 0x54, 0xbe, 0x9d, 0xed, 0x22, 0x3e, 0xf9, 0x25, 0xb0, 0xbd, 0xa2, 0xe1, 0x81, 0x3c, 0x79, 0x4f, 0xc7, 0xbf, 0x2f, 0xc8, 0xe6, 0xbc, 0xed, 0xc1, 0xbc, 0x3d, 0xbc, 0x39, 0x6d, 0xbe, 0xa3, 0x3c, 0x6a, 0xbe, 0x6e, 0xec, 0xa0, 0x3f, 0xb7, 0xd2, 0xaa, 0x3d, 0xc7, 0xa9, 0xf1, 0xbe, 0x51, 0x04, 0x0c, 0x3f, 0xd4, 0x0b, 0x98, 0xbd, 0xf8, 0x4b, 0xec, 0xbc, 0x87, 0x87, 0x27, 0xbf, 0x5d, 0xb0, 0x81, 0xbf, 0x79, 0x7a, 0xfe, 0x3e, 0xe9, 0x0a, 0x28, 0xbd, 0x9f, 0x8f, 0x6c, 0xbe, 0xa7, 0x11, 0x43, 0xbf, 0x07, 0xb1, 0x46, 0x3e, 0x4e, 0xde, 0x0f, 0xbe, 0x82, 0x9a, 0x21, 0xbe, 0x58, 0x59, 0xc7, 0xbd, 0x8e, 0xa0, 0x55, 0x3d, 0x90, 0x87, 0x3d, 0x3d, 0xc8, 0xb7, 0x1e, 0xc0, 0x1f, 0xba, 0x8c, 0xbe, 0x17, 0xfc, 0x97, 0x3e, 0x49, 0x34, 0x09, 0xbf, 0x1d, 0x00, 0x01, 0x3e, 0x83, 0x86, 0xf7, 0xbe, 0x73, 0xf0, 0x1b, 0x3d, 0x65, 0xc1, 0x59, 0x3f, 0xe2, 0xb7, 0x59, 0xbb, 0xac, 0x53, 0xcf, 0xbe, 0xb5, 0x92, 0x57, 0x3f, 0xfa, 0xd7, 0xaf, 0x3b, 0x36, 0x33, 0x3d, 0xbd, 0x76, 0x3e, 0xb8, 0xbf, 0x01, 0x3e, 0x53, 0xbc, 0xef, 0xa5, 0xb5, 0xbe, 0xa3, 0x15, 0x8c, 0xbd, 0xaa, 0x4e, 0x99, 0xbe, 0xac, 0x0a, 0xa1, 0xbc, 0x31, 0x71, 0x45, 0x3d, 0x9f, 0xa7, 0x2c, 0xc0, 0x20, 0x96, 0xf7, 0xbe, 0x6e, 0x25, 0xab, 0x3e, 0xfa, 0x7b, 0x9b, 0xbf, 0x99, 0x37, 0x27, 0x3e, 0xd9, 0x1f, 0x0f, 0xbf, 0xe3, 0xf9, 0x26, 0xbd, 0xbc, 0x06, 0x2c, 0xbe, 0x1e, 0xd2, 0xd3, 0x3e, 0x4e, 0x20, 0xc5, 0xbe, 0xe6, 0x23, 0x6a, 0x3e, 0xbb, 0x73, 0x13, 0xbe, 0x26, 0xab, 0xda, 0xbf, 0x0e, 0xfa, 0x6c, 0xbe, 0x61, 0xf7, 0xc7, 0x3e, 0x1e, 0x2d, 0x1f, 0xbe, 0xf3, 0x41, 0x71, 0xbd, 0xe2, 0xff, 0xa9, 0x3e, 0x12, 0x41, 0xbb, 0x3e, 0x29, 0x50, 0x04, 0xbf, 0x9c, 0xd4, 0x93, 0xbe, 0x6e, 0x51, 0x87, 0xbe, 0x98, 0x69, 0x9f, 0x3f, 0x79, 0xcb, 0xba, 0x3d, 0x44, 0x92, 0xec, 0xbe, 0x46, 0x1a, 0x41, 0x3d, 0xd3, 0xac, 0x23, 0xbe, 0x4f, 0x9f, 0x2d, 0xbd, 0x88, 0xf5, 0xac, 0x3d, 0x84, 0xea, 0x35, 0xbe, 0xcb, 0x0d, 0x89, 0xbe, 0x08, 0xce, 0x6d, 0xbe, 0x31, 0x46, 0x91, 0x3f, 0x89, 0x25, 0x94, 0x3d, 0xc7, 0x52, 0xdb, 0xbe, 0x75, 0x48, 0xf9, 0xbf, 0x4f, 0x31, 0x0b, 0xbc, 0xce, 0x16, 0x0f, 0xbc, 0x93, 0x27, 0xbb, 0x3f, 0x4e, 0xa1, 0xa5, 0x3d, 0x9f, 0xe4, 0xe6, 0xbe, 0xaa, 0xd3, 0x2c, 0xbc, 0x80, 0x2e, 0x84, 0xbe, 0x58, 0xbd, 0x5f, 0x3e, 0x7f, 0x7d, 0x31, 0x3d, 0xbc, 0x89, 0xdc, 0xbf, 0x0d, 0xbb, 0x8d, 0xbd, 0xb4, 0x87, 0xa5, 0xbd, 0x54, 0x61, 0x27, 0xbe, 0xcf, 0xd7, 0x75, 0x3d, 0x0b, 0xee, 0x18, 0x3d, 0xd2, 0xe3, 0x51, 0xbd, 0x21, 0x00, 0x28, 0xc0, 0x5a, 0xd9, 0x30, 0xbe, 0x0c, 0x0d, 0x1f, 0x3e, 0x95, 0x44, 0xb1, 0x3e, 0x80, 0x04, 0xc1, 0x3d, 0x7d, 0xe3, 0xd4, 0xbd, 0xba, 0x26, 0x19, 0xbf, 0x7b, 0x31, 0x11, 0xbf, 0xdf, 0x1d, 0xca, 0xbe, 0xb6, 0x36, 0x6d, 0x3d, 0x65, 0x2b, 0x99, 0xbd, 0x4f, 0x40, 0x67, 0xbe, 0x17, 0x50, 0x80, 0xbc, 0x5d, 0x34, 0x7a, 0xbe, 0x99, 0x10, 0x6c, 0x3c, 0x2c, 0xad, 0xb0, 0x3d, 0x2a, 0x39, 0x15, 0xbe, 0x56, 0x07, 0xe7, 0xbe, 0x42, 0x4d, 0xf8, 0xbc, 0x7f, 0x12, 0x9e, 0xbc, 0x2b, 0x5d, 0xc3, 0xbc, 0x3f, 0x2e, 0xc2, 0x3d, 0x5b, 0x93, 0xd4, 0xbc, 0x03, 0x0f, 0xb5, 0xbe, 0xb4, 0xda, 0xb9, 0xbb, 0x55, 0x24, 0x19, 0x3f, 0x6d, 0xb3, 0xae, 0xbc, 0x9c, 0x34, 0x93, 0xbe, 0x15, 0x72, 0xf6, 0xbe, 0x42, 0xf6, 0xc0, 0xbe, 0xef, 0xb4, 0xbf, 0x3e, 0x7b, 0x01, 0x26, 0x3e, 0xc2, 0x08, 0x61, 0xbf, 0xa1, 0x4a, 0xdb, 0x3b, 0xa9, 0xb0, 0x0c, 0xbe, 0xf7, 0x07, 0xc9, 0xbd, 0x98, 0x50, 0xea, 0x3c, 0x97, 0xbd, 0x02, 0xbe, 0xe2, 0xbc, 0xfb, 0xbc, 0x84, 0xdb, 0xc6, 0xbd, 0x33, 0x73, 0x66, 0xbe, 0xa3, 0xe3, 0x94, 0xbe, 0xc9, 0xcd, 0xd7, 0x3c, 0xb4, 0x1d, 0x55, 0x3a, 0x21, 0x12, 0x25, 0x3d, 0x81, 0xe5, 0x0b, 0xbe, 0x73, 0x57, 0x6c, 0x3e, 0x0d, 0x5e, 0x37, 0xbb, 0x1d, 0xd1, 0xa3, 0xbe, 0x57, 0xd3, 0xb0, 0xbd, 0x28, 0xe4, 0xec, 0x3e, 0x72, 0x6e, 0xc5, 0x3c, 0xe1, 0xec, 0x7a, 0xbf, 0x49, 0xc9, 0xe0, 0x3c, 0xae, 0xdb, 0xd4, 0xbc, 0xea, 0xf5, 0xc0, 0xbc, 0xff, 0x3d, 0x1d, 0x3d, 0x80, 0x02, 0xb5, 0xbe, 0x75, 0x1b, 0x34, 0x3f, 0x22, 0x8e, 0x3f, 0xbe, 0x88, 0xe2, 0x11, 0xbe, 0x9b, 0xaa, 0xd7, 0xbf, 0x06, 0x6c, 0x84, 0xbf, 0xf6, 0xf9, 0xff, 0xff, 0x10, 0x00, 0x00, 0x00, 0x06, 0x00, 0x00, 0x00, 0x14, 0x00, 0x00, 0x00, 0x34, 0x00, 0x00, 0x00, 0x02, 0x00, 0x00, 0x00, 0x00, 0x01, 0x00, 0x00, 0x05, 0x00, 0x00, 0x00, 0x1c, 0x00, 0x00, 0x00, 0x53, 0x65, 0x71, 0x75, 0x65, 0x6e, 0x74, 0x69, 0x61, 0x6c, 0x2d, 0x4e, 0x4e, 0x2f, 0x64, 0x65, 0x6e, 0x73, 0x65, 0x5f, 0x34, 0x2f, 0x4d, 0x61, 0x74, 0x4d, 0x75, 0x6c, 0x00, 0x00, 0x00, 0x00, 0x74, 0xf9, 0xff, 0xff, 0x66, 0xfa, 0xff, 0xff, 0x04, 0x00, 0x00, 0x00, 0x64, 0x00, 0x00, 0x00, 0xeb, 0x1c, 0x38, 0xbe, 0x73, 0x95, 0xd3, 0xbe, 0xfd, 0xe9, 0x54, 0x3f, 0xd3, 0x10, 0xed, 0xbe, 0xe2, 0x49, 0xbc, 0x3e, 0x0f, 0xe8, 0x36, 0xbf, 0xed, 0x0f, 0x8d, 0x3e, 0x3e, 0x8d, 0x22, 0x3e, 0xde, 0xc7, 0x2d, 0x3e, 0x3a, 0x9e, 0x1f, 0xbf, 0x57, 0xc6, 0xc5, 0x3f, 0xb5, 0x58, 0xe0, 0x3e, 0x78, 0x18, 0x18, 0xbd, 0x80, 0xf3, 0x09, 0xbe, 0xb7, 0xe9, 0x3f, 0xbf, 0x0a, 0xcd, 0xe2, 0xbc, 0xee, 0xfe, 0xa3, 0xbe, 0x2c, 0x5c, 0x07, 0xc0, 0x5f, 0xbe, 0x3a, 0xbe, 0x60, 0x57, 0x9d, 0xbc, 0xe6, 0xd1, 0xf9, 0xbc, 0xf6, 0x79, 0x02, 0x3f, 0x76, 0xce, 0x2e, 0x3e, 0x9d, 0x6c, 0xed, 0x3e, 0xe0, 0x65, 0xcf, 0x3d, 0xae, 0xfa, 0xff, 0xff, 0x10, 0x00, 0x00, 0x00, 0x05, 0x00, 0x00, 0x00, 0x14, 0x00, 0x00, 0x00, 0x34, 0x00, 0x00, 0x00, 0x02, 0x00, 0x00, 0x00, 0x05, 0x00, 0x00, 0x00, 0x05, 0x00, 0x00, 0x00, 0x1c, 0x00, 0x00, 0x00, 0x53, 0x65, 0x71, 0x75, 0x65, 0x6e, 0x74, 0x69, 0x61, 0x6c, 0x2d, 0x4e, 0x4e, 0x2f, 0x64, 0x65, 0x6e, 0x73, 0x65, 0x5f, 0x33, 0x2f, 0x4d, 0x61, 0x74, 0x4d, 0x75, 0x6c, 0x00, 0x00, 0x00, 0x00, 0x2c, 0xfa, 0xff, 0xff, 0x1e, 0xfb, 0xff, 0xff, 0x04, 0x00, 0x00, 0x00, 0x0c, 0x00, 0x00, 0x00, 0xd7, 0x3e, 0x20, 0xbe, 0xef, 0x66, 0xa5, 0x3e, 0xc0, 0xe4, 0x93, 0xbe, 0x0e, 0xfb, 0xff, 0xff, 0x10, 0x00, 0x00, 0x00, 0x04, 0x00, 0x00, 0x00, 0x10, 0x00, 0x00, 0x00, 0x48, 0x00, 0x00, 0x00, 0x01, 0x00, 0x00, 0x00, 0x03, 0x00, 0x00, 0x00, 0x35, 0x00, 0x00, 0x00, 0x53, 0x65, 0x71, 0x75, 0x65, 0x6e, 0x74, 0x69, 0x61, 0x6c, 0x2d, 0x4e, 0x4e, 0x2f, 0x64, 0x65, 0x6e, 0x73, 0x65, 0x5f, 0x35, 0x2f, 0x42, 0x69, 0x61, 0x73, 0x41, 0x64, 0x64, 0x2f, 0x52, 0x65, 0x61, 0x64, 0x56, 0x61, 0x72, 0x69, 0x61, 0x62, 0x6c, 0x65, 0x4f, 0x70, 0x2f, 0x72, 0x65, 0x73, 0x6f, 0x75, 0x72, 0x63, 0x65, 0x00, 0x00, 0x00, 0xa0, 0xfa, 0xff, 0xff, 0x92, 0xfb, 0xff, 0xff, 0x04, 0x00, 0x00, 0x00, 0x00, 0x04, 0x00, 0x00, 0x61, 0x5b, 0xdc, 0x3e, 0x42, 0x9b, 0x22, 0xbe, 0x6e, 0x43, 0x18, 0xbe, 0xa7, 0x67, 0x30, 0x3d, 0xce, 0x94, 0x05, 0xbf, 0x57, 0x67, 0x5f, 0xbd, 0x36, 0x8f, 0xd7, 0xbe, 0xb1, 0x29, 0x6f, 0x3d, 0x21, 0x86, 0xbc, 0xbd, 0x0e, 0xad, 0x1b, 0x3e, 0x44, 0x70, 0xb7, 0x3e, 0xc3, 0xb7, 0x90, 0x3d, 0x94, 0x21, 0x06, 0x3e, 0x96, 0xc1, 0xce, 0x3e, 0x7b, 0xfb, 0x01, 0xbd, 0x66, 0xe0, 0x9b, 0x3e, 0xf1, 0xc9, 0xe2, 0x3e, 0x00, 0x00, 0x00, 0x00, 0x30, 0x6a, 0x8d, 0xbe, 0x88, 0x9d, 0x4d, 0xbc, 0xd8, 0x09, 0x03, 0x3e, 0xc3, 0x4b, 0x35, 0xbe, 0x51, 0xa1, 0x2b, 0x3e, 0xac, 0x69, 0x9f, 0x3e, 0x4d, 0xea, 0xb7, 0x3e, 0x33, 0x32, 0x9e, 0xbe, 0x37, 0xb1, 0xf7, 0x3d, 0xd6, 0xf1, 0x94, 0xbe, 0x88, 0x0d, 0xf2, 0xbd, 0x43, 0x4a, 0x7a, 0xbd, 0xac, 0x14, 0x28, 0xbd, 0xe5, 0x46, 0xaa, 0xbe, 0x38, 0xf7, 0xac, 0x3e, 0x6a, 0x44, 0x8a, 0xbc, 0x4d, 0xa4, 0x01, 0x3e, 0x38, 0xaf, 0x9e, 0x3e, 0xd0, 0x60, 0xc0, 0xbe, 0x4b, 0xe7, 0xb0, 0xbe, 0x57, 0xda, 0x98, 0xbe, 0xc3, 0x2d, 0x98, 0xbe, 0x4a, 0x37, 0xaa, 0xbe, 0x21, 0x38, 0x4e, 0x3e, 0x48, 0x9e, 0x3d, 0xbe, 0xa7, 0xce, 0xd9, 0xbe, 0xb9, 0x2a, 0xaf, 0xbb, 0xb0, 0x25, 0x1c, 0x3e, 0x97, 0xcc, 0x09, 0x3f, 0x53, 0x24, 0x96, 0xbe, 0x86, 0xcf, 0x90, 0xbe, 0x66, 0x28, 0x9f, 0x3d, 0x80, 0x30, 0x8e, 0x3d, 0x00, 0x00, 0x00, 0x00, 0xf9, 0x88, 0xd4, 0xbd, 0x5f, 0xaa, 0x2a, 0xbd, 0x6f, 0xb4, 0x9a, 0x3e, 0x29, 0xe6, 0x19, 0x3e, 0x00, 0x00, 0x00, 0x00, 0xd5, 0xba, 0x93, 0xbe, 0xaa, 0xc3, 0x0f, 0x3f, 0x61, 0xf0, 0xa5, 0x3e, 0x0d, 0xa8, 0xab, 0x3e, 0x28, 0x76, 0xa3, 0x3e, 0x34, 0x7e, 0x1f, 0xbd, 0xf1, 0xdf, 0xb0, 0x3e, 0x21, 0xca, 0x87, 0x3e, 0xe7, 0x7a, 0x91, 0xbe, 0x44, 0x4b, 0xc4, 0x3e, 0x7f, 0x22, 0xf6, 0x3e, 0xd7, 0x29, 0x54, 0x3e, 0xf8, 0xf4, 0x5d, 0xbe, 0x6f, 0x22, 0xa6, 0x3e, 0xa5, 0xbf, 0x63, 0x3e, 0xcb, 0xed, 0xc2, 0x3e, 0x9a, 0xe1, 0x45, 0xbc, 0x00, 0x00, 0x00, 0x00, 0x00, 0x00, 0x00, 0x00, 0x1e, 0x41, 0x11, 0x3e, 0xca, 0xca, 0xb8, 0xbc, 0x42, 0xc5, 0x75, 0xbc, 0xba, 0x5f, 0xe0, 0x3e, 0x76, 0x5e, 0x21, 0xbc, 0x4f, 0x8a, 0xdd, 0x3e, 0x00, 0x00, 0x00, 0x00, 0x66, 0xf8, 0xa9, 0xbe, 0xed, 0x63, 0xa8, 0xbd, 0x85, 0x68, 0x66, 0x3e, 0xde, 0x15, 0x2f, 0x3e, 0xf7, 0x76, 0xe3, 0xba, 0x13, 0xff, 0xf3, 0xbc, 0xc6, 0xda, 0x77, 0x3e, 0xbd, 0xd8, 0x05, 0xbe, 0xe8, 0x6b, 0x31, 0xbe, 0xe1, 0x53, 0x05, 0x3d, 0x03, 0x2a, 0xb5, 0x3e, 0x1b, 0x10, 0xf5, 0x3d, 0x89, 0xf2, 0xb4, 0x3e, 0xb0, 0x86, 0xe5, 0xbd, 0x76, 0xd9, 0xf2, 0x3e, 0x70, 0x82, 0x87, 0x3e, 0x62, 0xc0, 0xa1, 0x3e, 0x09, 0xff, 0x76, 0xbe, 0x13, 0xcc, 0xfe, 0x3e, 0x19, 0xa8, 0xb9, 0xbd, 0x4c, 0x36, 0xb3, 0x3e, 0x98, 0x21, 0xc9, 0x3e, 0x03, 0xa4, 0x3c, 0x3e, 0x65, 0xe7, 0x7b, 0x3e, 0xa4, 0x9f, 0x92, 0xbe, 0xa8, 0x05, 0xe7, 0x3d, 0x03, 0xff, 0xb3, 0x3e, 0x97, 0x6d, 0x94, 0xbc, 0x72, 0x57, 0x29, 0x3e, 0x78, 0x3a, 0x2d, 0xbd, 0x77, 0x05, 0x07, 0xbe, 0xa5, 0xa1, 0xca, 0xbd, 0x67, 0xba, 0xb2, 0xbd, 0xde, 0x02, 0xb8, 0x3d, 0xa6, 0xdc, 0xbc, 0xbd, 0x88, 0xaa, 0xd0, 0xbe, 0x1e, 0xd4, 0xb0, 0xbe, 0x45, 0xa3, 0x27, 0x3d, 0x18, 0x8a, 0x10, 0x3f, 0x53, 0xa3, 0xd6, 0x3d, 0xa8, 0x2f, 0x87, 0x3e, 0x8d, 0xdc, 0x8c, 0x3e, 0x84, 0x94, 0x9c, 0x3e, 0x19, 0xe7, 0x6b, 0x3e, 0x00, 0x00, 0x00, 0x00, 0x44, 0xb6, 0x13, 0x3e, 0x95, 0x9b, 0x1b, 0xbe, 0xcb, 0xdb, 0x81, 0x3e, 0x00, 0x00, 0x00, 0x00, 0x64, 0xa1, 0xc0, 0xbe, 0xa0, 0x63, 0x18, 0xbe, 0xb8, 0xf6, 0x82, 0x3e, 0xe9, 0xa6, 0xaa, 0x3e, 0x76, 0x80, 0x30, 0xbd, 0x25, 0xcb, 0xa8, 0xbe, 0xb9, 0xca, 0xe2, 0x3c, 0x41, 0x97, 0xa6, 0x3e, 0x83, 0xdd, 0x69, 0xbe, 0x68, 0xe1, 0xe3, 0xbc, 0x56, 0x4b, 0xf2, 0x3e, 0xb4, 0x58, 0x31, 0x3a, 0xf6, 0x4d, 0xb1, 0xbe, 0xba, 0x23, 0xf6, 0x3d, 0xbb, 0xda, 0x0f, 0x3e, 0x69, 0xfb, 0xaa, 0x3e, 0x00, 0x00, 0x00, 0x00, 0xef, 0x82, 0xdf, 0xbd, 0xe7, 0x1c, 0x86, 0x3e, 0x83, 0x20, 0x25, 0x3e, 0xc7, 0xae, 0x33, 0xbc, 0x34, 0x7f, 0xe7, 0x3e, 0x4f, 0x95, 0x19, 0xbe, 0x8b, 0x3f, 0x72, 0x3e, 0x00, 0x00, 0x00, 0x00, 0xc0, 0x07, 0xce, 0x3e, 0x6b, 0x46, 0x9c, 0x3e, 0x8b, 0x3a, 0xb0, 0x3e, 0x1c, 0x06, 0xc0, 0x3d, 0x03, 0x02, 0x3c, 0x3e, 0x4e, 0xfb, 0x95, 0x3e, 0x94, 0x58, 0x7d, 0xbe, 0x49, 0x57, 0x17, 0xbe, 0xd9, 0x27, 0x4b, 0xbc, 0x4e, 0xa8, 0x44, 0x3d, 0x5e, 0x9b, 0x96, 0xbe, 0xf4, 0x51, 0xb1, 0x3d, 0xf2, 0xff, 0xb3, 0x3e, 0xc8, 0x55, 0x84, 0x3e, 0xdb, 0x74, 0x5c, 0xbe, 0x50, 0x5d, 0xea, 0x3b, 0x00, 0x00, 0x00, 0x00, 0x5f, 0x58, 0x71, 0xbd, 0x6f, 0x23, 0x84, 0x3e, 0xb9, 0xb4, 0xff, 0x3e, 0x10, 0xe0, 0x63, 0x3e, 0x55, 0xd8, 0x16, 0x3e, 0x4b, 0x5b, 0xd7, 0xbe, 0x48, 0x8f, 0x0e, 0xbe, 0xc3, 0x18, 0xa9, 0x3e, 0x1f, 0x26, 0xa4, 0x3e, 0x84, 0xfc, 0xa9, 0x3e, 0x40, 0xcf, 0x8d, 0x3e, 0x44, 0xb8, 0x85, 0xbd, 0x00, 0x00, 0x00, 0x00, 0xbd, 0x46, 0xf0, 0xbc, 0x9c, 0x5c, 0x43, 0xbe, 0x3d, 0x1a, 0xa0, 0xbe, 0xcc, 0x52, 0xc7, 0x3e, 0x00, 0x00, 0x00, 0x00, 0x1a, 0xc7, 0xaf, 0x3e, 0xa0, 0x11, 0xb6, 0x3e, 0xd5, 0x24, 0x19, 0xbe, 0xd1, 0xfa, 0x68, 0x3e, 0x36, 0x6d, 0xa9, 0x3d, 0x51, 0x19, 0x08, 0xbd, 0x62, 0xf0, 0x39, 0x3e, 0x33, 0x21, 0x64, 0x3c, 0x1f, 0xd6, 0x76, 0xbd, 0xc3, 0x25, 0xa5, 0x3e, 0xa5, 0xc5, 0xe4, 0x3e, 0xc8, 0x68, 0x1c, 0xbd, 0x12, 0x8f, 0x76, 0x3e, 0x29, 0x76, 0xfb, 0xbd, 0x92, 0xbe, 0x95, 0xbe, 0x82, 0x54, 0x17, 0xbe, 0x00, 0x00, 0x00, 0x00, 0x30, 0xa4, 0xac, 0x3e, 0xce, 0xd2, 0x81, 0x3e, 0xfc, 0x34, 0xba, 0x3e, 0x1f, 0xe8, 0x89, 0x3e, 0x2a, 0xd9, 0x1e, 0xbd, 0xa9, 0x14, 0x45, 0xbd, 0x48, 0x05, 0x9b, 0xbe, 0xbe, 0x75, 0xab, 0xbe, 0x55, 0xb3, 0x41, 0xbe, 0x42, 0x9e, 0x03, 0x3d, 0x66, 0x92, 0xc0, 0xbe, 0x7e, 0xd6, 0x1c, 0x3d, 0xe4, 0x57, 0xda, 0xbd, 0x36, 0x9f, 0xa8, 0x3e, 0x86, 0x9c, 0xaa, 0x3e, 0xd1, 0x27, 0x5e, 0x3e, 0x69, 0xc8, 0x9f, 0x3e, 0xe5, 0x97, 0x80, 0xbc, 0xed, 0x8a, 0x35, 0x3d, 0xa0, 0x2d, 0x10, 0xbd, 0x85, 0x13, 0x93, 0xbe, 0xef, 0x1f, 0x8a, 0x3e, 0x1e, 0x4a, 0x9c, 0x3d, 0x64, 0xec, 0xe2, 0x3d, 0xf5, 0x7f, 0x92, 0xbe, 0x5b, 0xf1, 0x0f, 0x3e, 0xbc, 0x73, 0xdd, 0x3e, 0xbf, 0xea, 0x5c, 0xbd, 0x13, 0xb1, 0xb2, 0x3e, 0xd0, 0x9f, 0x20, 0xbe, 0x26, 0x4f, 0xaa, 0x3e, 0xf3, 0x4d, 0x5a, 0x3e, 0x3b, 0x37, 0xee, 0x3d, 0xbe, 0xaa, 0x9a, 0xbd, 0x98, 0x8f, 0xa9, 0x3e, 0xd2, 0x59, 0x57, 0xb9, 0x61, 0xb8, 0xe4, 0xbc, 0x32, 0x2c, 0xff, 0xbc, 0x69, 0xde, 0x10, 0xbe, 0x54, 0x8f, 0x62, 0x3e, 0x28, 0x01, 0xb6, 0x3e, 0x6a, 0x13, 0x9a, 0xbd, 0x01, 0x2f, 0xa5, 0x3e, 0x62, 0x56, 0x2a, 0xbe, 0x86, 0x4c, 0x2a, 0x3e, 0x7b, 0xed, 0x35, 0xbe, 0x9b, 0xad, 0xa8, 0x3e, 0x76, 0xff, 0xff, 0xff, 0x10, 0x00, 0x00, 0x00, 0x03, 0x00, 0x00, 0x00, 0x10, 0x00, 0x00, 0x00, 0x4c, 0x00, 0x00, 0x00, 0x01, 0x00, 0x00, 0x00, 0x00, 0x01, 0x00, 0x00, 0x35, 0x00, 0x00, 0x00, 0x53, 0x65, 0x71, 0x75, 0x65, 0x6e, 0x74, 0x69, 0x61, 0x6c, 0x2d, 0x4e, 0x4e, 0x2f, 0x64, 0x65, 0x6e, 0x73, 0x65, 0x5f, 0x34, 0x2f, 0x42, 0x69, 0x61, 0x73, 0x41, 0x64, 0x64, 0x2f, 0x52, 0x65, 0x61, 0x64, 0x56, 0x61, 0x72, 0x69, 0x61, 0x62, 0x6c, 0x65, 0x4f, 0x70, 0x2f, 0x72, 0x65, 0x73, 0x6f, 0x75, 0x72, 0x63, 0x65, 0x00, 0x00, 0x00, 0x04, 0x00, 0x06, 0x00, 0x04, 0x00, 0x00, 0x00, 0x00, 0x00, 0x06, 0x00, 0x08, 0x00, 0x04, 0x00, 0x06, 0x00, 0x00, 0x00, 0x04, 0x00, 0x00, 0x00, 0x14, 0x00, 0x00, 0x00, 0x5d, 0x4a, 0x37, 0x3e, 0x2b, 0x5a, 0x03, 0x3f, 0x41, 0x7c, 0x30, 0x3e, 0x49, 0xa9, 0x90, 0x3d, 0xe3, 0xbd, 0x98, 0xbd, 0x00, 0x00, 0x0e, 0x00, 0x14, 0x00, 0x04, 0x00, 0x00, 0x00, 0x08, 0x00, 0x0c, 0x00, 0x10, 0x00, 0x0e, 0x00, 0x00, 0x00, 0x10, 0x00, 0x00, 0x00, 0x02, 0x00, 0x00, 0x00, 0x10, 0x00, 0x00, 0x00, 0x48, 0x00, 0x00, 0x00, 0x01, 0x00, 0x00, 0x00, 0x05, 0x00, 0x00, 0x00, 0x35, 0x00, 0x00, 0x00, 0x53, 0x65, 0x71, 0x75, 0x65, 0x6e, 0x74, 0x69, 0x61, 0x6c, 0x2d, 0x4e, 0x4e, 0x2f, 0x64, 0x65, 0x6e, 0x73, 0x65, 0x5f, 0x33, 0x2f, 0x42, 0x69, 0x61, 0x73, 0x41, 0x64, 0x64, 0x2f, 0x52, 0x65, 0x61, 0x64, 0x56, 0x61, 0x72, 0x69, 0x61, 0x62, 0x6c, 0x65, 0x4f, 0x70, 0x2f, 0x72, 0x65, 0x73, 0x6f, 0x75, 0x72, 0x63, 0x65, 0x00, 0x00, 0x00, 0xa0, 0xff, 0xff, 0xff, 0x14, 0x00, 0x18, 0x00, 0x04, 0x00, 0x00, 0x00, 0x08, 0x00, 0x0c, 0x00, 0x10, 0x00, 0x00, 0x00, 0x00, 0x00, 0x14, 0x00, 0x14, 0x00, 0x00, 0x00, 0x14, 0x00, 0x00, 0x00, 0x01, 0x00, 0x00, 0x00, 0x18, 0x00, 0x00, 0x00, 0x34, 0x00, 0x00, 0x00, 0x24, 0x00, 0x00, 0x00, 0x02, 0x00, 0x00, 0x00, 0x01, 0x00, 0x00, 0x00, 0x05, 0x00, 0x00, 0x00, 0x0d, 0x00, 0x00, 0x00, 0x64, 0x65, 0x6e, 0x73, 0x65, 0x5f, 0x33, 0x5f, 0x69, 0x6e, 0x70, 0x75, 0x74, 0x00, 0x00, 0x00, 0x02, 0x00, 0x00, 0x00, 0xff, 0xff, 0xff, 0xff, 0x05, 0x00, 0x00, 0x00, 0xfc, 0xff, 0xff, 0xff, 0x04, 0x00, 0x04, 0x00, 0x04, 0x00, 0x00, 0x00};
const int model_data_len = 11084;