
#ifdef __has_attribute
#define HAVE_ATTRIBUTE(x) __has_attribute(x)
#else
#define HAVE_ATTRIBUTE(x) 0
#endif
#if HAVE_ATTRIBUTE(aligned) || (defined(__GNUC__) && !defined(__clang__))
#define DATA_ALIGN_ATTRIBUTE __attribute__((aligned(4)))
#else
#define DATA_ALIGN_ATTRIBUTE
#endif

const unsigned char model_data[] DATA_ALIGN_ATTRIBUTE = {0x1c, 0x00, 0x00, 0x00, 0x54, 0x46, 0x4c, 0x33, 0x00, 0x00, 0x12, 0x00, 0x1c, 0x00, 0x04, 0x00, 0x08, 0x00, 0x0c, 0x00, 0x10, 0x00, 0x14, 0x00, 0x00, 0x00, 0x18, 0x00, 0x12, 0x00, 0x00, 0x00, 0x03, 0x00, 0x00, 0x00, 0x14, 0x00, 0x00, 0x00, 0x1c, 0x00, 0x00, 0x00, 0xa8, 0x00, 0x00, 0x00, 0x1c, 0x00, 0x00, 0x00, 0x50, 0x00, 0x00, 0x00, 0x02, 0x00, 0x00, 0x00, 0x58, 0x03, 0x00, 0x00, 0x6c, 0x01, 0x00, 0x00, 0x01, 0x00, 0x00, 0x00, 0xb0, 0x00, 0x00, 0x00, 0x0d, 0x00, 0x00, 0x00, 0xf8, 0x2a, 0x00, 0x00, 0xf4, 0x2a, 0x00, 0x00, 0x04, 0x2a, 0x00, 0x00, 0x8c, 0x25, 0x00, 0x00, 0x14, 0x25, 0x00, 0x00, 0x58, 0x24, 0x00, 0x00, 0x00, 0x10, 0x00, 0x00, 0xa8, 0x03, 0x00, 0x00, 0xd8, 0x2a, 0x00, 0x00, 0xd4, 0x2a, 0x00, 0x00, 0xd0, 0x2a, 0x00, 0x00, 0xcc, 0x2a, 0x00, 0x00, 0x38, 0x00, 0x00, 0x00, 0x01, 0x00, 0x00, 0x00, 0x0c, 0x00, 0x00, 0x00, 0x08, 0x00, 0x0c, 0x00, 0x04, 0x00, 0x08, 0x00, 0x08, 0x00, 0x00, 0x00, 0x08, 0x00, 0x00, 0x00, 0x0c, 0x00, 0x00, 0x00, 0x13, 0x00, 0x00, 0x00, 0x6d, 0x69, 0x6e, 0x5f, 0x72, 0x75, 0x6e, 0x74, 0x69, 0x6d, 0x65, 0x5f, 0x76, 0x65, 0x72, 0x73, 0x69, 0x6f, 0x6e, 0x00, 0x62, 0xd6, 0xff, 0xff, 0x04, 0x00, 0x00, 0x00, 0x10, 0x00, 0x00, 0x00, 0x31, 0x2e, 0x35, 0x2e, 0x30, 0x00, 0x00, 0x00, 0x00, 0x00, 0x00, 0x00, 0x00, 0x00, 0x00, 0x00, 0x0f, 0x00, 0x00, 0x00, 0x4d, 0x4c, 0x49, 0x52, 0x20, 0x43, 0x6f, 0x6e, 0x76, 0x65, 0x72, 0x74, 0x65, 0x64, 0x2e, 0x00, 0x00, 0x00, 0x0e, 0x00, 0x18, 0x00, 0x04, 0x00, 0x08, 0x00, 0x0c, 0x00, 0x10, 0x00, 0x14, 0x00, 0x0e, 0x00, 0x00, 0x00, 0x14, 0x00, 0x00, 0x00, 0x40, 0x00, 0x00, 0x00, 0x44, 0x00, 0x00, 0x00, 0x48, 0x00, 0x00, 0x00, 0x58, 0x00, 0x00, 0x00, 0x0b, 0x00, 0x00, 0x00, 0xe8, 0x29, 0x00, 0x00, 0x74, 0x29, 0x00, 0x00, 0xd8, 0x28, 0x00, 0x00, 0x6c, 0x24, 0x00, 0x00, 0x08, 0x24, 0x00, 0x00, 0x4c, 0x23, 0x00, 0x00, 0xf4, 0x0e, 0x00, 0x00, 0x70, 0x02, 0x00, 0x00, 0x94, 0x01, 0x00, 0x00, 0xf4, 0x00, 0x00, 0x00, 0x7c, 0x00, 0x00, 0x00, 0x01, 0x00, 0x00, 0x00, 0x00, 0x00, 0x00, 0x00, 0x01, 0x00, 0x00, 0x00, 0x0a, 0x00, 0x00, 0x00, 0x04, 0x00, 0x00, 0x00, 0xf8, 0x01, 0x00, 0x00, 0x3c, 0x01, 0x00, 0x00, 0xa0, 0x00, 0x00, 0x00, 0x1c, 0x00, 0x00, 0x00, 0x04, 0x00, 0x00, 0x00, 0x6d, 0x61, 0x69, 0x6e, 0x00, 0x00, 0x0e, 0x00, 0x18, 0x00, 0x08, 0x00, 0x0c, 0x00, 0x10, 0x00, 0x07, 0x00, 0x14, 0x00, 0x0e, 0x00, 0x00, 0x00, 0x00, 0x00, 0x00, 0x09, 0x01, 0x00, 0x00, 0x00, 0x1c, 0x00, 0x00, 0x00, 0x10, 0x00, 0x00, 0x00, 0x04, 0x00, 0x00, 0x00, 0x3e, 0xd7, 0xff, 0xff, 0x00, 0x00, 0x80, 0x3f, 0x01, 0x00, 0x00, 0x00, 0x0a, 0x00, 0x00, 0x00, 0x01, 0x00, 0x00, 0x00, 0x09, 0x00, 0x00, 0x00, 0x22, 0xfe, 0xff, 0xff, 0x00, 0x00, 0x00, 0x19, 0x01, 0x00, 0x00, 0x00, 0xd0, 0xd6, 0xff, 0xff, 0x14, 0x00, 0x00, 0x00, 0x0b, 0x00, 0x00, 0x00, 0x18, 0x00, 0x00, 0x00, 0x30, 0x00, 0x00, 0x00, 0x20, 0x00, 0x00, 0x00, 0x02, 0x00, 0x00, 0x00, 0x01, 0x00, 0x00, 0x00, 0x03, 0x00, 0x00, 0x00, 0x08, 0x00, 0x00, 0x00, 0x49, 0x64, 0x65, 0x6e, 0x74, 0x69, 0x74, 0x79, 0x00, 0x00, 0x00, 0x00, 0x02, 0x00, 0x00, 0x00, 0xff, 0xff, 0xff, 0xff, 0x03, 0x00, 0x00, 0x00, 0xb4, 0xd6, 0xff, 0xff, 0x76, 0xff, 0xff, 0xff, 0x00, 0x00, 0x00, 0x08, 0x18, 0x00, 0x00, 0x00, 0x0c, 0x00, 0x00, 0x00, 0x04, 0x00, 0x00, 0x00, 0xcc, 0xd6, 0xff, 0xff, 0x01, 0x00, 0x00, 0x00, 0x09, 0x00, 0x00, 0x00, 0x03, 0x00, 0x00, 0x00, 0x08, 0x00, 0x00, 0x00, 0x06, 0x00, 0x00, 0x00, 0x03, 0x00, 0x00, 0x00, 0x44, 0xd7, 0xff, 0xff, 0x14, 0x00, 0x00, 0x00, 0x0a, 0x00, 0x00, 0x00, 0x18, 0x00, 0x00, 0x00, 0x44, 0x00, 0x00, 0x00, 0x34, 0x00, 0x00, 0x00, 0x02, 0x00, 0x00, 0x00, 0x01, 0x00, 0x00, 0x00, 0x03, 0x00, 0x00, 0x00, 0x1d, 0x00, 0x00, 0x00, 0x53, 0x65, 0x71, 0x75, 0x65, 0x6e, 0x74, 0x69, 0x61, 0x6c, 0x2d, 0x4e, 0x4e, 0x2f, 0x64, 0x65, 0x6e, 0x73, 0x65, 0x5f, 0x38, 0x2f, 0x42, 0x69, 0x61, 0x73, 0x41, 0x64, 0x64, 0x00, 0x00, 0x00, 0x02, 0x00, 0x00, 0x00, 0xff, 0xff, 0xff, 0xff, 0x03, 0x00, 0x00, 0x00, 0x34, 0xd8, 0xff, 0xff, 0x00, 0x00, 0x0e, 0x00, 0x14, 0x00, 0x00, 0x00, 0x08, 0x00, 0x0c, 0x00, 0x07, 0x00, 0x10, 0x00, 0x0e, 0x00, 0x00, 0x00, 0x00, 0x00, 0x00, 0x08, 0x1c, 0x00, 0x00, 0x00, 0x10, 0x00, 0x00, 0x00, 0x04, 0x00, 0x00, 0x00, 0x46, 0xff, 0xff, 0xff, 0x00, 0x00, 0x00, 0x01, 0x01, 0x00, 0x00, 0x00, 0x08, 0x00, 0x00, 0x00, 0x03, 0x00, 0x00, 0x00, 0x07, 0x00, 0x00, 0x00, 0x05, 0x00, 0x00, 0x00, 0x02, 0x00, 0x00, 0x00, 0xe0, 0xd7, 0xff, 0xff, 0x14, 0x00, 0x00, 0x00, 0x09, 0x00, 0x00, 0x00, 0x18, 0x00, 0x00, 0x00, 0x60, 0x00, 0x00, 0x00, 0x50, 0x00, 0x00, 0x00, 0x02, 0x00, 0x00, 0x00, 0x01, 0x00, 0x00, 0x00, 0x00, 0x01, 0x00, 0x00, 0x38, 0x00, 0x00, 0x00, 0x53, 0x65, 0x71, 0x75, 0x65, 0x6e, 0x74, 0x69, 0x61, 0x6c, 0x2d, 0x4e, 0x4e, 0x2f, 0x64, 0x65, 0x6e, 0x73, 0x65, 0x5f, 0x37, 0x2f, 0x52, 0x65, 0x6c, 0x75, 0x3b, 0x53, 0x65, 0x71, 0x75, 0x65, 0x6e, 0x74, 0x69, 0x61, 0x6c, 0x2d, 0x4e, 0x4e, 0x2f, 0x64, 0x65, 0x6e, 0x73, 0x65, 0x5f, 0x37, 0x2f, 0x42, 0x69, 0x61, 0x73, 0x41, 0x64, 0x64, 0x00, 0x00, 0x00, 0x00, 0x02, 0x00, 0x00, 0x00, 0xff, 0xff, 0xff, 0xff, 0x00, 0x01, 0x00, 0x00, 0xec, 0xd8, 0xff, 0xff, 0x00, 0x00, 0x0e, 0x00, 0x16, 0x00, 0x00, 0x00, 0x08, 0x00, 0x0c, 0x00, 0x07, 0x00, 0x10, 0x00, 0x0e, 0x00, 0x00, 0x00, 0x00, 0x00, 0x00, 0x08, 0x24, 0x00, 0x00, 0x00, 0x18, 0x00, 0x00, 0x00, 0x0c, 0x00, 0x00, 0x00, 0x00, 0x00, 0x06, 0x00, 0x08, 0x00, 0x07, 0x00, 0x06, 0x00, 0x00, 0x00, 0x00, 0x00, 0x00, 0x01, 0x01, 0x00, 0x00, 0x00, 0x07, 0x00, 0x00, 0x00, 0x03, 0x00, 0x00, 0x00, 0x00, 0x00, 0x00, 0x00, 0x04, 0x00, 0x00, 0x00, 0x01, 0x00, 0x00, 0x00, 0x00, 0x00, 0x0a, 0x00, 0x0c, 0x00, 0x07, 0x00, 0x00, 0x00, 0x08, 0x00, 0x0a, 0x00, 0x00, 0x00, 0x00, 0x00, 0x00, 0x09, 0x01, 0x00, 0x00, 0x00, 0xb8, 0xd8, 0xff, 0xff, 0x14, 0x00, 0x00, 0x00, 0x08, 0x00, 0x00, 0x00, 0x18, 0x00, 0x00, 0x00, 0x60, 0x00, 0x00, 0x00, 0x50, 0x00, 0x00, 0x00, 0x02, 0x00, 0x00, 0x00, 0x01, 0x00, 0x00, 0x00, 0x05, 0x00, 0x00, 0x00, 0x38, 0x00, 0x00, 0x00, 0x53, 0x65, 0x71, 0x75, 0x65, 0x6e, 0x74, 0x69, 0x61, 0x6c, 0x2d, 0x4e, 0x4e, 0x2f, 0x64, 0x65, 0x6e, 0x73, 0x65, 0x5f, 0x36, 0x2f, 0x52, 0x65, 0x6c, 0x75, 0x3b, 0x53, 0x65, 0x71, 0x75, 0x65, 0x6e, 0x74, 0x69, 0x61, 0x6c, 0x2d, 0x4e, 0x4e, 0x2f, 0x64, 0x65, 0x6e, 0x73, 0x65, 0x5f, 0x36, 0x2f, 0x42, 0x69, 0x61, 0x73, 0x41, 0x64, 0x64, 0x00, 0x00, 0x00, 0x00, 0x02, 0x00, 0x00, 0x00, 0xff, 0xff, 0xff, 0xff, 0x05, 0x00, 0x00, 0x00, 0xcc, 0xd8, 0xff, 0xff, 0xbe, 0xd9, 0xff, 0xff, 0x04, 0x00, 0x00, 0x00, 0x00, 0x0c, 0x00, 0x00, 0xcb, 0x50, 0xda, 0xbe, 0xe3, 0xf1, 0x20, 0xc0, 0x42, 0xcb, 0xb5, 0xbd, 0x5f, 0x2a, 0xc8, 0x3e, 0xe2, 0x2b, 0xe1, 0x3d, 0x61, 0xfe, 0x27, 0xbf, 0x53, 0x58, 0xcc, 0xbe, 0x91, 0xfe, 0xcb, 0xba, 0xe8, 0xd1, 0x95, 0x3d, 0x56, 0x05, 0x76, 0xbf, 0x49, 0x8a, 0x65, 0xbd, 0xf7, 0x46, 0x3c, 0xbf, 0xa2, 0x3c, 0x30, 0xc0, 0x83, 0x79, 0x73, 0xbf, 0xe4, 0xdd, 0x44, 0x3d, 0x5e, 0xc2, 0x4a, 0xc0, 0x46, 0x6e, 0xc0, 0xbc, 0x25, 0xbd, 0xe6, 0x3c, 0x4b, 0xa3, 0x5e, 0xbf, 0x80, 0xa7, 0x01, 0xc0, 0xdc, 0x54, 0x64, 0xc0, 0x01, 0x44, 0x07, 0x3e, 0xd5, 0x5a, 0x89, 0xbd, 0xa5, 0xae, 0x03, 0xbe, 0xa2, 0xe0, 0x8a, 0xbb, 0x90, 0x40, 0x0b, 0xbe, 0xdb, 0x78, 0x58, 0x3d, 0xe4, 0xd2, 0x3a, 0xbf, 0x8f, 0xc3, 0x71, 0xbd, 0xb3, 0xcd, 0x3a, 0xc0, 0x7f, 0x01, 0xb0, 0x3e, 0xb3, 0x0e, 0x3c, 0xc0, 0xa9, 0x80, 0x6f, 0xc0, 0x07, 0x05, 0x7e, 0x3b, 0xe4, 0xbd, 0x4f, 0x3d, 0x1e, 0x71, 0x37, 0xbe, 0x08, 0x38, 0x38, 0xc0, 0x11, 0x3b, 0xce, 0x3d, 0xdf, 0x19, 0x49, 0xbd, 0x46, 0x62, 0x3b, 0xc0, 0x3e, 0xdb, 0x48, 0x3f, 0x7d, 0x1d, 0x59, 0x3c, 0x54, 0x8b, 0xdf, 0x3d, 0x74, 0x99, 0xe2, 0xbf, 0xb2, 0xdb, 0x12, 0xbf, 0xdd, 0x84, 0xb4, 0x3d, 0x4f, 0x78, 0x2b, 0xbf, 0xb3, 0x5f, 0x4e, 0xc0, 0x08, 0xf5, 0xc8, 0xbe, 0x86, 0x7a, 0xb6, 0xbd, 0x10, 0x98, 0x5c, 0xbc, 0x32, 0xc0, 0xb9, 0x3d, 0x5e, 0xe9, 0x21, 0x3c, 0xe2, 0xb6, 0x4d, 0xc0, 0xb3, 0xeb, 0xf3, 0xbd, 0x10, 0x9e, 0xb9, 0xbf, 0x1b, 0x18, 0xfa, 0xbe, 0x62, 0x2d, 0xd1, 0xbb, 0x00, 0x5f, 0x05, 0xbb, 0x54, 0x65, 0xbc, 0xbc, 0xcc, 0xa2, 0xfb, 0xbd, 0xdc, 0x62, 0x20, 0x3d, 0x2d, 0x81, 0x4a, 0x3f, 0xbd, 0xd6, 0x88, 0xbf, 0xa9, 0xc7, 0xd1, 0x3d, 0x51, 0x58, 0x1e, 0xbd, 0x3c, 0x34, 0xfb, 0x3d, 0xb9, 0x9b, 0xa9, 0xbd, 0x8d, 0x2c, 0x2d, 0xc0, 0xad, 0x2d, 0x41, 0xc0, 0xa8, 0xa3, 0x22, 0x3e, 0xd4, 0x35, 0x4c, 0x3e, 0x4a, 0xbc, 0xfa, 0x3d, 0x4c, 0xd9, 0x97, 0x3f, 0x2b, 0xf5, 0x47, 0xbd, 0x7c, 0x55, 0x86, 0xbd, 0xc1, 0x25, 0x66, 0xbe, 0xc0, 0x2e, 0xc2, 0xbb, 0x78, 0xd6, 0x03, 0xc0, 0x48, 0xc5, 0x85, 0x3b, 0xec, 0x41, 0x02, 0x3e, 0x86, 0xe8, 0xec, 0xbe, 0xb2, 0x32, 0xd7, 0xbd, 0x4f, 0x8a, 0xbd, 0xbd, 0x7b, 0x0e, 0xbe, 0xbf, 0xee, 0x45, 0x82, 0x3d, 0xdb, 0x36, 0xe3, 0x3d, 0x10, 0x66, 0x39, 0x3e, 0x06, 0xb1, 0xff, 0x3d, 0xfc, 0x4c, 0xd7, 0xbf, 0x1b, 0x55, 0xa8, 0x3d, 0x6d, 0xa5, 0x05, 0x3e, 0xad, 0xcc, 0xf7, 0xbe, 0x17, 0xec, 0xb0, 0xbd, 0x27, 0xa9, 0x42, 0xbd, 0xda, 0x62, 0x8c, 0xbc, 0x97, 0xe0, 0x9b, 0xbe, 0xdd, 0xad, 0x35, 0xc0, 0x00, 0x10, 0x7f, 0xbd, 0x37, 0x70, 0x5e, 0xbd, 0x2f, 0xe3, 0x89, 0xbf, 0x32, 0x5f, 0x10, 0x3e, 0xea, 0x55, 0x2a, 0xbe, 0x93, 0xb8, 0x8d, 0xbf, 0x1e, 0xee, 0x19, 0xbe, 0x02, 0xa1, 0xea, 0x3d, 0x59, 0x9e, 0x46, 0xbc, 0xbb, 0x0c, 0xa5, 0xbc, 0x06, 0x26, 0xa4, 0xbb, 0xbe, 0x05, 0x47, 0x3e, 0x10, 0xf6, 0x6f, 0x3e, 0xae, 0xbf, 0xaa, 0x3c, 0x53, 0x5a, 0x34, 0x3c, 0x77, 0x72, 0x32, 0xc0, 0x0f, 0xaa, 0xcc, 0x3c, 0x66, 0x5c, 0x27, 0xbf, 0xd9, 0xc6, 0xa9, 0x3e, 0x5e, 0x09, 0x4b, 0xbe, 0x5f, 0x24, 0xb8, 0xbf, 0xd0, 0xb0, 0x36, 0x3e, 0x13, 0x67, 0x0e, 0xbb, 0xb7, 0x1d, 0x54, 0xc0, 0xf3, 0xe4, 0x90, 0xbe, 0xe1, 0x02, 0xe0, 0x3c, 0xb4, 0xb1, 0xb9, 0xbd, 0x26, 0x69, 0x3d, 0xbd, 0xd1, 0xb2, 0xe4, 0xbe, 0x6b, 0x4e, 0x78, 0x3d, 0xdd, 0x0f, 0x8e, 0x3e, 0x12, 0x6b, 0x00, 0xbf, 0x7f, 0xb0, 0x56, 0x3d, 0xcf, 0xda, 0x44, 0x3d, 0x66, 0x0b, 0x0d, 0xbd, 0xdc, 0xb1, 0x5d, 0xbe, 0xdd, 0x28, 0xb1, 0x3d, 0x30, 0xf7, 0x50, 0xc0, 0x7d, 0x36, 0x20, 0xc0, 0x9d, 0xd1, 0xcf, 0xbf, 0x32, 0x40, 0x1a, 0xc0, 0xf8, 0x2a, 0xb6, 0x3d, 0x12, 0x47, 0x9c, 0x3e, 0x6e, 0x40, 0x98, 0xbb, 0x3b, 0xa1, 0x2b, 0x3d, 0xd3, 0x87, 0x3c, 0xc0, 0x8e, 0xa7, 0x3c, 0xc0, 0x6c, 0x8b, 0x40, 0x3d, 0xda, 0x63, 0xbb, 0xbd, 0x73, 0xe1, 0x3d, 0x3f, 0x07, 0xa7, 0xdc, 0xbe, 0xbe, 0xbe, 0x18, 0x3e, 0xe6, 0x92, 0xcf, 0x3d, 0x3b, 0x06, 0x0f, 0xbe, 0x58, 0x26, 0x51, 0x3e, 0x22, 0x3e, 0x06, 0xbf, 0x7b, 0x23, 0x21, 0xbc, 0xb9, 0xe8, 0x09, 0xbd, 0x2f, 0x3e, 0xa7, 0x3d, 0x04, 0xed, 0xa8, 0xbf, 0x5d, 0xe0, 0x95, 0xbf, 0x49, 0xf6, 0xf0, 0xbf, 0xf8, 0xdf, 0x4a, 0xc0, 0xe4, 0x1c, 0x02, 0x3e, 0x0f, 0xc4, 0x39, 0xc0, 0x3d, 0x77, 0x9f, 0xbd, 0xbf, 0x8f, 0x1c, 0x3c, 0x0b, 0x2a, 0xb7, 0x3f, 0xd4, 0x97, 0xd0, 0x3d, 0xfc, 0x70, 0x39, 0xbf, 0xf6, 0xc4, 0x7a, 0xbd, 0xd1, 0x5d, 0xb4, 0xbd, 0x2c, 0x04, 0x18, 0x3d, 0x1c, 0x1d, 0x14, 0x3e, 0xc9, 0x15, 0x89, 0x3e, 0x87, 0x2f, 0x8c, 0x3c, 0xc9, 0x30, 0xb7, 0x3d, 0xc7, 0x41, 0x64, 0x3d, 0x82, 0x5d, 0x8f, 0x3d, 0x37, 0x89, 0x79, 0x3d, 0x49, 0xdf, 0x87, 0xbc, 0x6f, 0x45, 0x92, 0x3e, 0x3a, 0xfe, 0x39, 0x3e, 0x2a, 0x9b, 0x3c, 0xc0, 0x54, 0x31, 0x4c, 0x3d, 0x10, 0x8b, 0x44, 0x3d, 0x75, 0x43, 0xab, 0x3e, 0x6c, 0xf6, 0x94, 0x3e, 0x65, 0x9d, 0x44, 0xc0, 0xb0, 0x86, 0x2e, 0x3e, 0x06, 0xf5, 0x37, 0xbd, 0xb6, 0x91, 0xf5, 0xbc, 0xe7, 0xc2, 0x14, 0xc0, 0xd8, 0x98, 0xeb, 0x3d, 0xae, 0x88, 0xaa, 0xbd, 0x8c, 0x3c, 0xd9, 0x3d, 0x4c, 0xe4, 0xa0, 0xbf, 0xf7, 0x04, 0xc9, 0x3d, 0x7d, 0xc9, 0xb6, 0x3c, 0xab, 0x04, 0x96, 0xbd, 0xf2, 0xde, 0x99, 0xbf, 0xac, 0x9c, 0x7a, 0x3e, 0x5e, 0x2a, 0xa4, 0xbf, 0x41, 0x25, 0x60, 0xbf, 0x68, 0xb7, 0x8b, 0xbe, 0xfc, 0xa9, 0xe8, 0x3c, 0xcb, 0xa6, 0xa2, 0x3d, 0xd2, 0x08, 0x1a, 0xbc, 0x14, 0x63, 0xb4, 0x3d, 0xef, 0x5c, 0x15, 0x3e, 0xd7, 0xc6, 0x2d, 0xc0, 0x4c, 0xef, 0xe3, 0xbc, 0x48, 0xbc, 0x98, 0xbe, 0x65, 0x5e, 0x2c, 0xc0, 0x0e, 0xb8, 0x7b, 0x3f, 0x77, 0xc4, 0x58, 0xc0, 0x68, 0xd4, 0x27, 0xbd, 0x4c, 0x91, 0xbe, 0xbb, 0xf9, 0xfb, 0x46, 0x3e, 0xa2, 0x32, 0xc9, 0xbd, 0x94, 0xfe, 0x49, 0xbf, 0xb5, 0xda, 0xa0, 0x3f, 0x8d, 0xb9, 0xcd, 0xbd, 0x11, 0x0e, 0x60, 0x3c, 0xfc, 0x7e, 0xd3, 0x3c, 0x65, 0x33, 0x5a, 0xc0, 0x06, 0x8d, 0x99, 0x3b, 0xff, 0x7c, 0x8f, 0xbe, 0x50, 0x7f, 0xe8, 0x3d, 0xca, 0xee, 0x82, 0xbd, 0x8f, 0xb6, 0x07, 0xbe, 0x06, 0x25, 0x2e, 0xc0, 0x94, 0x1a, 0xad, 0xbd, 0x9a, 0x9d, 0xd1, 0x3d, 0x6f, 0x38, 0x33, 0xc0, 0x20, 0x9e, 0x75, 0xbd, 0xbb, 0x00, 0xac, 0x3d, 0x0a, 0x13, 0x85, 0xbd, 0x31, 0x98, 0xc9, 0xbf, 0x54, 0xcd, 0xb0, 0x3e, 0x70, 0x6b, 0x67, 0xc0, 0xac, 0xa5, 0x9c, 0xbd, 0x51, 0x28, 0xc3, 0xbf, 0x92, 0xd8, 0xb0, 0xbf, 0x44, 0xd9, 0x8a, 0x3c, 0xa4, 0xf6, 0x46, 0xbd, 0x93, 0x05, 0xe4, 0xbd, 0x90, 0x2d, 0x44, 0x3c, 0x7d, 0xc6, 0xcc, 0xbd, 0x4c, 0x21, 0x7a, 0xc0, 0x1f, 0x5f, 0x9d, 0xbe, 0x45, 0x27, 0x74, 0xbe, 0x1e, 0x33, 0xd3, 0x3c, 0x70, 0x56, 0xb5, 0xbf, 0x93, 0xc4, 0x34, 0xbd, 0x60, 0xee, 0x13, 0xbe, 0x89, 0x38, 0x8e, 0x3d, 0x80, 0x7e, 0xc9, 0xbf, 0x3b, 0x90, 0xa0, 0x3f, 0x03, 0xf6, 0x75, 0x3e, 0x26, 0xa7, 0x5f, 0xbe, 0x7d, 0xb0, 0x4f, 0xbe, 0x35, 0xe9, 0x1e, 0xbc, 0x19, 0xa5, 0x5e, 0xbe, 0x0b, 0x26, 0xde, 0xbe, 0x24, 0x85, 0x0d, 0xbd, 0x1d, 0xf6, 0x8b, 0x3d, 0x5e, 0x10, 0xb5, 0x3d, 0xae, 0x6f, 0xd4, 0xbd, 0x53, 0xfc, 0x9b, 0xbe, 0x5f, 0x38, 0x94, 0x3e, 0xce, 0x21, 0x60, 0xbf, 0x0e, 0x4d, 0x21, 0xbe, 0x43, 0x67, 0x87, 0x3e, 0x13, 0xda, 0x14, 0xbd, 0xb5, 0xe6, 0x97, 0xbd, 0x1a, 0xa3, 0x18, 0x3f, 0x40, 0x04, 0x0b, 0x40, 0x28, 0x08, 0x5f, 0x3f, 0xf5, 0xa2, 0x8a, 0x3d, 0x4d, 0x26, 0xca, 0xbf, 0x58, 0xf1, 0xa7, 0x3d, 0x3b, 0xa1, 0x80, 0xbe, 0xef, 0x58, 0xc7, 0x3d, 0x38, 0xdb, 0x90, 0x3d, 0x84, 0x09, 0x19, 0x3e, 0x6d, 0x6e, 0x47, 0xc0, 0xfa, 0x19, 0x17, 0x3e, 0xb2, 0xf5, 0xfe, 0xbd, 0x2d, 0x79, 0x67, 0x3e, 0x12, 0x8b, 0x6a, 0x3d, 0x27, 0x49, 0x50, 0xbd, 0x6d, 0xa2, 0x4e, 0x3d, 0x1b, 0xc7, 0xbf, 0xbe, 0xb3, 0x0b, 0x8e, 0x3e, 0xb1, 0x56, 0x2e, 0x3d, 0xc6, 0x21, 0xc7, 0xbf, 0x31, 0x72, 0x0f, 0x3e, 0xce, 0xc5, 0xaf, 0x3e, 0xee, 0x81, 0x69, 0x3d, 0x08, 0x37, 0xaf, 0xbc, 0x0d, 0x38, 0xbc, 0x3f, 0x97, 0x0e, 0xb9, 0xbe, 0x90, 0x76, 0xeb, 0x3c, 0x96, 0x8e, 0x19, 0xbf, 0xc6, 0x5f, 0x03, 0x3e, 0xd7, 0x18, 0x99, 0x3e, 0xc8, 0x95, 0x5a, 0xbd, 0x60, 0x75, 0x94, 0x3c, 0xa0, 0x2e, 0x21, 0xbc, 0x33, 0x8d, 0xed, 0x3b, 0x7a, 0xff, 0x44, 0x3e, 0x96, 0x95, 0x51, 0xbd, 0x20, 0x79, 0x64, 0x3e, 0x46, 0x40, 0x26, 0x3e, 0xeb, 0x31, 0x10, 0xbe, 0xfa, 0x52, 0x1b, 0x3e, 0x4f, 0x70, 0x85, 0xbd, 0xae, 0xc2, 0x04, 0xbe, 0x9b, 0xdb, 0x57, 0xbb, 0x1b, 0xe9, 0xa2, 0x3e, 0x18, 0x19, 0xa5, 0x3f, 0x26, 0x22, 0xeb, 0x3d, 0x94, 0x2c, 0x55, 0x3d, 0xf2, 0xf9, 0x4e, 0xbc, 0x51, 0x3e, 0x71, 0xbd, 0x74, 0x04, 0x93, 0x3e, 0x9b, 0x34, 0x6a, 0x3e, 0xf2, 0x0b, 0x4f, 0xbe, 0x02, 0x62, 0x89, 0xbe, 0xf0, 0x53, 0x05, 0x3e, 0xc5, 0x97, 0x18, 0x3f, 0xaf, 0xd3, 0x9c, 0xbc, 0xcb, 0x4f, 0x06, 0xbd, 0xed, 0x77, 0x0b, 0xbf, 0x62, 0x2a, 0x50, 0xbd, 0xf6, 0x02, 0x15, 0x3f, 0x60, 0xca, 0x06, 0x3e, 0xce, 0xfa, 0x67, 0x3c, 0x52, 0xe2, 0x9b, 0xbe, 0x96, 0x05, 0x7b, 0xbe, 0x2a, 0xca, 0xa5, 0xbc, 0x9d, 0xd8, 0x78, 0x3f, 0x6d, 0xc9, 0xda, 0xbd, 0xbb, 0x42, 0xe6, 0x3d, 0xcd, 0x43, 0x56, 0xbe, 0xad, 0x41, 0xd5, 0xbe, 0x09, 0x2c, 0x11, 0x3d, 0x9c, 0x35, 0xa6, 0x3d, 0xf5, 0xae, 0x8d, 0x3d, 0xf6, 0xbf, 0x9c, 0xbd, 0xaa, 0x7d, 0xef, 0xbd, 0x38, 0x7b, 0x3c, 0xbd, 0xd0, 0xde, 0x8e, 0xbc, 0x5f, 0x3d, 0x45, 0xbd, 0x2f, 0x5f, 0x08, 0x3e, 0xcc, 0x64, 0x88, 0xbd, 0x06, 0xe4, 0x4c, 0xbd, 0x2a, 0x9e, 0xc1, 0x3e, 0xa0, 0xea, 0x3d, 0x3c, 0xee, 0x47, 0xf1, 0x3d, 0x50, 0x46, 0x65, 0x3f, 0x18, 0x62, 0x23, 0xbe, 0xab, 0x38, 0xa8, 0x3d, 0x00, 0x4b, 0x69, 0xbb, 0xb6, 0x00, 0x3e, 0xbd, 0x1c, 0x0e, 0xe1, 0xbf, 0xd2, 0x3c, 0x33, 0xba, 0x21, 0x1a, 0xdc, 0xbd, 0x4c, 0x65, 0x69, 0x3d, 0x81, 0xf8, 0xed, 0x3a, 0x9e, 0x08, 0x8d, 0x3d, 0x24, 0x81, 0x69, 0xbc, 0x60, 0xf4, 0x46, 0xbe, 0x45, 0x0e, 0xdf, 0xbc, 0xa0, 0x15, 0x4f, 0x3d, 0x0a, 0xcc, 0x0b, 0x3f, 0xa9, 0x0e, 0x52, 0x3d, 0x07, 0xed, 0x36, 0xbd, 0x41, 0x39, 0xc7, 0x3d, 0x51, 0xd1, 0x78, 0xbc, 0xf2, 0xcc, 0xa8, 0x3c, 0xd2, 0x41, 0x63, 0xbe, 0x02, 0xe9, 0xef, 0xbc, 0x65, 0xf5, 0x7d, 0xbf, 0x50, 0x0f, 0xc4, 0x3c, 0x8c, 0xe9, 0x07, 0x3e, 0x33, 0x40, 0x21, 0xbe, 0x43, 0xb4, 0x0b, 0x3d, 0xe4, 0x34, 0x45, 0x3d, 0xcb, 0xac, 0x6d, 0xbc, 0x56, 0x9c, 0xa3, 0xbe, 0xcb, 0x9c, 0x7c, 0xbc, 0x70, 0x26, 0x05, 0x3e, 0x01, 0x46, 0xba, 0x3e, 0xb4, 0x47, 0xcb, 0x3e, 0x09, 0x10, 0x12, 0x3e, 0xfb, 0xea, 0xb7, 0x3d, 0x58, 0xd8, 0xf8, 0x3d, 0x14, 0x5b, 0x1d, 0xbe, 0xbc, 0xb1, 0x50, 0xbd, 0x63, 0x8e, 0x65, 0x3e, 0x25, 0x52, 0xd1, 0x3d, 0x3f, 0xf2, 0xbe, 0x3b, 0x37, 0x2f, 0x85, 0xbd, 0x78, 0x36, 0x84, 0x3e, 0xf0, 0x6e, 0x2b, 0x3e, 0xc7, 0x77, 0x08, 0x3d, 0xd0, 0x22, 0xfd, 0x3b, 0x61, 0x07, 0x26, 0xbe, 0x89, 0x46, 0x94, 0x3d, 0x52, 0x00, 0x18, 0xbf, 0xe9, 0x23, 0xd4, 0xbc, 0xfd, 0x4f, 0xea, 0xbf, 0x6a, 0x5a, 0x93, 0xbc, 0x91, 0xd0, 0xa2, 0x3e, 0x64, 0xcc, 0x94, 0x3e, 0xcd, 0xde, 0xd2, 0x3f, 0x53, 0xc5, 0x8f, 0x3e, 0x9e, 0x7c, 0x00, 0xbe, 0xc0, 0x2b, 0x40, 0x3e, 0x46, 0xf2, 0x49, 0xbd, 0x3a, 0x0c, 0x70, 0xbd, 0x1d, 0xfc, 0x07, 0x3f, 0xeb, 0x5f, 0xc3, 0x3d, 0x80, 0xa6, 0x14, 0xbf, 0xec, 0x5d, 0x76, 0xbd, 0xbc, 0xf4, 0x4e, 0xc0, 0x4c, 0x65, 0xca, 0x3d, 0xf5, 0x60, 0x87, 0x3d, 0x2f, 0xc5, 0xbe, 0xbe, 0x1f, 0x2d, 0x82, 0x3f, 0x3d, 0x93, 0xe3, 0x3d, 0x93, 0xf5, 0x68, 0x3d, 0xa0, 0xba, 0x93, 0xbc, 0x49, 0x93, 0x97, 0x3c, 0x56, 0x1b, 0x19, 0xbe, 0x0b, 0xb2, 0x49, 0x3e, 0x85, 0xa4, 0x8f, 0xbe, 0x35, 0x01, 0x8b, 0x3e, 0xee, 0xce, 0x67, 0x3c, 0x5c, 0x6c, 0xd7, 0xbd, 0xa3, 0x09, 0x46, 0xbd, 0x88, 0xa4, 0x0d, 0xbf, 0x7e, 0x16, 0x8a, 0x3e, 0xbe, 0x89, 0xfe, 0x3d, 0xa4, 0x0e, 0x2f, 0xbe, 0xae, 0xfb, 0x16, 0xbd, 0x45, 0xf7, 0x2a, 0x3f, 0xa0, 0x3d, 0xfe, 0xbd, 0xdf, 0xbc, 0xa1, 0xbd, 0x00, 0x1d, 0x0f, 0x3d, 0xf0, 0x76, 0x1b, 0x40, 0x41, 0x22, 0xdc, 0x3d, 0xb5, 0x4b, 0xbb, 0xbd, 0x40, 0xfe, 0xde, 0xbd, 0x89, 0x91, 0xf1, 0x3f, 0x0d, 0x01, 0x1f, 0xbe, 0x2c, 0x7c, 0xbd, 0x3f, 0x1d, 0x27, 0xd2, 0xbe, 0xca, 0xc4, 0x84, 0xbd, 0xdf, 0xa3, 0x2d, 0x3c, 0x61, 0xf9, 0x0c, 0xbd, 0xbd, 0x9c, 0xf4, 0x3b, 0x43, 0x28, 0x36, 0x3d, 0x5f, 0xec, 0xd1, 0xbd, 0x0a, 0xa6, 0x0c, 0x3f, 0x68, 0x07, 0xd9, 0x3c, 0xae, 0x0d, 0xf2, 0xbc, 0x59, 0xf8, 0x75, 0x3e, 0x7a, 0xa6, 0x25, 0x3d, 0xb5, 0xe6, 0x8b, 0x3d, 0x29, 0x3c, 0x6c, 0xbc, 0x6a, 0x5d, 0x88, 0xbd, 0x9f, 0xde, 0x4a, 0xbb, 0x78, 0xd3, 0x11, 0xbd, 0x0e, 0x30, 0x0b, 0x3e, 0x40, 0x09, 0xb4, 0x3e, 0xc0, 0x48, 0x45, 0x3d, 0x83, 0x4e, 0x1f, 0xbf, 0x39, 0xa1, 0xc0, 0xbc, 0xfc, 0xb2, 0xb9, 0x3d, 0x50, 0x4a, 0xad, 0xbd, 0xab, 0xa4, 0x90, 0x3f, 0xdd, 0x8a, 0x55, 0x3d, 0xe7, 0x8e, 0x07, 0xbe, 0x32, 0x1a, 0x99, 0xbe, 0xb0, 0xe2, 0x0d, 0x3f, 0x6d, 0x47, 0x02, 0xbf, 0x2b, 0x3c, 0x96, 0xbe, 0xbf, 0x32, 0x66, 0x3e, 0xbd, 0x43, 0x7d, 0x3e, 0xa2, 0xdf, 0xae, 0xbd, 0x48, 0x92, 0x36, 0xbc, 0x72, 0xb8, 0xa0, 0x3f, 0x5b, 0x84, 0x2a, 0x3e, 0x52, 0x7a, 0x29, 0x3e, 0x18, 0xf0, 0x9c, 0xbd, 0x5f, 0xb6, 0xc4, 0x3f, 0x1f, 0x34, 0x10, 0x3f, 0x9a, 0x2b, 0x6b, 0x3c, 0x4f, 0x14, 0x45, 0xbd, 0x01, 0xe7, 0xfa, 0xbd, 0xd9, 0x07, 0x71, 0x3c, 0x08, 0x6c, 0x00, 0x3e, 0xe2, 0x6b, 0x91, 0xbe, 0xf1, 0xcf, 0x43, 0xbf, 0xc0, 0xb6, 0x02, 0xbd, 0xc5, 0x65, 0xc4, 0x3c, 0xe5, 0xe6, 0x81, 0x3e, 0xfe, 0x63, 0x48, 0xbe, 0x2f, 0x71, 0xe2, 0xbd, 0x62, 0x5a, 0x0c, 0xbe, 0xad, 0x75, 0xba, 0x3f, 0x97, 0x01, 0xd0, 0xbf, 0xd7, 0xfb, 0x30, 0x3e, 0x41, 0x77, 0xcf, 0xbd, 0x22, 0xc4, 0x4f, 0xbf, 0xf0, 0x04, 0x07, 0xbd, 0x38, 0x6c, 0xcc, 0x3e, 0xd9, 0x40, 0x0b, 0x3f, 0x93, 0x38, 0xb5, 0xbc, 0x9d, 0xaa, 0x44, 0xc0, 0xba, 0x30, 0x00, 0xbe, 0x91, 0x07, 0x15, 0xbd, 0xfd, 0xce, 0x09, 0x3f, 0x09, 0x00, 0x50, 0x3e, 0xdd, 0xd1, 0x3d, 0x3f, 0x68, 0x73, 0x24, 0xbe, 0x2a, 0x61, 0x05, 0xbd, 0xc5, 0x57, 0x28, 0xbc, 0x1d, 0x18, 0xa9, 0xbd, 0x79, 0x9f, 0xec, 0xbd, 0x8d, 0xf7, 0x13, 0xc0, 0x76, 0x55, 0xbd, 0xbf, 0x7a, 0x38, 0x23, 0xbf, 0x6e, 0xcf, 0xfa, 0x3f, 0x5b, 0x0b, 0xb6, 0x3d, 0x9f, 0x98, 0x0c, 0x3f, 0xc8, 0xf6, 0xee, 0x3d, 0x1d, 0x56, 0x87, 0x3d, 0x2e, 0x12, 0xf3, 0xbb, 0x78, 0x45, 0x42, 0x40, 0x25, 0x4e, 0x3b, 0x3e, 0x65, 0xe5, 0x23, 0xbf, 0x1a, 0x47, 0x76, 0x3e, 0xa7, 0xb7, 0xab, 0x3e, 0x73, 0xbe, 0xd7, 0xbc, 0xd6, 0xd7, 0x62, 0xbe, 0xdc, 0x3d, 0xd0, 0x3e, 0x05, 0xe2, 0x98, 0x3e, 0xed, 0xeb, 0x34, 0x3e, 0xcc, 0x7c, 0x07, 0x40, 0xd7, 0x42, 0x45, 0x3e, 0xe9, 0x38, 0x09, 0xbf, 0xfd, 0x15, 0xf7, 0x3d, 0xcc, 0xb9, 0xf6, 0x3d, 0xf4, 0x61, 0x1b, 0xbf, 0x6a, 0x93, 0x88, 0x3e, 0xa9, 0xd7, 0x61, 0xbf, 0x71, 0x6c, 0x30, 0x3f, 0x15, 0xdc, 0x2d, 0x3e, 0x3a, 0xee, 0x00, 0xbd, 0xe4, 0xb1, 0x75, 0xbd, 0xa0, 0xd6, 0x09, 0xbc, 0x3f, 0xab, 0x23, 0xbf, 0x54, 0x8a, 0x97, 0xc1, 0xf8, 0x87, 0x90, 0x3e, 0x54, 0x3f, 0x6d, 0x3d, 0x34, 0x1d, 0xde, 0xbd, 0xb6, 0x55, 0x17, 0x3e, 0x8b, 0x0c, 0x13, 0xbe, 0xd6, 0xc7, 0x0f, 0x3e, 0x43, 0x52, 0x4c, 0xbd, 0x7f, 0xb6, 0xa9, 0xbd, 0xe6, 0xa6, 0x20, 0xbf, 0x0e, 0x29, 0x0b, 0xbf, 0x4a, 0xd4, 0xa3, 0xbf, 0x0b, 0xf8, 0xe7, 0x3d, 0x1f, 0x70, 0x98, 0xbb, 0x80, 0x9d, 0x3b, 0xbc, 0xf7, 0xaa, 0x8c, 0xbd, 0x53, 0x49, 0x9d, 0x3e, 0x2f, 0xd8, 0xa1, 0x3e, 0x93, 0x5b, 0x1e, 0xbf, 0x15, 0xba, 0xa1, 0x3f, 0x8e, 0xcc, 0x16, 0xc0, 0x33, 0xe5, 0x0e, 0xbf, 0xef, 0x00, 0xb8, 0x3c, 0xf9, 0x5c, 0xe4, 0xbd, 0x91, 0x34, 0x15, 0x3f, 0x80, 0x34, 0x86, 0x3a, 0xf6, 0xa3, 0xfc, 0x3d, 0xf6, 0xa4, 0x05, 0xbe, 0x8d, 0xf5, 0x5d, 0xbf, 0x77, 0x6a, 0x96, 0x3e, 0xd3, 0xe8, 0x63, 0x3e, 0x82, 0x0a, 0x1a, 0xbc, 0xd7, 0xf0, 0x5d, 0xbf, 0x2a, 0xea, 0x78, 0xbd, 0xdc, 0xe4, 0x18, 0x3e, 0x79, 0xe9, 0x81, 0x3f, 0x03, 0x55, 0x11, 0xbe, 0x64, 0xbe, 0xbf, 0x3c, 0xe2, 0x89, 0x00, 0x3e, 0x3b, 0x92, 0x26, 0xbf, 0xe5, 0x22, 0x2e, 0x3e, 0xc8, 0x4e, 0x87, 0xbc, 0xf7, 0xb3, 0xf5, 0xbf, 0x6d, 0x27, 0xfd, 0xbe, 0x81, 0xe6, 0x10, 0xbc, 0x95, 0xc9, 0x33, 0x3e, 0xd6, 0x13, 0xe5, 0xbc, 0xd5, 0xda, 0xa3, 0xbd, 0x62, 0xbd, 0x59, 0x3c, 0x78, 0x74, 0x9f, 0x3c, 0x1f, 0xad, 0x3d, 0xbe, 0xe6, 0xaf, 0x4e, 0xbf, 0xbb, 0x76, 0x5e, 0x3e, 0x0d, 0xef, 0xb8, 0x3c, 0x12, 0xf8, 0xfd, 0x3b, 0x79, 0xce, 0x99, 0xbe, 0x0b, 0xc9, 0xdb, 0x3f, 0x77, 0x15, 0xe5, 0xbe, 0xc6, 0xb7, 0x3a, 0xbf, 0x90, 0xf9, 0x85, 0x3d, 0xa2, 0x8f, 0x1a, 0x3d, 0x02, 0x41, 0xc2, 0x3d, 0xe3, 0x63, 0xa9, 0xc0, 0x7a, 0xa0, 0x94, 0x3e, 0x61, 0x7c, 0x7a, 0xbf, 0xe2, 0x96, 0x0e, 0x3d, 0x9e, 0x09, 0xbe, 0xbc, 0xa0, 0x91, 0x4a, 0xbf, 0x24, 0xa0, 0x0b, 0xbf, 0xc2, 0x78, 0x1d, 0x3e, 0x3b, 0x14, 0x7d, 0xbc, 0x94, 0x92, 0x8e, 0x3b, 0x52, 0xf4, 0x70, 0x3e, 0x1d, 0x15, 0x98, 0xbc, 0x94, 0x3f, 0x85, 0x3f, 0x89, 0x4e, 0xc5, 0x3d, 0x4d, 0xab, 0xad, 0x3c, 0x8c, 0x03, 0xab, 0x3e, 0xd5, 0x04, 0x13, 0x3d, 0x8c, 0x64, 0x32, 0x3d, 0x2c, 0xe7, 0x25, 0xbd, 0xef, 0xbd, 0x25, 0x3f, 0x5b, 0x82, 0xfc, 0xbe, 0x80, 0xb4, 0x42, 0x3e, 0x4a, 0x93, 0x49, 0x3e, 0xd7, 0x0a, 0xa8, 0x3e, 0xce, 0xfd, 0x38, 0x3e, 0x06, 0x13, 0xca, 0xbd, 0x48, 0x10, 0x3c, 0xbf, 0x9a, 0x55, 0xcf, 0x3e, 0x6c, 0xfa, 0x0f, 0xbc, 0x30, 0xa2, 0x96, 0x3e, 0xc2, 0x9c, 0xe1, 0x3d, 0x00, 0xf6, 0xeb, 0x3c, 0xf6, 0xeb, 0x1e, 0x3d, 0xce, 0x33, 0x36, 0xbe, 0xe4, 0xd5, 0x1e, 0xbd, 0x78, 0x73, 0x1a, 0x3e, 0xa1, 0xf3, 0x04, 0xbf, 0x2d, 0x9f, 0x78, 0x3e, 0xfc, 0x7c, 0x73, 0xbf, 0xd9, 0x81, 0xed, 0x3e, 0x0a, 0xf1, 0xef, 0xbc, 0xe7, 0xb6, 0x0e, 0x40, 0xb6, 0xe2, 0x79, 0x3d, 0xa4, 0x96, 0x12, 0x3d, 0x26, 0xf2, 0x91, 0x3e, 0xe3, 0x3e, 0xbf, 0xbe, 0xc7, 0x30, 0xa2, 0x3e, 0xf2, 0x7b, 0xc9, 0xbd, 0x72, 0x06, 0x79, 0x3e, 0x33, 0xab, 0x66, 0xbd, 0x2a, 0x60, 0x00, 0xbe, 0x34, 0xeb, 0x3d, 0xbf, 0x4a, 0x40, 0xa2, 0x3b, 0x01, 0x38, 0xd2, 0x3e, 0xbc, 0xd3, 0x27, 0xbe, 0xe5, 0xa8, 0x3b, 0x40, 0xfe, 0x4a, 0x3a, 0xbd, 0x43, 0x1a, 0x15, 0x3d, 0x82, 0x9e, 0x16, 0x3f, 0xa1, 0x6d, 0xc8, 0xbf, 0xd6, 0x2d, 0xe6, 0x3d, 0xc9, 0xa8, 0x04, 0x3d, 0xca, 0x01, 0x19, 0xbf, 0x6b, 0x4f, 0x33, 0xbf, 0xe1, 0xad, 0x1c, 0xbe, 0x54, 0x1f, 0xdc, 0x3c, 0x7e, 0x1c, 0xab, 0xbd, 0x07, 0x41, 0xb4, 0x3e, 0xd5, 0xac, 0x97, 0x3d, 0xa8, 0x57, 0x22, 0xbf, 0xec, 0x38, 0x84, 0xbf, 0xb6, 0xbf, 0x88, 0xbd, 0xcf, 0xf1, 0xab, 0x3e, 0x8e, 0x54, 0x56, 0xbf, 0x6e, 0x9b, 0xbb, 0xbe, 0x00, 0x62, 0x31, 0xbd, 0x8d, 0xb5, 0x01, 0x3e, 0x71, 0xb2, 0x25, 0x3b, 0x9a, 0x14, 0x92, 0xbd, 0x1c, 0xd5, 0x5f, 0xbd, 0x52, 0x7a, 0x2d, 0xc0, 0x52, 0x63, 0xda, 0x3d, 0x26, 0xdc, 0xe0, 0xbc, 0xed, 0xd6, 0x3e, 0x3d, 0xae, 0xd8, 0x10, 0xc0, 0xd0, 0x02, 0x0e, 0xbf, 0x25, 0xa2, 0xcb, 0xbf, 0x00, 0xf3, 0x83, 0x3e, 0x13, 0x59, 0x19, 0xbd, 0xd5, 0x59, 0xd9, 0xbc, 0x9a, 0x3a, 0xbb, 0xbe, 0x04, 0x8a, 0x1f, 0xbd, 0x81, 0x93, 0x3e, 0xbc, 0xde, 0x36, 0xc5, 0xbe, 0x32, 0xb1, 0xc3, 0xbe, 0x84, 0xe1, 0xf0, 0x3c, 0xa8, 0x2d, 0x1a, 0x3e, 0x14, 0x1f, 0x96, 0x3e, 0x14, 0x10, 0x69, 0xbf, 0x97, 0xd2, 0x06, 0x3e, 0xde, 0x7c, 0x00, 0xbf, 0x62, 0xdc, 0x14, 0xbd, 0x77, 0xe4, 0x3d, 0xbf, 0xd6, 0xdf, 0xbb, 0xbd, 0x5e, 0xd7, 0xf1, 0x3c, 0x8a, 0x3c, 0x05, 0xbf, 0xa6, 0x9b, 0x92, 0x3d, 0xc8, 0x04, 0x48, 0x3f, 0x97, 0x5a, 0x9d, 0xbd, 0x89, 0x2c, 0xaa, 0x3e, 0x8f, 0x7a, 0x96, 0x3e, 0xa2, 0x2d, 0xaa, 0xbf, 0xae, 0x2a, 0x1d, 0xbf, 0x4f, 0xba, 0xae, 0x3d, 0x35, 0xe6, 0x1f, 0xbd, 0xc1, 0x16, 0xb5, 0xbe, 0xb6, 0x18, 0xe4, 0x3e, 0xe1, 0xb4, 0x69, 0x3f, 0x6b, 0xff, 0x7c, 0x3e, 0xf5, 0x41, 0xa8, 0xbf, 0x37, 0xe5, 0x02, 0xc1, 0x41, 0x2f, 0xb3, 0xbe, 0x7f, 0x97, 0x6a, 0xbf, 0x5a, 0x7b, 0x84, 0xbf, 0x54, 0x11, 0xca, 0x3e, 0xec, 0x83, 0x32, 0xbd, 0xaf, 0x1e, 0x61, 0xbf, 0x27, 0x01, 0x92, 0x3d, 0x7e, 0xa7, 0xab, 0xbc, 0x5c, 0x0c, 0x42, 0xbd, 0x16, 0xab, 0xf2, 0xbd, 0x83, 0x30, 0x26, 0x3d, 0x0f, 0x21, 0x1b, 0x3e, 0xeb, 0x1b, 0x5a, 0x3f, 0xc0, 0x52, 0x5c, 0x3f, 0x81, 0x15, 0x37, 0x3b, 0xe0, 0xf9, 0x6f, 0xbe, 0xed, 0xca, 0x75, 0x3e, 0x05, 0x91, 0x51, 0x3e, 0x64, 0x5a, 0xb6, 0xbd, 0xc9, 0x68, 0x56, 0x3d, 0xba, 0xf7, 0x60, 0xbf, 0xa2, 0xe5, 0xff, 0xff, 0x10, 0x00, 0x00, 0x00, 0x07, 0x00, 0x00, 0x00, 0x14, 0x00, 0x00, 0x00, 0x34, 0x00, 0x00, 0x00, 0x02, 0x00, 0x00, 0x00, 0x03, 0x00, 0x00, 0x00, 0x00, 0x01, 0x00, 0x00, 0x1c, 0x00, 0x00, 0x00, 0x53, 0x65, 0x71, 0x75, 0x65, 0x6e, 0x74, 0x69, 0x61, 0x6c, 0x2d, 0x4e, 0x4e, 0x2f, 0x64, 0x65, 0x6e, 0x73, 0x65, 0x5f, 0x38, 0x2f, 0x4d, 0x61, 0x74, 0x4d, 0x75, 0x6c, 0x00, 0x00, 0x00, 0x00, 0x20, 0xe5, 0xff, 0xff, 0x12, 0xe6, 0xff, 0xff, 0x04, 0x00, 0x00, 0x00, 0x00, 0x14, 0x00, 0x00, 0x66, 0xe0, 0x74, 0x3d, 0x9b, 0x39, 0xdd, 0xbf, 0x98, 0x75, 0x49, 0x3e, 0xb9, 0x57, 0x24, 0xbe, 0xab, 0xa1, 0x15, 0xbe, 0x50, 0x0a, 0x25, 0x3e, 0x79, 0xbc, 0x8f, 0x3e, 0xc9, 0x1d, 0x3a, 0xbf, 0xd0, 0x1d, 0xa6, 0xbe, 0x08, 0xce, 0x2d, 0xbf, 0xe8, 0xa6, 0x3e, 0x3e, 0x52, 0xf0, 0x37, 0xbb, 0x7c, 0x3e, 0x25, 0xbf, 0xf2, 0xf0, 0x25, 0xbe, 0x8b, 0x59, 0x5f, 0x3e, 0xf0, 0x38, 0xbd, 0xbe, 0xa4, 0xad, 0x4a, 0x3e, 0x04, 0x1c, 0x0f, 0x3e, 0xdb, 0x3a, 0xa8, 0x3e, 0x12, 0x12, 0x0f, 0xbe, 0x84, 0xda, 0xa2, 0xbe, 0x12, 0x53, 0x83, 0xbc, 0x7f, 0x9b, 0xe6, 0xbe, 0x41, 0xa1, 0x45, 0xbd, 0x57, 0x25, 0x04, 0x3e, 0x0a, 0x2d, 0x9d, 0x3e, 0x99, 0x70, 0x5d, 0x3e, 0x1d, 0x39, 0xd2, 0xbe, 0x5a, 0x86, 0xd9, 0xbd, 0x99, 0x5e, 0xd2, 0xbb, 0x60, 0x6c, 0xa8, 0x3e, 0x0b, 0xe4, 0x29, 0x3e, 0xa1, 0x71, 0xa9, 0xbe, 0x55, 0xd0, 0x41, 0xbe, 0xb2, 0x4b, 0xf4, 0x3c, 0x9e, 0x21, 0x0d, 0xbd, 0x56, 0xfe, 0x5c, 0x3c, 0x32, 0xdb, 0xa0, 0x3c, 0x85, 0xb0, 0xe2, 0x3b, 0x9d, 0xa2, 0xd9, 0xbb, 0x5b, 0xd9, 0x98, 0xbd, 0x1c, 0xe2, 0xbf, 0xbd, 0x2d, 0x15, 0x2f, 0xbe, 0xc4, 0xa5, 0xbd, 0xbd, 0x7d, 0x1f, 0x8f, 0x3d, 0x29, 0xb2, 0x44, 0xbe, 0x8c, 0x28, 0xac, 0xbc, 0xe2, 0xa4, 0xa8, 0x3e, 0x49, 0xdd, 0x95, 0x3c, 0xb2, 0x59, 0x22, 0xbf, 0x02, 0xbd, 0x82, 0xbd, 0x94, 0x90, 0x83, 0xbb, 0x05, 0xa0, 0xd0, 0xbd, 0x06, 0x24, 0xb8, 0x3c, 0x20, 0xd2, 0x2b, 0xbb, 0xc1, 0x61, 0xad, 0x3e, 0xdc, 0xbf, 0x5a, 0x3e, 0x86, 0x6f, 0xf0, 0xbe, 0xd7, 0x54, 0xff, 0xbd, 0x86, 0x1d, 0xbd, 0xbc, 0x61, 0x85, 0xbd, 0x3d, 0x49, 0x25, 0xb2, 0x3e, 0xd3, 0x1a, 0x1f, 0xbf, 0x99, 0x0a, 0x69, 0xbe, 0x3d, 0x7e, 0x3d, 0xbf, 0xe7, 0x10, 0xaa, 0x3e, 0xe4, 0xe5, 0xa3, 0x3e, 0x4b, 0x47, 0xc1, 0xbe, 0x93, 0xf5, 0x0f, 0xbe, 0xe9, 0x52, 0xd4, 0xbc, 0xc1, 0xe4, 0xe3, 0xbd, 0xd8, 0x2d, 0xa2, 0x3b, 0x28, 0x68, 0x20, 0xbf, 0x30, 0x5b, 0x44, 0xbc, 0xea, 0xbe, 0x3b, 0x3e, 0x64, 0xc9, 0x43, 0x3d, 0x74, 0x8b, 0x1d, 0x3d, 0x1e, 0x59, 0x40, 0x3f, 0x71, 0x83, 0x42, 0xbe, 0x9a, 0xad, 0x57, 0xbf, 0x11, 0xa1, 0x62, 0xbc, 0xc9, 0x50, 0xe5, 0x3d, 0x95, 0xd7, 0xb2, 0xbd, 0x97, 0xd4, 0x5f, 0xbc, 0x4c, 0x12, 0x1b, 0xbd, 0xbd, 0x02, 0x05, 0xbe, 0xbc, 0x61, 0x84, 0x3d, 0xdc, 0x7a, 0x3a, 0xbd, 0x79, 0xd2, 0x29, 0xbd, 0x95, 0x62, 0x07, 0xbe, 0x44, 0x1a, 0x59, 0xbe, 0x31, 0x10, 0xa4, 0x3e, 0x54, 0x11, 0x8f, 0x3e, 0x14, 0x60, 0xc6, 0xbc, 0xf0, 0xd7, 0x24, 0xbf, 0x16, 0xa0, 0x1f, 0x3c, 0x32, 0xba, 0x16, 0xc0, 0x27, 0xe8, 0x09, 0x3f, 0x42, 0x54, 0xb3, 0xbd, 0xd8, 0x07, 0x66, 0xbe, 0x0f, 0x2f, 0xb3, 0xbe, 0x44, 0xc2, 0x62, 0x3e, 0x72, 0xd6, 0xa0, 0x3e, 0x9f, 0x70, 0x9d, 0x3e, 0xf0, 0x52, 0xd7, 0xbf, 0x9e, 0xdd, 0xd2, 0xbe, 0xec, 0x70, 0x3c, 0x3e, 0x4f, 0xc5, 0xe0, 0xbc, 0x91, 0x06, 0xb6, 0x3e, 0x0a, 0xf6, 0x7f, 0xbd, 0x7f, 0x3b, 0xc7, 0x3e, 0x61, 0xf6, 0x1a, 0x3e, 0xcb, 0x4d, 0xd3, 0xbe, 0x3d, 0x56, 0xfa, 0xbf, 0x45, 0x81, 0xbf, 0xbc, 0xea, 0x9c, 0x41, 0x3e, 0x6b, 0xfa, 0x21, 0x3e, 0x1b, 0x96, 0x98, 0xbe, 0x6d, 0xde, 0x13, 0xbe, 0x4d, 0xe8, 0xa8, 0xbd, 0x82, 0x85, 0x98, 0x3e, 0xb7, 0x65, 0x1c, 0x3e, 0x84, 0xf8, 0x91, 0xbe, 0x29, 0xe4, 0x48, 0xbe, 0xa1, 0xd5, 0xbf, 0xbc, 0x1f, 0xc2, 0x05, 0xbe, 0x7c, 0x34, 0xe6, 0xbd, 0x43, 0x84, 0x88, 0x3e, 0x16, 0xde, 0x1a, 0xbe, 0x89, 0xa9, 0x14, 0xbe, 0x65, 0xec, 0x55, 0xbd, 0xe2, 0x66, 0x56, 0xbe, 0x70, 0x64, 0xf2, 0xbc, 0x1e, 0xfe, 0x95, 0x3c, 0xf7, 0x7e, 0x84, 0x3b, 0x63, 0x1b, 0x46, 0xbd, 0xf3, 0x81, 0xc5, 0xbe, 0x4d, 0x9f, 0xdf, 0x3d, 0xd0, 0xe6, 0x96, 0xbe, 0x3d, 0xf3, 0x3a, 0xbf, 0x41, 0xa4, 0xe0, 0x3e, 0xb9, 0x2f, 0x92, 0x3e, 0xfb, 0xed, 0x14, 0xbf, 0xe1, 0x54, 0x4c, 0xc0, 0xaf, 0x39, 0xeb, 0xbd, 0xf1, 0x02, 0xea, 0x3e, 0xd9, 0x54, 0x6a, 0x3e, 0x4c, 0xa3, 0x68, 0xbf, 0xa8, 0x14, 0x09, 0xbf, 0xad, 0xf4, 0x27, 0xbf, 0x32, 0xdc, 0xc4, 0xbe, 0xcb, 0xc8, 0x39, 0x3e, 0x38, 0x15, 0x77, 0x3e, 0xa6, 0xaa, 0xb3, 0x3e, 0xad, 0xee, 0x33, 0xbe, 0x2c, 0x77, 0x7b, 0x3e, 0xb8, 0x19, 0x89, 0x3e, 0x35, 0xa6, 0x69, 0xbf, 0x30, 0x28, 0x9c, 0xbe, 0x4f, 0x4b, 0x1d, 0xbf, 0xf3, 0x1e, 0x9a, 0x3e, 0x10, 0x35, 0x90, 0x3e, 0xfa, 0x5c, 0x87, 0xbf, 0x3b, 0x14, 0x99, 0xbe, 0x39, 0x90, 0x23, 0xbf, 0x75, 0x63, 0x9b, 0xbc, 0x9f, 0x1e, 0xa5, 0x3c, 0x27, 0xf8, 0x71, 0xbd, 0xfe, 0x68, 0x2f, 0xbe, 0x5c, 0x13, 0x32, 0xbd, 0xde, 0xf7, 0xac, 0x3c, 0xc6, 0xfc, 0x30, 0xbe, 0x6c, 0x9d, 0x49, 0xbd, 0xf2, 0x1d, 0xe8, 0xbd, 0xda, 0x24, 0x04, 0x3d, 0xce, 0xdd, 0xa1, 0x3e, 0x14, 0x2d, 0x15, 0x3e, 0xbc, 0x4e, 0xc1, 0xbe, 0x59, 0x7f, 0x57, 0xbe, 0xbe, 0xae, 0x1f, 0x3e, 0xff, 0xa6, 0xd2, 0x3e, 0x90, 0x89, 0x90, 0x3e, 0x24, 0x84, 0x6e, 0xbf, 0x3a, 0xa7, 0xf2, 0xbe, 0xd5, 0x45, 0x36, 0xbf, 0xdc, 0x83, 0x21, 0x3e, 0x31, 0xc3, 0xfa, 0x3d, 0x48, 0x13, 0xd6, 0xbe, 0x93, 0x53, 0x86, 0xbe, 0x72, 0xfd, 0x41, 0xbd, 0xcd, 0xf1, 0xdd, 0x3e, 0xbe, 0x68, 0x2e, 0x3e, 0xc2, 0x75, 0xc6, 0xbe, 0x3c, 0xbb, 0x46, 0xc0, 0x1a, 0xc0, 0xd3, 0xbc, 0xce, 0x5c, 0xf8, 0x3e, 0x2f, 0x7f, 0x52, 0x3e, 0xa6, 0xc2, 0x61, 0xbf, 0x06, 0x50, 0x11, 0xbf, 0xf8, 0x93, 0x24, 0xbf, 0xe8, 0x8c, 0x9d, 0xbd, 0x1f, 0x6f, 0xff, 0xbe, 0x21, 0xd8, 0x57, 0x3e, 0x34, 0xdf, 0xd3, 0xbd, 0x43, 0x19, 0x96, 0xbf, 0x1b, 0x46, 0x00, 0x3d, 0x1f, 0x93, 0xad, 0x3d, 0xdd, 0x31, 0x29, 0xbe, 0xc8, 0x88, 0x33, 0xbe, 0xb9, 0xb8, 0xd0, 0xbd, 0x6d, 0xfd, 0xd0, 0xbd, 0xc6, 0xe9, 0x50, 0xbd, 0xb6, 0x7e, 0x02, 0xbe, 0xe0, 0x46, 0xa6, 0xbb, 0xf1, 0x40, 0x9d, 0xbd, 0xb1, 0x6c, 0x88, 0xbe, 0x0f, 0x55, 0xb3, 0x3e, 0x57, 0x6f, 0xd0, 0xbd, 0xf3, 0xf1, 0x61, 0xbe, 0x99, 0x1c, 0x2f, 0xbf, 0xd1, 0x51, 0xaf, 0x3e, 0x63, 0xcf, 0x55, 0x3e, 0x9f, 0xdc, 0x00, 0xbf, 0x9b, 0x1d, 0x23, 0xbe, 0xe7, 0x68, 0x8c, 0x3d, 0x38, 0x73, 0xca, 0xbe, 0xc0, 0x0e, 0x99, 0x3e, 0x88, 0x3a, 0x21, 0x3e, 0x29, 0x4e, 0xc3, 0x3e, 0xbe, 0xb8, 0x2e, 0xbe, 0xd6, 0xca, 0x9c, 0x3e, 0xde, 0x90, 0x4c, 0x3e, 0x26, 0xfc, 0xd5, 0xbe, 0xf9, 0x19, 0x02, 0xbe, 0x30, 0x70, 0x2e, 0x3d, 0x3d, 0x9b, 0xca, 0x3e, 0x6d, 0x8a, 0xb5, 0x3e, 0x63, 0xe4, 0x81, 0xbf, 0xc6, 0x07, 0xe5, 0xbe, 0x92, 0xfc, 0x52, 0xbf, 0x0f, 0x73, 0x2c, 0xbe, 0x31, 0x8f, 0xd4, 0xbd, 0x08, 0x43, 0xf8, 0x3e, 0x5c, 0xe8, 0xa4, 0xbd, 0x19, 0x84, 0x05, 0xbf, 0xf6, 0x31, 0x72, 0x3d, 0x1d, 0x06, 0x86, 0x3d, 0x34, 0xda, 0x9b, 0x3c, 0x60, 0x8f, 0x1e, 0xbd, 0xa9, 0x09, 0xfa, 0xbc, 0xc1, 0x70, 0xb8, 0xbd, 0xea, 0x06, 0x39, 0xbd, 0x2c, 0x77, 0xc3, 0xbd, 0xb6, 0x15, 0x01, 0xbe, 0x90, 0x6f, 0x8a, 0xbc, 0x7f, 0x5b, 0xb3, 0xbe, 0x76, 0x3f, 0x42, 0x3e, 0xf7, 0xb8, 0x87, 0x3d, 0x75, 0xbd, 0x9e, 0x3e, 0xf1, 0xdc, 0xa3, 0xbd, 0x09, 0x6d, 0x86, 0xbd, 0x90, 0x3c, 0x16, 0xbe, 0xd8, 0x58, 0x86, 0xbc, 0xbf, 0xc4, 0x10, 0xbe, 0x1b, 0x93, 0x81, 0x3d, 0x15, 0xb2, 0x0c, 0x3f, 0x72, 0x18, 0x8c, 0x3e, 0x19, 0x8e, 0x84, 0xbf, 0xe7, 0xdd, 0xfc, 0xbe, 0x32, 0xf5, 0x30, 0xbf, 0x04, 0x0e, 0xc6, 0xbd, 0xd0, 0x9e, 0xe9, 0xbc, 0x6a, 0x69, 0x4f, 0xbd, 0x36, 0xba, 0x00, 0xbe, 0x18, 0x57, 0xb1, 0xbc, 0xb7, 0x44, 0x23, 0xbe, 0x5b, 0x2c, 0x93, 0x3d, 0xea, 0x78, 0xc4, 0x3e, 0xdb, 0x7e, 0x87, 0xbc, 0x10, 0xb7, 0x10, 0xbf, 0x0f, 0xb0, 0x44, 0xbe, 0xea, 0xd8, 0xda, 0x3d, 0x3f, 0xba, 0x96, 0x3d, 0xc7, 0xb9, 0xf4, 0x3c, 0x61, 0xd2, 0xd4, 0xbe, 0x3f, 0x4a, 0x8e, 0x3d, 0xeb, 0xe6, 0xa5, 0xbd, 0x70, 0x54, 0x81, 0xbd, 0xd8, 0x4e, 0x0c, 0xbd, 0xba, 0x1b, 0x10, 0x3b, 0xbd, 0xfb, 0xa1, 0xbd, 0xd2, 0x1d, 0x99, 0xbd, 0x60, 0x79, 0x02, 0xbc, 0x68, 0xa8, 0xbd, 0xbc, 0xf0, 0xa3, 0x14, 0xbd, 0x8a, 0x35, 0xbe, 0xbb, 0xbe, 0xc1, 0x20, 0xbe, 0xe6, 0x65, 0x02, 0x3e, 0x2a, 0xe6, 0x95, 0x3b, 0x96, 0xfd, 0x8c, 0xbd, 0x25, 0x76, 0x0c, 0xbe, 0x02, 0x44, 0xf8, 0xbc, 0x14, 0x05, 0xbe, 0x3c, 0x36, 0x60, 0x1e, 0xbd, 0x70, 0xe5, 0x15, 0xbc, 0x78, 0xdc, 0x2f, 0xbf, 0x33, 0x83, 0xe4, 0xbd, 0x71, 0x87, 0x3c, 0xbe, 0x73, 0x6f, 0x14, 0xbd, 0xf5, 0xaf, 0xaa, 0x3d, 0x72, 0x95, 0x80, 0xbc, 0x7a, 0xc0, 0x73, 0xbf, 0x2a, 0x4e, 0x49, 0x3f, 0x9a, 0xdd, 0x61, 0x3d, 0x8e, 0x12, 0xea, 0xbf, 0x70, 0x77, 0xae, 0xbe, 0x92, 0xe8, 0xc5, 0x3e, 0xf1, 0x43, 0x16, 0x3e, 0x95, 0x45, 0xe5, 0x3c, 0x0f, 0x7f, 0x45, 0xbf, 0x57, 0x02, 0x04, 0x3d, 0xea, 0x2a, 0x8c, 0x3d, 0xc8, 0xc4, 0x4b, 0xbd, 0x4a, 0xe7, 0x85, 0xbd, 0x02, 0xcb, 0x64, 0xbd, 0xc7, 0xb6, 0x86, 0x3d, 0x0d, 0x56, 0x8a, 0x3d, 0x66, 0x9d, 0x92, 0xbe, 0x26, 0x54, 0xc1, 0xbd, 0x3f, 0x44, 0x17, 0x3d, 0xa7, 0xba, 0x15, 0x3d, 0x02, 0xc6, 0x7a, 0xbd, 0xa7, 0x02, 0x70, 0x3c, 0x7d, 0x3b, 0xa0, 0xbc, 0x5d, 0xf0, 0x81, 0xbc, 0x02, 0x59, 0x18, 0x3d, 0x59, 0xfc, 0xad, 0xbd, 0x71, 0x19, 0x89, 0xbe, 0xec, 0xb8, 0x16, 0xbe, 0x22, 0x45, 0xac, 0x3d, 0x68, 0x23, 0xe8, 0x3e, 0x71, 0x25, 0x78, 0x3e, 0x35, 0x6a, 0x59, 0xbf, 0x18, 0x7f, 0x0d, 0xbf, 0x0b, 0xb1, 0x32, 0xbf, 0x9d, 0xdc, 0xcf, 0x3e, 0xd4, 0x2a, 0x8b, 0x3e, 0x74, 0xf3, 0x83, 0xbf, 0xd5, 0xc3, 0xe5, 0xbe, 0x8c, 0xff, 0x2f, 0xbf, 0xba, 0x1e, 0xb0, 0xbe, 0x54, 0xc7, 0x14, 0x3e, 0x2e, 0x9b, 0x26, 0xbe, 0xd7, 0xa9, 0x8b, 0x3e, 0xfe, 0x0f, 0x3e, 0x3c, 0xc6, 0x48, 0xac, 0xbf, 0x0c, 0xb0, 0x32, 0x3e, 0xe3, 0x81, 0x79, 0xbe, 0x95, 0xdd, 0x30, 0xbd, 0xf5, 0xcd, 0xbc, 0x3c, 0x9f, 0xd7, 0xf2, 0xbc, 0x94, 0x9c, 0x44, 0xbe, 0x81, 0x7e, 0x22, 0xbd, 0x47, 0x39, 0x10, 0xbe, 0x65, 0x2b, 0xf0, 0x3c, 0x16, 0x28, 0x2e, 0x3d, 0x7b, 0x35, 0x93, 0xbf, 0xb6, 0x42, 0x0e, 0x3f, 0x68, 0x9e, 0xc4, 0x3d, 0xa1, 0x63, 0xfc, 0xbf, 0x81, 0x6d, 0x03, 0xbe, 0xd0, 0xbf, 0x8a, 0x3d, 0xbe, 0xd9, 0x0e, 0x3d, 0x86, 0xbd, 0xb5, 0x3d, 0x75, 0xcc, 0x03, 0xbe, 0x57, 0x41, 0x39, 0xbd, 0x51, 0xf4, 0x3a, 0xbe, 0x1b, 0x41, 0x40, 0x3d, 0xc6, 0xbf, 0x16, 0xbd, 0x74, 0x0e, 0xa3, 0xbd, 0x15, 0xf6, 0x99, 0x3e, 0xd1, 0x31, 0x15, 0x3e, 0xec, 0x14, 0x9b, 0xbe, 0xbd, 0xe2, 0x45, 0xbe, 0x45, 0x55, 0x51, 0x3d, 0x3e, 0xc5, 0xb6, 0xbd, 0xfc, 0x32, 0x4f, 0xbd, 0xba, 0x02, 0xea, 0xbd, 0x1f, 0x6d, 0xf7, 0xbd, 0x33, 0x32, 0x80, 0xbd, 0x69, 0x16, 0xff, 0xbd, 0xb7, 0xe5, 0x9b, 0x3e, 0x3a, 0x9f, 0x12, 0xbf, 0x81, 0xb9, 0x07, 0xbd, 0x16, 0xcc, 0x0e, 0xbf, 0x28, 0xb8, 0xd7, 0xbd, 0xbd, 0x76, 0x9b, 0xbd, 0xef, 0x70, 0x3d, 0x3c, 0x30, 0xaf, 0x02, 0xbe, 0x63, 0x8d, 0x46, 0xbd, 0xf5, 0x4c, 0xe2, 0xbe, 0x9c, 0x50, 0x90, 0x3e, 0x24, 0x79, 0xa5, 0x3d, 0x86, 0xb5, 0x01, 0x3d, 0xb1, 0xbc, 0x9b, 0xbd, 0x2b, 0xae, 0x92, 0x3e, 0x67, 0x6a, 0x37, 0x3e, 0xe8, 0xef, 0xd0, 0xbe, 0x11, 0x70, 0x26, 0xbe, 0x36, 0xd1, 0x37, 0x3d, 0xa4, 0xd8, 0x87, 0x3e, 0x53, 0x5c, 0xe3, 0x3d, 0x44, 0xcd, 0x83, 0xbe, 0x4b, 0xf6, 0x77, 0xbe, 0xd3, 0x2a, 0x1a, 0x3d, 0xe0, 0xd9, 0x2b, 0x3d, 0xfd, 0xa6, 0xb6, 0x3d, 0x9c, 0x14, 0xc6, 0xbe, 0x89, 0xe7, 0x2b, 0xbd, 0xaa, 0x97, 0xa0, 0xbd, 0x0c, 0xeb, 0x15, 0x3d, 0x7a, 0xbf, 0xb4, 0xbf, 0x82, 0x37, 0xae, 0x3e, 0x6d, 0x31, 0x00, 0xbe, 0xef, 0xee, 0x45, 0xbe, 0x43, 0xc5, 0xe3, 0x3b, 0xe2, 0xc5, 0x46, 0x3c, 0xbf, 0xba, 0x10, 0xbd, 0xf4, 0x61, 0x98, 0xbb, 0x46, 0x96, 0x04, 0xbe, 0xd1, 0x30, 0xb6, 0xbd, 0xf2, 0x6a, 0x10, 0xbd, 0x48, 0x40, 0xdb, 0xbe, 0x21, 0x07, 0x38, 0xbd, 0x3d, 0x37, 0x38, 0xbe, 0xe7, 0x32, 0x6f, 0xbf, 0x26, 0xff, 0xe5, 0xbc, 0x23, 0x6e, 0x63, 0xbe, 0x86, 0x9f, 0x5c, 0x3e, 0x2d, 0x63, 0x9d, 0x3c, 0x1d, 0x47, 0xce, 0x3d, 0xa2, 0x50, 0x9b, 0x3c, 0x12, 0xab, 0x39, 0xbf, 0xb7, 0x95, 0xdf, 0xbd, 0x28, 0x66, 0x6b, 0x3e, 0xdf, 0x32, 0x13, 0x3e, 0xe9, 0x5e, 0x1a, 0x3e, 0x68, 0x7d, 0xe7, 0xbf, 0x03, 0x7d, 0x82, 0xbe, 0xb2, 0xb2, 0x2b, 0xbe, 0xc4, 0x12, 0x04, 0xbd, 0x69, 0xd5, 0x73, 0x3c, 0x93, 0x6e, 0x12, 0xbb, 0xe6, 0x01, 0xdd, 0x3c, 0x55, 0x57, 0xa3, 0x3a, 0x7e, 0xb7, 0xa8, 0xbe, 0xe7, 0xf8, 0x8a, 0x3e, 0xef, 0x14, 0x30, 0x3d, 0xc0, 0xa4, 0x9b, 0x3e, 0x58, 0x13, 0xf4, 0xbd, 0x3a, 0x2e, 0x7f, 0x3e, 0x01, 0xdb, 0xd9, 0x3d, 0x9c, 0x2e, 0x6a, 0xbe, 0x59, 0x0b, 0x01, 0xbe, 0x84, 0x2a, 0x15, 0x3c, 0x31, 0xdb, 0xb6, 0xbd, 0x34, 0x50, 0x8a, 0xbd, 0xa5, 0xf7, 0x01, 0xbe, 0x9a, 0xef, 0x8f, 0xbd, 0x9c, 0x5d, 0x00, 0xbe, 0x60, 0x12, 0x82, 0xbd, 0xa9, 0x85, 0x27, 0xbe, 0xe9, 0x23, 0xc0, 0xbd, 0x74, 0x46, 0x90, 0xbc, 0x60, 0xc7, 0x34, 0x3d, 0xac, 0x89, 0x83, 0xbc, 0xa8, 0x43, 0x9f, 0x3c, 0x57, 0x79, 0xb0, 0xbc, 0xbf, 0x77, 0x09, 0xbe, 0x17, 0xd0, 0x43, 0x3c, 0xa9, 0xf6, 0x32, 0x3e, 0xca, 0x1d, 0x77, 0x3d, 0xa7, 0x1e, 0x01, 0xbf, 0xf6, 0x38, 0x23, 0xbe, 0x64, 0x87, 0x74, 0x3d, 0xfb, 0xfd, 0xd6, 0x3e, 0x34, 0x9b, 0x44, 0x3e, 0x35, 0xc5, 0x6a, 0xbf, 0xe5, 0xbf, 0x05, 0xbf, 0x87, 0xd2, 0x18, 0xbf, 0xcb, 0xbd, 0xf8, 0xbd, 0xa5, 0xbe, 0xe6, 0xbc, 0x8f, 0x17, 0xf2, 0xbd, 0xd2, 0xe3, 0xba, 0x3c, 0x0e, 0x87, 0x82, 0xbc, 0x58, 0xf2, 0x81, 0xbc, 0x85, 0xed, 0xb0, 0xbd, 0x27, 0x6d, 0x16, 0xbe, 0xa9, 0xd9, 0xaa, 0xbd, 0x4a, 0xaf, 0x9c, 0x3b, 0xd2, 0xf0, 0x4e, 0xbe, 0xb5, 0x63, 0xbb, 0x3d, 0x78, 0xb8, 0xb3, 0x3e, 0x97, 0x40, 0xbc, 0x3c, 0x23, 0x75, 0x07, 0xbf, 0xba, 0x95, 0x4b, 0xbd, 0x62, 0x8d, 0xec, 0xbd, 0x12, 0x22, 0x46, 0xbd, 0xb0, 0xfe, 0x03, 0xbc, 0x5a, 0xaa, 0x1d, 0xbd, 0x58, 0xe1, 0x04, 0xbe, 0x6f, 0x06, 0x7a, 0xbe, 0xd8, 0xfc, 0x02, 0x3f, 0x42, 0x30, 0x6d, 0xbe, 0x8b, 0xd5, 0xf3, 0xbe, 0x93, 0xee, 0x17, 0xbd, 0xb9, 0xde, 0x14, 0xc0, 0x91, 0x66, 0xfd, 0x3e, 0x1e, 0x9e, 0x15, 0xbd, 0xec, 0x63, 0x9a, 0xbe, 0x0a, 0x94, 0x2c, 0x3e, 0x71, 0x47, 0x05, 0x3e, 0xea, 0x2f, 0xbd, 0xbe, 0xa8, 0xfd, 0x10, 0xbf, 0xbc, 0x6b, 0x13, 0xbc, 0x27, 0x64, 0x3a, 0xbd, 0xac, 0x29, 0xc1, 0x3d, 0x04, 0x4d, 0x42, 0x3e, 0x09, 0xc6, 0x0a, 0x3c, 0x4a, 0x4f, 0xe7, 0xbd, 0x0a, 0xef, 0x3b, 0xbd, 0xf8, 0xf0, 0x65, 0xbd, 0x6a, 0x0b, 0x90, 0x3d, 0xdc, 0x83, 0x68, 0xbd, 0xe8, 0xfe, 0x0a, 0xbd, 0x35, 0xd4, 0xda, 0xbd, 0x42, 0x3d, 0xff, 0xbd, 0x76, 0x96, 0xef, 0x3d, 0x2b, 0x62, 0x11, 0xbe, 0x16, 0x90, 0x63, 0xbd, 0x49, 0x6d, 0x9c, 0x3e, 0xeb, 0x6d, 0x00, 0x3e, 0xed, 0x0b, 0xdb, 0xbe, 0xb7, 0xfc, 0x0f, 0xc0, 0x3c, 0x58, 0xf2, 0xbc, 0xf4, 0x6a, 0xa5, 0xbe, 0x3b, 0x36, 0x40, 0x3e, 0x09, 0x38, 0x29, 0x3e, 0xab, 0xf1, 0x91, 0x3e, 0xf5, 0x0b, 0xb7, 0xbd, 0xdd, 0x06, 0xbf, 0xbe, 0x21, 0x87, 0x19, 0x3e, 0x63, 0x39, 0x62, 0x3d, 0x33, 0x19, 0xc1, 0x3e, 0xcf, 0xd3, 0xe5, 0xbd, 0xb4, 0x37, 0xfd, 0x3c, 0x98, 0x2f, 0x7f, 0x3d, 0x09, 0x2b, 0x28, 0xbe, 0x93, 0x92, 0xca, 0xbd, 0xad, 0x36, 0x13, 0xbc, 0xee, 0x0f, 0x06, 0xbe, 0xb1, 0x95, 0x28, 0xbd, 0xb0, 0x97, 0x28, 0x3d, 0x35, 0xb1, 0xc4, 0xbc, 0x46, 0x18, 0x3d, 0xbd, 0x13, 0x10, 0xd8, 0x3e, 0x1a, 0x2e, 0x35, 0x3e, 0x1b, 0x0c, 0x60, 0xbf, 0x7f, 0x8d, 0x08, 0xbf, 0x37, 0x1b, 0x13, 0xbf, 0x01, 0x5d, 0x1b, 0xbf, 0xba, 0x02, 0x4e, 0x3e, 0x9f, 0x56, 0xc5, 0xbe, 0xb9, 0x90, 0x9e, 0xbd, 0xc1, 0x09, 0xa2, 0x3d, 0xce, 0x10, 0x90, 0x3e, 0x92, 0x9d, 0x50, 0x3e, 0x4f, 0xed, 0xbf, 0xbe, 0x12, 0xab, 0xc9, 0xbd, 0x46, 0xdf, 0x71, 0xbc, 0x07, 0xb1, 0xee, 0xbe, 0xb8, 0xe3, 0xa2, 0x3e, 0xbc, 0xe1, 0x4a, 0x3e, 0x84, 0x1f, 0xe0, 0x3e, 0xbe, 0x28, 0x23, 0xbe, 0xa2, 0x6f, 0x1a, 0xbe, 0x55, 0xc0, 0xd5, 0xbd, 0x36, 0x5b, 0x81, 0x3e, 0x46, 0xdd, 0x1d, 0xbe, 0x1a, 0x84, 0xd2, 0xbe, 0x29, 0x8a, 0xae, 0xbd, 0x7c, 0xce, 0x8f, 0x3e, 0xf5, 0xb5, 0xe2, 0x3d, 0x5c, 0xf2, 0x53, 0xbe, 0xec, 0xae, 0x25, 0xbf, 0x3f, 0xc4, 0xd9, 0xbe, 0x63, 0xa9, 0x83, 0x3e, 0x93, 0xa6, 0xd8, 0x3d, 0x93, 0x92, 0xc6, 0x3d, 0x46, 0x1a, 0xb4, 0xbd, 0xda, 0xda, 0xb1, 0xbe, 0xb1, 0x4d, 0xd6, 0x3d, 0xe8, 0x69, 0xf6, 0x3d, 0x0b, 0x22, 0x27, 0xbe, 0x31, 0xda, 0xdf, 0xbd, 0xba, 0xe1, 0xf1, 0x3e, 0xa4, 0x01, 0x88, 0x3e, 0x72, 0x76, 0x7c, 0xbf, 0x59, 0xc7, 0xf5, 0xbe, 0x66, 0xba, 0x2e, 0xbf, 0x28, 0x59, 0xde, 0xbd, 0xfa, 0x6c, 0x9a, 0xbd, 0xae, 0x7c, 0x25, 0x3e, 0xf1, 0x94, 0xfd, 0xbd, 0xa4, 0x25, 0x75, 0xbe, 0x99, 0xc3, 0x6d, 0xbe, 0x69, 0x5b, 0x93, 0x3d, 0x05, 0xde, 0x77, 0xbd, 0x9b, 0xee, 0x18, 0x3d, 0x55, 0x61, 0xcb, 0xbd, 0xb1, 0xf4, 0xb2, 0x3e, 0x64, 0xdd, 0x4e, 0x3e, 0x69, 0x56, 0xd1, 0xbe, 0x81, 0x49, 0x5f, 0xbd, 0x55, 0x6b, 0x17, 0x3e, 0x5c, 0xe1, 0xdd, 0x3c, 0xbd, 0x9a, 0xaf, 0x3c, 0xff, 0x07, 0x0a, 0xbe, 0x5d, 0x76, 0xc7, 0xbe, 0xd7, 0xca, 0xe4, 0x3c, 0x74, 0x75, 0xc4, 0x3e, 0x07, 0xcd, 0x98, 0x3e, 0xca, 0xd8, 0xf8, 0xbe, 0x1f, 0xb2, 0x48, 0xbe, 0x7d, 0x40, 0x24, 0x3e, 0x0a, 0xb0, 0xea, 0xbd, 0x5b, 0x97, 0x79, 0x3d, 0x81, 0x99, 0x17, 0xbe, 0x9c, 0x76, 0x01, 0x3e, 0x8c, 0x17, 0x21, 0x3c, 0xdd, 0x85, 0x81, 0xbd, 0x2f, 0x9a, 0xee, 0x3d, 0x2b, 0x74, 0xce, 0x3e, 0xd0, 0x74, 0x29, 0xbd, 0x38, 0xfd, 0x06, 0xbe, 0x6c, 0x36, 0x93, 0x3e, 0xeb, 0xf2, 0x21, 0x3e, 0x00, 0xdf, 0x93, 0xbe, 0xd4, 0x95, 0x06, 0xbe, 0x15, 0x66, 0x86, 0xbb, 0x52, 0xfe, 0xe2, 0x3d, 0xaa, 0x54, 0xd4, 0xbc, 0x14, 0xba, 0x10, 0xbf, 0x32, 0xa9, 0x1f, 0xbe, 0x64, 0xa6, 0x53, 0x3e, 0x72, 0x81, 0x0d, 0xbc, 0x89, 0xa3, 0xbd, 0x3a, 0xc4, 0x70, 0x35, 0xbe, 0x6e, 0x1d, 0x3e, 0x3b, 0xa0, 0xdc, 0x37, 0x3c, 0x6e, 0xdf, 0x33, 0xbd, 0x52, 0xb4, 0x08, 0xbd, 0x19, 0x83, 0xd1, 0x3d, 0xb9, 0x32, 0x91, 0x3d, 0xd9, 0x83, 0x26, 0xbd, 0x78, 0x6e, 0xa0, 0x3e, 0x22, 0x9f, 0x7f, 0x3e, 0x1f, 0xbd, 0xe3, 0xbe, 0x45, 0x0b, 0x58, 0xbe, 0x9b, 0x11, 0x30, 0x3e, 0x09, 0xce, 0xb5, 0xbe, 0x9b, 0xe5, 0x3c, 0x3e, 0x06, 0x55, 0x3c, 0x3b, 0x14, 0xa9, 0xa0, 0x3e, 0x0f, 0xe7, 0x99, 0xbd, 0x9b, 0x0c, 0xd6, 0x3e, 0x7a, 0x6b, 0x91, 0x3e, 0xbb, 0x69, 0x8d, 0xbf, 0x95, 0xf1, 0xd6, 0xbe, 0x68, 0xd2, 0x29, 0xbf, 0x76, 0xed, 0xfe, 0x3d, 0xba, 0x7c, 0x13, 0x3e, 0x37, 0x86, 0x4c, 0xc0, 0x58, 0xd5, 0x7f, 0xbe, 0xa6, 0x5d, 0xae, 0xbe, 0x90, 0xaf, 0xe1, 0x3c, 0x93, 0xfd, 0x79, 0x3e, 0x04, 0x71, 0xeb, 0xbf, 0xfe, 0xc8, 0xe8, 0xbd, 0xb4, 0xcb, 0x91, 0xbe, 0x90, 0x79, 0xaa, 0x3e, 0xc4, 0x06, 0x36, 0x3e, 0x4a, 0x1d, 0x88, 0xbf, 0x9f, 0x8b, 0xd9, 0xbe, 0x33, 0x54, 0xf2, 0xbe, 0x00, 0x97, 0x44, 0x3d, 0xfc, 0xe1, 0xe0, 0xbd, 0xb6, 0xd3, 0x71, 0xbd, 0x2c, 0x87, 0xd5, 0xbc, 0x3c, 0x92, 0x0c, 0x3d, 0x96, 0x23, 0xb1, 0xbe, 0x9c, 0x16, 0x65, 0x3e, 0x75, 0xd2, 0x61, 0x3e, 0xa1, 0xd5, 0x9f, 0x3e, 0x39, 0xb3, 0xf4, 0xbd, 0x00, 0x46, 0xa7, 0xbe, 0x8b, 0x78, 0x93, 0xbd, 0x06, 0x8d, 0x4a, 0xbd, 0x09, 0x47, 0x05, 0x3e, 0x77, 0x43, 0x62, 0xbd, 0x6e, 0x40, 0x89, 0xbd, 0x72, 0x20, 0x37, 0xbd, 0xe0, 0x4a, 0x5c, 0xbd, 0x0f, 0x64, 0xc5, 0x3c, 0xf5, 0x68, 0x9f, 0xbd, 0xe1, 0x56, 0xdc, 0x3e, 0xa5, 0x0b, 0x70, 0x3e, 0x81, 0x7f, 0x82, 0xbf, 0x52, 0xdf, 0xfe, 0xbe, 0xc3, 0xa8, 0x25, 0xbf, 0x48, 0x0d, 0xc1, 0x3e, 0x56, 0x09, 0xa7, 0x3e, 0x33, 0xb9, 0x50, 0xbf, 0xbb, 0x06, 0xe8, 0xbe, 0x96, 0xd4, 0x46, 0xbf, 0x3f, 0xf0, 0xa7, 0xbd, 0xae, 0x5a, 0x30, 0x3c, 0xcd, 0xe4, 0x21, 0xbe, 0x5f, 0x80, 0x14, 0x3c, 0xd6, 0xe7, 0xb3, 0xbd, 0x55, 0x4b, 0x88, 0xbd, 0xcb, 0x4f, 0x18, 0xbe, 0x66, 0x74, 0x7f, 0x3d, 0xd2, 0x57, 0x8b, 0xbc, 0x24, 0x9f, 0x45, 0xbd, 0x37, 0x09, 0x4b, 0xbd, 0x89, 0x1c, 0x0f, 0xbf, 0x7a, 0xcd, 0x87, 0x3e, 0xe2, 0x81, 0xfd, 0xbc, 0x26, 0x40, 0x94, 0xbf, 0xb6, 0x46, 0x04, 0xbe, 0xe2, 0x84, 0x24, 0xbe, 0x0d, 0x2e, 0x0c, 0x3f, 0x59, 0x52, 0x35, 0xbe, 0xc6, 0x57, 0xf1, 0xbe, 0x28, 0x1f, 0xcb, 0xbd, 0xcc, 0x7b, 0x7f, 0xbb, 0xe3, 0xa6, 0x27, 0x3c, 0x95, 0xe2, 0x0c, 0xbe, 0xaa, 0x92, 0x9b, 0xbd, 0xa7, 0xee, 0x9a, 0xbe, 0xac, 0xe4, 0x10, 0x3e, 0xc2, 0x5a, 0x04, 0x3e, 0xce, 0xf6, 0x87, 0x3e, 0xd8, 0xd6, 0xab, 0xbd, 0x54, 0x7b, 0x9c, 0xbe, 0x99, 0x81, 0x04, 0xbe, 0x42, 0xf0, 0x76, 0xbe, 0xe5, 0x3e, 0xdf, 0x3d, 0x62, 0xa1, 0x5f, 0x3d, 0x7e, 0xc8, 0xd9, 0xbe, 0x79, 0x37, 0x88, 0x3e, 0x4f, 0xe6, 0x6a, 0x3e, 0x7d, 0xcc, 0xcb, 0x3e, 0x8e, 0x52, 0x1c, 0xbe, 0xbc, 0x2f, 0xad, 0x3e, 0xc9, 0xe3, 0x58, 0x3e, 0x5a, 0x77, 0x98, 0xbe, 0x78, 0x80, 0x4a, 0xbe, 0xbb, 0x82, 0x0e, 0xbd, 0x99, 0xbf, 0xea, 0xbc, 0xc0, 0x3e, 0xdc, 0xbc, 0xe2, 0xbe, 0x16, 0xbe, 0x79, 0x36, 0x15, 0x3d, 0xdb, 0x5d, 0x31, 0xbc, 0x44, 0x2b, 0xd4, 0x3e, 0x71, 0x99, 0xfe, 0x3d, 0x8c, 0x33, 0xeb, 0xbe, 0x95, 0xca, 0x07, 0xc0, 0x08, 0xb1, 0x2f, 0xba, 0xd0, 0x8d, 0x8b, 0xbd, 0xf2, 0x77, 0x0d, 0xbe, 0x3c, 0xe3, 0xa7, 0xbd, 0x5d, 0xb2, 0xb8, 0x3c, 0xd3, 0xdb, 0x03, 0xbe, 0x33, 0xf1, 0x28, 0xbe, 0x69, 0xa3, 0x9b, 0x3d, 0xb7, 0x4e, 0xb3, 0x3e, 0xba, 0x18, 0x2c, 0x38, 0xee, 0xbf, 0x0c, 0xbf, 0x75, 0xdc, 0x10, 0xbe, 0x9b, 0xdd, 0x7c, 0x3e, 0x43, 0x01, 0x76, 0xbf, 0x09, 0xce, 0x14, 0xbd, 0x5f, 0x3b, 0xcf, 0xbe, 0x03, 0xfd, 0x73, 0xbe, 0x7f, 0xfc, 0xad, 0x3e, 0x86, 0xd1, 0x07, 0xbe, 0x4d, 0xda, 0x30, 0xbe, 0x45, 0xb3, 0x25, 0xbf, 0x67, 0x64, 0xbd, 0x3e, 0x65, 0x98, 0xb7, 0x3e, 0x6c, 0xf0, 0x74, 0xbf, 0x46, 0x23, 0xc5, 0xbe, 0x1a, 0x79, 0x4b, 0xbf, 0xc0, 0x43, 0x77, 0xbd, 0x06, 0x44, 0x7e, 0x3c, 0x9d, 0x40, 0x08, 0xbe, 0x45, 0x86, 0x97, 0xbd, 0x6f, 0xa1, 0x15, 0xbe, 0x99, 0xa8, 0xe8, 0x3e, 0xc0, 0x8b, 0x51, 0x3e, 0x10, 0xac, 0x75, 0xbf, 0xac, 0xf2, 0x07, 0xbf, 0xd2, 0x5f, 0x1b, 0xbf, 0xe7, 0xd9, 0xb0, 0x3d, 0xde, 0x05, 0x80, 0xbd, 0x24, 0x00, 0x01, 0xbf, 0xd1, 0x9f, 0x0c, 0xbe, 0x67, 0x94, 0xdf, 0x3d, 0x80, 0xe6, 0xcd, 0xbd, 0xf6, 0xad, 0xbc, 0x3c, 0xa8, 0x81, 0x06, 0xbe, 0x55, 0xb9, 0xf3, 0xbd, 0x5e, 0x2a, 0xed, 0xbd, 0x1b, 0xb6, 0xa5, 0x3d, 0x93, 0xc1, 0xa1, 0xbf, 0x62, 0xff, 0x21, 0x3f, 0x81, 0x2b, 0x54, 0x3e, 0xdf, 0x20, 0x07, 0xc0, 0x4a, 0x01, 0xe0, 0xbc, 0xa7, 0xf5, 0x0c, 0xbf, 0x6a, 0x55, 0xa4, 0x3d, 0x39, 0x82, 0xc5, 0xbd, 0x67, 0xfc, 0xdf, 0xbd, 0x69, 0x04, 0xb0, 0x3e, 0xce, 0x91, 0x7f, 0x3e, 0x36, 0xd4, 0xe9, 0xbe, 0x8f, 0x47, 0x16, 0xbe, 0x4d, 0xfb, 0x00, 0x3d, 0x8a, 0xb0, 0x8d, 0xbd, 0x64, 0x83, 0x81, 0xba, 0x67, 0xaa, 0xd6, 0x3b, 0x9e, 0xf6, 0xf2, 0xbc, 0xbe, 0x9b, 0x2c, 0x3b, 0xd8, 0x3a, 0xe4, 0x3e, 0xc2, 0xfc, 0xd7, 0x3e, 0x9c, 0xfc, 0x17, 0xbf, 0x50, 0x77, 0x55, 0xc0, 0x01, 0x99, 0xcc, 0xbe, 0x7c, 0x56, 0x65, 0xbd, 0xcc, 0x14, 0x3a, 0xbd, 0xe0, 0x0b, 0x83, 0xbc, 0x24, 0x48, 0x93, 0xbd, 0x1a, 0x9d, 0x7c, 0xbd, 0x97, 0xc8, 0x25, 0xbd, 0x80, 0x73, 0x37, 0xbd, 0x1f, 0xb6, 0x3f, 0xbe, 0x0c, 0xd5, 0xd7, 0x3c, 0x47, 0x4f, 0x5f, 0x3d, 0x4b, 0xa9, 0x58, 0xbf, 0xb1, 0x94, 0xef, 0x3d, 0xaa, 0x52, 0x7f, 0xbe, 0x3f, 0xb0, 0x0a, 0x3e, 0xd8, 0x39, 0x30, 0x38, 0x39, 0x10, 0xd3, 0x3d, 0x55, 0xaa, 0xe7, 0xbf, 0xb7, 0xa8, 0x3b, 0x3e, 0x5a, 0x5f, 0x3e, 0xbe, 0xa2, 0x86, 0x91, 0xbd, 0x42, 0x93, 0xaf, 0x3d, 0x92, 0xa9, 0xb5, 0xbd, 0xd6, 0xbe, 0x81, 0x3d, 0x1b, 0x41, 0x32, 0xbe, 0xf5, 0xb2, 0xae, 0x3b, 0x3e, 0x3a, 0x42, 0xbe, 0x50, 0x1e, 0x2f, 0xbe, 0xaf, 0xa9, 0xcb, 0xbd, 0xe8, 0xfa, 0x11, 0x3e, 0x15, 0x0e, 0x7c, 0xbd, 0xfd, 0x19, 0xa2, 0xbe, 0x2f, 0xb5, 0xe3, 0x3d, 0x9c, 0x2d, 0xd0, 0x3d, 0xa6, 0xeb, 0x8b, 0x3e, 0xf9, 0xde, 0xb8, 0xbd, 0xb0, 0xf9, 0x1c, 0xbf, 0x6c, 0x47, 0x6a, 0xbe, 0xa9, 0x62, 0x34, 0xbe, 0x24, 0xfe, 0xaf, 0x3a, 0xc5, 0x2a, 0xe5, 0x3c, 0x7a, 0x92, 0x84, 0xbe, 0x94, 0x4a, 0xb9, 0xbd, 0x91, 0x43, 0xc1, 0xbc, 0x2a, 0xba, 0x41, 0x3e, 0x87, 0x6a, 0xec, 0x3c, 0xbf, 0xea, 0xef, 0xbd, 0x54, 0x5f, 0xa1, 0xbe, 0xb6, 0x60, 0xf5, 0x3e, 0x67, 0x0e, 0x86, 0xbe, 0xb7, 0x02, 0x62, 0xbf, 0x63, 0xee, 0x89, 0x3d, 0x3c, 0x5e, 0x91, 0x3d, 0x25, 0x8b, 0x38, 0xbf, 0x1b, 0xba, 0x02, 0xbc, 0xf9, 0x92, 0x58, 0x3e, 0xf7, 0xa5, 0xbb, 0x3e, 0x05, 0x0e, 0x5b, 0x3e, 0x72, 0x3f, 0x82, 0xbf, 0x0a, 0xeb, 0xd2, 0xbe, 0x00, 0x9b, 0x0d, 0xbf, 0x57, 0xd5, 0xe4, 0xbd, 0x6a, 0x23, 0x1f, 0xbe, 0x77, 0x02, 0xb3, 0xbd, 0xcb, 0x8a, 0x59, 0xbe, 0x25, 0x4a, 0x28, 0xbd, 0xc4, 0x99, 0xbf, 0xbe, 0xcf, 0x49, 0x5a, 0x3e, 0x09, 0x14, 0xd5, 0x3d, 0x76, 0x52, 0xaa, 0x3e, 0x01, 0x96, 0xcc, 0xbd, 0xe7, 0xb7, 0xf8, 0xbe, 0x68, 0xfb, 0x92, 0x3e, 0xf0, 0xbb, 0x14, 0x3e, 0x7c, 0x3a, 0x03, 0x3f, 0x95, 0x7d, 0x23, 0xbe, 0x97, 0x44, 0x78, 0x3d, 0xb8, 0x7a, 0x48, 0x3d, 0xe0, 0xb7, 0x3c, 0xbf, 0x80, 0x8a, 0x09, 0xbd, 0xad, 0xf8, 0x67, 0x3e, 0xd3, 0x1e, 0xbc, 0x3e, 0x12, 0x7d, 0x7f, 0x3e, 0x28, 0x07, 0x7e, 0xbf, 0xa7, 0x07, 0xd2, 0xbe, 0x3b, 0x2f, 0x20, 0xbf, 0x21, 0xc3, 0xe8, 0xbe, 0xfd, 0x38, 0x81, 0x3e, 0xad, 0x8f, 0xc0, 0x3d, 0x24, 0x92, 0xe5, 0x3e, 0xcb, 0x7b, 0xfd, 0xbd, 0x69, 0xac, 0x8d, 0xbe, 0x9d, 0x98, 0xeb, 0x3d, 0xc4, 0xcc, 0xc0, 0xbd, 0x40, 0x75, 0x61, 0x3e, 0x85, 0x54, 0x04, 0xbd, 0xe0, 0xfc, 0x8b, 0xbd, 0x1a, 0x23, 0x7d, 0x3d, 0x30, 0xdc, 0x62, 0xbd, 0xb0, 0xfb, 0x1f, 0x3d, 0x32, 0x0c, 0x43, 0xbd, 0x2d, 0xb4, 0xdb, 0xbd, 0xf4, 0x58, 0xba, 0x3e, 0x52, 0x0f, 0xb1, 0xbe, 0x1c, 0x31, 0xbe, 0xbd, 0x36, 0xf5, 0x2e, 0xbf, 0x13, 0xaa, 0x3c, 0xbd, 0xa9, 0x31, 0x3d, 0xbd, 0x31, 0xb2, 0x10, 0x3d, 0x57, 0x96, 0x05, 0xbe, 0x8c, 0x0d, 0x0e, 0xbe, 0x58, 0x09, 0x55, 0x3d, 0x1d, 0xea, 0xbf, 0xbc, 0x3f, 0x06, 0xbb, 0xbe, 0x35, 0xb5, 0xd5, 0xbd, 0x1b, 0x46, 0xce, 0x3d, 0xc8, 0x44, 0xbd, 0xbc, 0xcc, 0xd8, 0x18, 0xbe, 0x5f, 0xa3, 0xf6, 0xbd, 0xf8, 0x49, 0x0b, 0xbe, 0x49, 0xba, 0x03, 0xbe, 0x23, 0xcd, 0xd6, 0xbe, 0x50, 0xc2, 0x05, 0x3f, 0xfb, 0x4c, 0x65, 0x3e, 0x87, 0x90, 0x52, 0xc0, 0xf5, 0x70, 0x21, 0xbf, 0x4c, 0x4e, 0x93, 0x3c, 0x78, 0xbf, 0x03, 0x3b, 0x01, 0x37, 0xaa, 0xbd, 0xc9, 0xf2, 0xb2, 0xbc, 0xa7, 0x53, 0x97, 0x3c, 0x37, 0x5b, 0xcb, 0xbd, 0xef, 0x94, 0x92, 0xbd, 0xd4, 0x48, 0x23, 0x3d, 0xc7, 0x91, 0x7e, 0x3d, 0xfa, 0xa4, 0xe3, 0xbc, 0x55, 0x7d, 0xe1, 0xbd, 0x59, 0x6a, 0xf6, 0x3d, 0x09, 0xe2, 0x54, 0xbc, 0x67, 0x2e, 0xc3, 0x3d, 0x3f, 0xa2, 0x62, 0xbd, 0x6d, 0x09, 0xc2, 0xbe, 0xa9, 0x86, 0xe0, 0x3e, 0x0e, 0x04, 0x76, 0x3e, 0x2a, 0x68, 0x52, 0xc0, 0x19, 0xa6, 0x0b, 0xbf, 0x02, 0x3e, 0xbd, 0xbe, 0x60, 0x9b, 0x81, 0x3d, 0x35, 0x71, 0x1b, 0xbe, 0x37, 0x84, 0xae, 0x3e, 0x76, 0xb1, 0x3b, 0x3d, 0x70, 0x3c, 0xa0, 0x3d, 0xcd, 0x5a, 0xe8, 0xbf, 0x0e, 0x70, 0xa0, 0x3e, 0xb3, 0xdb, 0x35, 0xbe, 0x3e, 0xc0, 0xf6, 0xbd, 0xc5, 0x08, 0xb6, 0x3e, 0xfb, 0xfa, 0x6c, 0x3e, 0xb6, 0x56, 0xf4, 0xbe, 0xc5, 0x47, 0x8f, 0xbd, 0x9d, 0xd0, 0x0e, 0x3d, 0x38, 0x69, 0x18, 0x3e, 0x47, 0x45, 0x01, 0x3e, 0x50, 0x9e, 0xf6, 0xbe, 0x7c, 0x60, 0xc2, 0xbd, 0x7f, 0x66, 0x96, 0x39, 0x25, 0x1b, 0x47, 0xbe, 0x26, 0x0a, 0xb6, 0x3c, 0xbf, 0xdf, 0xda, 0x3d, 0xab, 0x93, 0xac, 0xbd, 0x1c, 0xd8, 0x7e, 0xbd, 0x21, 0xfa, 0x8e, 0xbe, 0x03, 0xc2, 0x24, 0x3e, 0xc2, 0xcb, 0x00, 0x3e, 0x7a, 0x0d, 0x80, 0x3e, 0x13, 0x64, 0x02, 0xbe, 0x47, 0xb8, 0x27, 0xbc, 0x23, 0x99, 0xec, 0xbd, 0x63, 0x3f, 0x96, 0xbe, 0xf8, 0x8d, 0x54, 0xbd, 0xca, 0xbe, 0xa8, 0x3d, 0x5b, 0x4b, 0x81, 0xbc, 0xc8, 0xba, 0xce, 0xbd, 0x3b, 0xef, 0xde, 0x3d, 0x26, 0xa8, 0x84, 0x3c, 0xfb, 0xcb, 0x36, 0xbd, 0x16, 0x9d, 0xa3, 0xbe, 0x51, 0x42, 0xe4, 0x3c, 0x75, 0x9c, 0x48, 0xbe, 0x3a, 0x8e, 0x88, 0x3e, 0x26, 0x58, 0x70, 0x3b, 0xc5, 0xd7, 0x1e, 0xbe, 0x79, 0xb2, 0x1c, 0xbe, 0x8a, 0xb8, 0x0c, 0x3f, 0x55, 0x6a, 0xa4, 0xbe, 0x22, 0xc7, 0x6c, 0xbf, 0x1b, 0xa6, 0x8d, 0x3d, 0x8b, 0x6c, 0x81, 0xbd, 0xc4, 0xb9, 0x82, 0xbe, 0xea, 0x88, 0x7d, 0xbe, 0xd3, 0x60, 0x80, 0x3d, 0xe8, 0x04, 0x03, 0xbe, 0x8f, 0xf3, 0x31, 0x3d, 0x48, 0x86, 0x15, 0x3d, 0x30, 0x64, 0x85, 0x3b, 0xbb, 0x32, 0x7a, 0xbe, 0xa9, 0x51, 0xb9, 0x3e, 0xf2, 0x76, 0x4c, 0x3e, 0x63, 0xd6, 0x71, 0xbf, 0xb3, 0x60, 0xe4, 0xbe, 0x21, 0x83, 0x0d, 0xbf, 0xa3, 0xf1, 0xc6, 0xbd, 0x07, 0xdb, 0x06, 0x3e, 0xa4, 0x14, 0xf1, 0x3e, 0x91, 0x99, 0xe2, 0xbd, 0xbc, 0x9c, 0x1a, 0xbe, 0xe1, 0x48, 0xf8, 0x3e, 0xdd, 0xac, 0x8a, 0x3e, 0x17, 0x9c, 0x79, 0xbf, 0x66, 0xfc, 0xdf, 0xbe, 0xe9, 0xf7, 0x27, 0xbf, 0x2c, 0x3e, 0x69, 0xbc, 0x04, 0x6a, 0x33, 0x3b, 0x2f, 0x65, 0x57, 0x3c, 0xd9, 0x0e, 0x2d, 0xbd, 0x6e, 0xbd, 0x24, 0xbb, 0xfe, 0xb4, 0x2a, 0xbd, 0xfc, 0x75, 0xa8, 0xbd, 0xb3, 0x30, 0xa7, 0x3d, 0x3b, 0xd5, 0x7d, 0x3c, 0x9c, 0x6c, 0xa5, 0xbd, 0x69, 0xc0, 0xb6, 0xbe, 0x4f, 0x91, 0x63, 0x3e, 0x8d, 0x34, 0x01, 0x3e, 0x3f, 0x9d, 0xa3, 0x3e, 0x92, 0xbe, 0x11, 0xbe, 0x3e, 0x6a, 0xbb, 0xbd, 0x36, 0x5b, 0x29, 0xbd, 0xb6, 0x11, 0x0d, 0xbd, 0x34, 0xcf, 0xfb, 0xbc, 0xa0, 0x46, 0x6b, 0xbd, 0x71, 0x51, 0x4b, 0xbe, 0xf3, 0x8c, 0x39, 0x3d, 0x2c, 0x5e, 0x67, 0x3e, 0xe0, 0xe7, 0xa8, 0xbd, 0x05, 0x94, 0xeb, 0xbe, 0x88, 0xfa, 0xa2, 0x3d, 0x5b, 0x0f, 0x7f, 0xbf, 0x70, 0xe4, 0x3f, 0x3f, 0x5f, 0xcf, 0xa9, 0x3c, 0x76, 0xf0, 0xbf, 0xbf, 0x80, 0x6c, 0x8f, 0xbc, 0xed, 0xf2, 0xab, 0xbd, 0x70, 0x49, 0x18, 0xbe, 0x7b, 0xa5, 0x13, 0xbe, 0x40, 0xf7, 0x9f, 0x3b, 0x69, 0xf2, 0x98, 0x3e, 0x80, 0xdd, 0xb4, 0x3d, 0x96, 0xeb, 0x8b, 0xbe, 0x59, 0x14, 0xda, 0xbf, 0x2e, 0xe8, 0xd9, 0xbc, 0x1e, 0x33, 0xee, 0xbc, 0x5e, 0xee, 0xa7, 0x3d, 0xf8, 0x82, 0x38, 0x3e, 0x0e, 0x2b, 0xa9, 0x3c, 0x08, 0xd1, 0xc7, 0xbd, 0x8f, 0x73, 0x8c, 0x3e, 0x89, 0x05, 0x92, 0x3e, 0x22, 0x1a, 0x8a, 0xbf, 0xeb, 0x02, 0x76, 0xbe, 0x22, 0x87, 0x16, 0xbf, 0xa3, 0xd3, 0x89, 0x3e, 0x12, 0xb9, 0x0b, 0x3e, 0xc2, 0x1b, 0x92, 0xbe, 0xde, 0x71, 0x38, 0xbe, 0x70, 0xc0, 0x39, 0x3c, 0xa5, 0xf7, 0xe8, 0x3d, 0x5b, 0x20, 0xd4, 0xbf, 0xf2, 0xf7, 0x9c, 0x3e, 0xe5, 0xcd, 0x38, 0xbe, 0xd3, 0x4a, 0x05, 0xbe, 0x8f, 0x09, 0xc7, 0xbe, 0xb4, 0x37, 0x8b, 0x3e, 0x19, 0x4d, 0x22, 0x3e, 0xe3, 0xd4, 0xbc, 0x3e, 0x56, 0x49, 0x18, 0xbe, 0xf6, 0xb7, 0x7f, 0xbe, 0xaa, 0xeb, 0x6e, 0xbd, 0xba, 0xed, 0x39, 0xbe, 0x3c, 0xdb, 0x9d, 0xbc, 0xfd, 0x52, 0x3b, 0x3d, 0xea, 0x8e, 0x06, 0x3e, 0x12, 0x7d, 0x02, 0x3d, 0x16, 0x64, 0x21, 0xbf, 0x38, 0xec, 0xc7, 0xbd, 0xd2, 0x22, 0x3f, 0x3e, 0x84, 0xfd, 0x16, 0xbe, 0x69, 0x54, 0x41, 0xbe, 0x47, 0x5d, 0x10, 0x3f, 0x47, 0x6e, 0x8a, 0xbe, 0x64, 0xb9, 0x85, 0xbf, 0x2d, 0x04, 0x0a, 0x3e, 0x6c, 0xba, 0x49, 0x3e, 0x00, 0xcc, 0xcb, 0xbe, 0x26, 0xde, 0x7d, 0xbf, 0xbd, 0xef, 0xdb, 0xbd, 0x17, 0x70, 0x7c, 0xbf, 0xb4, 0x85, 0x89, 0x3c, 0x7b, 0x3f, 0x08, 0xbe, 0x97, 0x77, 0x04, 0x3e, 0x3f, 0x7c, 0xcc, 0xbc, 0x7b, 0xdd, 0xda, 0x3e, 0xa5, 0xd5, 0x79, 0x3e, 0x8f, 0x53, 0x6d, 0xbf, 0xf3, 0xa6, 0x06, 0xbf, 0x18, 0x42, 0x30, 0xbf, 0xcd, 0xad, 0x8b, 0xbe, 0x87, 0x75, 0xb9, 0x3e, 0xc7, 0xb9, 0x5f, 0x3e, 0x96, 0x2f, 0x30, 0xbf, 0x1f, 0x4e, 0xbe, 0xbe, 0xc4, 0x9e, 0x14, 0xbf, 0x8b, 0x59, 0xfc, 0x3e, 0xa2, 0x11, 0xd9, 0xbe, 0x57, 0x10, 0xf2, 0xbe, 0x3f, 0xad, 0xb3, 0x3d, 0x2e, 0x5d, 0x7b, 0x3c, 0x4e, 0x39, 0xc6, 0xbd, 0x04, 0x0e, 0x05, 0xbd, 0x0e, 0x9f, 0x47, 0xbe, 0x2b, 0x0f, 0x19, 0x3c, 0x6f, 0x26, 0x63, 0xbe, 0xf1, 0x4a, 0x6f, 0xbe, 0x9e, 0xa4, 0x58, 0x3f, 0x7c, 0xa2, 0xcd, 0xbd, 0x86, 0xa8, 0x78, 0xbf, 0x72, 0x4b, 0xdc, 0xbe, 0x28, 0x83, 0x8b, 0x3e, 0xff, 0x21, 0x79, 0x3e, 0x5f, 0xce, 0xd0, 0x3e, 0xe6, 0x60, 0x14, 0xbe, 0xa8, 0x6b, 0xbc, 0x3e, 0xbc, 0xb6, 0xc1, 0x3e, 0x92, 0x81, 0x9a, 0xbf, 0x4b, 0x11, 0xb9, 0xbe, 0x7a, 0xb4, 0x54, 0xbf, 0xfe, 0x28, 0xa4, 0xbd, 0x02, 0xfb, 0xbf, 0xbb, 0x56, 0xdd, 0x08, 0x3d, 0xdb, 0x58, 0x64, 0x3d, 0x6b, 0x6d, 0xb7, 0xbc, 0xa7, 0x3e, 0x9d, 0xbe, 0x72, 0xeb, 0xb3, 0x3e, 0x10, 0x2a, 0xee, 0x3b, 0x55, 0x2a, 0x6d, 0xbe, 0xdb, 0x03, 0x32, 0xbf, 0x50, 0x4b, 0x3c, 0xbe, 0xd7, 0xc0, 0x8e, 0x3e, 0x8c, 0x89, 0x01, 0xbe, 0x82, 0xa0, 0x2b, 0xbe, 0xe4, 0xdd, 0x14, 0xbf, 0x76, 0xe8, 0x64, 0xbd, 0x9a, 0x60, 0x8b, 0xbc, 0xa5, 0x29, 0x2f, 0x3d, 0x42, 0x05, 0x82, 0x3d, 0x0e, 0xf7, 0xd5, 0xbc, 0x39, 0xa3, 0x05, 0xbc, 0x5b, 0xab, 0x1e, 0x3d, 0xd2, 0xa7, 0x86, 0xbd, 0xb6, 0x61, 0x83, 0xbd, 0x06, 0x7c, 0x44, 0xbc, 0x17, 0x4d, 0x06, 0x3c, 0xf7, 0x9a, 0xe4, 0x3c, 0x39, 0x23, 0x4d, 0xbe, 0xd5, 0xba, 0x17, 0xbd, 0x87, 0xaf, 0x2c, 0x3d, 0x2f, 0x4d, 0x14, 0x3c, 0xac, 0xd8, 0x55, 0xbe, 0x63, 0xee, 0xc4, 0xbc, 0xcf, 0x7f, 0x36, 0xbd, 0x0b, 0x0e, 0x9e, 0x3c, 0xa6, 0x22, 0x96, 0xbd, 0x19, 0x5b, 0xcb, 0xbb, 0x7e, 0x41, 0x2e, 0x3e, 0xb4, 0x07, 0x8b, 0x3d, 0x04, 0xd9, 0x0f, 0xbe, 0xe3, 0x7c, 0x90, 0x3e, 0x79, 0x1e, 0xa3, 0x3e, 0xe7, 0x0c, 0x2a, 0xbf, 0xd6, 0x7f, 0x36, 0xbf, 0x06, 0x7e, 0x11, 0xbc, 0xc7, 0x6f, 0xb2, 0x3e, 0xc1, 0xb3, 0x32, 0x3e, 0x2c, 0x24, 0xfa, 0xbe, 0x06, 0x2d, 0x56, 0xbe, 0xf3, 0xea, 0xcc, 0x3d, 0x41, 0xde, 0xc5, 0x3d, 0xab, 0x2d, 0xfd, 0x3d, 0x10, 0xd0, 0xc1, 0xbe, 0x44, 0xb8, 0xef, 0xbd, 0x7f, 0x1e, 0x83, 0xbc, 0xa2, 0x5e, 0x5e, 0xbe, 0x04, 0x85, 0xaa, 0xbc, 0x28, 0x63, 0x9f, 0x3e, 0xfc, 0x5f, 0x7f, 0xbd, 0x18, 0x8d, 0xf0, 0xbd, 0x60, 0x48, 0x85, 0xbd, 0x1b, 0x66, 0x7b, 0x3e, 0xad, 0x5c, 0x84, 0xbf, 0xa8, 0xc6, 0x80, 0xbd, 0xdc, 0x5b, 0xcc, 0xbe, 0xb9, 0xde, 0x9c, 0x3e, 0x86, 0xa8, 0x17, 0x3e, 0x5d, 0x69, 0xb3, 0xbe, 0x2b, 0x25, 0x0a, 0xbe, 0x60, 0x77, 0x71, 0x3e, 0x8c, 0xdd, 0xdf, 0xbd, 0xa4, 0x71, 0x35, 0xbe, 0x06, 0xa3, 0x79, 0xbd, 0xac, 0xde, 0x74, 0x3d, 0xe8, 0x4b, 0x43, 0xbd, 0x2f, 0x7a, 0x14, 0xbe, 0xb9, 0xa1, 0x23, 0x3b, 0x28, 0xd4, 0x74, 0x3e, 0xb7, 0x4a, 0x42, 0xbe, 0x57, 0x8a, 0xd6, 0xbd, 0xd0, 0xa8, 0x9c, 0xbe, 0x62, 0xb0, 0xab, 0x3e, 0x48, 0xa5, 0x81, 0x3c, 0x21, 0xfa, 0x7f, 0xbe, 0xdd, 0xb7, 0x2e, 0xbf, 0xf6, 0xf9, 0xff, 0xff, 0x10, 0x00, 0x00, 0x00, 0x06, 0x00, 0x00, 0x00, 0x14, 0x00, 0x00, 0x00, 0x34, 0x00, 0x00, 0x00, 0x02, 0x00, 0x00, 0x00, 0x00, 0x01, 0x00, 0x00, 0x05, 0x00, 0x00, 0x00, 0x1c, 0x00, 0x00, 0x00, 0x53, 0x65, 0x71, 0x75, 0x65, 0x6e, 0x74, 0x69, 0x61, 0x6c, 0x2d, 0x4e, 0x4e, 0x2f, 0x64, 0x65, 0x6e, 0x73, 0x65, 0x5f, 0x37, 0x2f, 0x4d, 0x61, 0x74, 0x4d, 0x75, 0x6c, 0x00, 0x00, 0x00, 0x00, 0x74, 0xf9, 0xff, 0xff, 0x66, 0xfa, 0xff, 0xff, 0x04, 0x00, 0x00, 0x00, 0x64, 0x00, 0x00, 0x00, 0x84, 0xfc, 0x9b, 0x3f, 0x4f, 0xe3, 0xbc, 0x3e, 0x05, 0x12, 0xb1, 0xbe, 0x8a, 0xe4, 0xa9, 0x3e, 0x09, 0x17, 0x32, 0x3e, 0xa0, 0x95, 0x12, 0x3f, 0x30, 0x92, 0x06, 0x3f, 0x4a, 0x5c, 0x1f, 0xbc, 0xd0, 0x23, 0x86, 0xbf, 0xe1, 0x2f, 0x37, 0x3f, 0xa8, 0x92, 0x51, 0xbf, 0xd7, 0x2f, 0x92, 0x3f, 0x6e, 0x55, 0xcf, 0x3c, 0xf1, 0x7f, 0x8b, 0xbd, 0x10, 0xa3, 0x1b, 0xbf, 0x56, 0x8b, 0x92, 0xbe, 0x3f, 0xf4, 0x86, 0xbf, 0x18, 0xb3, 0x1b, 0x3e, 0x5c, 0x0f, 0xdd, 0x3e, 0xb8, 0xe6, 0x2d, 0x3f, 0xdc, 0xc8, 0x0e, 0xc0, 0xf7, 0xd9, 0x99, 0xbf, 0x59, 0xdb, 0xfa, 0x3e, 0xa3, 0x93, 0x19, 0xbe, 0x0e, 0xbf, 0x07, 0x3f, 0xae, 0xfa, 0xff, 0xff, 0x10, 0x00, 0x00, 0x00, 0x05, 0x00, 0x00, 0x00, 0x14, 0x00, 0x00, 0x00, 0x34, 0x00, 0x00, 0x00, 0x02, 0x00, 0x00, 0x00, 0x05, 0x00, 0x00, 0x00, 0x05, 0x00, 0x00, 0x00, 0x1c, 0x00, 0x00, 0x00, 0x53, 0x65, 0x71, 0x75, 0x65, 0x6e, 0x74, 0x69, 0x61, 0x6c, 0x2d, 0x4e, 0x4e, 0x2f, 0x64, 0x65, 0x6e, 0x73, 0x65, 0x5f, 0x36, 0x2f, 0x4d, 0x61, 0x74, 0x4d, 0x75, 0x6c, 0x00, 0x00, 0x00, 0x00, 0x2c, 0xfa, 0xff, 0xff, 0x1e, 0xfb, 0xff, 0xff, 0x04, 0x00, 0x00, 0x00, 0x0c, 0x00, 0x00, 0x00, 0xf2, 0x37, 0xf2, 0x3e, 0x4b, 0xdd, 0x57, 0xbe, 0xb4, 0xbd, 0x0e, 0xbe, 0x0e, 0xfb, 0xff, 0xff, 0x10, 0x00, 0x00, 0x00, 0x04, 0x00, 0x00, 0x00, 0x10, 0x00, 0x00, 0x00, 0x48, 0x00, 0x00, 0x00, 0x01, 0x00, 0x00, 0x00, 0x03, 0x00, 0x00, 0x00, 0x35, 0x00, 0x00, 0x00, 0x53, 0x65, 0x71, 0x75, 0x65, 0x6e, 0x74, 0x69, 0x61, 0x6c, 0x2d, 0x4e, 0x4e, 0x2f, 0x64, 0x65, 0x6e, 0x73, 0x65, 0x5f, 0x38, 0x2f, 0x42, 0x69, 0x61, 0x73, 0x41, 0x64, 0x64, 0x2f, 0x52, 0x65, 0x61, 0x64, 0x56, 0x61, 0x72, 0x69, 0x61, 0x62, 0x6c, 0x65, 0x4f, 0x70, 0x2f, 0x72, 0x65, 0x73, 0x6f, 0x75, 0x72, 0x63, 0x65, 0x00, 0x00, 0x00, 0xa0, 0xfa, 0xff, 0xff, 0x92, 0xfb, 0xff, 0xff, 0x04, 0x00, 0x00, 0x00, 0x00, 0x04, 0x00, 0x00, 0x07, 0x04, 0x36, 0x3e, 0x3d, 0xa6, 0x78, 0x3e, 0x9d, 0x57, 0x68, 0x3d, 0x35, 0x08, 0x9b, 0x3e, 0xd7, 0x7a, 0xcb, 0x3d, 0x4b, 0x4b, 0x98, 0xbe, 0xdf, 0xe5, 0xb0, 0xbe, 0xe5, 0x0d, 0xed, 0xbd, 0xde, 0x43, 0x20, 0xbe, 0xab, 0x7d, 0x82, 0x3e, 0x27, 0x09, 0x0c, 0xbc, 0x41, 0x59, 0xa0, 0xbe, 0x69, 0x62, 0x6b, 0x3e, 0xf2, 0x2d, 0xae, 0xbe, 0x14, 0x3a, 0x01, 0x3e, 0xd6, 0x3a, 0xb5, 0x3e, 0xe1, 0x68, 0xb0, 0xbd, 0x21, 0xc9, 0xe5, 0xbc, 0xe5, 0x6b, 0x3f, 0x3e, 0x9e, 0x2a, 0x1e, 0x3e, 0x31, 0xf3, 0x95, 0x3e, 0xff, 0x50, 0xbf, 0x3e, 0x85, 0xff, 0x9f, 0xbe, 0x30, 0xdf, 0x78, 0xbe, 0x5c, 0xf4, 0x9f, 0xbe, 0x16, 0xcb, 0x25, 0x3d, 0xe3, 0x79, 0xf8, 0xbd, 0x9d, 0x8d, 0x67, 0x3e, 0x9e, 0x6e, 0xb1, 0xbe, 0x7d, 0xd8, 0x8e, 0x3e, 0xad, 0xd3, 0xa6, 0x3e, 0x11, 0xdd, 0x64, 0x3e, 0xdd, 0x85, 0x74, 0x3e, 0x9b, 0x58, 0x5a, 0xbd, 0xb4, 0x69, 0x11, 0xbe, 0x32, 0xb5, 0x88, 0xbe, 0x11, 0xea, 0x8d, 0x3e, 0xb7, 0xa1, 0x55, 0xbe, 0xa9, 0x4b, 0x9b, 0xbe, 0x71, 0xc7, 0x93, 0x3e, 0x21, 0xde, 0x9d, 0x3e, 0x2a, 0xa4, 0xfd, 0xbd, 0x00, 0x00, 0x00, 0x00, 0x01, 0x49, 0x66, 0x3e, 0x0b, 0xe1, 0x9d, 0xbe, 0xf0, 0x95, 0x95, 0x3e, 0x1a, 0x29, 0x91, 0xbe, 0x55, 0xe5, 0x9d, 0x3e, 0x40, 0x73, 0x64, 0x3e, 0xb9, 0x24, 0x2b, 0xbe, 0x00, 0x00, 0x00, 0x00, 0x37, 0x76, 0x93, 0x3e, 0x68, 0xa2, 0x51, 0xbe, 0xd8, 0x5b, 0x8d, 0x3e, 0x00, 0x00, 0x00, 0x00, 0x56, 0xfa, 0x5c, 0x3e, 0x0b, 0x42, 0x11, 0x3e, 0x26, 0xb8, 0x4c, 0xbe, 0x00, 0x00, 0x00, 0x00, 0xff, 0xce, 0x8e, 0xbd, 0xca, 0xb2, 0x60, 0xbc, 0x52, 0xd3, 0x8c, 0x3d, 0x47, 0x29, 0xeb, 0x3e, 0x8e, 0xac, 0x69, 0x3e, 0xb1, 0xf9, 0xb6, 0xbd, 0x4c, 0xb4, 0x14, 0xbe, 0xb0, 0x06, 0xcb, 0xbd, 0x06, 0x00, 0xdb, 0xbc, 0x36, 0xb3, 0x97, 0x3e, 0x73, 0xa1, 0x8b, 0x3e, 0x87, 0xf8, 0xc2, 0x3e, 0x62, 0x62, 0x6c, 0x3f, 0xd8, 0xe5, 0xb5, 0xbd, 0xde, 0x9d, 0xfa, 0x3e, 0x1c, 0x84, 0xe1, 0xbc, 0x6f, 0xb1, 0x8f, 0xbc, 0x7f, 0x12, 0xa0, 0xbe, 0x00, 0x00, 0x00, 0x00, 0x84, 0x3d, 0x16, 0x3e, 0x8d, 0x39, 0xd7, 0xba, 0x45, 0xf1, 0xba, 0x3e, 0x87, 0x88, 0x86, 0xbe, 0x32, 0x86, 0x8c, 0xbe, 0xe4, 0x94, 0xa6, 0xbd, 0x35, 0xce, 0x8c, 0x3d, 0xe5, 0xf9, 0xc8, 0xbc, 0x2a, 0x4d, 0x62, 0x3d, 0xcf, 0xac, 0x2a, 0x3f, 0xad, 0x72, 0x5f, 0x3e, 0x87, 0x44, 0x10, 0x3e, 0x2f, 0xbf, 0x19, 0xbe, 0x82, 0x57, 0x74, 0x3e, 0x64, 0x56, 0x83, 0xbe, 0x00, 0x00, 0x00, 0x00, 0xe2, 0x65, 0x34, 0xbe, 0xcf, 0x08, 0x33, 0xbe, 0x22, 0x6c, 0x13, 0xbe, 0x46, 0xb6, 0x8b, 0x3e, 0x4f, 0x83, 0xa7, 0xbb, 0xb4, 0x0d, 0x44, 0x3c, 0x1f, 0xb8, 0x3e, 0x3e, 0x00, 0x00, 0x00, 0x00, 0xf1, 0x92, 0x75, 0x3e, 0x81, 0x21, 0x3b, 0x3e, 0x31, 0x81, 0x3b, 0xbe, 0xd0, 0x60, 0x0f, 0xbe, 0x7f, 0x34, 0xbe, 0xbc, 0x89, 0x7e, 0x09, 0x3e, 0x0c, 0xbc, 0x59, 0xbe, 0x2e, 0xb9, 0x89, 0x3e, 0xa5, 0xf4, 0xa4, 0x3e, 0x42, 0xda, 0x86, 0xbd, 0x8c, 0x26, 0x81, 0xbc, 0x2a, 0xf8, 0x89, 0x3e, 0xcf, 0x7d, 0x26, 0x3d, 0x53, 0xe8, 0x8d, 0xbe, 0x83, 0x12, 0xb7, 0x3e, 0x51, 0x60, 0x3f, 0x3e, 0xf7, 0x2d, 0x5f, 0x3e, 0x7a, 0x2f, 0xb5, 0x3e, 0x2f, 0xdf, 0xab, 0x3e, 0xb6, 0xe1, 0x8c, 0x3e, 0xd8, 0xb5, 0xe8, 0x3d, 0xa2, 0x95, 0x7a, 0xbb, 0xac, 0xc5, 0xab, 0xbe, 0x3e, 0xce, 0x32, 0xbd, 0xe2, 0x61, 0xb9, 0xbe, 0x12, 0x9a, 0x0d, 0xbe, 0x43, 0x79, 0x2f, 0xbe, 0x7e, 0x14, 0x9e, 0xbe, 0xb3, 0x15, 0x51, 0xbd, 0x69, 0x73, 0xb4, 0xbc, 0x88, 0x4b, 0x06, 0xbe, 0x0f, 0x29, 0x88, 0xbe, 0xd7, 0xeb, 0x97, 0x3e, 0xba, 0x28, 0x83, 0x3e, 0x46, 0x26, 0x61, 0x3e, 0x68, 0x09, 0x10, 0x3e, 0x8b, 0x7b, 0x6b, 0x3e, 0xe2, 0xb1, 0x28, 0xbe, 0xe6, 0xf3, 0x8b, 0x3e, 0x57, 0x91, 0x6d, 0x3e, 0x0e, 0xf8, 0x0f, 0xbd, 0x58, 0x27, 0x8e, 0x3e, 0x3e, 0x94, 0x91, 0x3e, 0xef, 0x73, 0x8f, 0xbc, 0x27, 0x22, 0x85, 0xbd, 0x59, 0x7d, 0x99, 0x3e, 0xb9, 0xe8, 0x5e, 0x3e, 0xca, 0xda, 0x06, 0xb9, 0x3b, 0x9b, 0x84, 0x3e, 0x62, 0x95, 0x72, 0x3e, 0x0a, 0xf6, 0xaa, 0x3e, 0xdb, 0xb3, 0x9d, 0xbe, 0x77, 0x06, 0x6c, 0xbd, 0x53, 0x8d, 0xa1, 0xbe, 0xf2, 0x24, 0xc8, 0xbb, 0xd5, 0xec, 0x53, 0x3e, 0xa4, 0x82, 0xec, 0x3d, 0xdc, 0x99, 0x4f, 0x3e, 0xf1, 0xba, 0x8f, 0x3e, 0x90, 0x05, 0x2f, 0xbc, 0x37, 0x18, 0x8c, 0x3e, 0xd8, 0xbb, 0x8c, 0xbd, 0x05, 0x62, 0x60, 0xbc, 0x48, 0x8b, 0x01, 0x3f, 0x34, 0x1a, 0x4a, 0x3d, 0x47, 0x2f, 0xa8, 0xbe, 0x07, 0x61, 0xbb, 0xbd, 0x80, 0x41, 0xca, 0xbe, 0x00, 0x00, 0x00, 0x00, 0x3e, 0x7c, 0x2d, 0xbe, 0x2a, 0xa7, 0x0f, 0x3f, 0xa9, 0x03, 0x0e, 0x3e, 0xba, 0xd9, 0x3c, 0xbe, 0xfc, 0x87, 0x32, 0xbb, 0xc5, 0x13, 0x91, 0x3e, 0xc4, 0x2f, 0x8f, 0x3d, 0x8c, 0x6e, 0x7c, 0x3e, 0xd7, 0x84, 0x82, 0x3e, 0x29, 0xed, 0x42, 0x3e, 0x57, 0x87, 0x77, 0x3e, 0xc0, 0xe8, 0x2d, 0x3d, 0xe2, 0x3a, 0x9a, 0x3e, 0xe4, 0x43, 0xc5, 0x3e, 0xca, 0x4d, 0x99, 0x3e, 0xc2, 0x2e, 0x81, 0x3e, 0x0c, 0x2d, 0xbb, 0x3e, 0xa8, 0x11, 0x97, 0x3e, 0xf4, 0x85, 0x1d, 0xbd, 0x8b, 0xf8, 0x3c, 0x3e, 0xc4, 0x89, 0x4c, 0xbc, 0x23, 0x9e, 0x58, 0xbd, 0x00, 0x00, 0x00, 0x00, 0xca, 0x30, 0xb7, 0x3d, 0x35, 0x38, 0xbb, 0xbc, 0xaf, 0xdd, 0xf7, 0xbc, 0x0c, 0x69, 0x20, 0xbe, 0x57, 0x63, 0xbc, 0x3d, 0xa0, 0x07, 0xb4, 0x3e, 0x49, 0x0f, 0xf0, 0x3d, 0xf1, 0xeb, 0xad, 0xbe, 0xcb, 0xc0, 0x37, 0xbe, 0x3c, 0xbb, 0x07, 0x3e, 0xc7, 0x8d, 0x69, 0x3e, 0x93, 0xe2, 0xc2, 0xbc, 0x13, 0x91, 0xc8, 0xbd, 0x80, 0xc9, 0x9f, 0x3e, 0xbd, 0x76, 0x87, 0x3e, 0x8b, 0xe1, 0xe5, 0xbd, 0x11, 0x86, 0x95, 0x3d, 0x5c, 0x65, 0x7d, 0x3e, 0xb1, 0x8f, 0x40, 0xbe, 0x67, 0xb8, 0x7f, 0x3e, 0x9f, 0x50, 0x54, 0xbe, 0xba, 0xca, 0x33, 0xbd, 0xef, 0xd1, 0x92, 0x3e, 0x00, 0x00, 0x00, 0x00, 0xe9, 0x07, 0x47, 0x3e, 0xf7, 0x69, 0xc9, 0x3e, 0x00, 0x00, 0x00, 0x00, 0x24, 0x2a, 0x66, 0xbe, 0xf8, 0xce, 0x08, 0xbe, 0xbe, 0x88, 0x5a, 0x3e, 0xa5, 0x79, 0x93, 0xbe, 0xd2, 0xef, 0x67, 0x3d, 0xe4, 0xb9, 0x97, 0x3e, 0x06, 0x17, 0x40, 0x3e, 0xfb, 0xce, 0xb0, 0x3d, 0x64, 0x83, 0x8f, 0x3e, 0xea, 0x94, 0x1e, 0xbe, 0xcc, 0xf0, 0x32, 0x3f, 0x90, 0x3a, 0x94, 0x3e, 0x1a, 0xab, 0x1f, 0xbc, 0xca, 0xfd, 0x7d, 0x3d, 0x4d, 0x53, 0x2a, 0xbe, 0xed, 0x36, 0xd9, 0x3e, 0xff, 0x29, 0xac, 0x3e, 0x8d, 0x99, 0x98, 0x3e, 0x0b, 0x65, 0x90, 0xbd, 0x56, 0x7a, 0x6d, 0x3e, 0x4b, 0xec, 0x3b, 0x3e, 0x41, 0xc2, 0xdf, 0xbc, 0x07, 0xb1, 0x3f, 0xbd, 0xe0, 0xc5, 0xd5, 0xbd, 0xa3, 0x73, 0xb7, 0xbd, 0x8a, 0x8a, 0x8c, 0xbb, 0x01, 0x78, 0x58, 0xbe, 0x25, 0x8b, 0x95, 0xbe, 0x6c, 0x74, 0x20, 0xbe, 0x87, 0xd2, 0x76, 0x3e, 0xaa, 0xb2, 0xe4, 0x3d, 0x64, 0x74, 0xa7, 0xbe, 0xd6, 0xb0, 0xda, 0xbc, 0x70, 0x46, 0x01, 0xbe, 0x97, 0xd6, 0x6c, 0x3e, 0x76, 0xff, 0xff, 0xff, 0x10, 0x00, 0x00, 0x00, 0x03, 0x00, 0x00, 0x00, 0x10, 0x00, 0x00, 0x00, 0x4c, 0x00, 0x00, 0x00, 0x01, 0x00, 0x00, 0x00, 0x00, 0x01, 0x00, 0x00, 0x35, 0x00, 0x00, 0x00, 0x53, 0x65, 0x71, 0x75, 0x65, 0x6e, 0x74, 0x69, 0x61, 0x6c, 0x2d, 0x4e, 0x4e, 0x2f, 0x64, 0x65, 0x6e, 0x73, 0x65, 0x5f, 0x37, 0x2f, 0x42, 0x69, 0x61, 0x73, 0x41, 0x64, 0x64, 0x2f, 0x52, 0x65, 0x61, 0x64, 0x56, 0x61, 0x72, 0x69, 0x61, 0x62, 0x6c, 0x65, 0x4f, 0x70, 0x2f, 0x72, 0x65, 0x73, 0x6f, 0x75, 0x72, 0x63, 0x65, 0x00, 0x00, 0x00, 0x04, 0x00, 0x06, 0x00, 0x04, 0x00, 0x00, 0x00, 0x00, 0x00, 0x06, 0x00, 0x08, 0x00, 0x04, 0x00, 0x06, 0x00, 0x00, 0x00, 0x04, 0x00, 0x00, 0x00, 0x14, 0x00, 0x00, 0x00, 0x44, 0xf1, 0x6c, 0x3d, 0x3b, 0x3c, 0xac, 0x3d, 0x12, 0x9b, 0x3d, 0xbb, 0xa0, 0x1a, 0x45, 0x3e, 0xda, 0x96, 0x65, 0x3e, 0x00, 0x00, 0x0e, 0x00, 0x14, 0x00, 0x04, 0x00, 0x00, 0x00, 0x08, 0x00, 0x0c, 0x00, 0x10, 0x00, 0x0e, 0x00, 0x00, 0x00, 0x10, 0x00, 0x00, 0x00, 0x02, 0x00, 0x00, 0x00, 0x10, 0x00, 0x00, 0x00, 0x48, 0x00, 0x00, 0x00, 0x01, 0x00, 0x00, 0x00, 0x05, 0x00, 0x00, 0x00, 0x35, 0x00, 0x00, 0x00, 0x53, 0x65, 0x71, 0x75, 0x65, 0x6e, 0x74, 0x69, 0x61, 0x6c, 0x2d, 0x4e, 0x4e, 0x2f, 0x64, 0x65, 0x6e, 0x73, 0x65, 0x5f, 0x36, 0x2f, 0x42, 0x69, 0x61, 0x73, 0x41, 0x64, 0x64, 0x2f, 0x52, 0x65, 0x61, 0x64, 0x56, 0x61, 0x72, 0x69, 0x61, 0x62, 0x6c, 0x65, 0x4f, 0x70, 0x2f, 0x72, 0x65, 0x73, 0x6f, 0x75, 0x72, 0x63, 0x65, 0x00, 0x00, 0x00, 0xa0, 0xff, 0xff, 0xff, 0x14, 0x00, 0x18, 0x00, 0x04, 0x00, 0x00, 0x00, 0x08, 0x00, 0x0c, 0x00, 0x10, 0x00, 0x00, 0x00, 0x00, 0x00, 0x14, 0x00, 0x14, 0x00, 0x00, 0x00, 0x14, 0x00, 0x00, 0x00, 0x01, 0x00, 0x00, 0x00, 0x18, 0x00, 0x00, 0x00, 0x34, 0x00, 0x00, 0x00, 0x24, 0x00, 0x00, 0x00, 0x02, 0x00, 0x00, 0x00, 0x01, 0x00, 0x00, 0x00, 0x05, 0x00, 0x00, 0x00, 0x0d, 0x00, 0x00, 0x00, 0x64, 0x65, 0x6e, 0x73, 0x65, 0x5f, 0x36, 0x5f, 0x69, 0x6e, 0x70, 0x75, 0x74, 0x00, 0x00, 0x00, 0x02, 0x00, 0x00, 0x00, 0xff, 0xff, 0xff, 0xff, 0x05, 0x00, 0x00, 0x00, 0xfc, 0xff, 0xff, 0xff, 0x04, 0x00, 0x04, 0x00, 0x04, 0x00, 0x00, 0x00};
const int model_data_len = 11084;